#version: 0.2
e s
Ġ d
Ġ l
e n
o n
Ã ©
č Ċ
Ġ p
Ġ c
Ġ s
a n
o u
q u
r e
i s
t e
Ġ a
Ġd e
t i
l e
i n
e r
Ġ m
en t
u n
Ġ čĊ
e t
a r
o i
Ġl e
o r
Ġl a
o m
Ġ t
Ġ qu
u r
Ġ f
i t
Ġ v
Ġ et
u s
Ġ un
ou r
es t
a s
Ġl es
i l
Ġ en
Ġd es
Ġ n
Ġ :
ti on
r a
m e
e l
Ġ L
a l
qu e
Ġ Ã
Ġ b
i e
a u
Ġ C
Ġc om
m ent
Ġ ?
Ġ r
Ġ A
an t
Ġ (
c e
Ġd u
c h
l i
s e
Ã ¨
e u
m p
r o
ĠÃ ł
Ġ g
an s
Ġp l
r i
n e
Ġ P
Ġp ar
Ġ E
Ġ j
r es
s i
v e
Ġqu i
o l
a is
Ġp our
Ġ T
Ġc on
a t
a g
Ġa u
a i
Ġ est
Ġ D
Ġ Ã©
Ġ re
Ġ S
d e
Ġ 1
Ġc h
a tion
Ġs i
a c
on t
Ġp o
Ġ B
te r
Ġ Â
c i
Ġpl us
r Ã©
l es
Ġ ou
u i
Ġd Ã©
Ġ e
Ġun e
Ġ G
Ġ M
eu x
Ġcom me
Ġc a
Ġs e
r an
Ġd ans
Ġp as
Ġ I
qu oi
Ġ in
a it
in e
a le
o t
x p
d i
mp le
b le
en d
Ġs t
f f
Ġ V
g e
Ġ te
Ġ Ġ
Ġ J
Ġ O
t Ã©
Ġ h
Ġqu e
p p
Ġs ur
â Ģ
en s
Ġd i
ch e
o g
Ġ N
Ã© e
it Ã©
Ġsi mple
Ġ R
Ġ on
a m
a in
u l
Ġr Ã©
Ġp ro
er s
li que
Ġv eux
an d
Ġv i
Ġ W
Ġ 2
m o
ve c
Ġpo te
o is
u is
Ġ il
Ġ H
t u
a b
Ġ F
Ġd is
xp lique
ou v
is te
Ġ1 9
ou s
an g
i m
Ġa vec
ĠL e
Ġc o
Ġm oi
ag e
ĠÂ »
Ġ -
a ti
o c
or d
il le
i que
Ġ ;
t es
on s
c es
p e
ur s
Ġs a
p h
Ġt u
âĢ Ļ
Ã© r
ai re
t re
v i
Ġcom p
ĠÂ «
el le
Ġcom m
Ġ |
qu es
Ġn on
es h
u x
or t
o s
ĠW esh
ĠT u
or s
u m
n Ã©
ĠP our
Ġ o
i c
) ,
ou t
Ġm on
n i
Ġt on
u e
Ġj e
e au
s t
Ġqu oi
se m
Ġc e
or m
Ġpour quoi
oi r
ou le
ĠG ui
z mo
un e
ĠE xplique
Ġst p
ĠV as
ĠPour quoi
ĠGui zmo
Ã¨ re
is t
n es
sem ble
Ġs ont
Ġt r
ĠJ e
Ġm o
ĠI l
Ġle ur
c tion
i r
Ġ2 0
er t
l is
Ġs on
Ġen semble
i v
m oi
i g
Ġ an
Ġp r
Ã §
us si
u t
Ġn om
on d
Ġe x
ti que
ĠL a
ĠC h
ĠA l
Ã© s
Ġa r
re t
a te
Ġm e
a p
Ġp rÃ©
Ġc ar
u it
Ġa ussi
ĠL es
d er
c t
m i
Ġa v
Ġj us
) .
au x
u re
Ã ª
Ã¨ s
Ġf ait
ol og
us e
ĠE n
Ġcon c
Ġs u
i en
Ġ ra
Ġn e
an ce
b re
ĠĠ ĠĠ
Ġa pp
â Ķ
en ce
in ce
Ġ K
Ġf ran
Ġc re
o y
in s
r oi
Ġp eu
ti n
si on
m es
Ã© ri
p ar
ĠÃ ī
ĠF ran
ent re
ĠO k
Ġ im
Ġ .
ĠÃ© t
Ġcomm un
o p
i on
Ġjus te
Ġ ,
en ti
u ti
Ġqu el
as y
Ġm ais
ar d
ĠÃ© g
ag ine
1 9
f Ã©r
Ġ U
en ces
Ġa l
Ġpl an
on ne
Ġf or
ĠA r
d Ã©
Ġc our
t s
ĠE asy
ĠAl ors
a y
ĠO n
l Ã©
is s
Ġ +
Ġs o
Ġs ac
oi re
Ġpar ti
l a
y p
Ã§ ais
Ġcre use
Ġim agine
Ġa c
Ġde ux
g n
Ġ k
âĶ Ģ
0 0
Ġp re
Ġau x
uti lis
i b
Ġ 3
Ġco ince
et te
Ġt ra
Ġconc ret
Ã© es
Ġfran Ã§ais
ro p
o d
Ġl ang
Ġp ens
ve au
at s
u b
Ġ y
Ġvi der
tu re
o re
Ġp uis
Ġqu and
Ġr es
Ġj our
Ġ| |
r on
Ġs y
ĠA n
Ġsa oule
Ġm om
Ġ i
te ment
Ġin ter
Ġp e
Ġp h
t h
r end
ĠT oi
ai ent
Ġpens es
r it
in g
Ġg Ã©
ai r
Ġmom ent
Ġ =
Ġp er
a d
Ġs ous
Ġm in
fÃ©r ences
a Ã
t res
Ġc er
al es
on n
o b
Ġdi re
h e
el les
ĠI n
ale ment
e c
i re
Ġm ar
Ã ¢
te ur
ĠL iste
oi t
ĠD is
Ġcommun es
s s
Ġ es
ation s
ot es
r ou
Ġ ter
Ġc ou
c u
ti f
ci p
Ġs er
Ġt out
Ġpre mi
i ff
v ant
i te
Ġ utilis
om m
t ra
Ġ entre
ĠP ar
ĠN otes
l an
u es
Ġ ont
Ġc ol
tion s
l le
r u
en ne
Ġb ou
ai res
ac c
âĶĢ âĶĢ
m b
f in
Ġs ans
Ġs uis
Ġf in
Ġre p
Ã ´
s ent
l o
Ġs es
Ġm et
Ġcon s
a z
u er
Ġm Ã©
a ce
h Ã©
is e
a ble
Ġt ou
ur es
ra ph
Ġmo ins
Ġ1 8
ĠFran ce
Ġcer veau
an ge
Ġs eu
ie u
Ġ or
a ine
li g
Ã¨ me
Ġ1 0
in t
Ġs ouv
ti c
Ġpeu t
m Ã©
Ġb as
Ġse c
e xplique
Ġs ui
om b
Ġpr in
Ġme me
t en
end ant
t r
ar i
om me
Ġb ien
ch es
a k
ĠgÃ© nÃ©
d es
on c
ment s
Ġn orm
Ġcomp rend
d uit
o le
Ġa p
Ġg ran
ĠÃ© tÃ©
itÃ© s
Ġ âĢ
en te
Ġv ois
al is
au t
a re
d u
Ġa d
ain es
ĠrÃ© fÃ©rences
x e
a e
Ġ ti
Ġc as
Ġt rop
el s
Ã¨ res
Ġpe ti
a h
n is
Ġv er
il l
ie ux
an te
Ġa m
ant s
ati f
nÃ© es
Ġnom bre
olog ie
il les
Ġre c
v er
Ġc l
Ġc or
Ġe xp
Ġ19 9
ap on
i ens
Ã© ra
al l
m et
Ã© c
Ġm il
ouv er
r Ã¨s
on g
ne x
p o
Ġ elle
Ġm ont
Ġcon tin
Ġre g
che ment
roi d
t a
ra m
ĠD ans
Ġch a
ĠÃī t
ĠgÃ©nÃ© ra
i ci
i ques
m an
Ġp res
b ut
ĠD e
ĠdÃ© c
Ãª me
Ġcomprend s
Ã ī
Ã ł
Ġs ou
Ġv a
ag ne
Ġdi v
Ġl um
ain s
Ġav ant
in si
Ġa t
og raph
r is
Ġa b
ĠA m
ay s
f orm
Ġtr ans
f ic
p s
le ct
Ġm us
Ġv ers
Ġprin cip
i d
j our
Ġt oi
ĠÃ©g alement
Ġi mp
v en
is se
Ġt our
Ġf il
ĠÃ ª
1 8
i es
l us
Ġd ont
li c
Ġd it
le r
Ġdi ff
ĠR Ã©
Ġ20 0
par tement
Ã© t
Ġcon nex
Ġ Q
Ġp ers
v ent
Ġc rÃ©
Ġm a
ĠR e
ĠÃª tre
an is
ti tu
mp s
ĠB eau
Ġl ui
Ġs el
Ġf roid
it u
Ġca p
Ġk iff
Ġsouv ent
ĠâĢ Ķ
ĠÃīt ats
ĠV oir
t ri
ti ques
le ment
ĠA u
vi ent
aÃ ¯
i el
Ġm ot
ĠdÃ© partement
Ġo b
Ġex ter
rou pe
en n
Ã© tÃ©
j et
Ġch e
ci en
ĠM e
Ġil s
ĠĠĠĠ ĠĠĠĠ
c on
Ġ 6
Ġc al
Ġa g
Ġr ou
ag es
ĠÃ©t ait
Ġfor me
d s
v es
Ġ ord
es se
Ġd roi
er g
Ġb le
ais s
Ġcon st
Ġch au
Ġseu l
2 0
i de
m in
ti ve
ie re
Ġpo p
ale ur
ĠrÃ© g
omm un
tic les
ograph ie
e re
ent ra
Ġf orm
li er
Ġp ays
Ġc oule
Ġt a
ist oire
Ġ20 1
Ġy eux
b u
r ent
Ã© g
Ġs p
Ġs ol
Ġa ss
Ġv is
ne ment
at ure
Ġar ri
d ent
v el
Ġp ri
Ġc ul
Ġs ens
Ġa insi
Ġle urs
ction s
ate ur
ĠÃ©g yp
Ġcontin uer
n ation
Ġ ans
Ġl iste
Ġes p
Ġrep rÃ©
U nis
e x
o te
o pp
Ġdes s
Ġg az
Ġvi te
ĠAr ticles
Ġac c
Ġres te
Ġconnex es
c ul
Ġc ette
ol es
Ġble u
c te
p es
Ġ á
en e
Ġc es
ou ve
ĠL iens
ĠÂ» .
Ġexter nes
f i
p er
Ã ¹
Ġd onc
Ġm ati
al itÃ©
ĠE lle
Ġen c
ĠC ol
ro is
ĠÂ» ,
Ã©ri c
acc ord
le il
Ġf ois
res s
Ġte l
oc or
iv er
enti r
ĠU n
Ġso leil
Ġnorm al
Ġm es
as si
Ġau t
ĠB ab
aiss ance
m ati
o ci
Ġf i
Ġn ot
mp l
ic ro
as s
ĠC e
ch er
Ġsi g
ab ord
Ġ19 7
Ġpeti t
a ille
k e
Ã© n
Ġsu c
ĠQ u
p uis
Ġf er
Ġmon de
Ġkiff e
Ġd ou
Ġde r
ent s
or te
Ġb r
Ġper met
a v
c is
Ġm Ãªme
Ġf am
Ġf ond
ie urs
Ġg ar
ain t
Ġpro duit
ang er
Ġtra v
Ġcha que
n Ã©e
Ġ 4
Ġc el
er re
Ġv ille
ĠdÃ© fin
Ġlang ues
Ġinter nation
Ġarri ve
en ter
on e
Ġb lan
ie ur
Ġco de
Ġsy st
Ġdiff Ã©r
Ġp ort
in es
ĠC ette
Ġan nÃ©es
Ġcor ps
b e
c l
g yp
o se
on de
Ġv ais
Ġb i
Ġr oi
ĠA h
ri g
Ġre lig
Ġpo li
ĠN e
Ġpro p
Ġo Ã¹
Ġex e
Ġpop ul
y th
Ġm at
ri que
Ġcon n
vel opp
f ort
l and
o ph
t is
Ġc ert
Ġde but
Ġv oit
tion n
Ġj ou
ĠFran chement
Ġlum iere
g anis
Ġ 5
en se
Ġapp el
Ã¢ te
Ġcou p
Ġpremi er
l ais
m is
s te
Ġd onne
Ġl ong
Ġp at
Ġa s
Ġr en
Ġ19 8
Ġso ci
hÃ© or
Ġam Ã©ric
l Ã¨
v is
Ġp endant
Ġm an
om p
ĠJ apon
erg ie
= "
Ġa li
oi res
Ġt ous
Ġt omb
Ġf ont
Ġv ie
Ġn Ã©
Ġg roupe
ri c
Ġsi gn
ĠM ar
elle ment
Ġbas e
Ġap res
a mp
a pp
c er
l u
Ġl i
on y
Ġr est
Ġg ra
Ġj am
Ġch aleur
Ġo f
iv ers
Ġlang ue
Ġmati n
g er
g ne
u d
Ġ Y
Ġd ur
Ġl ors
Ġl ib
Ã© li
an e
ti v
Ġb an
ĠC ar
ant es
ĠP lus
ol u
Ġch ar
ĠdÃ© si
Ġpro te
Ġcomm ence
Ġapp ar
ub lic
aÃ ®
ah a
ĠreprÃ© sent
o de
s er
v re
y l
Ġl ieu
Ġp ouv
Ġs Ã©
ti en
oi e
Ġv ra
Ġn ouv
Ġ19 6
Ġpr end
ate urs
isse ment
Ġder ni
Ġfam ille
1 7
b es
g ue
h es
h iver
k a
ti ent
Ġm er
Ġm icro
Ġb ar
Ġg r
ag n
am ment
ĠH aha
Ġcomp te
Ġ ang
te urs
Ġf ut
ĠÃ Ģ
Ġ| -
Ġal ors
Ġenc ore
e ur
f ois
k h
ou l
Ġf ais
as se
Ġpar t
ĠÃ© lect
Ġ1 7
Ġcomm une
ist or
la ce
ĠfranÃ§ais e
c Ã©
v Ã©
Ġl iv
Ġc ant
Ġt es
Ġre f
ĠS aint
Ġplus ieurs
C I
I n
c in
c ommun
h ui
o x
Ġl oc
Ġp le
Ġm entir
Ġla che
Ġf r
Ġf eu
it es
ĠP ro
Ġou ais
Ġte te
Ġph y
âĶĢâĶĢ âĶĢâĶĢ
Ġsui te
Ġchau ff
c le
e xp
i ent
Ġf on
Ġv oi
ch n
ĠÃ© c
Ġch ats
Ġte mps
Ġparti e
Ġmil li
Ġcap it
c s
f t
Å ĵ
Ġl ar
Ġp i
ti e
Ġt ot
Ġf e
Ġf Ã©
Ġn uit
si tion
Ġau tres
ter n
Ġav is
ocor is
U ni
f e
g u
t on
t at
Ġp ie
Ġde vient
Ġde puis
se e
Ġpar ce
Ġj u
ĠdÃ© velopp
pp er
Ġcour ant
Ġmet al
enn ent
Ġexe mple
A n
a de
Ġl og
Ġp om
Ġc ent
Ġs au
Ġs oir
Ġj apon
Ġou v
Ġjus qu
ĠPar is
hes ite
c al
g es
i ons
o k
p t
v ers
Ġ elles
Ġd om
Ġc ro
an n
Ġa i
Ġm ort
Ġt hÃ©or
it s
al i
ro s
Ġch iff
Ġch Ã¢te
ui te
Ġo ff
Ġtr Ã¨s
olog iste
ĠU ne
con om
Ġsig ni
Ġjapon ais
h ar
p endant
Ġl ig
ti er
ti enne
ar t
Ã¨ ne
ĠT h
Ġin st
Ġh au
Ġco te
ati que
Ġan cien
ib li
Ġter me
Ġgran d
ĠBab a
ĠQu and
Ġsign al
c ture
c enter
f ie
i ble
Ġ w
Ã© ci
Ġde g
or es
Ġf a
Ġb ul
Ġg ouver
rÃ© s
Ġtou tes
Ġap rÃ¨s
Ġpres sion
jour s
Ġpers onn
ĠBeau fort
ĠrÃ©g ion
Ġpri x
Ġali gn
h i
r y
Ġ [
Ġd oi
Ã© nÃ©
Ã© lÃ©
Ġs ci
in itÃ©
or i
Ġv oy
Ġr om
Ġre ve
ĠB ibli
di tion
oy en
Ġsec ond
Ġcl assi
ram m
cin el
c ra
qu i
Ġf ra
au me
ĠA s
mp ire
Ġpl u
Ġj a
res se
at h
Ġre l
ac tion
Ġpas se
ĠrÃ© p
Ġpro f
Ã©r ie
Ġinter commun
Ġcol le
mÃ© ni
Ġmus ique
ĠBibli ographie
s es
Ã ³
Ġ )
Ġ ĠčĊ
an ti
Ġf aire
Ġf ort
us es
as t
Ġn ation
Ġr oy
ĠdÃ© esse
Ġe ff
Ġin c
tÃ© r
tÃ© s
ĠH istoire
Ġcomp os
Ġlang age
Ġpouv oir
o pe
Å į
Ġ "
Ġ ent
Ã© m
ou n
or de
Ġt ant
it aire
Ġg out
Ġj eu
Ġpo int
ig ine
ĠCh ar
Ġsy n
Ġpe ur
Ġtou jours
Ġsui vant
ĠAm on
ĠBeau j
Ġsyst Ã¨me
gyp te
2 00
c ri
t ou
u le
Ġ '
Ġ oc
Ġ iss
en re
en ergie
an ces
Ġm ois
or me
Ġf ati
il b
Ġn ature
mp ere
ĠT he
ĠS h
ĠM oyen
Ġse m
di te
Ġh aut
oc cinel
Ġcar ac
Ġav ait
Ġra pp
Ġparti cu
ĠRÃ© fÃ©rences
ĠamÃ©ric ain
Ġbul les
a ur
e ff
Ġ X
en nes
Ġp oi
Ġc r
ar ch
or ce
il i
Ġn i
Ġb us
ol ais
ĠÃ© tu
Ġpremi Ã¨re
fic ation
Ġpopul ation
d o
y d
en sion
Ġs al
le m
un ivers
Ġt ri
Ġt rois
Ġv oir
il s
Ġn ord
Ġg au
ĠS on
Ġch at
Ġvi dÃ©
mo cra
ĠprÃ© cis
Ġsel on
Ġsp Ã©ci
Ġcel ui
Ġpoli tique
Ġchiff res
A l
g ts
n om
o in
t o
v olu
Ã ®
Ġ z
Ġ is
en ir
Ġp ous
Ġde c
ar a
Ġn ous
ra ge
rÃ© vi
ĠM i
ab les
olog ique
iss ent
Ġpremi ers
Ġnot amment
Ġphy si
Ġdoi gts
S I
c teur
l les
t end
Â «
Ã ¤
Ã ¯
Ġc elle
Ġc ir
is tes
le t
Ġm al
Ġv ert
ra it
al itÃ©s
ĠC on
Ġr i
ĠA p
ol l
Ġ1 5
ens itÃ©
Ġ19 5
Ġtr ouve
Ġsu per
Ġfran chement
Ġparti r
Ġes s
Ġter re
occinel la
t ant
Ġ 7
Ġd ieu
Ġa mp
Ġa ff
Ġm ain
Ġf re
Ġv eu
Ġr itu
Ġch ange
ĠB as
ĠB el
rÃ© e
Ġca d
Ġin di
Ġdi ale
Ġdis tin
ĠÃ©t ant
iss ant
Ġmar che
Ġcons titu
alis ation
jour d
Ġproduit s
f s
m ar
p l
t ent
u c
Ġ %
Ġ and
Ġl et
Ġp age
Ġs or
Ġs itu
er ae
Ġm el
or igine
Ġt he
il is
ĠL ang
al ais
Ġb ois
ĠC an
Ġcon si
ĠS t
Ġch im
Ġst y
Ġpro g
Ġo p
Ġsy mb
ing uis
Ġprincip al
Ġtour ne
Ġmot s
Ġmes ure
ĠdÃ©fin i
Ġoff ici
b res
c tive
f ique
o h
y ant
Ġ eux
Ġc iel
in ter
Ġm ange
et tes
Ġt able
Ġf ac
il es
Ġb on
au tres
ĠC es
Ġr Ã¨
ch ent
mp les
ri es
ĠP CI
ais se
ĠT erre
Ġpas s
Ġh um
ĠrÃ© s
Ġpro du
Ġcomm er
Ãª te
Ġcour s
Ġdire ct
ver se
Ġfil m
Ġcoule ur
land ais
Ġjam ais
Ġgouver nement
Ã³ n
a vi
g Ã©
i ra
m bre
r om
Ġs ale
Ġs omme
Ġde ven
Ġm en
Ġv ari
Ġb ac
ch Ã©
ne e
ol is
ĠS i
ĠS ans
ĠdÃ© f
Ġin s
am b
Ġne z
lÃ© ment
Ġk m
ĠAn d
po que
tri bu
Ġvis ible
ĠÃ©gyp tienne
Ġcapit ale
Ġfati gue
ĠvidÃ© o
erae ocoris
. .
n er
v o
Ġs c
re c
in di
ent es
ur b
ur Ã©
ur ope
Ġv ol
us s
ra b
Ġcon f
Ġcon tre
ĠD iv
Ġsi Ã¨
ĠdÃ© mocra
ul ti
Ġpro b
Ġ19 4
Ġsa v
ĠprÃ© si
Ġpeu vent
Ġquel ques
ru ction
Ãī tat
Ġ6 0
Ġang lais
istor ique
mpere ur
1 6
c les
c tif
g l
i le
l au
l ab
m on
m Ã©e
n o
o ot
t ures
t Ã¨res
z e
es p
Ã© ro
te t
Ġm is
Ġla mp
Ġn ou
ĠC om
si ons
Ġ1 6
Ġpo s
ĠI s
Ġte x
oc k
Ġav oir
Ġapp rend
fÃ©r ence
uer re
hÃ© mati
Ġtou te
Ġdroi te
Ġnouv elle
Ġliv re
Ġgau che
a ff
e v
i mp
l ot
r ond
Ġ â
Ġd on
Ġd oc
Ġl Ã©g
in er
Ġm ol
Ġn oir
el on
ĠA b
ĠP h
si ble
ĠdÃ© s
ĠN aissance
ĠÂ» )
ĠJe an
Ġan n
Ġconc entra
Ġutilis Ã©
Ġimp ort
Ġrou ge
Ġsoci Ã©tÃ©
Ġvra i
ĠBeauj olais
A r
i ti
i Ã¨re
Ġ <
Ġ âĶ
Ġl in
Ġl it
Ġc an
Ġs in
Ġt h
ur ent
as h
Ġb our
ĠC ommun
ch i
Ã¨ ces
Ġg e
Ġg rec
Ġpar fois
Ġre mpl
ĠS y
di re
ul t
Ġco ol
Ġmo der
ap rÃ¨s
ĠprÃ© s
ĠprÃ© sent
ĠÃ©t aient
op Ã©
Ġti tre
Ġma j
Ġche z
Ġconst r
Ġass oci
ĠCol Ã³n
Ġinternation al
Ġfon ction
Ġveu t
h um
r ans
s y
Ġl inguis
Ġp ra
Ġp orte
Ġp ublic
Ġs our
us ion
as tique
au tre
ce p
Ġpl ace
Ġcon se
at a
ĠS a
Ġch ac
ac k
Ġpo st
Ġe c
Ġin form
Ġsu d
ien ne
Ġfor ment
ĠIn de
ĠPar ti
Ġgran de
ĠgÃ©nÃ©ra l
ĠgÃ©nÃ©ra lement
man de
Ãī gypte
fic ie
Uni on
Ġfa Ã§
Ġclassi que
Ġsomme il
Ġnou veau
i ce
m er
n ie
o ft
p ond
Ġ 8
Ġ ant
Ġ urb
Ã© tique
Ġa yant
Ġm ag
un i
oi les
Ġla it
Ġf ai
ra t
Ġcom b
Ġr ond
Ġ( Â«
se z
Ġg ene
Ġpl ais
ĠD Ã©
Ġpo ss
ci dent
tÃ© ra
ces s
Ġra p
dÃ© ra
Ġjour s
Ġph ot
Ġser vi
lo se
Ġor ganis
ĠcrÃ© ation
Ġsuc re
ĠdÃ©si gn
Ġcant on
ĠDiv initÃ©
D F
l s
o li
t aient
Ġ el
Ġl im
Ġp or
Ġp Ã©ri
Ġc Ã©
Ġc in
Ġc entre
an es
ou te
in ois
Ġm ieux
Ġqu at
us atif
Ġn um
Ġcon tra
Ġau tre
Ġch er
ĠM an
Ġst ress
Ġte chn
tÃ© g
ĠN ord
ĠH e
ĠH ar
Ġsu pp
onn er
Ã´ le
Ġseu le
Ġche f
Ġcal cul
ony me
Ã©li en
aÃ® t
Åĵ u
Ġfe m
ĠdÃ©velopp e
Ġja une
Ġsin on
Ġrempl ac
Ġplais ir
- ),
A N
h ors
i er
k i
p r
r ie
Ã »
Ġ Z
Ġd ensitÃ©
Ġl une
en che
Ġp ain
Ġp ate
Ġp omme
Ġc i
Ġc lig
le cu
Ġm ur
Ġm iel
Ġet oiles
Ġn o
al le
Ġb lo
Ġb aisse
Ġr yth
Ã¨ de
Ã¨ mes
Ġg l
ĠE s
ĠT e
ĠD es
Ġre t
ĠS elon
ĠdÃ© p
Ġse che
Ġ19 3
vi er
Ãª tre
Ġcre v
Ġjour nee
lan de
Ġnombre ux
Ġsou n
Ġord re
Ġfi xe
Ġmat hÃ©mati
Ġconn u
ĠchÃ¢te au
Ġsigni fie
Ġdeg res
Ġiss us
ilb ert
Ġcir c
Ġsuper ficie
ev ap
c o
e ter
g le
n ois
r en
y s
Ġc entra
Ġs h
Ġs Ã©rie
an se
re r
is on
is me
Ġf ab
Ġf rig
Ã¨ rent
res pond
ĠD Ã©c
ĠÃ© p
ĠÃ© le
ĠS e
ac es
ĠdÃ© but
ĠG e
âĢ ¦
ĠH ilbert
Ġsa ou
vi ron
Ġmon di
Ġan ci
19 8
00 0
od es
Ã©ra tion
Ġprincip alement
jet s
Ġcul ture
Ġblan c
Ġtomb e
In see
Ġancien nes
Ġrapp ort
Ġdiale cte
rond issement
2 3
i f
j ou
l am
v ie
Ġp eau
Ġc li
Ġs pe
is tre
Ġa fin
er n
Ġb ru
ĠC ons
ĠC omme
Ġg ros
ĠP as
Ġj eux
Ġch ans
ĠB i
Ġe mp
ĠM a
ĠJ oh
Ġtr ou
Ġ20 20
ĠCh amp
ĠAr m
od ie
Ġres s
Ġver re
Ġtrans p
ouve ment
Ġcert ains
Ġdom aine
Ġvoy age
mÃ©ni en
ĠBas tet
ĠrÃ¨ gne
urÃ© at
ĠâĶ Ĥ
b les
c k
d it
j ec
l in
l or
o w
Ġ !
Ġp ub
Ġc y
te mps
Ġde mande
in st
in form
Ġm ulti
ĠC occinella
Ġr end
Ġdu b
ĠP ers
ĠE xe
res sion
ais on
ĠB r
ĠO r
Ġdi man
ĠrÃ© alis
Ġvi de
ati ve
ord s
Ġmo y
Ġan im
Ġex iste
Ġar tis
Ġme ille
Ġsu b
ĠK h
Ġor ient
Ġcor respond
Ġfil s
Ġdroi t
ĠÃ©gyp t
Ġesp ace
ĠdiffÃ©r ents
Ġlib er
ĠthÃ©or ie
Ġpous se
Ġlet tres
Ġtable au
Ġdiman che
G P
d enti
e ch
m ie
m at
Ã ¡
Ë Ī
á Ī
Ġc Ã´
Ġs oit
ou d
ou p
te l
te ra
in aire
Ġla b
Ġla tin
Ġt Ã©lÃ©
it h
Ġv o
al og
ĠÃ Ĥ
Ġb rit
au te
ĠC a
ĠC or
ĠA vec
Ġg rou
Ġg ram
ĠE mpire
si f
ai mes
ĠD u
Ġch oc
Ġch inois
Ġe au
Ġin v
di o
Ġst at
Ġst ab
ĠO u
Ġh e
ĠR Ãª
Ġ2 5
pe ur
ist oires
moi re
Ġsu ff
Ġres pe
Ġcol on
Ġbou g
acc usatif
Ġcas se
Ġrec ense
Ġform es
Ġgar de
Ġinternation ale
Ġmilli ons
Ġlar ge
Ġai me
Ġsci enti
univers itÃ©
Ġfrig o
Ġgram mati
1 2
F ran
a que
b um
d us
g a
h t
m ant
m Ãªme
p rÃ©
Ã© lect
Ġc ui
Ġc uis
Ġa vi
Ġde v
ti qu
in tes
Ġm yth
Ġm orce
it ch
Ġv aleur
il itÃ©
Ġn ote
Ġn aissance
al iste
Ġr us
ĠA ut
Ã¨ le
Ġg enre
ĠE lles
Ġre vient
ĠB l
ĠM ont
ĠI m
Ġin dÃ©
Ġh istoire
ĠrÃ© fÃ©rence
Ġpro t
Ġvi ct
ĠIl s
Ġar rondissement
par t
iss ons
ib a
Ġjour nÃ©e
Ġph il
fin i
Ã´ ne
Ġlum in
min ist
Ġcoule urs
Ġdess ous
Ġgar der
Ġsyst Ã¨mes
Ġbi ologiste
ste m
Ġlig ne
Ġsty le
Ġlamp e
Ġsoun d
2 1
a il
d a
e e
g us
j out
u y
u me
y n
Ġ 0
Ġ us
Ġd ate
qu er
qu ent
ti t
er landais
ar de
oi x
Ġle v
Ġt y
Ġen f
el l
Ġb eau
Ġb onne
ĠC oul
li on
Ġg agne
Ġg lace
Ġpl at
ri er
ĠP r
Ġpar f
Ġcon t
Ġcon tr
at es
ĠS ec
Ġsi te
ĠB e
Ġvi ent
ab it
Ġdis t
oc ke
Ġo re
olog ue
Ġra y
ĠK ar
19 9
ĠIn see
Ġter rit
ĠmÃ© di
ĠmÃ© moire
Ġmil itaire
Ġva peur
Ġab rÃ©vi
Ġord in
Ġsol u
ĠBab yl
Ġcant ons
ann ique
Ġintercommun alitÃ©s
Ġcolle ctif
cri p
lem and
ĠprÃ©cis ant
Ġconsi dÃ©
rab ie
Ġlinguis tique
Ġpost al
ĠfaÃ§ on
Ġrap ide
ĠdÃ©veloppe ment
Ġcirc uit
ĠPers onn
Ġrecense ment
I I
b all
c as
g ique
h an
l ie
p ent
t Ã¨re
w a
É Ļ
Ġ /
en nis
qu el
ti ne
le xe
et on
ar s
Ġt ard
Ġqu es
Ġf ace
Ġv en
Ġn et
ĠL istes
Ġb at
ĠC omm
Ġr ire
ĠA insi
se au
Ã¨ nes
Ġg uerre
ri x
ri ce
ag nes
ĠD eraeocoris
Ġre Ã§
ĠdÃ© ci
ĠG az
tÃ© e
tÃ© ris
pp le
and es
ous s
im a
ces se
os oph
Ġpr om
ĠCh iba
ĠprÃ© f
Ġcar re
Ġra t
Ġcommun iste
Ġmais on
Ġso vi
Ġparti cip
Ġac ce
Ġph ara
Ġmin u
ec k
Ġcou pe
Ġfin nois
Ġor ig
Ġsouv enir
Ġgran ds
po sition
ram me
Ġcha mp
Ġdiv ers
Ġdiv ert
aÃ¯ c
ĠĠĠĠĠĠĠĠ ĠĠĠĠ
ĠreprÃ© s
Ġá Ī
Ġdou ble
Ġrelig ieux
ĠNe w
Ġcert aines
ganis ation
Ġas sez
vis ion
Ġrest ent
Ġlog ici
Ġpom pe
Ġsecond es
Ġintercommun alitÃ©
Ġroy aume
volu tion
Ġritu el
Ġcommer ci
ĠDÃ©c Ã¨s
ĠJoh n
Ġdub pl
Ġbrit annique
Ġgrou pes
Ġhe ures
ĠCoul omb
M ari
a me
c ar
c it
e illes
i a
k et
m ment
p are
s on
s uite
t out
u age
Ġp alais
Ġp enche
Ġs ang
Ġs ante
ou m
te ries
Ġa ig
ti ens
Ġm uni
et s
et res
Ġle ve
or k
Ġt op
Ġt ension
Ġf rÃ©
Ġf oot
it aires
as e
ĠL ou
ĠL in
Ġr on
Ã¨ tre
Ġg es
Ġg raph
ri ge
ne es
ol lion
ĠÃ© di
Ġre action
Ġe tern
Ġe conom
Ġca fe
Ġse pt
og ne
ĠR ec
tu ce
Ġ19 0
ph ere
Ġtr ous
Ġmo lecu
ig ne
Ġpr on
ĠAl pes
Ġme mb
Ġsu p
Ġra l
ard s
19 7
ite cture
ten u
ĠâĢ ĵ
Ġad ore
Ġpeti ts
Ġver sion
Ġexp ri
Ġexp lose
Ã©c rit
Ġmont res
Ġab eilles
Ã©tÃ© s
Ġcul tures
Ġjam aÃ¯c
Ġlib Ã©ra
Ġfe te
ĠfÃ© dÃ©ra
Ġcro issant
ĠAs tuce
Ġsem aines
Ġbac teries
Ġsav on
esp ace
Ġlin ge
ĠCommun es
Ġge le
Ġmoder ne
hum i
ĠpÃ©ri ode
Ġclig nes
Ġblo que
Ġcrev ettes
evap ore
Ġbru le
ĠChamp ollion
ĠÃ©gypt ologique
Ġstab ilis
Ġphil osoph
minist ra
Mari ti
Ġeconom ise
1 3
1 5
5 0
A m
b l
d in
d ae
e mpereur
f le
f er
i x
i Ã¨me
l oit
s ant
v al
v ille
Ġd oit
Ġp u
Ġc eux
Ġc la
Ġs ort
an ique
is ation
le ction
et h
Ġle quel
Ġqu ar
ur i
Ġf en
our s
il ocor
ra k
ĠA d
Ã¨ te
Ã¨ ge
ro che
ri v
ĠP er
ĠE urope
at on
ag it
ĠÃ© conom
ĠB ou
ci pe
ui re
Ġin iti
di en
ul aire
ouv re
ĠÂ» ).
ati ves
ord re
ord ogne
ille r
ph ab
ni ques
Ġnom bres
ĠCh ilocor
Ġcar tes
Ġcar tou
Ã©ri que
ĠÃ©g lis
Ġal lemand
able ment
tr ine
Ġtrans f
anis me
ĠAu jourd
Ġcul te
Ġá Ĭ
Ġtel s
aille urs
ĠdiffÃ©r entes
Ġrelig ie
Ġman iÃ¨re
Ġchar ge
aÃ® tre
Ġnouv elles
Ġderni er
Ġderni Ã¨re
Ġlog ique
Ġnation ale
tou m
Ã® le
Ġphysi que
ĠBel gique
Ġâ Ĩ
Ġconcentra tion
Ġvrai ment
Ġchac un
ĠInde x
Ġsaou dite
tera ctive
ĠRec ords
ĠChilocor us
1 0
D A
c Ã¨s
i me
j a
l it
p le
r onne
s ur
u ments
on es
Ã© poque
Ġp a
ou est
Ġde hors
Ġm ang
Ġm ains
ar mÃ©nien
oi gn
or at
om e
om ie
Ġt end
Ġqu anti
Ġf ille
Ġb it
Ġb ra
ĠC O
ĠC ert
ĠA vant
Ġ( -
ch ar
li Ã¨re
Ã¨ che
ro le
Ġpar ler
ve ment
Ġre tr
ĠS au
Ġch oix
Ġpo se
Ġst ru
ĠĠ Ġ
ĠJ am
Ġh er
Ġsur tout
ĠR itch
ĠF er
lis se
ĠCh aque
ĠÃī tu
19 0
Ġfor te
Ġac tiv
Ġtra di
ron y
ron ti
ĠAn th
Ġ18 8
Ġ18 9
aut om
ĠgÃ©nÃ©ra le
Ġpres que
Ġpers onne
Ġdroi ts
ex ist
Ġaut om
Ġtrav ers
Ġprop re
Ġjou e
Ġvra ie
Ġpie ds
ĠchÃ¢te aux
Ġhau teur
Ġsyn ch
indi ce
Ġmaj or
Ġconstr uit
Ġpra tique
Ġquat re
Ġfem mes
inform ation
ĠÃĤ ge
Ġscienti fique
Ġphara on
Ġmemb res
Ġcartou che
ĠRitch ie
5 8
C h
E C
c a
e d
f u
l atif
m il
s ous
u el
y g
Ġ 9
Ġ eu
es sion
Ã© b
Ġp Ã©t
Ġp ages
Ġc ord
an de
qu ant
Ġde b
Ġde m
Ġt Ãªte
Ġv entre
Ġun itÃ©
Ġen ti
Ġen viron
Ġen suite
al a
al ent
ĠÃ ¨
Ġb ret
Ġb eff
Ġr ange
ri ques
ĠD i
ĠD ordogne
Ġre m
Ġsi x
rÃ© t
rÃ© es
Ġe mpl
ĠM Ã©
ĠM us
ĠJ eu
Ġh om
ĠR en
mo d
ĠH istorique
ati ques
ille t
ph is
Ġcomp are
Ġcomm en
st ra
19 6
ĠU ni
Ġcour t
Ġ3 00
ĠIn teractive
lan te
Ġseu lement
Ġnorm es
Ãī c
Ġag ri
Ġesp Ã¨ces
fi er
ĠÃ©lect rique
har ique
Ġeff et
ĠChar les
ĠÃ©tu des
Ġsal on
Ġsymb ole
ĠprÃ©si dent
ĠEs p
Ġmeille ur
Ġparf ait
loit ation
ĠâĨ Ĵ
2 2
2 6
E G
I eter
a ment
a ch
c ine
c tes
c rit
c lus
g Ã¨
h rop
j Ãł
r ant
u les
u lier
Ġd od
Ġl oi
on te
Ã© tu
Ġc et
Ġc at
an c
ou se
qu Ã©
Ġa ur
Ġa jout
Ġde vi
ti gu
in age
ent end
Ġt res
ur opÃ©
il lante
me aux
Ġb ut
Ġb Ã©nÃ©
Ġr u
Ã¨ se
eu re
ĠT ok
ag ue
Ġau g
ĠD ist
Ġre cher
Ġch eck
Ġpo d
Ġpo ste
ĠdÃ© jÃł
Ġe te
Ġe mb
Ġe cl
ĠG o
ĠG ran
Ġin f
di a
Ġte mp
Ġte mple
Ġh istoires
Ġdi m
Ġdi rige
ĠN Ã©
ĠR oy
Ġpro v
ĠF in
Ġdis p
ph es
ort s
os s
ni g
Ġtr uc
ert z
ig n
Ġnom s
Ġar ch
Ġcar te
âĶ ¬
op olis
19 3
Ġal bum
Ġcour onne
ub lique
ad a
Ġbou lier
Ġcons er
ill age
Ġnombre uses
Ġdiv in
Ġmus ic
ĠRe id
Ġkiff es
Ġob jet
Ġsol aire
oci ation
Ġfi x
ĠCe pendant
Ġpat es
ĠsÃ© par
Ġpart out
Ġvoi le
Ġsau ve
art iste
Ġplu part
Ġent end
Ã©m a
ĠChar ente
Ġparticu lier
Ġamp oule
Ġdeven ir
ĠdÃ©mocra tie
Ġapprend re
Ġdon nÃ©es
ĠdÃ©sign er
Ġgrammati cal
Ġmyth ologie
Ġty pe
Ġsovi Ã©tique
Ġsouvenir s
ĠÃ©glis es
Ġdeb orde
Ieter en
gÃ¨ bre
Ġdod o
ĠDist ri
. )
A rabie
E L
d ou
d ans
e b
e te
g it
g el
h Ã´ne
k o
o sition
r ont
r ist
t te
w are
x im
y m
Ġd anger
Ã© op
Ġs ais
an nÃ©e
qu elle
is es
Ġde vant
Ġla quelle
Ġt om
Ġt yp
Ġf uite
Ġv ieux
ra y
ra in
Ġb o
Ġb al
ĠC al
Ġr ien
ĠA ge
li ers
Ġpl astique
ri Ã¨re
ĠP i
ĠP rÃ©
Ġpar oles
ĠE d
ĠE t
ai de
ĠÃ© qu
ĠS u
ĠS te
ĠS ch
Ġ1 00
Ġch ois
ĠB an
ĠB ur
Ġca mp
ĠI I
Ġin tÃ©g
Ġh abit
ic ation
Ġmon te
sem bl
Ġtr ouv
ert s
Ġapp lic
enti el
19 4
Ġal l
Ġcour te
lÃ© ments
Ġac tu
Ġres ter
ĠIn ter
cu pe
Ġser a
Ġutilis Ã©s
ĠmÃ© de
ten ant
Ġgran des
du ction
Ġmil ieu
Ġsou ff
ĠRe p
aÃ¯ que
Ġesp aces
tionn elle
Ġjou er
Ġlong ue
Ġpat tes
ĠnÃ© erlandais
Ġdur ant
Ġban de
ĠdÃ©si gne
exp loitation
Ġfon ctions
Ġpersonn el
Ġcarac tÃ©ris
Ġcr ist
Ġconse il
Åĵu vre
ĠExe mples
Ġlumin eux
Ġordin ateurs
crip tion
ĠreprÃ©s ente
rony me
tigu a
A pple
O r
U L
a vec
c ur
c oup
d re
e il
f rique
j i
j o
j ima
p end
r Ã¨
s titu
s oft
v oir
v ence
Ġ ir
Ġd Ã¨s
en tement
Ã© p
Ã© qu
Ġc iv
an ci
ti ge
er mo
Ġm anger
or g
or in
or ter
om bre
Ġf our
Ġf urent
Ġv ague
Ġet c
Ġles qu
Ġen v
ra g
al ine
Ġb ran
Ġb and
Ġb out
ie ure
au l
au ff
ĠC omp
ĠA GP
ce pt
ch ons
Ġg ard
ĠP ays
ĠP EG
ais sent
Ġcon tient
ag er
Ġau jourd
ĠD on
ĠÃ© lÃ©ment
Ġ1 2
Ġch u
ac itÃ©
ac tif
ac ide
ĠB Ã¨s
ĠB EL
Ġe uropÃ©
ale urs
di um
Ġh omme
og un
ĠN ob
and is
Ġvi vant
ux elles
os es
st Ã¨me
Ġmo d
Ġmo di
ĠLa urÃ©at
Ġar mÃ©ni
Ġcar Ã©lien
enti ellement
Ġtra verse
ron ique
ĠAn ge
Ġper du
Ġdire ction
Ġmar chÃ©
Ġutilis ent
Ġbou chons
Ġmet tre
Ġ18 3
ten sion
Ġad ministra
Ġ199 0
all Ã©e
Ġmont agne
ĠdÃ©c rit
Ġdiv initÃ©
Ġat tend
ris es
Ġtrans par
Ġ200 7
Ġob tient
con te
Ġag ric
Ġchau d
Ġchau de
Ġdess in
cte urs
Ġ197 0
Ġtrav ail
ose ph
Ġappel Ã©
Ġli bre
Ġgra tu
ĠY ork
Ġfais aient
Ġliv res
Ġloc alis
Ġchauff e
ĠÃ©c rit
Ġpom mes
ry s
Ġplu ie
tÃ©r ieur
Ġcompos Ã©
Ġoc cident
Ġcarac tÃ¨re
Ġpoi ds
ĠAp rÃ¨s
Ġritu els
ĠdÃ©fini tion
Ġpos sible
Ġlit tÃ©ra
ĠSy stÃ¨me
Ġryth me
Ġgl ac
ĠTe chn
ĠmathÃ©mati ques
Ġanci ens
jec tif
ĠBr uxelles
Ġcui vre
Ġmorce au
ĠindÃ© pendant
Ġenf ants
Ġdist ance
Ġray ons
Ġterrit oire
Ġdivert issement
ĠLou is
Ġquar tier
ession n
Ġcord es
Ġempl oy
Ãīc ole
Ġdim ension
ĠDistri bu
' ,
' s
6 4
E mpire
a pe
c ont
d Ã©s
g istre
h o
i ch
i ge
l ent
l air
n ak
n ae
t est
u ve
Ġ oign
Ġd or
Ġd il
Ġl ois
Ġl entement
Ġp Ã¨re
Ġp iv
qu ette
Ġa out
ti nÃ©
Ġm ai
un it
ar bre
Ġla ve
Ġf aut
Ġf usion
it al
Ġv ent
Ġv as
Ġv aleurs
Ġun ivers
as is
Ġn ul
Ġn orme
ĠL ib
ĠÃ ®
Ġb l
Ġb u
Ġb y
Ġb oi
Ġb oy
Ġb its
Ġr Ã´le
ĠA c
ĠA toum
ch ant
Ã¨ tres
Ġg on
Ġg ramm
ĠE au
res si
si ris
ais e
ĠT ro
at is
ĠD oc
ĠÃ© poque
Ġre mp
ĠS er
ĠS oci
ĠS ud
ĠB ar
ĠG roupe
ĠM o
ĠM icro
ĠV al
ĠV ienne
tÃ© es
Ġh o
Ġh or
Ġh ong
Ġvi b
ĠH or
tu me
Ġdis ent
Ġdis tribu
ĠÂ» ),
Ġcomp rom
ic ations
ni v
orm ais
ien nes
Ġra conte
ĠK e
ĠÃ©t ab
utilis er
Ġ3 0
Ġinter ne
Ġmar que
Ġutilis e
Ġutilis ant
ĠmÃ© t
Ġad op
ill ent
Ġ199 5
Ġ199 7
po si
Ġmont re
ĠDe jima
Ġsou h
ris h
id ae
Ġimp ose
isse ments
Ġrou tes
Ġconst ante
Ġconst ruction
Ġ201 1
Ġvis age
ĠÃ©gyp tien
Ġdess us
Ġaut or
Ġsuc cÃ¨s
Ġ4 0
Ġrelig ion
Ġprop ri
land es
Ġlong temps
ĠnÃ© cess
ĠMar c
Ġlors qu
Ġgr as
hui le
Ġple ure
Ġfeu ille
Ġvoi x
Ġvoi ture
Ġfra is
Ġprof essionn
Ġnation al
Ġni veau
Ġchange ment
Ġdistin ct
Ġsor ti
Ġsor tie
ĠLang ue
Ġprog ramm
Ġprodu ction
lab or
ĠdÃ©s ormais
Ġservi ces
Ġcalcul s
Ġgros se
Ġchans on
Ġstat ut
Ġboug ies
Fran ce
Ġavi ons
Ġbeau coup
ĠPr in
Ġore illes
cesse ur
Ġminu tes
Ġbra vo
ĠAnth ocoris
ĠbÃ©nÃ© f
Ġprov ince
rys op
ĠDistribu tion
nae us
. -
2 5
A u
E n
E urope
O u
P ro
S O
c ence
c tement
d is
g et
i z
l ist
l lab
m ene
o si
s u
t t
t oie
y um
Ã ¶
ä ¸
Ġd ent
Ġd ieux
Ġl oin
en h
en vers
on ie
on iens
Ã© d
Ã© ment
Ġp et
Ġs ent
Ġs ature
an a
an nees
ou re
re v
Ġde cis
Ġde dans
ti ers
le y
le re
in ts
er tume
Ġm eu
Ġm ouvement
Ġm ix
un ct
et ale
ar es
ar tif
Ġt andis
Ġf li
Ġf eux
Ġv oc
Ġv eau
Ġv enti
Ġet re
Ġun itÃ©s
as ta
Ġn eu
ra ges
el a
al y
Ġb es
Ġb lÃ©
Ġb all
Ġb aille
Ġb eton
ĠC et
ĠC our
Ġr ince
Ġr ide
Ġr oses
ch niques
li Ã©
Ġg landes
Ġpl antes
Ġpar ait
ĠE xp
ve ur
ol at
ĠT op
Ġcon te
at ur
ag nÃ©
ĠD r
ĠD onc
ĠD anse
ĠÃ© ch
ĠÃ© lÃ©ments
ter min
ci de
Ġe mo
ĠG ar
ĠG am
ĠM in
Ġse igne
Ġpas ser
Ġin verse
Ġst resse
Ġst ock
Ġst ocke
Ġst ronti
Ġh ub
Ġh iver
Ġh istor
Ġh istorique
ĠN ouv
ĠR om
ĠR ob
Ġpro ches
ĠH au
ang lais
Ġco p
Ġco eur
age ment
ique ment
Ġcomp ar
Ġcomp tent
Ġcomp taient
um m
Ġo pp
ni er
orm ir
Ġtr in
Ġmo de
ĠCh rysop
Ġar om
ct rice
Ġav aient
Ġra mene
Ġapp lau
Ġcre e
Ġso dium
Ġpre pare
ib les
ad ores
ad ren
Ġmin i
Ġcer nes
he mis
ec lair
Ã¢ ge
cu les
tra pe
Ġcol ores
Ġbou ge
Ã´ t
ĠmÃ© th
Ġ18 7
tic le
Ġsec onde
tr ie
Ġti ent
Ġpeti te
Ġver tige
Ġ199 8
ouver ture
po phis
Ġreg les
Ġreg arde
Ġreg ulier
roid it
ĠdÃ©c ouver
Ġat ti
Ġmus cles
ĠRÃ© p
Ġ200 2
ĠcrÃ© Ã©
Ġma ch
titu de
ĠMe me
Ġag resse
Ġord is
Ġacc ent
Ġacc omp
Ġbr illent
Ġblan cs
Ġport ance
Ġmat Ã©ri
Ġas p
Ġtomb ent
Ġgra in
Ġdur cit
Ġban anes
Ġprote ction
Ġprote ines
Ġappar aÃ®t
ublic an
ĠreprÃ©sent Ã©
ode ur
Ġmicro bes
Ġbar yum
Ġgr ille
Ġtes te
Ġref lexe
Ġref roidit
Ġfr issons
ĠPro g
Ġchauff ent
Ġpie ce
Ġcent aines
Ġinst ru
Ġhau te
ori al
Ġrom an
Ġreve il
Ġreve ille
Ġfra pper
Ġnature lle
Ġparticu liÃ¨re
Ġpoi ls
Al pes
Ġfre ine
Ġcad re
mar rage
Ġsitu Ã©
Ġmel odie
ĠCan ada
Ġchim iques
Ġop Ã©ra
Ġmesure r
inter ieur
Ġsale e
Ġmen age
Ġvari Ã©tÃ©s
Ġvol onte
ĠsiÃ¨ cle
aff inage
lot s
Ġmol aire
Ġbour re
Ġurb aines
pr ise
Ġfab rique
ĠArm y
Ġcy cle
ech o
Ġvo eu
Ġchoc olat
Ġrespe c
ĠIm agine
Ġlev ure
Ġsolu tion
ĠBabyl oniens
Ġques tions
Ġnet toie
ouss oles
Ġacce lere
Ġron ron
Ġetern ue
Ġmolecu le
Ġral entir
humi dite
Ġfen etres
Ġmang ent
Ġquanti tÃ©
autom atique
Ġsynch ro
yg ene
Ġagri pper
Ã©tu de
Ġajout ent
Ġhabit ants
Ġsouff le
ĠRep ublican
Ġbout s
ĠNob el
Ġattend s
Ġglac ons
Ġdor ment
Ġdil ate
Ġgon fle
artif ice
Ġfli pper
Ġventi lo
Ġstronti um
Ġhub lots
Ġapplau dit
adren aline
hemis phere
3 3
A S
C occinella
D eraeocoris
O I
P C
a vant
b ac
c re
d en
e xe
g ion
h istoire
k er
l on
m ont
p Ã©
p olis
s Ã©
v Ã©e
v age
Ġ &
Ġ Å
Ġ Ð
es tiv
Ġd onner
Ġl ire
en ant
en semble
on nes
Ã© v
Ġc ri
Ġs uit
Ġa mb
ti l
ti ves
in ture
Ġm ise
Ġm assi
om iques
Ġf le
Ġf ig
Ġv end
Ġv illage
our ces
Ġdes c
Ġn os
el ge
ĠL ors
au tÃ©
ĠC ul
Ġr o
ĠA ss
ch et
ro ss
Ġg agn
ĠP at
ĠT hÃ©or
Ġau c
ĠD ou
ĠD ennis
Ġre tra
Ġ1 4
ac ques
ĠB at
ĠG re
ĠM on
ĠM ais
Ġse in
di ant
Ġte chniques
pp e
Ġdi x
am our
Ġvi a
Ġdis c
Ġje un
Ġce pendant
Ġex clus
Ġar ts
ĠEn tre
Ġfor ce
âĶĢ âĶ¬
utilis e
Ġlang ages
Ġpuis s
ad es
Ġdire ctement
Ã¢ ce
Ġutilis Ã©e
Ġrep ro
Ġbas se
are il
Ġrec ons
Ġexp Ã©ri
nex es
po se
Ġimp os
ven tion
Ġ200 5
Ġcap acitÃ©
aÃ¯ s
Ġrou te
Ġá į
Ġmes s
Ġtrav aux
Ġpoli tiques
Ġpopul aire
Ġappel Ã©e
Ġren ouv
ric itÃ©
ud get
kh en
Ġpie d
Ġsau ce
Ġcro y
Ġmort s
Ġrom ain
qui pe
Ġess entiellement
Ġsitu Ã©e
Ġchim ique
Ġoffici el
Ġfilm s
ĠCom itÃ©
Ġposs Ã¨de
Ġservi ce
ĠcÃ© lÃ¨
Ġtechn ique
AN SI
ĠPas cal
Ġmulti p
Ġanim al
Ġsuff it
Ġvict oire
ĠKar nak
ĠPersonn alitÃ©
Ġmuni cip
ĠfrÃ© qu
ĠCert ains
ĠÃ¨ re
ĠmÃ©de cine
ĠMicro soft
Ġprogramm ation
Pro vence
unct ata
1 1
5 3
A lle
E S
I s
R hÃ´ne
b i
b er
b it
e z
f ace
g ent
g ri
g Ã©e
h a
i k
j an
l y
l og
m ales
m agne
n ent
o ter
o ff
p i
t ro
t ain
v ait
y t
z z
Ġ ul
es s
Ġl o
en g
Ã© dition
Ġs ka
qu Ã©e
Ġde me
ti m
in f
er o
er nig
un itÃ©
or o
Ġt o
Ġf ui
Ġf lot
Ġf lam
Ġv e
Ġv in
Ġv illes
il lÃ©
Ġdes tinÃ©
ra te
Ġb elge
ĠC y
Ġr ois
ĠA st
li ques
se aux
Ã¨ t
Ġg ri
ri r
ri re
ri mo
ĠP rix
ĠE C
Ġcon Ã§
ai g
ĠÃ© n
Ġre ven
ĠS w
ĠS ur
ĠS al
ĠS ole
Ġpo t
Ġpo sition
ĠB us
ĠdÃ© di
ĠG u
Ġse p
ĠI rish
ot o
ot om
di g
ĠV O
ĠJ ap
Ġh i
Ġdi rig
ĠLe ur
oc ie
ces si
ph a
ph one
Ã©r ieur
vi ronne
ist ant
Ġ20 00
Ã©s ie
ate au
Ãª t
Ãª mes
olog ies
Ġconc ern
Ġfran c
Ã©ri ques
ĠÃ©t ran
Ġfor tif
Ġso li
ĠAn nexes
Ġi dÃ©
Ġi rak
Ġmin ist
Ġcou che
Ġutilis Ã©es
Ġcons ac
Ġor g
ten ir
Ġnorm alisation
Ġad ul
Ġver be
ĠDans es
ĠDe puis
Ġat ta
Ġma xim
Ġseul s
Ġform ation
Ġ201 6
bu da
ote p
Ġmati Ã¨re
ress es
Ġpermet tant
Ġport ent
velopp e
tionn aire
Ġren cont
lÃ¨ ve
Ġ196 0
Ġbar bac
eur opÃ©
Ġfais ant
Ġ17 58
Ġphy t
Åĵ ur
Ġju ger
ĠthÃ©or Ã¨me
ĠTh om
Ġhau tes
ath or
Ġinc andes
lem agne
Ġtri ade
Ġhum ains
ĠrÃ©s ul
ĠsiÃ¨ ge
Ġprob ablement
Ġsav oir
Ġimport ant
ult ats
Ġassoci Ã©
Ġcentra le
Ġsh ogun
Ġmondi al
Ġmondi ale
ĠBi ographie
Ġress ources
Ġartis tique
ĠconsidÃ© rÃ©
Ġorig in
Ġdubpl ate
ĠÃ©conom ique
phab et
Ġ(- )
ĠFer mat
Ġbret Ã¨che
Ġhom mes
ĠRoy aume
ĠFin lande
Ġlesqu els
Ġchu te
ĠDr umm
ĠChrysop a
ĠRÃ©p ublique
exe mple
Alle magne
ernig han
ĠSole il
Ġincandes cence
ĠDrumm ond
1 4
2 7
6 0
8 3
9 4
: =
A D
A F
N orin
a ph
b y
b ilitÃ©
c li
d at
e mb
g ae
h yd
i y
i ance
l ant
l anger
m a
m or
n ant
o di
o Ã¹
p ents
p rises
s a
s us
u ment
v a
y o
á ĭ
Ġd at
Ġd onn
on omie
Ġp ol
Ġp ap
Ġs out
is ter
ti es
ti lis
ti ennent
ar mÃ©e
om Ã¨tre
ur rent
Ġf ine
it a
Ġv Ã©r
Ġv oire
Ġen se
Ġn atur
Ġ: :=
ĠL ab
al gÃ¨bre
Ġb e
Ġb oule
Ġb Ã¢
Ġb udget
ĠC l
ĠC ou
ĠC ent
ĠC as
ĠA N
Ġg am
Ġpl ut
Ġpl ay
ri ent
Ġpar le
Ġpar mi
ĠE DF
Ġj oie
si dent
Ġpour s
ĠT ur
Ġcon tribu
Ġcon cept
ĠD un
ĠÃ© d
ĠÃ© vi
Ġre v
ĠS an
Ġch rÃ©
ac te
ac ti
ĠB a
ĠB er
ĠB ien
ĠB orde
ter tain
ci al
ĠM al
end o
Ġst and
ĠV ille
ĠJ oseph
ĠO rig
am a
ĠrÃ© par
ĠrÃ© seau
Ġpro tÃ©
ers on
mo s
im age
Ġcomp or
ni es
ni vers
Ġje une
Ġ20 19
Ġan tique
Ã§ ois
ĠprÃ© cÃ©
Ġapp li
ĠK ernighan
Ġpeu ple
ĠAr end
utilis ation
Ġsy stem
Ġi denti
Ġph Ã©n
ing ton
ob ile
tif s
Ġser ait
Ġser pents
Ġentre tien
Ġbou langer
Ġfin alement
Ġcons omm
Ġsui v
ten ue
ak i
onc Ã©
aut or
ill on
ill ard
Ġcha mps
Ġva che
Ġab rÃ©
fic ations
Ġprincip ale
ĠcrÃ© er
Ġob tenu
Ġexter ne
ĠMe illet
cul ture
Ġaut ant
Ġdou x
Ġbr uit
Ġcel a
Ġprop os
tionn el
Ġ198 0
lÃ¨ mes
ĠsÃ© lection
Ġgr Ã¢ce
ĠPro duit
âĶĢâĶĢâĶĢâĶĢ âĶĢâĶĢ
exp ression
Ġouv rage
ramm ing
anti ne
Ġsuivant es
200 4
ĠMi ch
uss ie
ĠprÃ©s ente
Ġfai ble
Ġphot os
Ġremplac Ã©
Ġanci enne
Ġchans ons
Ġmoy en
Ġlab el
ĠDu ke
12 8
dus tri
ĠAut res
Ġprot Ã¨ge
fini tion
Ġcontr Ã´le
Ġrapide ment
Ġlogici els
Ġtransf orme
ĠÃītu diant
rÃ©t aire
Ġcommen cer
Ġdevi ennent
ĠTok yo
Ġdivin itÃ©s
Ġapplic ation
Ġband s
Ġhor aires
ĠProg ramming
estiv al
rimo ine
ĠJap an
vironne ment
ĠBorde aux
tertain ment
ĠphÃ©n om
E E
H aute
O rient
c or
c Ã©e
d on
d el
e mpl
f Ã©
f iques
i des
i Ã¨res
k s
m Ã©es
m ente
m ouvement
o ch
o ret
p a
r Ãª
t y
t le
u ent
v ation
y on
y de
z y
z ar
Ġ ),
Ġd oll
Ġl ance
en f
on ce
Ã© h
Ġp ince
Ġp oll
Ġc rois
Ġs ites
Ġs cal
an cien
an cÃ©
an vier
qu et
te in
Ġde tend
Ġde ja
ti Ã©
ti ble
le phone
in cer
er ain
Ġm ous
ar c
ar me
Ġle cteur
or ganisation
Ġla urÃ©at
Ġt hÃ©
Ġqu alitÃ©
Ġf oret
Ġv es
Ġv it
Ġv ec
Ġv ente
Ġv allÃ©e
Ġen vie
Ġn avi
ĠL ig
ĠL ond
al lÃ©
Ġb inaire
ĠC ant
Ġr is
Ġr oule
ĠA ka
Ã¨ bes
ro cher
Ġg agnes
Ġpl ac
ĠP e
ĠP uis
ĠE ur
Ġj anvier
ve y
ol o
ĠT re
ĠT ra
ag as
ai te
ĠD j
Ġre d
Ġre pe
Ġre par
Ġre ves
ĠS ou
ĠS ci
ĠS ous
Ġch ant
Ġch anger
Ġpo ints
ĠB o
ĠdÃ© termin
Ġe che
ĠG al
ĠG uerre
ĠM at
Ġpas sent
Ġin do
Ġst age
ge ance
Ġte lephone
ĠJ us
ĠJ acques
Ġh Ã©
Ġh yd
Ġh alog
ĠN il
ĠR o
ĠrÃ© d
ĠF our
Ġdis que
Ġdis par
ouv ert
ouv rir
Ġco ord
pe au
pe ct
Ã©r ant
Ġmon uments
eau x
Ġmo b
Ġmo od
Ġ20 23
ig nement
Ġan nivers
Ġpr Ã¨s
ond re
Ġex ac
ĠCh Ã¢te
ĠAl lemagne
Ġme re
Ġra ison
Ġra dio
Ġapp orte
ĠK ing
ĠÃī gypte
uti f
Ġal ler
Ġal gÃ©
dÃ© mie
ay e
Ġpre uve
Ġpuis que
Ġjour n
ĠgÃ© nie
Ġter mes
cu p
cu le
Ġser pent
Ġfin no
ĠmÃ© c
Ġor di
int endo
mÃ© di
Ġbas ket
Ġsec teur
Ġprin cipe
Ġvois in
ill ie
Ġam harique
Ġrec onn
Ġcl aire
Ġ199 2
Ġ199 3
Ġcontin ues
Ġreg le
Ġreg roupe
Ġdiv is
Ġtrans form
ps on
Ġ200 1
Ġ200 4
Ġ200 9
Ġconnex ions
tri but
Ġcal me
Ġrou tine
esse ur
ĠrÃ©g ions
Ġta f
Ġ201 3
Ġacc orde
Ġmes ures
Ġfi le
Ġfond ateur
Ġblan quette
Ġbi zar
Ġjou es
Ġ198 8
app e
ony mie
ĠPlus ieurs
ĠdÃ©si g
Ġ196 5
Ġfais ait
Ġ17 8
Ġmilli ards
Ġpi le
Ġai res
Ġlig nes
Ġinst alle
Ġsci ence
Ġsci ences
ast y
Ġeff ec
ĠÃ©tu di
Ġz o
Ġis ol
Ġpous s
rÃ©vi ation
Ġamp Ã¨re
ĠBel l
ĠdÃ©f ense
Ġprob lÃ¨mes
Ġdon nÃ©
Ġlin Ã©
sy stem
Ġsour ce
cep tion
Ġconse ille
Ġinform atique
Ġmag nÃ©
Ġcomb at
Ġcontra ire
Ġcentra l
jou e
Ġspe cial
Ġcuis iner
Ġus age
cas ts
Ġprom o
Ġdivers es
Ġges tion
ĠlibÃ©ra le
Mariti me
Mariti mes
Ġreligie use
Ġstru cture
Ġtradi tionn
exist ence
Ġautom ne
stra d
Ġpod casts
Ġecl aire
Ã©op tÃ¨res
rÃ¨ ze
Ġmod Ã¨le
Ġgratu it
Ġgramm aire
ĠDoc trine
Ġcomprom is
niv ores
Ou est
Ġdent iste
ĠGam es
Ġauc un
ĠGre cs
khen aton
ĠAst ar
Ġgri ff
Ġsep te
dig ala
Ġadul tes
ĠThom pson
Ġnatur aliste
Ġplay list
Ġcompor tement
Ġpoll en
Ġscal aire
ĠalgÃ© b
. ,
A frique
B ar
N F
R E
R Ãª
S aint
U S
b a
b et
b erg
c om
c our
f re
g ra
h ab
h Åį
i xe
i fi
l ui
l ieu
m en
o lique
p is
p tiques
r est
r il
r ons
r lande
s ie
t an
t or
t iste
v ages
x te
´ ne
Â ł
Ã «
Ð ¾
á ī
Ġ os
Ġd ais
Ġd anse
Ġl ent
Ġl ion
en sif
en veloppe
Ã© ti
Ã© ch
Ġp el
Ġp Ã©n
Ġc it
Ġs us
ou e
ou ch
re mi
Ġa ler
Ġa ide
Ġa cide
ti ce
in a
Ġm ou
Ġm Ã¨re
Ġm ass
ar ie
ar di
oi es
oi le
oi vent
or a
or b
or ie
Ġt est
ur a
ur aient
Ġf ou
Ġf oule
Ġf Ãªte
it ant
Ġv al
Ġv olu
us age
our g
as tis
il li
Ġen re
ĠL i
au teur
ĠC li
ĠC elle
ment ation
ĠA tra
ĠA EC
ĠA pophis
Ã¨ nement
ro Ã¯
Ġg uit
ne ments
ĠP DA
ĠP aul
Ġpar lÃ©
ĠE r
ol d
ol Ã©
ĠT V
Ġcon fort
Ġau teurs
ĠD om
ĠD el
ĠÃ© v
Ġre met
Ġre mon
ĠS p
ĠS ie
ĠS oft
Ġch an
Ġpo issons
ĠB ack
ĠB NF
ĠdÃ© tr
ĠdÃ© ta
ĠdÃ© riv
ĠG l
ĠG Ã©
ĠG ir
Ġin dustri
ot h
di tions
Ġst ra
ĠV ol
ĠO b
tÃ© ries
Ġh ors
ens it
Ġdi z
Ġdi git
og es
ĠN intendo
ul l
ul Ã©
ĠrÃ© c
ĠrÃ© ser
Ġpro che
Ġpro cess
ĠF u
Ġdis sous
Ġmoi tiÃ©
ph e
ort ant
Ġo x
ic a
Ġ20 18
iv alent
Ġan nÃ©e
Ġnom mÃ©
ĠCh ac
ĠCh ange
ĠprÃ© c
ĠprÃ© d
Ġcar ot
ct otom
Ġfait s
olog y
olog ues
ĠEn tertainment
roi t
ĠÃī gyp
Ġquel que
Ġparti cipe
Ġk il
Ġtra i
Ġtra dition
Ġi f
Ġpe inture
Ġper mis
aÃ ´ne
ob s
Ġmar s
Ġter min
Ġser vant
Ġcol onne
enne mi
Ġbou les
Ġbou illante
Ġfin al
Ġfin anci
Ġ18 4
mÃ© n
des sus
Ġti tres
atif s
Ġ199 1
Ġ199 4
Ġmont ant
Ġreg gae
ram mes
ĠÃīt at
Ġprincip aux
Ġimp Ã©ri
ven ir
18 4
18 6
ĠdÃ©partement s
Ġob s
Ġ6 128
Ġcal lig
Ġconst antes
Ġta ille
Ġ201 4
ex t
Ġenc od
Ġaut our
Ġnot re
Ġ197 7
Ġfer me
Ġfond Ã©e
Ġcel lu
Ġprop res
Ġcert ain
mis sion
Ġrest aur
ĠreprÃ©sent ant
ĠreprÃ©sent Ã©e
tien nes
Ġmicro bi
agn ie
Ġfeu illes
Ġju ge
ali a
Ġjaponais e
ĠTh Ã¨bes
Ġpersonn age
Ã©rie ure
Ġpouvoir s
ĠBeauj eu
enre gistre
Ġpoi gn
arch itecture
Al lier
Ġphysi ologie
Ġri ches
Ġ15 0
Ġlet tre
Ġoffici elle
ctive ment
Ġfac tions
Ġpass age
Ġhum aine
ira tion
Ġdeven u
.. .
Ġmis sion
Ġlamp es
Ġtex te
Ġtex tes
imp ort
Ġimport ante
Ġmoder nes
ĠprÃ©s ence
Ġfai te
Ġcomb us
ĠDÃ© finition
Ġpor tÃ©
Ġcin q
Ġfem me
ĠGe or
Ġtrou bles
ĠArm orial
inst ru
ĠcÃ´ tÃ©
ĠCor rÃ¨ze
Ġcontr Ã´
Ġven geance
Ġdubpl ates
Ġsup Ã©rieur
ĠjamaÃ¯c ain
Ġphilosoph e
Ġreligie uses
char ge
Ġretr ouver
Ġactiv itÃ©
ca dÃ©mie
ĠpÃ©t ro
mod ore
Ġaug mente
Ġrecher che
Ġinf lu
Ġdisp os
ym ologie
ĠBur digala
Ġenv oie
Ġbran che
ĠarmÃ©ni enne
Ġagric ole
ĠSoci Ã©tÃ©
Ġhong rois
Ġsouh aite
ĠbÃ©nÃ©f actif
ä¸ Ģ
aly se
Ġbes oin
ĠdÃ©couver te
ĠparticuliÃ¨re ment
Ġrespec ter
ĠrÃ©sul tat
AF UL
Ġstand ard
ĠArend t
Ġdais hÅį
Ġvolu me
ĠAtra ctotom
Ġremon te
Ġprocess us
Ġmicrobi ologiste
ĠAtractotom us
% "
A cadÃ©mie
B as
C O
S P
S S
c ussi
d aille
f or
g ie
g rÃ©
h et
h om
i p
i ant
j e
l ar
l ation
l Ã©e
l ore
m enti
n a
n ait
o ti
p rend
t our
t ation
u els
v res
w s
y a
Ê ¼
á ¸
Ġ ]
Ġ {
Ġ Åĵuvre
Ġd yn
en si
on ni
Ã© rop
Ġp ai
Ġp ion
Ġp oum
Ġc elles
Ġs els
an asty
ou gri
te au
Ġa im
Ġde l
ti ment
ti lles
in i
in v
er ie
Ġm as
Ġm asse
Ġm ira
Ġm Ãªmes
ent h
un t
un itÃ©s
ar der
ar ts
ar ticle
Ġla c
Ġla isse
om or
Ġt aux
Ġqu eu
ur ant
Ġf un
Ġf ol
Ġv s
Ġv on
Ġv ue
Ġv aut
us ant
as i
as hi
il m
Ġn Ã©g
ĠL oire
al arme
Ġb ille
ĠC PC
Ġr ue
Ġr ob
Ġr ock
ĠA me
ant hrop
Ġ( )
ch Ã©e
ch ers
ch lor
ch itecture
ch auff
li cules
Ã¨ ce
eu ter
mp unctata
ro se
Ġg ui
Ġg lisse
ri te
ĠP C
ĠP Ã©ri
ĠP lan
ĠP eter
ĠP remi
ol f
ĠT a
ĠT it
ĠT ell
ĠD an
ĠD ic
ĠÃ© vent
Ġre b
Ġre de
ĠS k
ĠS es
ĠS tu
ĠS ab
ĠS aÃ´ne
de urs
ac tions
ĠB our
ĠB ri
ĠB ak
ter s
ter re
ci ter
rÃ© d
Ġou ver
ĠdÃ© v
ĠG enre
Ġse mi
ot a
ot t
ge on
ĠN om
ĠN agas
ĠR ou
ĠR et
ĠR ussie
am i
ĠrÃ© si
and ait
ĠW eb
Ġ2 8
mo ins
uis e
ĠH a
ĠH en
ĠH er
ĠH all
ĠH athor
ab ri
ĠF or
Ġ19 2
ille urs
ph asy
vi le
ic k
Ġtr ouver
lis me
ig ner
Ġan c
Ġpr is
Ġpr ince
Ġpr oies
Ã§ ant
ĠCh er
ĠCh ine
ĠCh ris
Ġme ur
ĠprÃ© position
Ġcar b
ct ures
Ġav ance
Ġconc entre
Ġsu jet
Ġne ige
ĠK en
ins ule
ĠFran cis
ard in
ĠU r
Ġal tern
Ġfor ces
Ġcour be
Ġso ft
Ġpens er
Ġres p
ĠAn tigua
Ġph r
rit s
Ġper d
Ġdire ctions
he ur
he ad
rou p
Ġcou ches
Ġpremi Ã¨res
Ġcol labor
lig ne
mÃ© nie
Ġsec ret
Ġti re
Ġpeti tes
Ġcl ash
Ġmil itaires
Ġpres se
Ġpres ser
id th
18 7
ĠRÃ© gion
Ã©t ait
ĠRe d
Ġob jets
enn ui
Ġ6 4
tive ment
Ġform ules
Ġ201 0
Ġ201 5
Ġ201 7
Ġsig le
Ġ197 3
Ã©n ieur
Ġdou ce
Ġpermet tre
Ġtrav aille
ĠdÃ©fin ir
Ġport ant
cl am
Ġconn ue
Ġappel Ã©s
Ġas si
Ġ198 5
Ġvie illes
Ġli Ã©e
Ã©li opolis
ĠCar l
Ġprote ctrice
Ġappar ait
Ġderni Ã¨res
Ġple ine
Ġfr om
Ġcapit ales
Ġlar ves
ĠfÃ© min
gu ent
Ġju meaux
Ġdom aines
Ġw idth
Ġfa me
ĠrÃ©gion ales
Ã©nÃ© ra
Ġrel ie
ĠrÃ©p and
Ġroy ale
Ġiss u
ilb er
Ġsem aine
Ġcarac tÃ¨res
Ġcr ash
ĠspÃ©ci fique
ĠSt and
Ġpass Ã©
Ġprodu cteurs
Ġcommer ce
Ġins titu
ĠAnd rÃ©
ĠAnd erson
ĠprÃ©si denti
Ġmis es
Ġdoc trine
ĠsociÃ©tÃ© s
Ġlit re
ĠCommun autÃ©
sy mb
Ġant hrop
Ġurb aine
Ġlim itÃ©
Ġcin Ã©ma
Ġtechn ologie
Ġremplac er
Ġci vile
Ġret our
ĠÃ©p ouse
ĠGe ertz
âĢ¦ )
Ġpub liÃ©
ĠExe mple
Ġmoy enne
Ġliber tÃ©s
tel lig
Ġinv ente
Ã©lect ricitÃ©
Ġrus ses
Ġprot oc
ĠSec onde
ĠabrÃ©vi ation
ĠabrÃ©vi ations
ĠBabyl one
ĠreÃ§ u
ĠreÃ§ oit
Ġparticip ation
Ġlogici el
ĠLin naeus
Ġges te
Ġgraph ique
Ã©crit ure
ĠfÃ©dÃ©ra l
ĠAd alia
Ġtend ance
Ġretr ouv
ĠpÃ©t role
Ġbeff rois
Ġaur ait
ĠGran d
Ġmusic ale
ĠPi erre
ĠSte ve
Ġcamp agne
Ġlongue ur
stitu t
ĠTechn ology
ĠÃ® le
Ġdistribu tion
llab aire
enh otep
Ġconte xte
Ġhistor iques
ĠRom ains
ĠRob ert
ĠHau tes
Ġinstru ment
Ġmassi f
Ġro ches
ĠAss ociation
Ġgagn er
Ġpuiss ance
Ġáį ¡
Ġmess age
ĠÃ©tran g
Ġpap ier
Ġdoll ars
vey ron
ĠmagnÃ© tique
Ġpel licules
Ġguit are
Ġstra tÃ©g
ĠprÃ©d ateurs
ĠÃīgyp tiens
Ġcombus tible
Ġpai x
Ġpoum ons
anasty lose
Ġqueu e
ĠNagas aki
phasy llabaire
' '
3 6
A veyron
C alais
E ure
H or
H Ã©liopolis
L in
O siris
c ol
c la
c omme
c eton
d ie
d ont
d ge
d am
d ote
e f
f ond
f orme
h u
h is
i tion
j us
l ue
l Ã¨me
m ique
m ons
n et
n ot
o vi
p ro
p rÃ¨s
p onyme
r issent
s et
s ons
t ruction
u p
u ie
u li
v in
v ous
v ad
x ique
x ion
y si
Ã ¼
Ã Ń
Å «
Ð µ
à ¦
á Ĭ
Ġ x
Ġ }
Ġ ital
Ġd atif
Ġd ensit
Ġl y
Ġl ancÃ©
on iste
on ext
Ã© tiques
Ġp an
Ġp oule
Ġp ig
Ġp areil
Ġc m
Ġc oi
Ġc lo
Ġc ouverture
Ġc Åĵur
Ġs il
Ġs ait
Ġs ert
Ġs entir
Ġs orte
Ġs tim
an iste
an moins
ou k
qu is
qu ets
is er
is ne
Ġa Ã©ri
Ġa ctions
Ġa iles
Ġa illeurs
le x
le te
le ts
in et
in ures
in ateur
in tÃ©rieur
er ne
Ġm ie
Ġm are
un g
un issent
ar y
ar ra
ar ine
ar itÃ©
Ġle cture
or ant
om ans
Ġt ro
Ġt ox
ur y
ur al
Ġv el
Ġv ont
Ġv ise
Ġv alent
us tra
as ure
as ard
il lis
Ġen g
Ġen zy
Ġn age
Ġn aissent
el ous
ĠL oi
ĠL os
ĠL une
ĠL iv
al lis
al phabet
Ġb oire
ĠC ont
ĠC ap
Ġr ang
ĠA t
ĠA th
ĠA khenaton
Ã¨ tes
mp oule
ro t
Ġg ou
Ġg er
ri ch
ri Ã¨me
ĠP an
ĠP al
ĠP Ã©r
ĠP ublic
ĠP oli
ais ons
ĠT ant
ĠT rop
Ġcon j
at al
at mos
ai le
ai dent
ai mant
ĠD ire
ĠD ieu
ĠÃ© volu
ĠS im
Ġch am
Ġch air
Ġch iens
ac ent
Ġpo si
ĠB ro
ĠB oy
ci ation
les te
ĠdÃ© bu
Ġe gyp
Ġe mpereur
ĠM er
ĠM el
ĠM ac
ĠM oul
ĠM aur
Ġca b
Ġca fÃ©
ĠI SO
Ġin tÃ©r
Ġin fini
ot ro
di que
di fier
di dat
end rier
ĠV i
Ġte am
Ġte mples
ĠO ne
Ġh ar
Ġh Ã©ri
Ġh ertz
Ġh asard
Ġdi ver
Ġdi ront
ĠN ation
am ine
am harique
ain te
ul sion
ĠrÃ© el
ĠrÃ© gn
ĠrÃ© action
Ġpro jet
Ġvi end
Ġvi enn
Ġvi gne
Ġvi ennent
ĠW iles
Ġ2 3
ĠH om
ĠH al
ab ilitÃ©
ab latif
ĠF estival
Ġdis ait
Ġco ali
ille rait
Ġcomp ati
Ġcomp lÃ©ment
Ġcomm ande
ort h
os Ã©
os Ã©e
um iÃ¨res
ic s
ic ain
Ġmon ter
ni tif
st on
ir s
Ġ20 21
Ġson ne
ond it
Ġex ist
Ġex tra
Ġex tension
Ġar bres
Ġar rose
Ġme mbre
Ġcar Ã©li
Ġcar ton
Ġav ril
ĠEn fin
Ġra di
Ġra inures
oy aute
ĠÃī ponyme
ĠFran Ã§ais
Ġim mÃ©di
ĠÃ©t hi
Ġcommun ication
enti t
Ġquel qu
ard es
ard ant
19 2
iss on
Ġparti es
Ġk it
Ġtra duit
od a
ub e
ub ie
ore illes
Ġpuis qu
Ġres semble
Ġres sembl
rit ant
ĠgÃ© nitif
Ġmin or
Ġmin im
ob e
ob jet
Ġcou ps
Ġcou teau
Ġser ont
omm Ã©
acc om
acc ro
Ġmet tent
ĠmÃ© daille
Ġtou cher
raph ie
Ġ18 0
int ensitÃ©
Ġsouv erain
Ġbas es
Ġsui vi
alis tes
Ġad ap
Ġti ge
Ġti rent
Ġti ennent
Ġver sions
ill ant
Ġrec omp
Ġcl in
Ġcl air
Ġcl ass
met tre
Ã©c onomie
Ã©c utif
Ġmont rer
Ġmont agnes
Ġcontin u
Ġreg arder
ĠgÃ©nÃ©ra lis
ici en
ĠDe p
ĠDe vant
ĠdÃ©c lin
Ġva ches
Ġlum ine
Ġlum iÃ¨re
Ġat test
Ġat omiques
Ġab s
ĠAm enhotep
Ġmus Ã©e
Ġtour ner
Ġfil ament
Ġ200 6
Ã©t end
Ġcap te
Ġcal mer
Ġform Ã©
Ġform ule
Ġpays age
Ġ201 2
Ġass ure
Ġass istant
ex tension
Ġgaz eux
Ġá ĭ
fi Ã©
ĠCol on
ress er
Ġaut o
Ġnot ation
Ġ197 5
ĠQu Ã©b
Ġbr illerait
av or
Ġfond ament
Ġtrav ailleurs
Ġ4 5
ĠdÃ©fin it
Ġinternation ales
Ġblan ches
Ġrelig ions
Ġexe mples
oph y
Ġjou eur
ense ignement
Ġpat rimoine
Ġren de
ĠamÃ©ric aine
vis ibles
app ar
cer ons
lu ent
tiv itÃ©
Ġban que
Ġ196 9
Ġprend s
Ġderni ers
17 7
Ġmer ci
Ġang le
ĠÃ©lect riques
ox yde
Ġple ines
Ġmilli ard
Ġlar mes
An tigua
Ġouv rages
Ġai ment
Ġchiff re
Ġsigni fi
Ġlig n
Ġpersonn els
Ġsecond aire
Ġclassi fication
ĠAs sez
ath on
ath lon
Ġcompos Ã©s
Ġent oure
Ġgout te
200 1
mpere urs
to ine
Ġmal heur
Ġri vi
Ġess uy
Ġindi vi
Ġdistin gue
ĠLang ues
Ġconsi d
Ġsymb oles
Ġoffici ellement
ĠrÃ©s ultats
ĠdÃ©mocra ties
ĠCom modore
ĠIs is
ĠIs le
Ġtex tures
ash ington
Ġgrec que
Ġconstr uire
Ġchac une
Ġmag as
rat oire
Ġorganis mes
Ġorganis ations
ĠcÃ© leste
Ġquat riÃ¨me
Ġnum Ã©rique
Ġcontra intes
ĠdÃ©p end
Ġfab ri
Ġtrou peau
Ġtransp ort
Ġtransp orter
Fran Ã§ois
dus trie
Ġavi on
Ġmorce aux
Ġrus se
Ġvict oires
ĠSec rÃ©taire
ocke y
Ġore ille
ĠmÃ©di Ã©v
ĠComm on
ĠÃ©di tions
ĠÃ©di teurs
Ġexpri mant
ĠjamaÃ¯c aine
ĠfÃ©dÃ©ra le
Ġsort ent
ĠPer se
ĠJam ais
ĠÃītu des
Ġactiv itÃ©s
exist ent
Ġeu cli
Ġbeff roi
Ġcompare r
ĠUni x
Ġrecher ches
Ġtemp Ã©ra
ĠEd ison
Ġcrist aux
ĠeuropÃ© enne
Ġtranspar ents
Ġoign on
Ġboi tes
ĠTro jan
posi tions
ĠnÃ©cess aire
ĠPrin ceton
ĠExp ress
Ġstock age
Ġnaturelle ment
Ġamb iance
Ġjeun esse
Ġexclus i
ĠexpÃ©ri ment
Ġimpos sible
ĠcÃ©lÃ¨ bre
Ġul tra
aig re
Ġreven us
Ġconcern ant
Ġsoli de
Ġmaxim al
ĠCou pe
Ġplut Ã´t
ĠDun geon
ĠprotÃ© ger
ĠphÃ©nom Ã¨ne
ĠKing ston
ĠlinÃ© aire
Ġspecial s
Ġpromo tion
Ġsepte mbre
ĠalgÃ©b riques
Ð¾ Ð
ĠpÃ©n insule
Ġaler te
ĠBack us
ĠChac un
Ġcarot tes
Ġtrai tement
Ġobs cur
Ġencod age
Ġriches se
menti er
ougri ennes
Ġmira cle
Ġfrom age
Ġfame ux
Ġcoi ff
Ġstim ule
Ġenzy mes
ĠPÃ©r ou
Ġvienn ois
Ġcoali tion
ĠQuÃ©b ec
5 5
5 6
5 7
A C
A mon
A isne
C har
I e
S p
T ut
V AN
b o
b ert
b oussoles
c isse
c ast
c anisme
d al
d ence
d onn
e mo
e Ã¯
e mment
f ere
g uer
g lace
h s
h istoires
h eure
i res
i form
i ft
l d
l oi
l ine
l ing
l agement
m m
m Ã©s
m orce
m onner
n erre
o v
o ing
o eil
p ais
p odes
p rix
r ure
r ures
r int
r iere
s p
s in
t ait
t tes
t ah
t orat
u illes
u fu
v ac
v ieux
v aisse
w e
w n
w an
w ay
y er
y aux
z an
Ã ¥
Ã ¦
Ä ģ
Å ¡
É Ľ
Ġ âĶĢ
Ġd ot
Ġd ors
Ġd op
Ġd ore
Ġd ormir
Ġd resser
Ġl ieux
Ġl oyaute
en de
en cre
on ien
on ciation
Ã© cu
Ġp al
Ġp eux
Ġp Ã©r
Ġp ret
Ġp anique
Ġp ull
Ġc le
Ġc og
Ġc itÃ©
Ġc lan
Ġc ris
Ġs te
Ġs oi
Ġs ie
Ġs ois
Ġs ors
Ġs ombre
Ġs amour
Ġs ocie
Ġs Ê¼
ou y
qu ie
re ment
re intes
is Ã©
te ille
te cte
te mis
Ġa it
Ġa ge
Ġa ction
Ġa ligne
Ġde lic
Ġde cl
Ġde test
Ġde marrage
Ġde chet
Ġde tecte
ti tres
ti ere
le bre
in o
in te
in cl
in do
in aison
in visibles
er a
er aux
er ature
er fs
Ġm and
Ġm Ã¢
Ġm uc
Ġm aÃ®tre
et y
et es
et re
et ait
et end
et oile
ar m
ar is
Ġle ves
or ange
Ġla chent
Ġla vages
Ġt oges
Ġqu in
Ġqu ant
Ġqu asi
ur itÃ©
ur ite
ur Ã©lien
Ġf el
Ġf oy
Ġf iss
Ġf lo
Ġf ume
Ġf arine
Ġf etes
it y
it aient
Ġv u
Ġet es
Ġet res
Ġet ait
Ġet ale
Ġet aient
us se
Ġun iques
Ġun iquement
as me
Ġen ne
Ġen ergie
Ġdes am
Ġdes hyd
Ġn oires
Ġn uage
Ġn erfs
ra der
ra chent
me d
ĠL it
ĠL im
ĠL amb
ĠL andes
al igner
al phasyllabaire
Ġb er
Ġb ang
Ġb ons
Ġb omb
Ġb ox
Ġb alle
Ġb oussoles
ie use
au ge
au tique
ĠC in
ĠC ode
ĠC lau
ĠC ela
Ġcom ment
Ġcom ete
Ġr it
Ġr um
Ġr ari
Ġr asta
Ġr incer
ĠA K
ĠA pp
ĠA VAN
ĠA urÃ©lien
ce ans
ch age
ch ue
se ctes
eu fs
ro g
ro y
Ġg en
Ġg ron
Ġg ru
Ġg ateau
Ġpl ie
Ġpl ans
ri fu
ne c
ĠP oin
Ġpar s
Ġpar oi
ĠE x
ĠE ra
ĠE char
ĠE pais
Ġj az
Ġj ardin
res sent
si pe
ais onne
Ġpour rait
Ġpour rie
ĠT U
ĠT on
ĠT ak
ĠT rans
ĠT oute
ĠT OI
Ġcon g
Ġcon v
Ġcon duit
Ġcon gel
at um
at ta
at rice
at ana
ag a
ag ieux
ĠD o
ĠD eux
ĠD ormir
ĠÃ© m
ĠÃ© vo
Ġre ge
Ġre duit
Ġre vis
Ġre tient
Ġre uss
Ġre agit
Ġre cupe
Ġre jo
Ġre utiliser
Ġre joue
Ġre charge
Ġre chauff
ĠS m
ĠS am
ĠS tres
ĠS av
ĠS ainte
Ġ1 000
Ġch ose
Ġch iant
Ġch elous
Ġsi ens
Ġpo tes
Ġpo ison
ĠB on
ĠB or
ĠB asse
ĠB ern
ter ieur
ci ens
ui tiers
ĠdÃ© b
ĠdÃ© ri
Ġe lect
Ġe cri
Ġe quipe
Ġe pis
Ġe vac
ĠG r
ĠG od
ĠG lu
ĠG lace
ĠM as
ĠM out
ĠM anger
Ġca le
Ġca use
Ġca ches
Ġca iller
Ġse mb
Ġse cher
Ġse chage
Ġin fÃ©r
Ġin tr
Ġin cer
Ġin off
ale e
ale m
di cu
di enne
Ġst agne
Ġst opp
Ġst yl
Ġst agn
Ġst ressent
ff ler
ĠV an
ge ons
Ġte tra
ĠJ obs
ĠO SI
ĠO tt
tÃ© ri
tÃ© roÃ¯
Ġh ic
Ġh eure
Ġsur prend
Ġdi ction
Ġdi aph
ĠN oun
ĠR a
ĠR ol
ĠR oule
ĠR ond
ĠR euter
am id
am ertume
Ġpro cÃ©
Ġpro pose
Ġvi r
Ġvi es
Ġvi be
ĠW h
Ġ2 6
Ġ2 7
mo lecu
tu g
ab s
ab rÃ©viation
ĠF R
ĠF orm
Ġdis ques
Ġdis per
Ġdis sipe
Ġco ins
Ġco des
Ġco sy
Ġco Ã»
oc ra
oc cup
ille e
ces sion
Ġsa vent
Ġtu ent
Ġtu pper
Ġtu to
Ġtu yaux
Ã©r ard
Ġcomp lique
Ġcomp lexe
Ġcomp osition
Ġcomm and
ort issent
os ph
os hi
Ġo eil
Ġo deurs
Ġo ceans
Ġo eufs
out ant
Ġton nerre
Ġce lebre
ist ance
Ġtr ie
Ġtr istes
Ġtr Ã´ne
Ġmo le
Ġmo tive
Ġmo tiv
lis e
iv rant
Ġan nee
Ġan nees
Ġpr ise
Ġpr ouver
Ġex citer
ĠLa mp
ĠCh auff
ĠAl lo
Ġar rachent
ret ard
Ġme tier
Ġme ga
Ġme canisme
ap res
ĠprÃ© tend
Ġcar res
mi re
mi tien
Ġav ances
Ãª tes
Ã¨s es
Ġra ter
ĠÃī conom
ĠÃ©t end
op ie
Ġal lo
Ġfor cer
ĠAr temis
Ġcour ses
Ġsac rÃ©
Ġdeux iÃ¨me
Ġpre fere
Ġ3 2
Ġ3 000
Ġ3 50
Ġ3 60
Ġcoince es
Ġtra jets
rop tÃ¨res
od oro
ub astis
Ġsy ste
ĠAn g
Ġinter prÃ©
Ġph ares
th i
Ġper ds
Ġper fe
Ġper ime
Ġmin eraux
Ġcer ises
Ġdire cteur
ec ture
ec rans
Ġmar i
Ġmar ch
Ġmar Ã©es
Ġmar chant
Ġmar athon
Ã¢ tre
Ġcou pes
Ġcou per
Ġcou lent
Ġser ie
Ġser ies
Ġser veur
Ġser monner
Ġser rures
Ġutilis ation
Ġutilis ateurs
tra tion
tra per
ĠPar mentier
ru p
Ġbou che
Ġbou illie
Ġbou teille
fin ie
Ġrep ond
Ġrep roche
Ã´ te
Ã´ me
sent ation
Ġmet taient
az u
ise ptiques
Ġ18 6
Ġor ange
int aines
Ġsouv ient
Ġbas que
Ġsec s
Ġsec rÃ©t
Ġsec oue
Ġsec urite
omb ent
Ġprin ces
ten tion
ari o
ari at
ak a
ole e
Ġap aise
ĠâĢ ł
du c
du cteur
Ġad mire
Ġcas que
Ġcas ses
Ġver res
Ġver tic
Ġam ertume
Ġam ortissent
Ġrec oit
Ġrec oud
Ġrec oivent
Ġcl ap
Ġexp ress
Ġexp ose
Ġexp lore
Ġexp ulsion
Ġ199 9
Ġmont s
Ġmont es
Ġreg ne
Ġreg ardant
ici ter
man n
ĠDe hors
ĠdÃ©c ouvre
Ġsou pe
Ġsou lagement
Ġat te
Ġat tribu
Ġat trape
ograph ique
lect ron
Ġprincip ales
Ġtour s
Ġtour nes
Ġfil i
Ġfil tre
Ġfil antes
ler ent
Ġdiff ic
ĠRÃ© seau
Ã©t aire
Ġpers o
Ġpers onni
ĠRe gle
titu tion
Ġcap taient
Ġob jectif
Ġche vel
Ġag ressi
Ġag gra
Ġag itaient
Ġrou git
Ġord res
Ġord onne
Ġdroi tiere
Ġble us
Ġconst ance
ide es
iere r
entra iner
Ġsp or
Ġsp ort
Ġsp rint
Ġsp asme
Ġsol aires
Ġass aisonne
ex terieur
Ġdess ert
Ġdess iner
Ġdess erts
ĠCol or
ĠCol omb
accord s
ĠUn itÃ©
mati que
Ġ197 8
Ã©n ergie
Ġsuc res
Ġfer ment
Ġfer ies
Ġdou che
Ġdou dou
Ġder riere
Ġbr asse
Ġbr illante
Ġbr unit
Ġpermet tent
Ġfam illes
Ġfond re
Ġarrive e
Ġvais seaux
ĠNe bet
Ġconn aÃ®t
ste in
Ġpat auge
Ġ198 6
Ġsoci aux
Ġtomb es
Ġvie illis
ric k
amp Ã¨re
amp oing
Ġgra tte
Ġgra ppe
Ġdur cisse
Ġlors que
Ġlib res
Ġban ane
Ġban cs
Ġchar gÃ©e
Ġprote ctions
Ġprote ger
yl ene
Ġpouv ant
Ġmer es
Ġgr asse
Ġgr illÃ©
ĠÃ©lect ro
ĠÃ©lect ronique
Ġ17 9
lace ment
vÃ© nement
Ġref lete
ox ygene
Ġloc u
Ġple ut
Ġple urent
Ġfr isson
Ġfr uitiers
âĶĢâĶĢâĶĢâĶĢ âĶĢâĶĢâĶĢâĶĢ
Ġchauff es
Ġchauff er
Ġchauff ee
Ġlar me
Ġpi zz
Ġpi geons
Ġmetal liques
Ġpom odoro
Ġcent rifu
Ġsau f
Ġouv res
Ġouv rier
vers itÃ©
har a
Ġgrand issant
Ġdeg rader
Ġdeg ivrant
ry males
Ġreve le
Ġplu vieux
Ġja unit
Ġja unissent
resse ment
Ġrel ance
Ġrel atives
Ġprof esseur
Ġinc rev
Ġcompos ants
oun t
Ġgout s
Ġgout tes
Ġfati guent
Ġnature l
ĠSh ampoing
eff acent
ĠX X
Ġtri er
Ġtrois iÃ¨me
Ġgau chers
Ġchat on
ĠspÃ©ci alis
to bre
Ġz one
Ġz ero
Ġis olee
Ġdec rocher
Ġdec ouvrir
Ġdec alee
Ġri vier
Ġri dicu
ĠAp res
Ġ195 6
Ġess uie
Ġaff lue
Ġfre re
Ġfre res
Ġfre donn
Ġcad ran
Ġcad rans
Ġdiale ctes
Ġconstitu e
Ġmel ange
Ġmel anger
Ġmel aton
ĠLang uage
Ġbois sons
Ġsty lo
Ġmange ant
Ġmange oire
Ġbon jour
Ġhum ain
Ġdirect s
avi on
Ġsale tÃ©
Ġvari Ã©tÃ©
ĠSi x
ĠdÃ©mocra tique
gl ent
Ġ16 83
Ġpos si
Ġapprend s
Ġtoute fois
aff aires
Ġâ Ħ
Ġdoc uments
Ġdoc torat
ĠlÃ©g is
ĠlÃ©g umiÃ¨res
ĠPh il
ĠPh ili
Ġconcentra ient
Ġcan ape
Ġth Ã¨se
ult an
Ġassoci Ã©e
Ġfonction ne
Ġsour ces
Ġsour ire
Ġec ran
Ġec rit
Ġec rans
Ġec outant
Ġinform ations
Ġnouveau tes
Ġ8 0
Ġant iseptiques
Ġfai m
rat ation
Ġrond s
Ġrond es
Ġgene tique
tÃ©ra lement
Ġphot ons
Ġel astique
oute f
Ġnum Ã©ro
Ġnum Ã©ration
Ġcher che
ĠMan que
enche urs
Ġci ment
Ġclig ne
Ġmur is
Ġmur issent
Ġno tifs
Ġblo quent
Ġryth mÃ©
Ġret ardes
Ġret ombent
Ġcrev aison
evap orant
gle terre
ĠÃ©le ctions
ĠÃ©le vÃ©
lam me
Ġcli m
Ġcli ent
Ġspe ct
Ġspe ed
Ġemp ortant
Ġemp reintes
ĠMa illard
Ġress orts
Ġtransp ire
ck stein
ow eÃ¯
inst ruction
ĠOr din
ĠrÃ©alis Ã©
Ġorient ales
Ġliber te
Ġliber ent
ech appe
Ã¡ n
Ġlab orat
ĠtÃ©lÃ© ph
Ġinv ites
Ġrespe ctivement
Ġboug ent
Ġlarge ment
Ġgrammati c
Ã©lect ronique
Ġcui r
Ġcuis son
tiqu aire
Ġrus er
ĠindÃ© pend
Ġlumin osi
Ġlev ain
Ġcont role
Ġcont agieux
Ġdist ances
Ġques tion
ouss ierer
Ġcarre e
Ġcarre es
Ġrat ta
Ġrat trape
Ġrat traper
Ġacce lerent
Ġminu te
Ġcoupe e
Ġchamp agne
ĠĠĠĠĠĠĠĠĠĠĠĠ Ġ
Ġdouble r
Ġaig re
Ġaig uise
Ġaig uilles
ĠLin ux
Ġron ronne
Ġgraph iques
Ġetern el
Ġcafe ine
Ġmolecu les
Ġral entit
Ġgele e
humi difier
Ġstabilis er
Ġstabilis ent
Ġstabilis ateur
Ġpu ce
Ġpu cerons
Ġcla vier
eth ylene
ĠBou ches
ĠáĬ ł
Ġcharge e
Ġpa use
Ġpa quets
ĠSau f
ĠSau vage
Ġpose es
ĠJam aÃ¯que
Ġher bes
Ġher mitien
Ġautom obile
Ġmajor ite
Ġdem andait
Ġenti tÃ©s
Ġrange ment
Ġrem uage
Ġrem uent
mod ation
Ġ300 00
Ġ300 000
entend ent
Ġru che
Ġpod cast
Ġete int
Ġecl ate
Ġtemp erature
Ġdisp on
Ġfix es
Ġentend s
Ġsais i
Ġsais ons
Ġtom ate
Ġtom ates
ray ures
Ġbo f
Ġbal ade
ĠBan que
ĠcaractÃ©ris tiques
Ġcrist allis
Or ganisation
Ġir ritant
Ġciv ilis
ermo polis
org an
Ġfour rure
rag me
ĠComp te
Ġgard es
Ġgard ait
Ġtranspar ent
Ġlocalis es
Ġlocalis er
ĠlittÃ©ra lement
Ġemploy Ã©s
Ġoign ons
Ġpiv ote
Ġpiv oter
Ġbu vait
Ġboi te
ressi vement
atis f
ĠMo ins
Ġho chent
Ġho quet
Ġvib rent
Ġvib ratoire
ĠHor us
Ġimpose e
Ġpleure r
Ġprofessionn els
Ġdistinct s
Ġpet rit
Ġpet rissent
Ġsent ent
Ġdecis ion
Ġdecis ions
Ġmeu gle
Ġmeu glent
Ġvoc ales
Ġball on
Ġball ons
Ġbaille r
Ġrince e
Ġride au
Ġride aux
Ġparait re
Ġemo tion
Ġemo tions
ĠNouv elle
Ġcop ie
Ġtrin que
Ġtrin quant
Ġarom es
Ġarom atiques
Ġramene e
Ġprepare r
ĠmÃ©th odes
Ġatti rent
Ġmach ines
Ġaccomp agnÃ©
Ġasp ire
Ġasp iration
Ġgrille es
Ġbourre let
Ġbourre lets
Ġronron nent
ĠCul ture
Ġretra cte
Ġdisc ret
âĶĢâĶ¬ âĶĢ
Ġrepro ches
Ġrenouv elle
Ġcroy ait
Ġlo intaines
Ġfui ent
Ġflam ants
Ġvin aigre
ĠSw ift
Ġminist Ã¨re
Ġatta che
Ġbarbac ane
urrent s
ĠvÃ©r it
Ġbe bes
ĠCent aur
Ġgam mes
acti ver
Ġboulanger ie
Ġsuiv ante
cor n
enf lamme
Ġpince e
Ġmous tiquaire
Ġves te
Ġvit esse
ĠLond res
ĠEur onext
ĠTre asure
Ġred ressement
Ġrepe ter
Ġrepar tit
ĠSou ffler
Ġchant ant
Ġeche c
Ġhyd rate
ĠFour chue
Ġmob ile
Ġannivers aires
Ġaccorde ur
Ġbizar res
Ġzo os
Ġisol ation
Ġpouss iere
ĠAstar tÃ©
Ġgriff oir
Bar buda
rest re
Ã©ti tion
Ġmou illee
Ġmass age
Ġtest ent
Ġconfort able
ĠSie ge
ĠSoft ware
Ġchan teur
ĠGir onde
Ġdigit ales
Ġox ygene
Ġferme es
Ġcellu les
Ġpoign et
Ġaim ants
Ġmas cul
Ġlac rymales
Ġfol le
Ġrob inet
anthrop ologie
chlor ophy
Ġgui de
ĠPÃ©ri g
ĠPremi er
ĠDan iel
ĠDic tionnaire
Ġreb ondit
Ġrede marrage
ĠBri an
ĠRet enir
Ġanc etres
Ġcourbe e
Ġphr ase
ennui es
Ġdouce ment
Ġassi mil
ĠStand ards
ĠprÃ©sidenti elle
Ġpig ments
Ġsil ence
Ġmare es
arra che
Ġtox ique
Ġvel o
Ġnage oires
Ġgou ter
ĠPublic ations
ĠPoli tique
atmos phere
Ġegyp tiennes
Ġcab ine
otro phes
ĠNation al
Ġviend rait
ĠimmÃ©di ate
ĠÃ©thi op
Ġressembl ait
accom modation
accro chent
Ġrecomp ense
ĠDep oussierer
Ġlign ine
Ġrivi Ã¨re
Ġessuy ee
Ġfabri quent
ĠPerse ides
Ġexclusi vement
Ġobscur ite
Ġviennois erie
Tut tle
emo tion
emment al
morce aux
vaisse aux
Ġdop amine
Ġcog nait
Ġcris pent
Ġste ak
Ġsie cles
Ġsocie te
Ġdelic ieuse
Ġdecl encheurs
Ġdetest ent
incl inaison
Ġmuc us
Ġfel iciter
Ġfiss uraient
Ġflo w
Ġfume e
Ġdesam orce
Ġdeshyd ratation
Ġrum ine
Ġrari fie
ĠAVAN T
Ġgron de
Ġgru meaux
ĠPoin tilles
ĠEchar pe
Ġjaz z
Ġcongel ation
Ġrege le
Ġrevis er
Ġreuss ites
Ġrecupe re
Ġrechauff er
ĠStres s
Ġelect rons
Ġecri re
Ġepis odes
Ġevac ue
ĠGlu ckstein
Ġintr us
Ġincer titude
Ġinoff ensif
Ġstopp e
Ġstyl os
Ġstagn ante
Ġtetra podes
ĠOtt omans
Ġdiaph ragme
ĠRoule r
amid on
molecu les
Ġdisper se
Ġtupper ware
Ġcelebre r
Ġtristes se
Ġmotiv ation
ĠChauff ee
ĠÃīconom ie
Ġsyste me
Ġperfe ction
Ġchevel u
Ġagressi fs
Ġaggra vent
Ġpatauge oire
Ġvieillis sant
Ġpizz as
Ġcentrifu ge
Ġincrev ables
Ġrivier es
Ġridicu lement
Ġfredonn ons
Ġmelaton ine
ĠOrdin ateur
Ġluminosi te
Ġcontrole e
ĠSauvage ot
Ġcristallis er
chlorophy lle
" ,
3 7
4 5
A z
A in
A th
A ton
B M
B eau
D R
E DF
G ame
I C
I X
I SO
N IX
O S
a ie
a dÃ©
b on
b is
c ent
c tu
c cident
d uis
f eu
f ord
f ari
f Ã¨res
g i
g en
h b
h er
h or
h Ã©r
h abit
i ter
i ji
l oc
l odie
m ol
m Ã¨tre
n aires
o ol
o od
p les
p ort
s h
s o
s one
t ys
u g
u elles
v an
v ue
v ard
y r
y le
¯ Ŀ
Ð °
å į
è ¯Ŀ
Ġ ).
Ġl u
Ġl ou
on nÃ©es
Ã© si
Ã© moi
Ã© lection
Ġp ont
Ġp and
Ġs ab
Ġs ing
Ġs Ã©c
Ġs Ã¤
Ġs anc
Ġs atisf
an o
an ie
an cer
an alyse
ou les
qu Ã©s
qu ettes
te lle
Ġa ra
Ġa ire
Ġde mi
ti r
ti an
ti le
ti me
ti lle
le g
Ġm i
Ġm urs
Ġm orte
Ġm Ã¨tres
un ion
or Ã©
Ġla tine
om o
Ġt amb
Ġt Ã©moi
Ġqu it
Ġqu oti
Ġf onde
Ġf rot
it ation
Ġv ous
Ġv ote
Ġv Ã©h
us ta
our d
as tie
il ota
Ġen ce
Ġen fin
Ġen gl
Ġdes tin
Ġn av
ra d
ra ine
ra ire
el ui
ĠL ien
al ie
Ġb ord
ie ures
ĠC at
ĠC Ã©s
ĠC op
ĠC ox
ĠC elui
Ġcom it
Ġr iv
ĠA rabie
Ġ( ).
ch est
se il
Ã¨ dent
ro ise
ne au
ĠP l
ĠP eu
ĠP ol
ĠP ort
ĠP endant
Ġpar c
ĠE st
ĠE mpereur
Ġj ury
ol ie
ol fe
ĠT our
ĠT ennis
ag ri
Ġau teur
Ġau prÃ¨s
ĠÃ© cl
ĠS ar
ĠS at
ĠS ig
ĠS ite
ĠS ony
Ġ1 1
Ġch ron
ac t
ĠB ig
ĠB ubastis
ci us
ĠdÃ© tient
ĠdÃ© mont
ĠdÃ© tour
Ġe mpereurs
ĠG ray
ĠM ul
ĠM ak
ĠM ulti
ĠM ys
Ġse ction
ot s
ot te
ot hÃ©
di ction
end re
end ra
end aire
Ġst u
Ġst ation
Ġh a
Ġh yp
Ġsur n
Ġsur face
ens Ã©
ĠN a
ĠN ot
ĠN orm
ĠN ap
ĠR el
ĠR ht
ĠR ich
am outef
ul u
ĠrÃ© v
ĠrÃ© duit
ĠrÃ© fle
Ġpro ven
and ela
Ġvi ve
Ġvi ol
ĠW e
ĠW ashington
mo b
Ġil lus
ĠH Ã©ro
tu aire
ab a
ĠF on
ĠF is
ĠF rÃ©d
Ġ19 21
ati n
ons ou
ph tys
Ã©r on
Ġcomp il
Ġcomp let
Ġcomp agnie
ic an
oir s
ig h
Ġnom me
Ġex Ã©cutif
ĠCh im
Ã©s us
Ġar chÃ©
Ġar rÃª
ĠprÃ© h
ĠprÃ© par
ĠprÃ© positions
uit s
Ġjus tice
Ãª ts
Ġapp ro
roi x
par avant
ĠÃī lect
ĠÃī ditions
Ġim m
Ġcommun ications
ĠU tilis
Ġal phab
onne ur
ĠAr chitecture
ĠAr mÃ©nie
Ġcour amment
Ġtra itÃ©
od y
ĠAn gel
ĠAn toine
Ġi ci
Ġi den
Ġph ase
ing t
Ġper form
Ġmin istre
Ġutilis er
Ġentre prises
Ġcol Ã©optÃ¨res
Ġbou liers
acc omp
Ġfin it
Ġcons onnes
Ġor nement
Ġor igine
Ġprin temps
ten de
tr ines
ari ens
des sous
Ġver bes
Ġcl asse
all atif
ĠgÃ©nÃ©ra tion
Ġsou ter
ĠAm er
ĠAm strad
ĠAm set
Ġtrans mission
Ġprincip es
ven u
18 9
Ã©t at
tri b
ĠAu gus
ĠMe mbre
ĠMe iji
ĠĠĠĠĠĠĠĠ Ġ
Ġcal endrier
ĠrÃ©g ime
entra Ã®
Ġform er
Ã©g yp
Ġpri m
Ġesp agn
Ġesp rits
Ġacc ord
Ġá Į
ouve aux
fi Ã©e
Ġ197 1
ĠQu el
ĠdÃ©fin ie
Ġport or
ĠNe ith
Ġexe mpl
oph arm
Ġ198 9
ĠamÃ©ric aines
lÃ¨ ge
ĠJapon ais
Ġali ment
app rend
Ġrest re
Ġdur Ã©e
ĠCar ac
olu tion
17 9
Ġfut ur
ĠÃ©lect ron
Ġ17 7
Ġloc al
Ġfr Ã¨re
Åĵ il
Ġpi Ã¨ces
Ġtot al
ĠfÃ© od
tern et
An d
Ġouv ert
Ġdom in
Ġoff re
Ġdoi vent
Ġvoy elle
Ġrom aine
Ġclassi ques
Ġrel ations
Ġeff ic
tÃ©r ieure
Ġoc tobre
ĠX I
ĠÃ©tu die
Ġsal le
Ġz ones
rÃ©vi ations
Ġcir cul
ĠCon seil
ĠAp oll
Ġamp oules
Ġaff ir
Ġdistin guer
ĠCan nes
ĠrÃ¨ g
Ġpass ante
avi d
Ġbac tÃ©ries
Ġins crit
Ġconf ir
Ġprob lÃ¨me
Ġ194 5
gl y
gl om
Ã©ro gly
Ġann oncÃ©
chi a
Ġassoci Ã©s
Ġpra tiqu
Ġinform atiques
Ġlim ites
Ġtechn ologies
ĠHar vard
Ġsupp lÃ©ment
ki hab
Ġno ve
Ġ193 2
Ġ193 6
Ġsh ann
198 8
Ġpub lie
inform atique
Ġartis an
Ġartis tes
Ġcorrespond ant
ĠcÃ´ te
oud an
Ġsuff ixe
Ġdev int
ĠBl ack
Ġordin ateur
ĠdÃ©ci m
ĠprÃ©f ecture
Ġparticip er
Ġdivert issements
ĠĠĠĠĠĠĠĠĠĠĠĠ ĠĠ
ĠĠĠĠĠĠĠĠĠĠĠĠ ĠĠĠ
ĠáĪ Ĳ
vision al
Ġsup Ã©rieure
ĠlibÃ©ra les
Ġcla use
lit tÃ©ralement
Ġtradi tionnelle
Ġ188 4
Ch rist
ĠRen Ã©
ĠRen aissance
Ġbut ane
ĠGran de
Ġdirige ant
Ġdirige ants
ĠNÃ© erlandais
oss aire
Ġarch ite
Ġmusic al
ĠsÃ©par ation
ĠSu per
ĠSu Ã¨de
Ġadministra tive
Ġagric oles
Ġdessin Ã©e
Ġoccident ale
ĠÃ® les
Ġbl ues
ĠÃ©tab li
Au gus
Ġneu f
Ġseigne uri
ĠNouv el
Ġcompar Ã©e
Ġcri tique
Ġdesc end
Ġdesc endant
ĠLors que
ĠPat ronyme
ĠThÃ©or ie
ĠEntre prise
Ġmunicip alitÃ©
Ġdeme ure
Ġflot te
ĠconÃ§ u
Ġhi Ã©rogly
Ġfortif i
Ġphyt opharm
ĠAN SI
Ġpours uit
ĠabrÃ© gÃ©
ĠMich el
del Ãł
Ġvec teurs
ĠCant al
ĠGal li
ĠhÃ© ros
Ġhalog Ã¨ne
ĠmÃ©c anique
ĠdÃ©sig nÃ©
ĠOb jet
ĠrÃ©c omp
Ġtermin aux
Ġfinanci Ã¨re
Ġrestaur ation
ĠGeor ges
Ã©rop ort
Ġpion nier
ĠAme met
ĠSk atal
ĠBak ufu
Ġcarb one
ĠfÃ©min in
Ġprotoc oles
Hor us
Lin naeus
ĠaÃ©ri enne
ĠLoi ret
Ġger man
ĠdÃ©bu te
ĠMoul ins
Ġlumine use
Ġáĭ Ĳ
Ġfondament ale
Ġrende ment
Ġconsid Ã¨re
Ġeucli dien
ĠtempÃ©ra ture
Ġsamour aÃ¯s
ĠAK A
Ġrejo int
ĠBern ard
tÃ©roÃ¯ de
ĠLamp e
Ġatte int
Ġdiffic ul
Ġspect ac
ĠCentaur i
ĠPÃ©rig ord
ĠsÃ©c uritÃ©
Ġsanc tuaire
ĠtÃ©moi gn
Ġfrot tement
ĠvÃ©h ic
ĠCox sone
ĠMys tic
ĠRich ard
ĠFrÃ©d Ã©ric
ĠAngel es
Ġiden tique
kihab ara
Ġphytopharm ace
ĠSkatal ites
' .
' Â«
. ).
0 3
3 0
3 5
5 4
8 4
A b
A ri
A toum
A ube
C E
E T
E st
F abri
I A
I rak
I RE
N R
O T
S e
T A
T he
a j
a ques
a ussi
a jout
b Ã©
b as
b il
b el
b lÃ©
b anisme
c y
c rÃ©
c end
c tique
d ennes
e m
f a
f ore
f ric
g o
g in
g Ã©nieur
h omme
h onneur
i o
i ers
j im
j olais
l ang
m n
m ou
m ir
n elle
n out
o z
o ble
o che
o ok
o Ã»
p ou
p or
p our
p ri
p ente
t ul
t ous
u elle
u ellement
u ga
v Ã©s
v Ã©es
w k
x i
x es
y ra
z er
z ac
{ "
} "
É Ķ
Ñ Ĥ
Ġ *
Ġ erre
Ġ Åĵu
es ses
es sif
Ġd an
Ġd ange
Ġl ie
Ġl ien
en viron
on ique
on Ã©tique
Ã© th
Ã© lie
Ã© volution
Ġp s
Ġp es
Ġp au
Ġp av
Ġc um
Ġc Ã¢
Ġc andela
an im
qu Ã©es
qu ide
qu Ã©rant
re w
re au
is sion
Ġa st
in tÃ©r
in dustrie
Ġm un
Ġm or
Ġm oles
Ġm Ã¨ne
ar isation
or ganis
Ġla iss
Ġt s
Ġt en
ur iel
Ġf it
Ġf aux
Ġf lu
Ġf avor
it aine
Ġv ac
Ġv ingt
Ġun de
Ġun ique
as p
Ġen ch
Ġen tier
Ġdes cription
Ġn Ã©e
Ġn ob
Ġn ÉĻ
ra ient
ĠL y
ĠL ux
ĠL ouvre
ĠL yon
que mment
au g
au tÃ©s
ĠC rÃ©
ĠC am
ĠC os
ĠC iv
ĠC ross
ĠC ount
Ġcom te
ĠA g
ĠA qu
ĠA ux
ĠA pple
ĠA frique
ĠA ker
ĠA SP
ant Ã©
ce mbre
ch ain
li Ã©e
li Ã©s
se ud
Ġg al
Ġg uer
Ġpl ate
ri me
ri ces
ri mer
ri dae
ĠP ie
ĠP ic
ĠP tah
ĠP hara
Ġpar tis
Ġpar enth
ĠE lectron
Ġj uri
si er
ol a
ĠT out
ĠT ole
Ġcon dition
Ġcon jec
Ġcon tenant
at ou
at oire
ag in
ĠD J
ĠD en
ĠD avid
ĠÃ© rig
ĠÃ© mis
ĠÃ© lu
ĠÃ© qui
Ġre ine
Ġre mar
ĠS I
ĠS ing
de mment
Ġch ap
Ġch asse
Ġpo Ã¨te
ĠB en
ĠB ord
ĠB elle
ĠB ob
ter ie
ci enne
ci mpunctata
rÃ© g
Ġou est
ĠdÃ© mons
ĠdÃ© cembre
Ġe xplique
Ġe aux
Ġe leg
ĠG en
ĠG as
ĠG ra
ĠG au
ĠG uy
ĠG ame
ĠG Ã©rard
ĠM es
ĠM os
ĠM ic
ĠM organ
Ġse e
ran d
ĠI mp
ĠI rlande
ĠI BM
Ġin t
Ġin ten
Ġin tro
Ġin tellig
Ġin finie
di c
di er
ble ment
ff e
ĠV oi
ĠV ic
ĠV IC
ge ois
Ġte lle
ĠJ ack
ĠJ Ã©sus
ĠO ss
ĠO siris
Ġh ab
Ġh uit
Ġh ume
Ġh ilber
ens us
Ġdi min
Ġdi pl
og ramme
ĠN ic
ĠN Ã©s
ĠN ations
ĠN ote
Ġsimple ment
ĠR Ã©s
ĠR asta
am s
ul g
ul ation
ĠrÃ© un
ĠrÃ© seaux
Ġpro vient
Ġpro to
Ġpro vo
Ġpro jets
Ġpro cesseur
Ġvi c
Ġvi gue
Ġvi ande
ĠW indo
mo is
uis se
ĠH at
ĠH ong
tu el
Ġco s
ph antine
os ent
um Ã©
Ġmon ar
Ġmon arch
Ġmon ument
oule ment
Ã¨re ment
Ġmo des
ir on
moi res
Ġnom mÃ©e
ĠCh am
ĠCh ron
ĠCh rist
ĠCh iron
Ġar tif
Ġar ticles
Ġar mÃ©nien
Ġar bit
ret agne
ĠprÃ© nom
Ġcar rÃ©
Ġcar riÃ¨re
Ġcar nivores
ct or
ct ur
ure au
olog ne
olog iques
Ġconc erne
Ġra c
Ġapp roche
âĶ ´
âĶ Ĳ
ĠK oweÃ¯
tin g
Ã©ri te
ĠÃ©t at
ĠÃ©t roi
Ġcommun ales
Ġcommun autÃ©s
op es
op Ã©ration
enti ne
uti le
19 16
ĠAr ts
ĠAr tiste
ĠAr dennes
dÃ© c
Ġcour se
Ġcour tes
Ġcour ants
lÃ© phantine
iss age
la h
la re
Ġac cep
Ġac adÃ©
Ġtra duction
rop ole
ub is
Ġy ou
Ġsy llab
ĠAn ne
ĠAn gleterre
th Ã¨se
ad el
he b
rou ve
tif ication
ite urs
tra ction
ru cture
Ġrep ose
Ġses sion
Ġmet s
ĠmÃ© ta
ĠmÃ© lodie
mÃ© tri
Ġbas sin
ten te
ari tion
ak ura
Ġvois ins
Ġad or
Ġti r
Ġti ers
Ġti ges
ill y
ill ages
ill aume
Ġexp li
Ġ199 6
Ã©c ran
Ã©c ulaire
Ã©c rire
ici elle
man e
ĠdÃ©c is
Ġab and
Ġab stra
fic tion
id Ã©e
Ġimp Ã©ra
Ġtour nÃ©e
lic ations
Ġdiff usion
ĠRÃ© volution
Ġ200 3
Ġ200 8
Ġconnex ion
Ġpers onnes
ĠcrÃ© e
ĠcrÃ© ateur
ĠRe prÃ©
tri ce
tri ch
Ã©tÃ© roptÃ¨res
Ġche v
Ġche val
ĠMe xique
ĠĠĠĠĠĠĠĠ ĠĠĠĠĠĠĠĠ
aiss ant
Ġsp ati
Ġvis uels
Ġvis iteurs
Ġpri mor
ĠÃ©gyp tiens
nation al
ene ur
ĠCol le
ĠCol Ã©op
Ġtel les
ass Ã©
ass ociation
Ġ197 6
Ġsuc cessi
Ġpermet tait
av oir
Ġfond Ã©
Ġ4 64
ĠdiffÃ©r end
Ġpoli ci
ĠNe phtys
tis me
Ġcert aine
Ġas pect
Ġ198 3
ĠamÃ©ric ains
lÃ¨ te
Ġtomb eau
Ġli quide
ony mes
ĠCar Ã©lie
Ġchar gÃ©
Ġchar pente
Ġappar tenant
Ġ196 2
Ġ196 7
Ġprend re
Ġpart age
In stitut
commun ications
Ġloc ales
Ġple in
ĠÃ©c ran
ĠÃ©c oles
Ġmilli ers
ĠfÃ© dÃ©
Ġju in
ĠdÃ©velopp er
An g
An cien
ali for
ĠTh ot
rÃ©s il
Ġpersonn elle
Ġ[ -
ori z
qui Ã¨me
ath er
Ġrel ation
ĠrÃ©p ublique
Ġprof onde
Ã©rie ures
Ġnation aux
Ġroy al
Ġinc ar
Ġ" {"
Ġsyn ta
Ġsyn onyme
200 2
Ġoc cupe
ĠSh ou
Ġsem ble
ĠprÃ©cis ion
Ġphysi cien
Ġmal grÃ©
Ġ195 9
Ġaff aires
Ġaff luent
Ġmain tenant
Ġdistin ction
Ġconstitu Ã©
Ġsitu ation
Ġconsi dÃ©ra
Ġprog ramme
Ġprog ressivement
Ġop tique
ĠdÃ©fini tions
inter diction
Ġpass ant
Ġprodu ctions
Ġdeven ue
Ġsc Ã¨ne
Ġvol ont
Ġ194 0
Ġ194 6
Ġanglais e
rond issements
Ġann once
Ġconcentra tions
ĠâĶ Į
ĠprÃ©sent s
Ġmaj eur
Ġinternational iste
Ġlinguis te
ack s
Ġinform ation
Ġgrande ur
Ġposs Ã¨dent
Ġel se
Ġpor tes
Ġcontra t
Ġret rouve
ĠmathÃ©mati que
ĠmathÃ©mati cien
ys is
ĠÃ©p ous
Ġculture l
Ġpub lique
Ġrend re
ĠOr ganis
Ġvide o
Ġsub st
ĠKh ent
ĠKh onsou
ĠcÃ´ tÃ©s
tel l
ĠtÃ©lÃ© vision
ĠtÃ©lÃ© communications
Ġchinois e
Ġscienti fiques
Ġcuis ine
tiqu itÃ©
ĠBl onde
ĠBe at
Ġsolu tions
crip tions
ÉĻ s
Ġbat aille
ĠdÃ©ci males
Ġorig inaire
ĠreprÃ©s enter
Ġcommerci ales
ĠfrÃ© quemment
Ġpron oncÃ©
Ġpron onciation
Ġphilosoph ie
ministra tion
Ġiniti ales
Ġtransf ert
Ġstru ctures
Ġsynch ron
Ġmajor itÃ©
Ġsix iÃ¨me
Ġcat Ã©g
Ġaug ment
ĠGo od
ĠNÃ© anmoins
Ġalbum s
Ġtyp es
ĠCal vad
ĠPrÃ© sident
ĠÃ©qu iv
Ġchois ir
ĠintÃ©g rÃ©
Ġtrouv ait
ĠcaractÃ©ris tique
Ã©qu ivalent
rag Ã¡n
Ġ12 8
Ġ183 9
Ġgratu its
Ġemploy Ã©
Ġlois irs
Ġby te
ĠBar buda
ĠBar ragÃ¡n
Ġhong roise
ĠÃ©tab lisse
Ġpropri Ã©tÃ©
labor ation
ĠPrin cip
ĠbÃ©nÃ©f ici
Au de
En vironnement
ĠTop onyme
Ġseigne ur
ĠHau ts
Ġmach ine
Ġinstru ments
ĠopÃ©ra tions
ĠÅ Į
Ġvend u
ĠCul te
ĠThÃ©or Ã¨me
ĠDou amoutef
Ġjeun es
Ġrecons truction
Ġmultip les
ess entiel
ĠdÃ©di Ã©
ĠVO C
ĠidÃ© es
Ġminist res
Ġbarbac anes
europÃ© ennes
Ġshogun s
Ġshogun at
Ġdonn Ã©e
Ġsout en
Ġense igne
Ġpours ui
ĠOrig ine
Ġsystem s
autor itÃ©
don Ã©si
empl oie
och im
Ġcoord onnÃ©es
Ġexac tement
ĠChÃ¢te au
Ġjourn al
Ġdivis ion
system s
Ġtraditionn elles
fre d
Ã« l
Ġcit oy
Ġenre gistre
olÃ© on
ĠGl ossaire
Ġdiz aines
ĠFu jim
ĠimpÃ©ri al
Ġcallig ramme
cussi ons
Ġdel ta
inv est
Ġfun Ã©ra
ĠHen ri
ĠUr banisme
ĠRed head
ĠrÃ©pand ue
Ġinstitu tions
symb ole
ĠstratÃ©g ie
not amment
Ġdensit omÃ¨tre
Ġly cÃ©e
ustra lie
ĠLiv re
ĠCont raire
ĠPal me
ĠDire ction
ĠhÃ©ri tier
Ġdiver si
ĠHom onymie
ĠcarÃ©li enne
Ġsignifi ant
Ġindivi du
Ġmagas ins
ĠmÃ©diÃ©v ale
Sp ilota
ĠsÊ¼ Ã¤
ĠCin Ã©ma
ĠClau de
ĠToute fois
Ġcong rÃ¨s
Ġsemb l
ĠinfÃ©r ieure
tug ais
abs ence
Ath Ã¨nes
ĠCÃ©s ar
Ġcomit atif
agri culture
ĠdÃ©tour ner
ĠMul sant
Ġstu dio
ĠHÃ©ro dote
Ġornement ales
ĠQuel ques
Ġportor icain
Ġrestre int
Ġeffic ace
ĠrÃ¨g les
glom Ã©ration
Ġnove mbre
Ġdescendant s
Ari Ã¨ge
Fabri cius
Ġdan ois
Ġdange re
intÃ©r Ãªt
Ġunde cimpunctata
Ġench Ã¨res
Ġnob les
ĠnÉĻ gus
ĠPhara on
Ġparenth Ã¨ses
ĠTole do
Ġconjec ture
ĠdÃ©mons tration
Ġeleg ans
ĠOss ie
Ġhume ur
Ġvigue ur
ĠWindo ws
Ġarbit res
ĠKoweÃ¯ t
Ġprimor di
ĠColÃ©op tÃ¨re
ĠCalvad os
ĠFujim ori
ĠContraire ment
. ),
7 3
8 0
8 7
A GP
A pophis
A sie
E do
E hb
H er
I EC
J oseph
L ou
M L
M M
M ar
N aur
O asis
P M
R A
S on
S ch
S oudan
T P
U R
a o
a ou
a Ã©roport
b un
b our
b ri
c ore
c Ã¨de
c ell
d j
d om
d uire
d Ã¨che
e us
f r
f as
f usion
f aces
f ilm
g s
g al
g ist
g Ã©s
g arde
g entine
h m
h en
h ou
h it
h uit
i an
i di
i erre
j n
j and
k u
k en
k ate
l en
l ux
l ls
m us
m ig
m ise
n ai
n aire
n oum
o e
o f
o Ã¯
o asis
p et
p el
p se
p ens
p ture
p unctata
q et
r ennent
t ol
u il
u ant
u ble
w en
y w
y mp
z ing
Â »
È Ŀ
Ð »
à ®
á Į
ç Ļ
Ġ u
Ġ ois
Ġ orth
ģ ä¸Ģ
Ĵ u
Ġd ance
Ġl un
Ġl ut
Ġl Ãł
en et
on se
Ã© lier
Ã© val
Ã© lÃ¨ve
Ã© vÃ©nement
Ġp ant
Ġp ale
Ġp ond
Ġc ouv
Ġc rit
Ġc ru
Ġc ible
Ġc Ã©lÃ©
Ġc ath
Ġc ouvert
Ġs ch
Ġs cis
Ġs aint
Ġs ultan
an itÃ©
ou f
ou ge
qu isse
re ur
is tique
is Ã©s
te chn
Ġa qu
Ġa ir
Ġa jou
Ġa chet
ti les
ti dae
le vant
le mande
le jand
in atif
in iti
in sectes
er i
er ce
er res
er ing
er ma
ent rÃ©e
ar ita
or ies
or tÃ©es
om Ã©
om Ã¨tres
Ġt or
Ġt enant
Ġt ardi
Ġt ung
Ġt atou
Ġf ic
Ġf illes
Ġf ronti
it as
it Ã©e
Ġv an
Ġv ain
Ġv Ã©ri
Ġv Ã©nÃ©
us crit
us alem
Ġun ies
est om
as te
Ġen d
Ġen ter
Ġn ouveaux
ra tion
ra Ã«l
me dia
me lls
ĠL o
ĠL ag
ĠL ot
ĠL inguis
al let
al bum
que ment
ĠÃ ¢
Ġb ot
Ġb rev
Ġb aie
au d
au v
ĠC I
ĠC ro
ĠC entre
ĠC ub
ĠC onc
ĠC ong
ĠC amb
Ġcom tÃ©
ĠA li
ĠA ton
ĠA mpoule
ĠA ustralie
ĠA lejand
ant an
Ġ( ),
ch en
ch is
ch Ã©es
li an
li dae
se ur
Ã¨ ches
mp his
ro ph
ro log
Ġg u
Ġg are
Ġg Ã¨nes
ans ion
ĠP or
ĠP ri
ĠP age
ĠP yth
ĠP lau
ĠP atin
Ġpar ois
ĠE l
ĠE ss
res sions
si r
si Ã¨re
ol ine
ĠT om
ĠT aÃ¯
ĠT ouch
Ġcon fÃ©rences
Ġcon ver
Ġcon cep
Ġcon nec
at or
at us
ag Ã©
ag ent
ag glomÃ©ration
ĠD od
ĠD urant
ĠÃ© dition
Ġre ti
ĠS ant
ĠS ui
ĠS he
ĠS itu
ĠS ok
ĠS no
ĠS ki
ĠS eth
ĠS uisse
de puis
Ġ1 15
Ġch or
Ġch aire
Ġch ien
Ġsi m
ont o
ĠB u
ĠB re
ĠB it
ĠB os
ĠB ilb
ci ence
rÃ© al
Ġou tre
Ġou vre
ĠdÃ© ch
ĠdÃ© li
ĠdÃ© lÃ©
ĠdÃ© rou
ĠdÃ© mar
ĠdÃ© part
ĠG DF
ĠG roup
ĠG olfe
ĠM or
ĠM it
ĠM il
ĠM ot
ĠM ad
ĠM ah
ĠM oto
ran te
ĠI r
ĠI t
ĠI ran
Ġin ven
Ġin cl
Ġin no
Ġin tit
Ġin dis
Ġin donÃ©si
ale rie
di es
di ques
di os
Ġst ars
ĠV in
ĠV ie
ĠJ u
ĠJ Ã©r
ĠJ ules
ĠO S
ĠO s
Ġh ard
Ġdi te
ĠN i
ĠN ubie
ĠR os
ĠR od
ĠR ome
ĠR hÃ´ne
am on
am usant
ul ture
ul aires
ĠrÃ© volu
ĠrÃ© volution
ĠrÃ© ception
Ġpro sp
Ġvi ce
Ġvi gn
Ġvi vre
ĠW i
ĠW olf
ĠW oz
Ġ2 1
ĠH an
ĠH yd
ĠH aute
ĠH ouse
ĠF Ã©
ĠF ond
ĠF ah
ĠF oot
ĠF ilm
Ġdis pose
Ġdis quettes
ouv oir
ouv rage
Ġ19 18
Ġ19 26
ang o
ang le
Ġco c
oc cupe
oc rate
Ġsa vant
ph in
Ã©r indi
Ġcomp rennent
Ġ| }
os er
os ant
os se
os si
os tique
os ser
ni ak
ue z
ue il
ue illi
st Ã¨ne
Ġtr u
Ġmo teur
ir ie
ert on
ert iste
Ġan tiques
Ġan alog
Ġpr Ãª
Ġpr ennent
Ã§ aient
ut ation
ut enant
Ġnom mÃ©s
Ġnom inatif
Ġex am
Ġex cep
ĠCh ent
ĠCh yp
ĠAl an
ĠAl gÃ¨bre
ĠAl fred
Ġar mes
ap ar
ĠprÃ© dÃ©
Ġcar n
Ġcar din
Ġconc erts
Ġsu g
Ġra is
ĠĠĠĠ Ġ
ĠK an
ĠK am
ĠK hÃ©
ĠK olo
ĠK azu
Ġpeu ples
ĠÃī dou
op tÃ¨res
ĠÃ©g ale
ĠU s
ĠU NIX
Ġal lemande
Ġfor Ãªt
ĠAr t
ts k
ay t
ay ant
lÃ© ans
iss oire
Ġparti ellement
yp so
Ġac tes
Ġac tive
Ġk an
Ġk atana
Ġtra it
Ġtra jet
Ġtra its
ĠfranÃ§ais es
rop ri
ore r
Ġpuis sant
Ġsy mp
ĠAn ges
Ġi P
ad j
ad y
Ġmin Ã©ra
aÃ ¢
onn ais
ob jectif
ob tenir
ob acte
ĠIn stitu
Ġmar ti
Ġmar ais
Ġmar ches
Ã¢ h
Ġter res
Ġter rain
Ġter restre
Ġser vent
omm and
omm age
Ġentre prise
ĠPar mi
acc Ã¨s
mb la
Ã´ s
Ġmet tant
Ġcons iste
Ġcons onne
Ġcons oles
Ġcons oli
Ġcons Ã©qu
Ġcons ensus
hÃ© on
hÃ© Ã¢tre
Ġ18 17
Ġ18 21
Ġsui vie
ari um
ak ers
ak ht
onc tu
Ġcomprend re
alis me
Ġcas s
Ġam Ã©rindi
Ġrec ommand
ver gne
Ġexp ressions
all Ã©s
Ã©c ole
Ã©c riv
Ġcontin ue
Ġreg roup
ĠÃīt ymologie
ĠgÃ©nÃ©ra tions
man ie
man tique
ĠdÃ©c oup
ĠdÃ©c ouvert
Ġsou mis
Ġsou tient
agne ment
Ġdiv ine
Ġat tribut
ĠAm Ã©rique
ĠAm asis
form ation
ĠÃª tres
18 0
18 22
Ġdiff us
Ã©t aient
Ã©t aires
ĠcrÃ© Ã©e
ĠcrÃ© ole
Ġma tern
ĠRe al
ĠRe vel
ĠAu vergne
Ġche fs
ĠMe m
ĠMe dia
ĠMe mphis
ĠĠĠĠĠĠĠĠ ĠĠĠ
con vÃ©
con dition
Ġcal mes
Ġcal if
ĠrÃ©g u
Ġform at
Ġpays ages
rent issage
Ġass ume
Ġcul tiv
Ġesp Ã¨ce
Ġacc Ã¨s
Ġá ī
Ġmati Ã¨res
ĠCol Ã©optÃ¨res
assi fication
Ġfi ches
Ġ197 2
Ġ197 9
ke h
Ã©n at
Ġsuc cession
Ġfer til
Ġdou te
av a
av aient
Ġfam ili
Ġgar anti
Ġcel l
Ġblan che
Ġprop or
Ġpopul aires
Ġpopul aritÃ©
Ġconn us
Ġconn aissance
oph one
tionn els
Ġ5 0
Ġcoup let
ste ady
Ġlong s
Ġren v
Ġ198 2
Ġman if
Ġman uscrit
ĠnÃ© cessi
Ġsign alisation
ĠMar oc
ĠMar tin
amp oule
Ġli Ã©
Ġli Ã©s
Ġli Ã©es
ĠY am
Ġdur Ã©
ane b
ĠCar nivores
aÃ® tr
ĠreprÃ©sent ations
yl les
ĠsÃ© pare
ĠsÃ© mantique
Ġ196 6
ka wa
Ġbar re
agn ant
Ġang lo
kh met
oul Ãªme
ĠÃ©lect rom
Ġ17 6
vÃ© nements
Ġtes ter
Ġref rain
Ġloc ale
Ġfr ont
ĠPro visional
exp rime
exp ansion
Ġcapit al
Ġpi ano
Uni versitÃ©
Ġju li
ĠdÃ©velopp Ã©
ĠdÃ©velopp Ã©e
ok s
Ġcro ise
ĠTh ermo
Ġinst allÃ©
Ġinst antan
Ġinst allÃ©s
Ġgouver ne
ĠrÃ©gion ale
ramm aire
Ġfra g
ĠAs ie
Ġplu me
ĠrÃ©p ublic
Ġprof it
Ġfort s
tÃ©r ieures
Ġcompos Ã©e
Ġent our
Ã©m ie
oun d
200 0
200 3
ĠSh im
Ġsem ences
Ġparticu les
ĠX V
Ġcr Ã¨me
arch Ã©
ili ter
ili aire
ili bre
lem me
Ġtri bun
ĠspÃ©ci aliste
Al pha
ĠMi ysis
Ã¤ n
ĠCon tin
ĠCon quÃ©rant
oll yw
Ġ195 0
Ġ195 1
Ġ7 9
Ġcad mi
Ġ% )
Ġfac ture
Ġfac iliter
landais e
Ġmen Ã©s
Ġvari ante
ĠdÃ©f unt
ĠAnd rew
.. .)
Ġsc ore
Ġconf usion
Ġconf ondre
ĠprÃ©si de
no vation
imp orte
Ġâ ī
Ġdoc ument
Ġmol Ã©culaire
ĠAb rÃ©viations
ĠdÃ©s in
ĠdÃ©s ert
Ġimport ants
Ar dÃ¨che
Ġcan didat
ĠSy mb
ĠprÃ©s enter
hum anitÃ©
sy ch
Ġpra tiques
Ġurb ain
Ġpor tÃ©e
ĠcÃ© rÃ©
Ġnum Ã©riques
Ġcalcul atrice
ĠEs quisse
ĠDes cription
Ġsoun ds
Ġcirc ons
Ġfab ric
ĠÃ©p Ã©es
ĠGe b
198 2
Ġculture lle
vie w
ĠCons t
Ġemp r
Ġcy cles
ĠOr ganisation
ĠrÃ©alis Ã©e
ĠrÃ©alis Ã©es
ative ment
Ġmoy ens
Ġanim aux
Ġmeille ure
ĠKh noum
Ġorient al
Ġorient ale
ĠÃ©gypt ologues
Ġlab els
prÃ© sident
Ġdev ait
Ġus uel
ĠPr ince
Ġray on
199 5
ĠconsidÃ© rÃ©s
ĠconsidÃ© rÃ©e
ĠPersonn alitÃ©s
cas ion
tÃ©ris tiques
cesse urs
Ġsovi Ã©tiques
Ġorig ines
ĠáĪ Ģ
ĠáĪ ł
Ġcommerci ale
Ġcommerci alisation
Ġfoot ball
Ġpron om
Ġexpri me
Ġexpri mer
Am Ã©rique
Am strad
ĠAd j
ĠÃ©conom iques
Ġiniti al
ĠáĬ Ģ
190 2
Ġforte resse
Ġ189 5
Ġmajor itaire
Ġbret Ã¨ches
ĠMus Ã©e
ĠEsp agne
ĠEsp Ã¨ces
anc Ã©e
ĠTok uga
Ġarch Ã©es
ĠÃ©qu ivalent
ĠBan ks
sembl Ã©e
Ġapplic ations
194 5
Or lÃ©ans
anci enne
ĠeuropÃ© ens
ĠarmÃ©ni ennes
Ġadministra teur
Ġoccident aux
ĠlittÃ©ra ture
ich age
Ġvas es
ĠLib an
ĠVal se
Ġdistribu teur
Ġcomprom issoire
Ġadop tÃ©
Ġsouh ait
Ġautor itÃ©s
Ġpropri Ã©tÃ©s
ĠMarc el
Ġneu tre
ĠÃ©ch ang
ĠdÃ©couver tes
Ġaccomp ag
ĠmatÃ©ri el
ĠmatÃ©ri aux
AS A
Ġsuit es
Ġfle ur
Ġfig ure
ĠLors qu
Ġgagn ant
Ġretra ite
ades sif
Ġáį Ģ
Ġrenouv ellement
ĠcÃ©lÃ¨ bres
ĠfrÃ©qu ence
Ġdeme ures
Ġfui r
Ġpot entiel
ĠdÃ©di Ã©s
ĠGu illaume
Ġdirig Ã©
Ġconcern ent
Ġirak iennes
Ġconsac rÃ©
Ġorg anes
emb ourg
Ġdat ation
ĠAN D
ĠTur quie
Ġcontribu Ã©
Ġrev ue
ĠchrÃ© tienne
ĠchrÃ© tiens
ĠcontrÃ´le ur
don Ã©sie
empl oi
ĠthÃ© b
Ġvec teur
ĠLig ue
Ġris ques
ĠSci ences
ĠdÃ©termin er
ĠJus qu
ĠRo che
Ġexac tes
ĠdÃ©sig nÃ©es
ĠampÃ¨re mÃ©tri
Ġcontraire ment
tan tin
Ġenre gist
ĠLi ke
ĠCli ff
ĠdÃ©tr uit
ĠdÃ©riv Ã©s
Ġdiz aine
ĠrÃ©ser vÃ©
enregistre ment
import ation
instru ment
instru ctions
ĠcontrÃ´ ler
ĠpÃ©tro liers
Ġinflu ence
Ġdispos ait
Ġdyn astie
Ġrock steady
ĠÃ©vent uellement
ĠStu dios
ĠBour bon
Ġ192 4
ĠFrancis co
Ġaltern atif
Ġresp ons
Ġrelie f
hu a
Ġconj oin
ĠMaur ice
ĠintÃ©r Ãªts
ĠHal obacte
Ġcompati ble
Ġattest Ã©
ĠexpÃ©riment ale
Ġmand at
ĠmÃ¢ ch
Ġfoy er
ĠLit tÃ©ra
ĠdÃ©ri vÃ©
ĠRol ler
Ġvir gu
osph Ã¨re
thi opie
Ġmari age
ĠsecrÃ©t aires
duc ation
ĠlÃ©gis l
ĠPhili ppe
ĠindÃ©pend ante
ĠvÃ©rit able
Ġmascul in
ĠimmÃ©diate ment
ĠÃ©thiop ien
Az ur
åį ģä¸Ģ
Ġpand Ã©mie
Ġara be
Ġtamb our
Ġdestin Ã©e
Ġnav al
ĠMulti media
ĠNap olÃ©on
ĠrÃ©v Ã¨le
ĠFis her
ĠarrÃª tÃ©
ĠÃīlect ricitÃ©
Ġperform ances
ĠAmer ican
trib ue
Ġprim aire
ĠáĮ ¸
ĠCarac tÃ©ristiques
ĠXI V
ĠsupplÃ©ment aires
Augus tin
Ġgerman ique
Ġspectac le
ĠvÃ©hic ules
OT AN
bil itÃ©s
oÃ» t
Ġerre urs
Ġps ylles
Ġast ron
Ġlaiss er
seud onyme
ĠVoi ci
ĠRasta fari
ĠHong rie
Ġmonar ques
Ġartif icielle
Ġrac cour
Ġsyllab e
Ġabstra ite
ĠColle ge
Ġcitoy ens
invest issement
Ġnobles se
Lou is
çĻ ¾
Ġpant hÃ©on
ĠcÃ©lÃ© b
Ġscis sion
techn ique
Ġtung stÃ¨ne
Ġbot aniste
ĠAlejand ro
ĠPlau ger
ĠSui vant
Ġvign oble
ĠWoz niak
ĠChyp re
ĠÃīdou ard
ĠRevel ation
convÃ© ni
Ġfertil itÃ©
ĠnÃ©cessi te
ĠTokuga wa
ĠHalobacte ri
2 9
3 1
3 4
3 9
4 0
4 1
6 6
7 0
7 5
8 6
; "
A L
A s
A t
A mp
A mpoule
A kihabara
C amp
D en
E x
F in
H ermopolis
I S
I EE
I rlande
I NR
J e
L es
L uc
M P
N C
N ES
N ubie
N ET
O A
O ff
O ccident
P S
P er
P aul
P ierre
Q L
R e
R DF
S J
T J
T h
U F
U NES
W Y
a ve
a out
a illes
b en
b ou
b al
b ie
b ourg
c ie
c ons
c aire
c ate
c lÃ©
c od
d d
d t
d y
d ant
d eux
d Ã©e
d ente
e mp
f ou
f ri
f ran
f end
f esseur
g ol
g ine
g ies
g ateur
g ren
g ocie
g agnant
h el
h os
h od
h all
h yt
h ters
h Å«
i teur
i ze
i endaire
j ut
k an
k un
l l
l as
l itÃ©
l Ãł
m ur
m ard
m enter
n t
n y
n ou
n el
n st
n acks
o o
o que
o ins
o oter
p in
p us
r in
r or
r ence
r ise
r iller
s oit
s antes
t ur
t as
t rÃ©
t ob
t able
t ta
t ori
t ologue
u Ã©e
u tu
u ves
v ar
v itÃ©
v ise
v odie
v rages
w i
w in
w ag
w ard
w ork
x on
x or
x ic
x ford
y ri
y les
z i
| |
¥ áĭ
Ã ¸
Ð ¸
Ñ Ģ
Ñ ĥ
Ñ ĩ
á ¹
Ġ er
Ġ our
Ġ ott
Ġ entraÃ®
ī áĪ
İ le
ķ áĮ
es e
es ite
es cla
Ġd est
Ġd ente
Ġd ates
Ġd role
Ġl ot
Ġl ister
en z
en ac
en ci
en di
en nies
en vironnement
on nÃ©
on ales
on dition
Ã© l
Ã© re
Ã© rÃ©
Ã© rÃ©s
Ã© tende
Ġp Ã©
Ġp il
Ġp iste
Ġp ique
Ġp oire
Ġp uits
Ġp yra
Ġp onctu
Ġp sych
Ġc esse
Ġc rat
Ġc antine
Ġs ne
Ġs ain
Ġs la
Ġs cul
Ġs Ã»
Ġs Åĵur
Ġs antÃ©
Ġs kate
Ġs nacks
an iques
ou ti
ou lis
ou ret
ou per
qu est
re cte
re ennes
is c
is m
is Ã©es
is tiques
Ġa si
Ġa mi
Ġa th
Ġa ctrice
Ġa Ã©ron
Ġde par
Ġde cide
Ġde fend
ti Ã¨re
ti ments
in d
in n
in dÃ©
in verse
in vention
in berg
er ci
er vi
er oun
er ator
Ġm ille
Ġm ouve
Ġm eneur
Ġm auv
ent a
un es
un ts
ar r
ar ab
ar ith
ar gent
or n
or on
or ation
or tes
or ise
or ient
or tÃ©e
or ld
or onto
Ġla mb
Ġla ches
Ġla gs
om es
om an
Ġt re
Ġt Ã¢
Ġt rÃ©s
Ġt enir
Ġt acti
Ġqu ad
Ġqu art
Ġqu alitÃ©s
ur ait
ur Ã©e
Ġf oi
Ġf uit
Ġf oie
Ġf estival
Ġf lux
Ġf lemme
it age
Ġv il
Ġv oul
Ġv enir
Ġv ase
Ġv arie
Ġet h
us tive
Ġun s
our n
as a
as tre
as tiques
as sembl
il o
Ġn our
Ġn aÃ®t
Ġn anisme
Ġn ager
ra ins
ra ines
ra irie
me ister
me uble
ĠL Ã©
ĠL et
ĠL og
ĠL ancer
al d
al ise
al ler
al iennes
ĠÃ İle
Ġb re
Ġb in
Ġb il
Ġb ri
Ġb ob
Ġb lin
Ġb ureau
Ġb osser
ie me
au f
ĠC D
ĠC V
ĠC o
ĠC ri
ĠC itÃ©
ĠC aire
ĠC od
ĠC lo
ĠC entra
ĠC enter
ĠC occinel
ĠC rist
ĠC alifor
Ġcom ite
Ġcom itÃ©s
Ġr ig
Ġr entre
Ġr ites
Ġr ares
ĠA z
ĠA ff
ĠA ir
ĠA kh
ĠA rab
ĠA ape
ch im
li dÃ©s
se cte
Ã¨ g
Ã¨ des
Ã¨ ze
Ã¨ dre
mp or
ro chis
Ġg agnÃ©
Ġg ross
Ġpl uriel
ri che
ri Ã¨s
ri ctions
ne aux
ne dis
ĠP H
ĠP in
ĠP il
ĠP elle
ĠP ace
ĠP enn
ĠP ow
ĠP AS
ĠP OI
ĠP ologne
ĠP UF
Ġpar am
Ġpar ten
Ġpar ents
Ġpar aÃ®t
Ġpar odi
Ġpar allÃ©
Ġpar Ã¨dre
ĠE th
ĠE nedis
Ġj ette
Ġj ob
si ve
ol y
ol aire
ol ue
ol ise
ais er
Ġpour rit
ĠT A
ĠT r
ĠT w
ĠT as
ĠT ch
ĠT ay
ĠT yp
ĠT its
ĠT Ã©lÃ©
ĠT iy
ĠT ool
ĠT oronto
Ġcon qu
Ġcon fÃ©rence
Ġcon tenu
Ġcon tiennent
Ġcon ducteur
at o
at ch
at tein
at tribut
ag o
ag ar
Ġau dio
Ġau trich
ĠD er
ĠD am
ĠD ab
ĠD esh
ĠD ig
ĠD iff
ĠÃ© quipe
ĠÃ© lÃ¨ve
ĠÃ© vÃ©nements
Ġre tiennent
Ġre tenue
Ġre lise
ĠS il
ĠS el
ĠS ol
ĠS tÃ©
ĠS aut
ĠS ka
ĠS tat
ĠS aÃ¯s
ĠS Ã©nat
de ur
Ġ1 33
Ġch ante
Ġsi mil
ac i
ac rÃ©
ac Ã©s
ac ts
ac ulaire
ac tuel
Ġpo Ã©sie
ĠB ir
ĠB ill
ĠB lais
ĠB ali
ĠB eff
ter ne
ĠdÃ© n
ĠdÃ© r
ĠdÃ© mon
ĠdÃ© esses
Ġe volu
ĠG T
ĠG ate
ĠG ard
ĠG Ã©nÃ©ra
ĠG rammaire
ĠM y
ĠM en
ĠM is
ĠM ur
ĠM end
ĠM ay
ĠM od
ĠM oh
ĠM aÃ®tre
ĠM aÃ¢
Ġca us
Ġca che
Ġse x
Ġse ver
ran ger
Ġpas sion
ĠI oun
Ġin ser
Ġin rat
Ġin telle
di m
di r
di ens
di ctif
Ġst ats
ff ixe
ĠV e
ĠV er
ĠV ers
ĠV ig
ge ant
ĠĠ ĠčĊ
ĠĠ ĠĠčĊ
ĠJ ud
ĠJ ava
tÃ© si
Ġh y
Ġh Ã©b
Ġh ockey
Ġh oriz
Ġh esite
Ġsur nom
Ġsur mont
âĢ ĵ
ens es
Ġdi agn
og Ã©nÃ©
og rammes
ĠN o
ĠN et
ĠN it
ĠN at
ĠN av
ĠN ice
ĠN ik
ĠR h
ĠR i
ĠR ab
am ille
am mi
am inateur
am med
ul Ã©e
ul ature
ĠrÃ© ussi
Ġpro cÃ¨s
Ġpro chain
ĠW er
ĠW illi
Ġ2 2
ois santes
ĠH T
ĠH i
ĠH y
ĠH ap
ĠH Ã¢
ĠH ak
ĠH ockey
ĠH ermopolis
ab rÃ©
ab essif
ĠF e
ĠF re
ĠF ont
ĠF ore
Ġdis posi
ouv ent
ouv res
Ġ19 17
im meuble
Ġco in
Ġco fond
Ġco reennes
oc Ã©
ord an
ord inateur
ille ures
pe re
Ġsa fe
ph en
tre et
Ġcomp ter
Ġcomp ris
Ġcomp orte
Ġcomp ose
Ġcomp osi
Ġcomp lex
Ġcomp lÃ¨te
Ġcomm iss
os an
os ses
um er
nÃ© ade
nÃ© fer
ic al
ic oulis
sem bles
ist an
ist ants
ir ent
ir itu
ir landais
iv ardi
ig u
Ġpr it
Ġpr enant
Ã§ u
Ã§ onner
Ġnom mÃ©es
Ġex er
Ġex os
Ġex ten
Ġex cÃ©
Ġex tÃ©rieur
Ġex Ã©cu
ĠCh inois
ĠAl pha
Ġar me
Ġar gu
Ġar mÃ©es
ĠprÃ© v
ĠprÃ© al
ĠprÃ© fi
ĠprÃ© occup
Ġcar net
mi le
mi ques
mi des
mi tiques
mi dite
ure r
use ment
ĠEn gine
Ġconc urrents
Ġra le
Ġra me
Ġra tes
Ġra ger
Ġra rement
Ġne gocie
ĠĠĠĠ ĠĠĠ
Ġapp lis
Ġapp are
Ġapp orter
Ġapp ropri
ĠK i
ĠK Ã©
ĠK id
ĠK har
ĠK lin
Ġfran co
Ġcre ve
oy Ã©
ins p
roi ts
par d
ĠÃī lÃ©ment
ĠÃī crit
ĠÃī thiopie
ĠFran k
ĠFran Ã§ois
entre fer
Ġim ag
Ġ. .
ĠÃ©t ym
Ġcommun i
Ġcommun autÃ©
op le
op ot
ion ales
uti ques
ĠÃ©g al
19 20
ĠU S
ĠU l
Ġplan Ã¨te
Ġfor tement
ĠAr mÃ©e
ĠAr rondissements
dÃ© partement
dÃ© tenue
Ġcour ante
ay a
iss ait
la Ã§ant
Ġac qui
Ġac cident
Ġac ronyme
Ġac ariens
Ġdeux ieme
Ġk i
Ġk ir
Ġpre te
Ġpre fer
Ġaux qu
Ġ3 1
Ġ3 5
Ġtra in
Ġtra ces
rop ro
od ologie
Ġpuis se
Ġres ultats
Ġres eaux
ĠAn ouk
ĠAn cienne
ĠAn ubis
Ġmom ies
Ġmom ifi
Ġi dÃ©e
Ġinter nes
Ġinter ven
Ġinter vient
Ġinter ieur
Ġinter loc
Ġph onÃ©tique
th Ã©tiques
ing h
ing Ã©nieur
ĠgÃ© ant
ĠgÃ© nies
ĠgÃ© ographique
Ġper mÃ©
ad u
ad op
ad jectif
ad ministration
onn et
onn ie
ob an
ob al
ob jets
Ġdire cte
he d
he im
ĠIn ten
ĠIn tel
ĠIn stitut
ĠIn ternet
ĠIn novation
ĠIn donÃ©sie
ĠIn secte
Ġmar ine
Ġmar quÃ©
oit ou
Ġes ti
rou illes
Ġcou l
cu ler
cip iendaire
Ġser as
ite cte
omm Ã©e
tra tions
ĠPar c
Ġcol oc
Ġcol ons
ru teurs
ru cteurs
Ġbou tiques
Ġbou ffe
acc orde
mb idi
Ġfin is
Ġfin ale
Ġrep til
Ġrep ondre
Ã´ ts
Ġses sions
Ġcons ult
Ġcons cience
ĠmÃ© tra
Ġ18 50
Ġ18 53
Ġor chest
int ro
tic s
Ġsec rÃ©taire
omb oniste
tr Ãªme
ari an
ĠgÃ©nÃ© rique
Ġnorm ale
Ġnorm alement
Ġnorm alis
alis er
alis Ã©e
du ctions
Ġad j
Ġad met
Ġad dictif
Ġti midite
Ġcas h
els on
ill ac
ante d
Ġrec os
Ġrec ours
Ġrec urrents
Ġrec ondition
Ġrec ruteurs
ver be
Ġcor nes
Ġexp os
Ġexp ression
all Ã¨
Ġmil ieux
Ġreg ionales
ici ens
ĠDe v
ĠdÃ©c ret
ĠdÃ©c rire
ĠdÃ©c lare
ĠdÃ©c ennies
Ġdiv an
Ġdiv ises
ograph e
ĠAm Ã©ric
form es
Ġtrans vers
Ġmus cle
id enti
Ã©t ymologie
Ġpers os
Ġma il
Ġma xi
ĠRe cher
aÃ¯ d
enn uy
Ġche min
ĠMe illeures
Ġag rÃ©
20 13
ĠrÃ©g Ã©nÃ©ra
Ġpays ans
Ġsp iritu
Ġsol des
Ġass istants
Ġpri vÃ©
Ġpri vÃ©e
ex Ã©cu
ex aminateur
Ġacc us
Ġacc usatif
Ġacc ords
cul teurs
fi ces
Ġenc orb
ĠCol lÃ¨ge
ass er
Ġsig ne
aille ries
ke y
Ġfer a
Ġfer mes
Ġfer tilis
Ġder riÃ¨re
Ġbr Ã»
av ait
Ġfond er
Ġfond ation
Ġtrav a
ĠdÃ©fin issent
Ġinternation aux
ĠdiffÃ©r ence
ĠdiffÃ©r ences
be hs
Ġbi ologie
Ġbi ographie
ĠAh o
Ġmat hs
oph iles
Ġdebut s
Ġ5 5
Ã¢te au
Ġcoup le
Ġpat ch
Ġas tÃ©roÃ¯de
Ġren aissance
Ġ198 1
Ġsoci ale
Ġsoci aliste
vis Ã©e
Ġman que
Ġman ip
ĠMar ine
app ro
app lique
app roche
app arition
cer otte
lu ence
Ġli ve
Ġrest o
Ġrest rictions
Ã©li ens
ane mar
tiv itÃ©s
ĠCar te
ĠCar aÃ¯
ĠCar Ã©lien
ĠCar oline
Ġchar gÃ©s
Ġprote ge
Ġappar t
Ġappar ues
Ġappar tient
Ġappar aissent
ser v
ser ver
Ġpouv ait
Ġnouv el
Ġ196 1
Ġmicro s
Ġbar que
Ġbar onnie
agn er
Ġang oissantes
Ġref aire
CI I
ox yd
Ġloc alitÃ©
Ġfr Ã¨res
ĠPro fesseur
Ġfon ce
Ġvoi es
ĠÃ©c rire
ĠÃ©c rite
Ġpi erre
Ġpi erres
Ġpie ges
Ġju illet
An tiquitÃ©
Ġpom pes
Ġcent aine
Ġsau cerotte
Ġsoir s
Ġdom es
ann er
ĠthÃ©or ique
its u
Ġsigni fication
Ġsigni fier
Ġinst a
Ġcote aux
Ġw eb
Ġw ifi
Ġw hom
Ġw allet
Ġdeg rÃ©
ores c
Ġfa veur
Ġgouver nements
Ġpersonn ages
Ã©nÃ© gal
Ã©lÃ© ment
ori ale
Ġrom ance
Ġsecond aires
cinel lidÃ©s
Ġfra pp
aume illant
Ġpasse port
ĠrÃ©p ert
ĠrÃ©p Ã©tition
Ġprof s
Ġcolle ction
Ġroy aux
Ġinc or
Ġcompos ent
Ġ" (
Ġ" )
Ġ" }"
Ġ" ;"
Ġtant Åį
cri pt
Ġiss ue
eff ic
arch itecte
ili ers
Ġni pp
ĠÃ©tu de
do ade
yd os
Ġsal ari
Ġtri fas
mocra tie
ĠspÃ©ci fication
ĠspÃ©ci fications
ĠspÃ©ci fiques
nom in
Ġz Ã©ro
Ġis omor
Ġdec o
Ġdec or
Ġdec ode
Ġdec ouper
Ġdec ouvres
ĠMi ridae
Ã¯ vodie
ĠCon f
ĠCon cept
Ġri ve
ĠAp riÃ¨s
Ġ195 3
Ġ195 4
Ġ195 7
Ġ195 8
Ġess aye
Ġ7 0
Ġveu lent
ĠBas e
ĠBel ron
Ġindi que
Ġindi ce
Ġconstitu ent
Ġconstitu tion
ĠLang age
ĠCan didat
ĠSt an
Ġchim i
Ġsty let
Ġprog resses
Ġop Ã©ration
Ġsymb olis
Ġsymb olise
ĠdÃ©fini tivement
Ġtable ttes
ĠrÃ¨ gle
ĠrÃ©s istance
ĠrÃ©s olution
Ġprodu cteur
rom e
Ġbac tÃ©ri
ĠSi wa
ĠdÃ©f end
Ġins pi
amb iance
Ġsc Ã©n
Ġsc ope
Ġsc ooter
indi ction
uss ure
Ġconf ond
ĠsiÃ¨ cles
Ġ194 7
Ġ194 8
gl as
Ġdoc trines
ĠlÃ©g ende
Ġmol Ã©
ĠAb el
ĠAb rÃ©viation
ĠAb dal
Ġann uelles
Ġimport ance
Ġcan a
Ġcan opes
Ġth er
Ġth Ã¨me
Ġth ermo
Ġth riller
Ġbour se
Ġbour geois
ĠSy rie
ĠprÃ©s entiel
ĠprÃ©sent es
ĠprÃ©sent Ã©es
Ġpublic s
Ġsour is
Ġconse iller
ĠSa oud
ĠSa ussure
ĠfaÃ§ ade
Ġant Ã©rieures
Ġmag ie
rat chia
Ġcomb in
Ġcomb ats
ĠDÃ© partement
ĠDÃ© mocratie
Ġposs Ã©d
dÃ©ra tion
Ġphot o
ĠdÃ©sign ait
oli tion
Ġel li
Ġlim iter
Ġpor ter
ĠpÃ©ri ph
Ġcin quiÃ¨me
oute illages
ĠMan if
ĠHe y
Ġsupp ortes
Ġno tion
Ġno ter
Ġryth mique
ĠTe f
Ġ193 0
co ol
ĠÃ©le vÃ©e
ĠSe khmet
âĢ¦ ),
âĢ¦ ).
Ġsaou dien
198 0
198 9
Ġcli ents
Ġbru yant
ĠCons ole
ĠCons titution
ĠCons tantin
Ġemp Ãª
ĠJoh ann
Ġtrou e
Ġtrou pes
Ġress ens
ck sie
ow n
Ġmulti po
Ġrend s
Ġrend u
Ġvide os
Ġanim es
Ġorient ation
ËĪ ÉĽ
áĪ ³
Ġlatin s
Ġvo Ã¯vodie
alog ie
Ġchinois es
Ġstat ue
ĠOu tre
ĠOu pou
ĠOu vrages
Ġsuff rage
Ġcolon ie
Ġcolon nes
Ġcolon isation
Ġdev oirs
ĠAut or
ĠBl ue
ĠMont ou
Ġcont our
ĠBe fore
ĠBe mbidi
199 0
199 4
Ġterrit oriale
ĠmÃ©di ane
II Ie
Ġven usta
ĠComm ission
ĠdÃ©ci de
ĠprÃ©f Ã¨re
Ġparticip Ã©
Ġfinnois e
ĠáĪ °
car nation
Ġtop ologie
Ġtop onymes
ĠLou xor
rige ants
Ġ190 3
Ġ190 4
Ġpron once
197 3
197 6
Ġadore r
din et
din and
Ġcla que
Ġfen niques
ouvre ur
ĠáĬ ķáĮ
Ġpa ie
Ġmang a
orat oires
Ġtend re
ĠCert aines
ĠSau di
Ġstru ctur
190 4
Ġforte resses
Ġ189 4
Ġpropre ment
Ġdem le
Ġdem ain
Ġenti ers
Ġenti Ã¨rement
ĠDi rigeants
ĠMÃ© moires
ĠMus icien
Ġcommen cÃ©
196 8
196 9
ĠUni vers
Ġparfait es
Ġaur a
Ġdevi endra
Ġtres or
Ġru iner
Ġemb ry
Ġemb rouilles
Ġemb outeillages
Ġinf os
nig hters
Ġconser ve
Ġconser ver
Ġconser vation
ĠsÃ©par Ã©s
Ġsauve garde
Ġtyp ologie
Ġtyp iques
Ġbo xe
Ġbal ance
ĠCal ypso
ĠPi ke
ĠPrÃ© nom
ĠPrÃ© sentation
ĠSte phen
ĠSch ivardi
Ġtrouv ent
Ġactu el
Ġactu elles
Ġactu els
Ġactu ellement
ĠmÃ©de cin
ĠnÃ©erlandais e
pend ance
Ġciv ils
Ġlesqu elles
Ġbran ches
ĠComp agnie
ĠÃ©lÃ©ment aire
ĠÃ©lÃ©ment aires
Ġchu tes
Ġmodi fication
Ġmodi fiÃ©e
Ġoccident al
ĠlittÃ©ra ire
ĠTechn ologie
Ġvas tes
Ġunivers el
Ġunivers itaires
ĠLib rairie
ĠAc c
Ġremp lace
ĠKe k
ĠmÃ©t al
Ġadop tÃ©es
ĠnÃ©cess aires
Ġprofessionn el
dis cussions
su ffixe
aly tique
Ġbes oins
Ġconte mpor
Ġstock er
Ġhistor ien
Ġcop ine
Ġcop ain
Ġopp osition
Ġopp osÃ©
Ġopp osÃ©e
ĠmÃ©th odologie
Ġ187 8
Ġ187 9
ĠopÃ©ra tionnel
ĠÅ Ĵu
Ġfle uve
Ġfle xion
ĠPat rimoine
Ġexclus if
Ġrecons titu
ĠexpÃ©ri ences
Ġcroy ance
ĠfrÃ©qu ente
ES A
Is is
ha ustive
inf os
Ġflot tant
Ġve ctor
Ġvin yles
ĠdestinÃ© s
ĠCy cles
ĠÃ©n ergie
ĠÃ©n orme
Ġpot ager
ĠBus ter
Ġdirig er
Ġfranc ais
Ġfortif ication
Ġirak ienne
Ġrencont re
Ġrencont rent
Ġphyt osan
Ġorigin aux
Ġpol y
Ġsout Ã¨nement
ĠLab s
ĠLab oratoires
ĠbÃ¢ timents
ĠCl assification
Ġgam me
Ġplut ot
ĠTur ing
ĠÃ©vi ter
ĠrÃ©par ti
ĠrÃ©par tit
ĠprÃ©cÃ© dÃ©
ĠprÃ©cÃ© dent
Ġappli quÃ©es
Ġidenti ques
Ġconsomm ation
Ġconsomm ateurs
Ġsuiv ront
ĠabrÃ© gÃ©e
Ġpropos Ã©es
ĠphÃ©nom Ã¨nes
ks wag
Ġmous tiques
Ġves timent
Ġnavi re
Ġnavi res
Ġnavi gateur
ĠLig ht
ĠLond on
ĠCant on
Ġris que
Ġroule r
Ġplac Ã©
Ġrepe teur
Ġrepar ation
ĠSci ence
ĠBo oks
Ġeche cs
Ġhalog Ã¨nes
Ġdispar ition
Ã©rant o
Ġannivers aire
ĠChÃ¢te aumeillant
Ġaller gies
Ġreconn aissance
Ġclaire ment
Ġtransform ateur
Ġbizar re
Ġeffec tu
Ġeffec tivement
ĠÃ©tudi ants
Ġzo ologiste
joue urs
Ġgriff e
Ġcit oyen
Ġsus pend
Ġfou illes
ĠCli mat
ĠSp Ã©ci
ĠdÃ©riv Ã©es
ĠGÃ© ographie
ĠVol kswag
Ġ184 3
186 8
enregistre r
... ).
import ance
ĠGeor ge
Ġinflu en
CO D
cussi onn
á¸ ¥
á¸ «
ĠnÃ©g atif
ĠPlan Ã¨te
ĠTit ulature
Ġouver te
Ġouver ture
ĠrÃ©si dence
ĠChris tian
Ġmeur t
Ġmeur tri
Ġresp ire
Ġcollabor ation
187 6
Ġtravaille r
ilber tien
ĠspÃ©cifique ment
Ġanthrop ologue
tellig ence
Ġretrouv Ã©
ĠÃ©trang ers
ĠÃ©trang Ã¨re
Ã¼ r
Ġital ien
Ġclo che
Ġtro ff
ĠPan el
Ġcham ailleries
ĠBoy s
ĠBoy z
ĠMel ody
ĠVi ol
Ġhar mon
Ġcommande ment
192 8
Ġminor itaire
ĠdÃ©clin aisons
Ġassure r
Ġcoiff Ã©
Ġcoiff eur
bo ard
iform ia
zan tin
Ġdot Ã©
Ġsoi ent
Ġquin ze
ĠLamb ert
Ġgen res
ĠTak e
ĠBon apar
ĠprocÃ© dÃ©
ĠForm ule
ocra tie
Ġmarch and
Ġvertic al
ĠdÃ©couvre ur
Ġfili ale
Ġfili ales
Ġpersonni fication
ĠNebet Ã¢h
Ġlocu tions
ĠXX e
Ġpossi bilitÃ©s
ĠâĦ ĵ
Ġcherche urs
Ġlaborat oire
Ġlaborat oires
ĠtÃ©lÃ©ph ones
ĠtÃ©lÃ©ph onie
Ġratta chent
Ġdispon ibles
Ġcivilis ation
Ġcivilis ations
Ġassimil Ã©
hor reur
habit ation
Ġlou che
Ġsing ulier
Ġquoti dien
Ġence inte
ĠÃ©cl at
ĠSat amon
Ġsurn ommÃ©
ĠrÃ©fle xion
Ġproven ant
ĠFon ction
ĠprÃ©h ilbertien
Ġimm ense
ĠUtilis ation
accomp agnement
Ġsouter raines
189 7
ĠAugus t
Ã©gyp tien
Ġexempl aire
ĠÃ©lectron iques
Ġcircul ation
ĠApoll inaire
Ġshann on
Ġartisan ale
ĠdÃ©cim ale
ĠGalli mard
ĠrÃ©comp ensÃ©
Ġdifficul tÃ©
Ġphytopharmace utiques
IRE N
cend ance
Ġlie utenant
Ġpau vre
Ġpav Ã©
Ġts ar
Ġvac ances
ĠLux embourg
ĠCam eroun
Ġguer rier
ĠPie ce
Ġjuri dique
ĠÃ©qui pÃ©
Ġchap elle
Ġintro duit
ĠVic tori
ĠJack son
Ġhab itu
Ġhilber tienne
Ġdipl om
Ġvic time
ĠChron ologie
dÃ©c ouvreur
Ġador Ã©e
ĠdÃ©cis ions
ĠimpÃ©ra trice
ĠReprÃ© sentation
Ġchev eux
Ġaspect s
ather ine
Ġprofonde ur
ĠOrganis me
ĠcatÃ©g ories
ĠÃ©quiv aut
ĠÃ©tablisse ments
ĠÅĮ ga
Ġsouten ue
Ġpoursui vre
Ġdiversi fication
Ġsembl ables
Ġprimordi al
UR SS
hit hÃ©Ã¢tre
Ġois eaux
Ġpale tte
Ġcrit Ã¨res
Ġcible es
Ġachet es
Ġtor sion
Ġtatou age
Ġfic tion
Ġfronti Ã¨re
estom ac
ĠPatin age
ĠTaÃ¯ wan
ĠSitu ation
Ġchor Ã©g
Ġinven teur
Ġindis pens
ĠJÃ©r usalem
Ġhard core
ĠFah d
ĠFoot ball
ĠFilm ographie
Ġcoc cinellidÃ©s
Ġtru cs
ĠprÃ©dÃ© cesseur
Ġsug g
ĠKam akura
tsk iste
Ġsymp a
ĠInstitu te
Ã´s is
Ġconsoli de
ĠconsÃ©qu ence
Ã©criv ain
ĠdÃ©coup age
ĠrÃ©gu liÃ¨re
Ġcell ulaire
Ġmanif est
ĠXV IIIe
ollyw ood
Ġâī ¡
ĠdÃ©sin ence
ĠAdj arian
Ġaccompag nÃ©e
ĠampÃ¨remÃ©tri que
ĠCliff ord
Ġconjoin tement
ĠmÃ¢ch icoulis
ĠLittÃ©ra ture
ĠlÃ©gisl atives
Camp tob
IEE E
INR IA
UNES CO
gren iers
jut su
Ġlot us
Ġpyra mides
Ġcesse z
Ġcrat Ã¨re
Ġsne akers
ĠaÃ©ron autique
Ġdepar ts
indÃ© pendance
Ġmouve ments
Ġmauv ais
orient ation
Ġlamb ertiste
Ġtacti le
ĠClo cher
ĠCoccinel lidae
ĠPenn y
ĠTits ingh
ĠTiy i
Ġautrich ien
ĠDab keh
ĠDesh ima
Ġsimil aires
ĠBlais e
Ġevolu ent
ĠMoh ammed
ĠMaÃ¢ t
Ġsever es
Ġinser tion
Ġinrat able
Ġintelle ctu
Ġdiagn ostique
ammi fÃ¨res
ĠFore z
Ġdisposi tif
ĠKlin cksie
ĠÃīcrit ure
Ġprefer es
ĠAnouk is
Ġinterloc u
ĠInten tions
Ġreptil arium
Ġrecondition ne
ennuy er
Ġencorb ellement
anemar k
Ġsaucerotte i
Ġtrifas ci
ĠAbdal lah
ĠManif old
ĠConstantin ople
ĠBembidi on
ĠáĬķáĮ īáĪ
Ġvector iel
Ġvestiment aire
ĠVolkswag en
ĠBonapar te
ĠVictori a
Camptob rochis
ĠKlincksie ck
' t
) ).
/ -
2 8
3 2
3 8
3 53
4 7
5 9
5 26
7 2
8 1
9 8
A R
A g
A p
A qu
A SI
A mant
A gri
A khenaton
A TA
B e
B lan
B retagne
C L
C R
C ar
C al
C at
C ic
C Ã´te
C yr
D on
D RE
E P
E r
E s
G I
G u
G ar
H e
H en
H aut
H athor
H Ã©tÃ©roptÃ¨res
I l
I w
I rish
J acques
L T
L a
L e
L oire
L erma
M A
M in
M arie
O C
O s
P I
P h
P OI
S D
S E
S CII
S cript
T S
T ouch
U C
U E
V allÃ©e
W e
Y T
Y SE
Z Ã©
Z eus
a un
a as
a ac
a ter
a di
a der
a uss
a chi
a wa
a venir
b ur
b ad
b Ã©ra
b ox
c ou
c onne
c ad
c ane
c issement
c ross
c ott
c opie
c roix
d ra
d ences
d iss
d ats
d its
d Ã¨rent
e k
e p
e mpire
f el
f ert
f roi
f ire
f iel
f actif
f ood
f ÉĶ
g y
g ate
g az
g Ã©m
g orie
h al
h am
h ard
h istor
h otep
i ve
i Ã©s
i der
i lement
j en
j on
j is
j or
k le
k al
k ins
k raine
k ulu
l ai
l um
l Ã©s
l ations
l ass
m y
m it
m as
m ait
m ain
m out
m ing
m ak
m Ãªmes
m Ã´sis
n ique
n issant
o a
o tique
o ka
o Ã©sie
o Ã«
p oi
p oul
p ice
p Ã¨des
q q
r ar
r us
r ine
r ast
r ington
s ch
s ans
s ol
s ter
s ine
s tÃ©
s iste
s auf
s ouvent
t ot
t os
t rois
u k
u o
u Ã©
u mp
u di
u ff
u vi
u tique
u ler
u Ã©tude
v us
v il
v ain
v ang
v ong
v rier
x is
x ville
y Ã©
y rÃ©
y st
y enne
y cle
z ation
z ay
z erain
z gin
· ŀ
Ä į
Ä Ŀ
Å ĭ
Å ĳ
É ª
Ê ¾
Î ±
Î ½
Ï ģ
× ĳ
× Ķ
à §
å ·ŀ
Ġ #
Ġ >
Ġ Î
Ġ ot
Ġ uti
Ġ ä¸Ģ
Ġ ÉĻs
ĥ áĪ
ķ áī
Ġd en
Ġd Ã»
Ġd unes
Ġl is
Ġl us
Ġl ine
Ġl ux
en v
en tin
en sible
on ais
on Ã§
on ji
Ã© en
Ã© le
Ã© di
Ã© der
Ã© ros
Ã© rer
Ã© rÃ©es
Ã© laboration
Ã© ochim
Ġp en
Ġp in
Ġp Ã¨
Ġp ure
Ġp Ã¢
Ġp are
Ġp all
Ġp uri
Ġp seudonyme
Ġc ra
Ġc ot
Ġc ub
Ġc ouver
Ġs an
Ġs ti
Ġs omm
Ġs atur
Ġs ensi
Ġs Ã¥
Ġs phin
Ġs ensible
an i
an um
an tique
an nÃ©es
ou i
ou x
ou z
ou li
ou mois
qu ait
qu ad
qu ateur
re f
re l
is ant
te e
te m
te pet
Ġa z
Ġa che
Ġa mÃ©
Ġa Ã©rop
Ġa jus
Ġa fric
Ġa oÃ»t
ti nes
ti Ã¨me
ti nÃ©es
ti cien
le ctions
le dge
in Ã©
in iÃ¨re
in fini
in dre
in rich
in telligence
er ra
er se
Ġm ul
Ġm ons
Ġm ors
Ġm ic
Ġm Ã¨res
Ġm oul
Ġm Ã¥
Ġm aÃ®tr
Ġm yri
Ġm ammifÃ¨res
ent aine
ent Ã´t
et Ã©
ar o
ar in
ar iste
ar ous
ar ah
ar rondissement
ar acte
oi ent
Ġle ver
or itÃ©
or ien
or ail
or hod
om on
om at
om ologiste
om tous
om achi
Ġt ent
Ġt ur
Ġt au
Ġt Ã´t
ur able
Ġf as
Ġf al
Ġf ant
Ġf lor
Ġf Ãªtes
it z
it is
it ra
it ale
it anie
it tee
Ġv ou
Ġv ins
Ġv entra
Ġv oud
Ġv ulg
us h
us cule
Ġun iform
our ce
il it
Ġen vi
Ġen sembles
Ġdes ign
Ġdes tinÃ©es
Ġn or
Ġn ain
Ġn ig
Ġn uc
ra ble
ra tique
ra kawa
me yer
el ais
ĠL u
ĠL or
ĠL au
ĠL ac
ĠL ouv
ĠL Ãł
ĠL ud
ĠL arous
al an
al li
al ors
al th
Ġb en
Ġb les
Ġb ab
Ġb ir
Ġb ap
Ġb elles
Ġb rou
Ġb ateau
Ġb rÃ©sil
Ġb Ã©lier
ie ber
au mes
au teurs
au gu
ĠC P
ĠC r
ĠC um
ĠC ond
ĠC onne
ĠC Ã´
ĠC ole
ĠC ote
ĠC rÃ©s
ĠC Ã´te
ĠC atherine
ment y
Ġ? ).
Ġr ur
Ġr Ãª
Ġr id
Ġr ast
Ġr ural
ĠA B
ĠA T
ĠA ra
ĠA mp
ĠA pe
ĠA vent
ĠA be
ĠA vis
ĠA ix
ĠA mÃ©n
ĠA nec
ĠA kihabara
ĠA MP
ĠA SCII
Ġdu e
Ġdu o
ch t
ch u
li a
li ance
li gn
li ade
li zz
se pt
Ã¨ ques
eu mann
mp li
ro c
ro car
Ġg re
Ġg ens
Ġg Ã¨re
ans le
Ġpl age
Ġpl um
Ġpl astiques
ri k
ri m
ri en
ri mÃ©
ri ps
ri dge
ne y
ĠP J
ĠP oi
ĠP au
ĠP ens
ĠP sion
ĠP ress
ĠP alais
ĠP riv
ĠP resses
ĠP ouvoir
ĠP oitou
ĠP oÃ©sie
Ġpar u
Ġpar lement
Ġpar cs
Ġpar cour
Ġpar lÃ©e
ĠE m
ĠE ure
ĠE gyp
ĠE ug
Ġj et
res p
ol k
ol it
ol as
Ġpour raient
ĠT H
ĠT J
ĠT au
ĠT ri
ĠT at
ĠT ous
ĠT im
ĠT able
ĠT Ã¡
ĠT ime
Ġcon ven
Ġcon vention
Ġcon tenir
Ġcon dam
at z
at re
at ri
at traction
ag on
ag Ã©e
ag ir
ag ore
ag oniste
ag rand
Ġau gus
Ġau paravant
ai gn
Ġest onien
ĠD L
ĠD h
ĠD ie
ĠD ieux
ĠD oun
ĠD ira
ĠD roit
ĠD IREN
ĠD anemark
ĠÃ© l
ĠÃ© ph
ĠÃ© po
ĠÃ© volution
ĠÃ© mettre
ĠÃ© vÃ©nement
Ġre dÃ©
Ġre levant
ĠS Ã©
ĠS in
ĠS or
ĠS eu
ĠS ai
ĠS ot
ĠS ul
ĠS par
ĠS op
ĠS cip
ĠS id
ĠS Ã©g
ĠS yl
ĠS Ã©p
ĠS atis
ĠS orb
ĠS ovi
ĠS obe
ĠS mells
ĠS Ã©nÃ©gal
de o
de venu
Ġ1 20
Ġ1 17
Ġ1 12
Ġch ance
Ġch aÃ®
Ġch lor
Ġsi re
Ġsi mples
Ġsi mpli
ac er
ac itÃ©s
ac tive
ac tÃ©ries
ac quis
Ġpo che
Ġpo sent
Ġpo terne
ĠB M
ĠB y
ĠB Ã©
ĠB ron
ĠB Ã¢
ĠB lan
ĠB ah
ĠB all
ĠB erg
ĠB ros
ĠB ast
ĠB rad
ĠB CE
ĠB ulg
ĠB retagne
ĠB rÃ©sil
ĠB rÃ©al
ĠB lizz
ter restre
rÃ© atique
ĠdÃ© duit
ĠdÃ© pl
ĠdÃ© nomin
Ġe mpire
ĠG U
ĠG X
ĠG i
ĠG um
ĠG rou
ĠG Ã©nÃ©
ĠG ule
ĠG usta
ĠG alerie
ĠM ag
ĠM ain
ĠM ir
ĠM ats
ĠM ong
ĠM id
ĠM alais
ĠM aison
ĠM Ã©rite
Ġse ize
ran ce
ran ch
ran ge
Ġdans es
ĠI V
ĠI ne
ĠI ous
ĠI denti
ĠI II
ĠI RA
Ġin tÃ©
Ġin duit
Ġin tÃ©rieur
Ġin sectes
Ġin gÃ©nieur
ait Åį
ot Ã©lÃ©
ot to
ot ymp
di le
end ie
ff er
ĠV end
ĠV ous
ĠV iv
ĠV ari
ĠV oix
ĠV II
ĠV ars
ge h
ge ait
ĠJ an
ĠJ ay
ĠJ ourn
ĠJ erse
ĠO c
ĠO p
ĠO un
ĠO ct
ĠO use
ĠO ccident
tÃ© rix
Ġh on
Ġh al
Ġh im
Ġh Ã©r
Ġh Ã¢
Ġh ier
Ġh ourd
Ġh Ã©tÃ©roptÃ¨res
Ġque m
pp opot
Ġsur ve
Ġsur venu
âĢ Ķ
Ġdi alog
che c
che v
che ur
og a
og h
og le
og Ã©e
og ut
og ly
og Ã©ochim
ĠN R
ĠN y
ĠN or
ĠN am
ĠN ome
ĠN orin
ĠN atum
ĠN arita
ĠN elson
ĠN eumann
ĠR oi
ĠR Ã¨
ĠR ic
ĠR out
ĠR Ã¢
ĠR ies
ĠR ock
ĠR SS
ĠR ug
am u
am ar
am ique
am Ã©ric
am Ã©n
am kulu
am ming
ul is
ĠrÃ© di
ĠrÃ© cip
ĠrÃ© alitÃ©
ĠrÃ© vÃ©
ĠrÃ© alisation
ĠrÃ© uss
ĠrÃ© cit
ĠrÃ© fu
ĠrÃ© actif
ĠrÃ© actions
ĠrÃ© tention
ĠrÃ© alise
Ġpro clam
Ġpro duis
Ġvi v
ĠW est
ĠW il
ĠW al
ĠW ord
ĠW ak
ĠW agner
ĠW amkulu
Ġ2 4
ĠH ol
ĠH ons
ĠH ors
ĠH yp
ĠH istor
ĠH ann
ĠH ach
ĠH aye
ĠH ratchia
ab ou
ab li
ĠF F
ĠF un
ĠF el
ĠF al
ĠF ut
ĠF Ã©li
ĠF orce
ĠF ira
Ġdis s
Ġdis tri
Ġdis quette
ouv Ã©
Ġ19 23
Ġ19 13
Ġ19 15
Ġ19 11
ĠLe mons
ĠLe zgin
Ġco vi
Ġco hÃ©r
Ġco chen
Ġco dÃ©couvreur
age d
ati e
oc casion
oc ycle
tes te
ces sible
Ġsa ble
Ġsa Ã¯
ph ique
ph iles
ph ones
ph onie
ph ica
Ġtu be
Ġtu tor
Ã©r itÃ©
Ã©r ieurs
vi ennent
Ġcomp li
Ġcomp Ã©tition
ort a
ort ent
os a
os h
os co
ĠTu telle
um ique
um ba
nÃ© s
ic ago
out h
Ġmon Ã©taire
Ġmon gol
Ġmon orail
ni en
ni Ã¨res
st ab
st ructure
Ġce inture
ist Ã¨re
nes s
Ġtr entaine
Ġmo ine
Ġmo du
Ġmo let
Ġmo indre
ĠIl lus
ir t
ir its
Ġ20 22
lis Ã©e
Ġson des
Ġson ores
iv itÃ©
ig es
ig an
ig er
ig nes
ig ion
ig ht
Ġan ti
Ġan ge
Ġan neau
Ġpr ises
Ã§ ons
ut on
ut ane
ond ation
Ġex cell
Ġex tÃ©rieures
Ġex haustive
ĠLa os
ĠCh e
ĠCh ou
ĠCh ev
ĠCh iy
ĠCh icago
ĠAl ph
ĠAl bert
Ġar mÃ©e
Ġar tiste
ĠprÃ© fe
ĠprÃ© pond
ĠprÃ© pare
ĠprÃ© cur
ĠprÃ© venir
ĠprÃ© vue
Ġcar ib
Ġcar rÃ©s
Ġcar rÃ©e
Ġcar tÃ©si
uit y
ct ural
mi a
mi es
mi tique
Ġav ancÃ©
Ãª que
Ãª che
ĠEn viron
Ġconc ours
Ġconc urrent
Ġsu pr
Ġsu jets
Ġsu zerain
Ġra ce
Ġra cine
ance ment
bre u
ĠĠĠĠ ĠĠ
Ġapp elle
Ġapp areil
Ġapp ortÃ©es
ĠK ai
ĠK ale
ĠK ap
ĠK he
ĠK Ã´
ĠK are
ĠK lit
ĠK ick
ĠK atz
Ġfran ch
oy a
oy e
oy er
ins titu
tin t
tin ger
Ã©ri el
ĠÃī tienne
ĠÃī cri
ĠÃī volution
ĠÃī lÃ©phantine
ĠFran z
entre prise
entre prises
Ġim age
Ġim mob
Ġ. ..
ĠÃ©t h
op ak
op Ã©ra
op sine
enti tÃ©s
enti fique
Ġquel con
ĠÃ©g ales
19 50
19 58
19 22
19 14
fÃ©r ant
ĠU ch
Ġal Ã©
Ġal pha
Ġal phabet
Ġal liÃ©s
onne ment
Ġfor cÃ©
ĠAr ent
ĠAr th
ĠAr ticle
Ġcour bes
Ġcour tines
ay er
ay oshi
Ġso phis
Ġsac rÃ©s
Ġparti elle
Ġparti tif
Ġac te
Ġac teurs
Ġac cess
Ġac tives
Ġac cessi
âĶĢ âĶĲ
Ġaux iliaire
ib et
Ġ3 6
Ġ3 7
Ġ3 25
od ge
ub li
ub liques
ron ome
ron omie
ĠAn ti
ĠAn cien
ĠAn arch
Ġi tinÃ©
tement s
Ġinter faces
ĠgÃ© min
ĠgÃ© rer
Ġper p
Ġper se
Ġper cussionn
Ġsous tra
Ġcer cle
onn Ã©e
onn ing
ob tention
ob utane
Ġdire ctif
he mati
he tepet
ĠIn c
ĠIn f
ĠIn vent
ĠIn gÃ©nieur
Ġmar ques
Ã¢ me
ĠDis tin
Ġes cla
Ġter ror
Ġter rains
Ġser ve
Ġser aient
iff rement
vant s
Ġutilis aient
tra le
tra ire
ĠPar k
ĠPar ts
ĠPar lement
ĠPar ry
ĠPar va
Ġcol lÃ¨
Ġcol line
Ġcol lÃ¨ge
lle ment
ru ctures
Ġbou illon
acc ou
acc ent
âĶĢâĶĢ âĶĢâĶ¬
mb er
Ġrep ris
Ġrep rises
Ġrep osent
Ġrep rise
Ġcons ole
az o
az on
az iz
hÃ© gÃ©m
ise mbla
raph ies
Ġ18 25
Ġor aculaire
tic ulture
mÃ© tique
mÃ© dia
Ġsec teurs
Ġsec ours
Ġsui vre
omb e
Ġprin cesse
tr y
ak e
ak h
ĠgÃ©nÃ© tique
ĠgÃ©nÃ© riques
onc ent
Ġnorm and
alis Ã©es
Ġad minist
ae ffer
Ġti tul
ah n
nis on
Ġver te
ill s
Ġam en
Ġam is
Ġrec ueil
ver sion
Ġcor rup
Ġcor recte
Ġexp osÃ©e
Ã©ra le
all Ã¨le
Ã©c lai
Ġmil it
ouver te
ong Ã©e
Ġcontin ent
Ġreg rou
Ġcha os
ĠgÃ©nÃ©ra les
ĠgÃ©nÃ©ra ux
ĠgÃ©nÃ©ra teur
ici al
but s
ĠDe b
ĠDe mi
ĠdÃ©c oule
Ãī lÃ©phantine
Ãī ducation
Ġavant age
Ġat out
Ġat tra
Ġat omes
Ġab ri
Ġab latif
Ġab aques
ĠAm Ã©riques
Ġtrans actions
fic ateur
Ġmus Ã©es
Ġmus icien
Ġmus iciens
Ġvers ant
id o
Ġimp lique
Ġimp lant
isse ur
isse urs
Ġtour isme
18 94
lic ation
Ã©t ale
Ã©t ranger
ĠQ e
ĠcrÃ© Ã©s
ĠcrÃ© neaux
Ġma Ã§onner
anis ation
anis mes
Ġcap able
lement ation
ĠAu tre
ĠAu paravant
aÃ¯ a
enn ie
enn itÃ©
ĠMe z
ĠMe di
ĠMe dal
ĠĠĠĠĠĠĠĠ ĠĠĠĠĠĠĠĠĠĠĠĠĠĠĠ
Ġ6 9
Ġcal quÃ©e
Ġcal culer
esse urs
aiss ances
Ġconst ructeurs
20 19
min istre
ere d
entra tion
Ã©g orie
Ġass urÃ©
Ġass ervi
Ġvis ion
Ġarri ver
Ġarri vÃ©
Ġarri vÃ©e
Ġpri me
ex iste
ex ception
ex clam
Ġgaz elle
Ġacc ol
Ġacc ueilli
fi ce
Ġenc our
ĠUn itÃ©s
Ġmes urable
assi f
mati ques
Ġfi chi
Ġnot Ã©
Ġnot Ã©e
Ġnot ations
Ġnot ori
ass in
ass Ã©s
Ġsig nes
Ġ197 4
ke ley
Ã©n ie
Ã©n ouf
Ġsuc cÃ©
Ġsuc cesseur
Ġsuc cÃ¨de
av ie
av Ã¨nement
Ġfond s
Ġgar nison
Ġproduit es
Ġ4 00
ĠdÃ©fin issant
Ġblan chi
ĠdiffÃ©r ente
Ġport ables
ines s
cl asse
Ġbi ais
Ġbi osphÃ¨re
Ġbi entÃ´t
Ġbi ogÃ©ochim
ĠAh a
ĠAh med
rig uez
Ġpoli ce
Ġpoli tic
ĠNe he
yth m
Ġconn aÃ®tre
Ġconn aissances
oph e
oph is
tis Ã©
tionn aires
Ġjou Ã©
Ġjou ent
Ġjou ant
Ġappel Ã©es
Ġappel lation
Ġpat ronyme
Ġpat aph
Ġren ou
Ġren fer
Ġren for
Ġ198 4
Ġsoci ales
Ġsoci alistes
lÃ¨ ne
Ġman qu
Ġman oir
Ġali mentation
Ġvie ille
ĠnÃ© anmoins
Ġsign ale
Ġsign ature
ĠMar ie
ĠMar che
amp hithÃ©Ã¢tre
app rentissage
Ġli qui
Ġrest a
ud o
ĠY u
ĠY as
ĠY ang
ĠY Ã©m
ĠY aga
Ġdur able
ĠCar riÃ¨re
ĠCar niv
Ġchar te
Ġchar ges
Ġprote cteur
Ġcommence ment
Ġappar u
Ġappar us
Ġappar ten
ĠreprÃ©sent ation
ĠreprÃ©sent Ã©s
ĠreprÃ©sent Ã©es
ĠreprÃ©sent ants
Ġpouv aient
Ġ196 3
Ġ196 4
Ġ196 8
17 0
ka ou
Ġmer c
agn a
agn ol
kh bet
ĠÃ©lect or
Ġ17 94
Ġref er
CI PM
In de
In carnation
Ġloc aux
Ġloc atif
Ġloc alisation
ĠPro che
âĶĢâĶĢâĶĢâĶĢ âĶĢâĶĢâĶĢâĶĢâĶĢâĶĢ
exp Ã©ri
exp osition
ĠÃ©c ole
ĠÃ©c ologique
Ġtot ale
Ġtot alement
ĠfÃ© l
ĠfÃ© vrier
Uni x
gu Ã©es
tat a
ĠdÃ©velopp ent
An ge
Ġlog arith
Ġouv erts
vers ation
Ġcro co
ĠthÃ©or ies
ali er
ros age
Ġsigni fic
Ġsigni fications
har ic
Ġlig nÃ©es
Ġinst r
Ġw ak
Ġw ho
Ġw anted
Ġfa usse
Ġbul g
ĠrÃ©gion al
hi rakawa
Ã©lÃ© ments
Ġvoy ait
Ġvoy ages
Ġrel ativement
ĠrÃ©p u
ĠrÃ©p onse
ĠrÃ©p ubliques
Ġcolle c
Ã³ bal
Ġroy ales
Ġeff orts
Ġinc ont
Ġinc omp
Ġinc endie
Åį s
Ã©m at
Ã©m Ã¨re
Ġsyn dic
Ġsyn thÃ¨se
Ġsuivant s
200 5
200 6
Ġoc tet
Ġoc tro
Ġnature lles
ĠSh ow
ĠSh ogun
Ġsem ence
Ġrapp el
Ġrapp roche
Ġparticu le
Ġparticu liers
ĠX ML
Ġcr ue
arch ip
ili zation
Ġsal ons
Ġtri bu
Ġchat te
ĠvidÃ© os
ĠprÃ©cis Ã©ment
Ã® tre
Ġis om
Ġis ra
ĠMi G
Ġphysi ques
Ġcir cule
Ġmal Ã©
ĠCon fÃ©rence
ĠCon vention
Ġ195 2
Ġsuper vise
Ġ7 5
Ġamp li
Ġaff ec
Ġmain tient
Ġmain tenir
Ġveu ve
Ġindi g
Ġindi ces
Ġindi quer
Ġdiale ct
Ġconstitu Ã©e
pl Ã©e
Ġ% ,
Ġsor oban
ĠSt ar
ĠSt yle
Ġchim ie
Ġop tiques
Ġsymb olique
inter pr
inter mÃ©di
Ġfac to
Ġfac ilement
Ġhum aines
Ġgouvernement ale
avi en
avi er
avi ation
Ġmen tion
Ġvari ation
ĠdÃ©f ensif
ĠdÃ©f ensi
ĠdÃ©f endre
Ġins criptions
ĠAnd j
indi que
Ġvol umique
Ġconf lit
ĠDiv ert
ĠsiÃ¨ gent
Ġprob able
Ġprob abilitÃ©
Ġ194 1
Ġ194 9
16 0
lau g
esp Ã¨ces
Ġmis sions
ĠCom ment
Ġ16 6
Ġpos it
ĠIs raÃ«l
ĠIs aac
Ġtex ture
Ġtex tile
aff ichage
imp act
ĠlÃ©g aux
ĠlÃ©g endaire
Ġmol aires
elon itis
ĠAb ou
ĠAb del
ĠAb ydos
ĠPh yl
ĠPh ysi
ĠdÃ©s uÃ©tude
Ġann uel
Ġann ulÃ©
Ġimport antes
Ar t
Ar mÃ©e
Ar chitecture
Ar mÃ©nie
Ġcan di
Ġth rips
Ġbour ses
Ġbour sier
dire ction
ĠprÃ©sent Ã©
Ġmaj e
Ġconstr uis
Ġassoci ations
Ġfonction nant
Ġfonction naires
Ġporte feu
cep tre
ĠSa ou
Ġchac al
Ġpost position
Ġec clÃ©
ĠfaÃ§ ons
Ġant Ã©rieur
Ġant Ã©rieure
Ġurb ains
ĠDÃ© veloppe
ĠDÃ© buts
Ġposs es
Ġposs ession
Ġphot ograph
Ġphot ographie
Ġorganis Ã©
Ġorganis me
Ġorganis ation
ĠdÃ©sign ant
ĠdÃ©sign ation
oli ques
Ġlim ite
Ġlim itÃ©e
Ġpor tugais
ĠpÃ©ri odes
Ġcontra ction
Ġautre fois
Ġcher cher
Ġcher chent
ĠHe inrich
ĠHar s
Ġsupp ose
Ġsupp ression
Åĵu f
ĠdÃ©veloppe urs
Ġremplac Ã©e
Ġremplac Ã©es
pr ing
Ġgl oire
Ġgl obal
ĠDes ert
ĠdÃ©p lacement
Ġ193 1
Ġ193 3
Ġ193 8
ĠÃ©le ction
198 5
Ġcli p
Ġcli mat
ĠCons umer
ĠBi o
ĠMa x
ck er
Ġpub liÃ©e
Ġcy cl
inst all
inst alle
Ġmulti joueurs
Ġmulti mÃ©dia
ĠPers es
ĠOr chest
Ġsub di
Ġliber tÃ©
GP M
Ã¡ l
áĪ µ
ĠtÃ©lÃ© charge
Ġvo Ã»
Ġinv est
Ġstat ues
Ġstab ilitÃ©
ĠOu as
Ġboug ie
prÃ© tation
Ã©lect ron
Ã©lect rom
intes tin
ĠMont re
ĠMont pel
ĠIm en
Ġvict or
yn amique
Ġbeau jolais
ĠSec ret
ĠKar l
ĠmÃ©di as
ĠmÃ©di atis
ĠabrÃ©vi atifs
Ġsolu tÃ©
ĠPersonn age
ĠPersonn ages
ÉĻ z
Ġven u
Ġbat tu
ĠComm erce
ĠreÃ§ oivent
ĠdÃ©ci dÃ¨rent
Ġprom u
Ġprom esse
ĠprÃ©f et
ĠprÃ©f ig
Ġphara ons
Ġcommerci al
ĠJohn ny
Ġtop iques
ĠfrÃ© quent
Ġ190 1
Ġ190 2
Ġ190 9
197 2
197 4
197 5
Ġexpri mÃ©
ĠlibÃ©ra lisme
Ġphilosoph es
Ġphilosoph ique
50 2
Ġsort is
Ġfen Ãªtre
ĠPer ry
Ġiniti alement
ĠÃ©glis e
DA TA
lit t
oign ant
Ġquanti t
Ġquanti tÃ©s
ĠCO M
ĠCert ain
ĠFer dinand
190 1
190 7
Ġtradi tions
ĠAnth rop
Ġ188 2
Ġ188 7
Ġ189 1
Ġ189 7
Ġ189 8
Ġjoue urs
Ġconstruit s
Ch elonitis
ed et
mil la
Ġ9 1
Ġeu t
Ġenti tÃ©
Ġrem ont
Ġempl oie
ĠMÃ© tier
ĠMÃ© dinet
ĠMus ique
ĠHistorique ment
196 5
196 6
Ġagri culteurs
ĠEsp ace
ĠEsp rits
ach el
ach at
Ġcat aracte
Ġcat cheur
Ġaur ont
Ġaur aient
Ġru ines
Ġtemp or
Ġprov in
ign y
Ġarch itecture
193 0
Ġconser vÃ©
Ġmusic ales
Ġfix Ã©
Ġfix Ã©es
Ġbo Ã®
ĠEd ward
ĠÃ©qu ations
ĠSu p
Ġchois ie
Ġchois issent
ĠBur meister
Ġcamp agnes
ĠintÃ©g rÃ©s
194 1
194 8
Ġall ait
Ġactu elle
ĠInter national
Or dre
cur rence
Ġir landaise
Ġfour ni
Ġfour nissant
Ġenv ah
rag on
ĠeuropÃ© ennes
Ġvivant s
Ġmodi fie
Ġmodi fications
Ġ183 5
ĠÃ©crit s
ĠÃ©crit ures
Ġemploy Ã©e
ho z
Ġvas te
Ġunivers itaire
ĠLib er
Ġbl oc
Ġbl ue
Ġby z
Ġby zantin
ĠDoc teur
Ġremp lacement
Ġremp laÃ§ant
ĠSer ge
ĠSer vi
ĠSer ket
ĠSoci ety
ĠMo z
ĠVal orise
ĠmÃ©t ab
Ġadop te
Ġadop tÃ©e
posi teurs
Ġautor isÃ©s
Ġpropri Ã©taire
Ġpropri Ã©taires
ĠMarc us
Ġprofessionn elles
iz ashi
Ã¶ r
oure use
Ġvoc ale
ĠCour ant
ĠCour se
ĠCour ami
ĠExp o
ĠExp ression
termin aux
ĠGar age
ĠGar onne
ĠMin istÃ¨re
Ġseigne urs
ĠRom vong
nier ie
ĠmÃ©th ode
ĠmatÃ©ri elle
AS P
avant age
cre am
sÃ© mitique
ĠÅ ł
ĠÐ ¯
ĠÐ ½
Ġdonner a
Ġcri tiques
Ġamb igu
Ġmassi que
Ġvend us
ĠPat rick
Ġauc une
ĠDou ble
Ġ14 9
ĠBat aille
ĠEntre prises
Ġrepro duit
Ġrecons tr
Ġmess ages
ĠfrÃ©qu ences
Is Ã¨re
log ramme
inf luence
Ġve ille
ĠconÃ§ us
ĠconÃ§ ue
ĠSal mane
ĠBus iness
Ġfranc ophone
ĠÃ©tran ger
Ġsoli des
Ġirak ien
Ġconsac re
Ġconsac rÃ©e
Ġorg anique
Ġorg aniques
Ġrencont rÃ©es
europÃ© ens
Ġphyt ogÃ©nÃ©
Ġorigin al
Ġorigin ale
AD N
by e
odi versitÃ©
sa phes
Ġdonn ant
Ġpol arisation
Ġpol onais
ĠvÃ©r itÃ©
ĠLab el
ĠbÃ¢ timent
Ġcontribu ant
Ġcontribu tions
ĠÃ©d itÃ©
ĠÃ©vi te
ĠÃ©vi demment
Ġrev Ãª
ĠchrÃ© tien
ĠBer keley
ĠMal grÃ©
ĠJoseph son
ĠOrig ines
ĠrÃ©par ation
Ġappli quÃ©e
Ġappli quÃ©s
autor oute
autor isation
Ġphotos yn
yon idae
ancien nes
incer titude
Ġplac ent
ĠPe tit
ĠMat Ã©riel
ĠRo jo
ĠrÃ©d uite
ĠrÃ©d action
Ġdispar aissent
Ġcoord onner
ĠmÃ©c anismes
Ġ178 1
ĠÃ©tudi er
Ġisol Ã©e
Ġpouss Ã©e
ĠampÃ¨re mÃ¨tre
Ġpromo tionnel
Ġtraditionn els
Ġtraditionn ellement
ĠAstar te
Ġsepte mpunctata
ĠalgÃ©b rique
com positeurs
tan i
Ġlion ne
Ã©ch al
Ġval ide
ĠEr nst
ĠTV H
ĠDom aine
ĠDom ini
ĠDel phes
ĠÃ©v Ãªque
ĠSp irits
ĠdÃ©tr uire
ĠdÃ©ta il
ĠdÃ©ta chÃ©es
ĠGÃ© ologie
Ġindustri el
Ġindustri els
oth Ã¨se
ĠrÃ©ser ves
Ġox yd
ĠprÃ©c ise
Ġquelque fois
Ġkil omÃ¨tre
Ġkil ogramme
Ġ184 5
ĠimpÃ©ri ale
184 8
186 6
Ġcallig rammes
Ġcellu le
Ġjuge ment
ĠcontrÃ´ lÃ©e
ĠpÃ©tro lier
Ġdispos ent
Ġdispos ant
je ct
lar ation
Ġdyn am
ĠAme deo
ĠPC US
ĠPlan ck
ĠTa xon
ĠTit o
ĠStu dio
ĠSab re
ĠSab ar
ĠRou ge
ĠWeb er
ĠFor ces
ĠFor tification
Ġ192 9
symb oles
Ġanthrop omor
Ġretrouv ent
jus qu
pro te
uli en
ysi que
ÃŃ a
Ġ} )
Ġital ienne
Ġdensit omÃ¨tres
Ġpan ier
Ġeng end
ĠAt tribut
ĠPal m
ĠÃ©volu Ã©e
ĠSim on
ĠSim one
Ġposi tionnelle
ĠMac ler
ĠMaur itanie
ĠVi Ãªt
ĠrÃ©gn a
Ġcompati bilitÃ©
Ġexist ence
Ġextra dition
ĠcarÃ©li ens
Ġradi os
Ġminor itÃ©
Ġ180 5
Ġclass Ã©s
Ġattest Ã©e
Ġabs olu
appar tiennent
Ġindivi dus
Ġmagas in
ĠpÃ©r uvi
ĠpÃ©r ennitÃ©
Ġfoy ers
Ġenne mis
ĠLim oges
Ġber froi
ĠApp lications
rog ation
Ġconv ert
atta que
ĠÃ©vo que
ĠSm ash
ĠSm ith
ĠSav oie
ĠBor laug
ĠGr DF
ĠGod s
ĠRa dio
ĠRol and
ĠWh ite
ĠcoÃ» ts
occup ation
ĠÃ©tend u
ĠÃ©tend ues
ĠAng oulÃªme
ĠinterprÃ© tÃ©
Ġmarch Ã©s
Ġ186 8
ĠsecrÃ©t ariat
Ġattribu Ã©
Ġpersonni fie
Ġspor tif
Ġspor tive
ĠColomb ie
ĠNebet hetepet
ĠÃ©lectro technique
Ġlocu teurs
ĠXX Ie
Ġpossi bilitÃ©
ĠPhil Ã¦
ultan Ã©ment
Ġclient Ã¨le
Ġratta chÃ©e
Ġdispon ible
Ġmascul ins
ĠÃ©thiop iennes
Beau fort
Beau jolais
gen tin
mol aire
Ġsatisf ait
Ġmorte l
omo tive
Ġquit ter
Ġquoti dienne
Ġence intes
Ġengl ob
Ġengl obe
ĠCop tos
ĠPl ongÃ©e
ĠSig le
Ġchron ologie
Ġchron ologique
ĠdÃ©mont re
ĠMak ino
Ġhyp othÃ©
ĠNorm an
ĠNorm and
ĠRel igion
Ġproven ance
ĠWe ise
ĠWe inberg
ĠFon ctions
igh ts
ĠprÃ©par Ã©e
Ġalphab Ã©tique
Ġalphab ets
tende d
Ã©gyp tologue
Ġespagn ol
Ġespagn ole
Ġexempl aires
Ġaliment aire
Ġ177 9
ĠfÃ©od ale
Ġconfir me
Ġpratiqu Ã©e
Ġshann ons
Ġarchite ctural
Ġseigneuri aux
ĠhiÃ©rogly phes
Ġfortifi Ã©e
Ġdifficul tÃ©s
Ġphytopharmace utique
blÃ© es
Ġpes Ã©e
organis mes
Ġflu oresc
ĠLy onnais
ĠCrÃ© ature
ĠCos ta
ĠCiv ilization
Ġgal lo
rimer ie
ĠElectron ics
ĠDen is
ĠÃ©mis sions
Ġremar qu
ĠBelle ville
rÃ©g ation
ĠGau le
ĠMes ure
ĠMos cou
ĠrÃ©un ie
Ġmonarch ie
âĶ´ âĶĢâĶĢâĶĢâĶĢâĶĢâĶĢ
Ġaccep tÃ©e
ĠacadÃ© miques
Ġspati al
Ġspati ale
Ġsuccessi ves
Ġpolici er
Ġpolici Ã¨re
ĠfÃ©dÃ© rÃ©s
Ġsynta xe
Ġvolont aire
Ġsubst ance
Ġsubst ances
ĠKhent y
Ġaugment Ã©e
ĠPrincip es
ĠPrincip aux
ĠfunÃ©ra ire
ĠfunÃ©ra ires
Ġindividu els
Ġdangere ux
Her rich
MM YT
Sch aeffer
bour ne
fr Ã¨re
hou hua
tol Ã©m
Ġdance hall
Ġlun aire
Ġpond Ã©ration
Ġcath olique
Ġsch Ã©ma
initi ative
omÃ© trie
ĠvÃ©nÃ© rÃ©e
Ġend roit
Ġenter rÃ©
ĠLo ver
ĠLinguis tique
Ġbrev et
ĠCub a
ĠConc entration
ĠCong o
ĠPor tugais
ĠPyth agore
Ġparois se
ĠEss ai
Ġconnec ter
ĠDod d
ĠSant a
ĠSok aris
ĠSno w
Ġsim ultanÃ©ment
ĠBilb ao
ĠdÃ©ch iffrement
ĠdÃ©rou lant
ĠMit tani
ĠMil itaire
ĠIt alie
Ġinno v
Ġintit ulÃ©
ĠindonÃ©si enne
ĠVin cent
ĠRod riguez
ĠrÃ©volu tionnaire
Ġprosp Ã¨re
ĠprÃª tres
ĠChent ayt
Ġcarn assi
Ġcardin al
Ġrais ons
Ġkan jis
ĠiP ad
Ġmarti ni
akht y
Ġcass ette
Ġcultiv ar
Ġgaranti t
Ġpropor tionnelle
Ġmanuscrit s
Ġ176 1
ĠThermo prote
Ġgouverne ur
ĠrÃ©public aine
ĠContin uity
Ġcadmi um
Ġcircons criptions
Ġfabric ation
ĠConst antes
Ġmajoritaire ment
ĠthÃ©b aine
instrument al
Ġrespons able
Ġvirgu le
convÃ©ni ents
ĠHalobacteri ales
Fin nois
Luc as
OA CI
Off icial
cate gorie
fran Ã§ais
Ġour aliennes
Ġott oman
Ġdest ruction
Ġpil ote
Ġsain ts
Ġscul pture
ĠtrÃ©s or
Ġquart z
assembl age
Ġbre tes
Ġblin dÃ©s
ĠCod rington
ĠArab ia
Ã¨g re
ĠgagnÃ© s
ĠPH P
ĠPin ni
ĠPow ered
Ġparten ariat
ĠparallÃ© logramme
ĠTay lor
ĠTool s
ĠDer nier
ĠDam aged
ĠDig ital
ĠDiff Ã©r
ĠÃ©quipe ments
ĠBeff roi
ĠdÃ©r oule
ĠMur omachi
Ġhoriz ont
ĠNat ation
ĠHT TP
ĠHÃ¢ pi
abrÃ© ger
ĠFont aine
Ġcofond ateur
ocÃ© an
Ġcomposi teur
Ġcommiss aire
Ġexten sions
Ġargu ment
ĠprÃ©al able
ĠprÃ©fi xe
ĠprÃ©occup ations
ĠEngine ering
Ġappare ils
ĠKÃ© behs
ĠKhar geh
Ġimag inaire
Ġcommuni quer
Ġacqui ert
ĠpermÃ© abilitÃ©
adop tion
Ġcoul omb
intro duction
allÃ¨ lement
ĠDev Ã¨ze
ĠAmÃ©ric a
Ġtransvers ogut
ĠrÃ©gÃ©nÃ©ra tion
exÃ©cu tion
ĠbrÃ» l
Ġmicros copie
oxyd ation
Ġincor por
Ġ"( "
Ġ") "
Ġsalari Ã©s
Ġchimi otrophes
ĠscÃ©n ario
ĠmolÃ© cules
Ġcana dien
Ġcombin aisons
Ġelli ptiques
ĠpÃ©riph Ã©riques
ĠTef nout
áĪ³ áī
ĠOupou aout
ĠAutor oute
ĠUnivers ity
Ġembry ologiste
Ġphytosan itaires
Ġsuspend u
Ġhabitu ellement
ĠchorÃ©g raphies
Ġindispens able
ĠrÃ©guliÃ¨re ment
Ġmanifest ation
Ġinterlocu teurs
Ġtrifasci ata
Aqu itaine
Agri culture
Cic Ã©ron
Gar onne
Haut poul
Iw ate
ZÃ© lande
box ing
fert oum
poi ds
qq arah
rar ouge
ster dam
stÃ© matique
tot alitÃ©
yrÃ© nÃ©es
×ĳ ×
å·ŀ è¯Ŀ
ĠpÃ¨ ler
Ġpall ens
Ġpuri fication
Ġsensi bilitÃ©
Ġsphin x
ĠamÃ© li
ĠaÃ©rop orts
Ġajus tÃ©
infini tif
ĠmÃ¥ ne
orhod opsine
Ġtur c
Ġventra lis
Ġnuc lÃ©
ĠLud w
ĠLarous se
ĠConne ctique
ĠCote aux
ĠCrÃ©s us
ĠrÃª ve
Ġrid dim
Ġrast as
ĠAmp Ã¨re
ĠAmÃ©n ophis
ĠAMP L
Ġplum es
ĠPens Ã©es
ĠEug Ã¨ne
ĠDira c
ĠÃ©ph Ã©mÃ¨re
ĠÃ©po ques
ĠSpar kle
ĠScip ion
ĠSÃ©g a
ĠSorb onne
ĠSobe k
acquis ition
ĠBron xville
ĠGÃ©nÃ© alogie
ĠMong olie
ĠIous aas
ĠintÃ© ress
otymp anique
ĠVari antes
ĠJerse y
ĠOct avien
ĠOuse ret
Ġhier ogly
ppopot ame
ĠRic o
ĠRout ledge
ĠRies z
ĠRug by
amÃ©ric aine
ĠrÃ©uss it
ĠHons hÅ«
ĠHistor y
ĠHann ah
ĠHach ette
ĠFira xis
Ġdistri ct
ĠLezgin ka
Ġcovi d
Ġcochen illes
ĠsaÃ¯ te
Ġtutor iel
ĠIllus trations
ĠChiy oda
ĠprÃ©pare r
ĠprÃ©cur seur
Ġsupr Ãªme
ĠKare lian
ĠKlit zing
institu t
ĠÃīcri vain
opÃ©ra teur
Ġquelcon que
ĠforcÃ© ment
ĠArth ur
Ġaccessi bles
ĠInvent aire
Ġterror isme
ĠcollÃ¨ gue
hÃ©gÃ©m onie
Ġcorrup tion
exclam ation
Ġfichi ers
Ġliqui des
ĠYÃ©m en
Ġlogarith me
Ġcroco dile
archip el
intermÃ©di aire
ĠAbdel aziz
ĠecclÃ© si
ĠDÃ©veloppe ment
ĠOrchest ra
ĠMontpel lier
ĠphytogÃ©nÃ© tiques
ĠWeinberg er
ĠKÃ©behs Ã©nouf
Ġtransversogut tata
Ġhierogly phica
" .
" ).
" }"
' )
' -
' ).
) )
) ;
) âĢ¦
+ )
+ +
- ,
2 4
3 23
3 94
4 3
4 4
4 000
4 10
4 31
4 98
5 2
5 10
8 2
8 5
8 8
8 9
8 26
9 0
9 7
> "}"
A B
A E
A T
A V
A X
A k
A y
A un
A me
A ut
A ss
A mer
A val
A ker
A ES
A mÃ©n
A hm
A sir
B E
B al
B onn
B ef
C C
C D
C on
C ol
C ont
C la
C CI
C SI
C lau
C ES
C SP
C ook
C alifor
C GPM
D D
D K
D S
D es
D ou
D ar
D ire
D anse
D ordogne
D yer
D oron
E A
E D
E X
E d
E mpl
E lectron
F i
F er
F ar
F UL
F allÃ©
G M
G er
G eb
H omme
H Ã©ra
H istoire
H agar
H amming
I R
I r
I v
I liade
J er
J am
J ulien
K h
K nig
K aou
L A
L y
L AC
M Ã©
M er
M ont
M ich
M Ã©d
N A
N U
N X
N e
N y
N ap
N PS
O J
O h
O de
O cÃ©
O xford
P T
P V
P r
P ar
P elle
P all
P DA
P lex
P omÃ©
P uton
R C
R T
R ht
R euter
R ouge
S M
S a
S er
S ab
S ay
S ud
S ok
S Ã©v
S mells
S QL
S quad
T T
T an
T ur
T our
T ro
T hom
T ef
T IS
U W
U z
U ss
U tilis
U NIX
V al
W K
W eil
W ashington
X O
a w
a qu
a el
a ments
a Ã©ro
b n
b r
b an
b us
b ra
b au
b li
b ro
b ait
b ale
b onne
b ote
b ass
b tis
b Ã¤
b alle
b ase
b eaux
b astis
b old
b aÃ¯d
c el
c at
c ation
c oc
c tre
c um
c Ã©s
c lo
c Ã¨res
c atif
c ographie
c omp
c oun
c tivitÃ©
c osse
c ÃŃa
c Cook
d et
d ine
d age
d der
d ins
d ad
d ob
d otes
d ures
d are
d ler
d ateur
d uite
d jou
d urÃ©e
d rome
e o
e ment
e ad
f on
f ais
f rou
f are
f ane
f ox
f ils
f oot
f ana
f ly
f amille
g h
g or
g ale
g end
g ens
g ir
g ard
g od
g ations
g aÃ¯
g roupe
g lu
g Ã©rie
g gae
g raphie
g arita
g doade
g lementation
h y
h in
h ro
h ans
h at
h Ã¨re
h ay
h yp
h ite
h ension
h mer
h ren
h ume
h ini
h ommage
h ilo
h ythm
i us
i che
i Ã©e
i dÃ©
i ales
i tif
i ode
i chi
i ki
i idae
i mos
j er
j eu
j men
k in
k ai
k ine
k ous
k ir
k ub
k ke
k ok
k va
k aga
k heb
k kun
k ido
l ag
l age
l vi
l os
l ast
l ara
l amb
m un
m our
m ine
m ot
m itÃ©s
m yth
m ense
m art
m arch
m ulti
m aison
m ach
m ical
n d
n p
n an
n ac
n ge
n iste
n ord
n ing
n aine
n aines
n kh
n astique
n ologue
n Ã¶
n Ã¡l
o int
o vo
o va
o jn
o pard
p y
p an
p re
p as
p res
p ot
p os
p rop
p ris
p ateurs
p ital
p ensi
q a
r s
r lig
r omp
r asse
r Ã¨ne
r Ã¨te
r ina
r ouvÃ©
s w
s pe
s ore
s ud
s ka
s tern
s elon
t n
t us
t ois
t ats
t endant
t ante
t ographie
t ateur
t ologiste
t Ã¶
t arc
t ario
t aneb
u on
u ch
u ter
u che
u itÃ©
u ette
u enne
u des
u ettes
v it
v ol
v ine
v ois
v ure
v ance
v ince
v od
v rit
v aille
v Ã¨rent
v Ã¡
v Ã¨ge
v allÃ©e
v roptÃ¨res
w y
w asa
x t
x in
y e
y u
y as
y otes
y clus
y ama
y lÃ¨ne
z a
z o
z en
z oi
z ig
z Ã©g
z ier
z uel
z ango
z houhua
¡ n
¥ áĪ³áī
§ a
« l
± Ð¸
² Ðµ
´ Î
´ Ð¾Ð
· Ð°
¸ ¥
¸ Ð
¼ Ī
½ ®
¾ u
¿ Ï
Â °
Â ·
Ã ±
Ã Ĭ
Ã ¾u
Ä ī
Ä ĵ
Å ¾
Ê ¿
Ë ģ
Ì ¯
Î µ
Î ¸
Î ¿Ï
Ð º
Ð ¿
Ñ ı
Õ ¡
Ö Ģ
× ª
à ¯
â Ħ
â ĭ
ã Ģ
æ ½®
é Ľ
Ġ it
Ġ ol
Ġ og
Ġ ion
Ġ ub
Ġ erg
Ġ entra
Ġ ÉĻ
Ġ ä¸
Ġ ero
Ġ à®
Ġ ÑĢ
Ġ Ïģ
Ġ ×Ķ
Ī re
Į áī
İ áī
Ĳ áĭ
ķ ĳ
ĺ áĪ
Ļ áĬ
Ļ ×ª
es ar
es tion
es ter
Ġd ra
Ġd ie
Ġd ose
Ġd jou
Ġd Ã¤n
Ġl Ã©
Ġl ues
Ġl iens
Ġl anc
en ou
en tion
en os
en tique
en aires
en land
en Ãªtre
en idae
on as
on el
on ale
on ge
on od
on ologie
Ã© it
Ã© ter
Ã© ens
Ã© os
Ã© dÃ©
Ã© enne
Ã© min
Ã© quent
Ã© mission
Ã© lar
Ã© mettre
Ã© loc
Ã© cipiendaire
Ã© chec
Ã© nierie
Ġp p
Ġp is
Ġp ans
Ġp end
Ġp ati
Ġp aire
Ġp ic
Ġp air
Ġp ah
Ġp aille
Ġp ense
Ġp iles
Ġp Ã´le
Ġp agin
Ġp aci
Ġp tolÃ©m
Ġc au
Ġc ens
Ġc age
Ġc lÃ©
Ġc itÃ©s
Ġc yl
Ġc uite
Ġc ouvre
Ġc rain
Ġc ensÃ©
Ġc roix
Ġs un
Ġs it
Ġs am
Ġs he
Ġs cri
Ġs ki
Ġs istre
Ġs aison
Ġs ÉĻ
Ġs arc
Ġs ceptre
Ġs mart
an y
an ne
an at
an ter
an che
an ote
an arch
an ia
an niques
an fare
ou en
ou tes
ou pe
ou tre
ou ni
ou cher
ou ze
ou tit
ou ket
ou ya
qu a
qu il
qu age
qu oy
qu ins
qu Ã©ri
qu ences
qu enn
re g
re i
re tÃ©
re am
re ction
is h
is tÃ©
is Ã©e
is ques
is ion
is lam
is tÃ©ri
is matique
te d
te f
te ch
te enth
Ġa le
Ġa mple
Ġa jour
Ġa mpl
Ġa ient
Ġa rab
Ġa ustra
Ġde tte
ti mes
ti mis
ti vision
le b
le ure
le ments
le ik
in k
in al
in de
in tÃ©
in ique
in cip
in ae
in ages
in ner
in tÃ©g
in cit
in opolis
in convÃ©ni
in ondation
er al
er ge
er ens
er ies
Ġm m
Ġm ent
Ġm our
Ġm ac
Ġm ine
Ġm ers
Ġm ir
Ġm aires
Ġm ori
Ġm ys
Ġm Ã¨tre
Ġm utu
Ġm uon
ent y
ent ri
ent ley
un is
un te
un et
un st
un esse
un berg
et t
et age
et aton
ar h
ar n
ar u
ar ist
ar tier
ar mer
ar riv
ar riÃ¨re
ar rÃª
ar tille
ar rosage
Ġle xic
Ġle ader
or p
or im
or ph
or nes
or ig
or nis
or gÃ©
or nien
Ġla me
Ġla mes
Ġla ps
Ġla trines
om iste
om ique
om pe
om peur
om ho
om itant
om phe
Ġt ran
Ġt am
Ġt ang
Ġt iss
Ġt oit
Ġt ah
Ġt Ã©n
Ġt enter
Ġt hÃ©mati
Ġt ennis
Ġt ome
Ġt su
Ġt Ãªtes
Ġqu elle
Ġqu ali
Ġqu Ã©b
Ġqu antique
ur f
ur n
ur o
ur ai
ur ies
ur gie
ur asi
ur oda
ur ling
ur ism
ur iges
Ġf au
Ġf ins
Ġf ard
Ġf lan
Ġf all
Ġf Ã©c
Ġf enn
Ġf av
Ġf lÃ¨
Ġf ric
Ġf asse
Ġf ox
Ġf oss
Ġf atal
Ġf ossi
Ġf irent
Ġf anfare
it o
it t
it ations
it ken
Ġv og
Ġv ap
Ġv Ãª
Ġv otes
Ġv ues
Ġv entes
us er
us ations
us one
us cules
our is
est Ã©
est onien
as es
as on
as semble
as ion
as ton
as ions
as pect
as tÃ©roÃ¯de
as trich
il h
il ien
il la
il lo
Ġen vis
Ġen nÃ©ade
Ġdes ert
Ġn u
Ġn ait
Ġn ine
Ġn oc
Ġn ut
Ġn Ã©s
Ġn oire
Ġn ette
Ġn ub
Ġn aines
Ġn Ã©c
Ġn appe
ra c
ra v
ra ment
ra ction
ra tions
me lle
me tiÃ¨re
el Ã©
el se
el and
el ang
el Ã©s
el ins
el ing
el ani
ĠL is
ĠL er
ĠL ie
ĠL eu
ĠL oc
ĠL Ã©g
ĠL ane
ĠL yd
ĠL yn
ĠL ulu
ĠL erma
ĠL Ã¤n
ĠL CR
ĠL ED
al k
al o
al it
al ot
al ib
al onn
al lier
al lemand
al phab
al titude
al pha
al cool
ĠÃ ¤
ĠÃ §a
Ġb ant
Ġb ro
Ġb ol
Ġb elle
Ġb ig
Ġb az
Ġb int
Ġb ak
Ġb ris
Ġb eur
Ġb ibli
Ġb Ãªte
Ġb oli
Ġb illet
Ġb Ã«
Ġb agar
Ġb ÉĻz
Ġb achel
Ġb ornes
ie uses
au ti
au le
au tions
au jourd
ĠC E
ĠC au
ĠC uis
ĠC ord
ĠC ir
ĠC ib
ĠC omb
ĠC are
ĠC lu
ĠC CI
ĠC ult
ĠC ours
ĠC liÃ©
ĠC urrent
ĠC ovi
ĠC AC
ĠC ook
ĠC lare
ĠC GI
Ġcom Ã©
Ġcom itÃ©
Ġcom mo
Ġcom modore
ment aire
ment aires
Ġr uis
Ġr ub
Ġr ues
Ġr hum
Ġr ume
Ġr assemble
ĠA D
ĠA L
ĠA k
ĠA w
ĠA in
ĠA ar
ĠA ch
ĠA ran
ĠA im
ĠA ph
ĠA mb
ĠA yant
ĠA Ã©ro
ĠA ctrice
ĠA lex
ĠA ires
ĠA zer
ĠA UC
ĠA FUL
ĠA WK
ĠA itken
ant ation
ant Ã´me
ant hro
Ġ( '
Ġ( ,
Ġ( ...)
ce voir
ch a
ch ot
ch ni
ch ig
ch ard
ch ange
li en
li re
li age
li ct
li fique
li quer
li quant
li fÃ¨res
se ction
Ã¨ que
Ã¨ ve
Ã¨ les
Ã¨ bres
Ã¨ gent
eu m
mp ete
ro b
ro ws
ro quement
ro enland
Ġg o
Ġg et
Ġg as
Ġg ig
Ġg ib
Ġg ast
Ġg lot
Ġg han
Ġg olf
Ġg oda
Ġg olfe
Ġg alerie
Ġg oÃ»t
Ġg Ã¢teau
Ġg orgÃ©
Ġpl a
Ġpl ateau
Ġpl aques
ri ci
ri am
ri ers
ri ct
ri bis
ne xe
ne ville
ĠP I
ĠP Ã©
ĠP ent
ĠP el
ĠP ont
ĠP ot
ĠP ors
ĠP ut
ĠP op
ĠP all
ĠP ong
ĠP opp
ĠP lace
ĠP ira
ĠP ith
ĠP uy
ĠP ed
ĠP ull
ĠP rad
ĠP assÃ©
ĠP seudonyme
ĠP iliers
ĠP yrÃ©nÃ©es
Ġpar v
Ġpar ue
Ġpar vient
Ġpar odie
Ġpar lent
Ġpar venir
Ġpar allÃ¨lement
ĠE P
ĠE iff
ĠE mpl
ĠE do
ĠE ls
ĠE mil
ĠE uropÃ©
ĠE iki
ĠE lements
Ġj ets
res pe
res sible
si g
si x
si le
si que
si dium
si vitÃ©
ol te
ol ant
ol aires
ol inguis
ol ith
ol den
ol aris
ol itaine
Ġpour tant
Ġpour tour
Ġpour pre
ĠT G
ĠT M
ĠT y
ĠT es
ĠT an
ĠT al
ĠT eu
ĠT ag
ĠT ai
ĠT ir
ĠT omm
ĠT hÃ©
ĠT ae
ĠT ver
ĠT yl
ĠT aur
ĠT chÃ©
ĠT oum
ĠT rain
ĠT oshi
ĠT ango
ĠT adu
ĠT Ã¼r
ĠT LT
ĠT jen
ĠT aitÅį
ĠT ibet
ĠT DK
ĠT elang
Ġcon ti
Ġcon vec
Ġcon ces
Ġcon vi
Ġcon form
Ġcon vient
Ġcon vo
Ġcon ditions
Ġcon quis
Ġcon duis
Ġcon tente
Ġcon tribue
Ġcon duite
at t
at u
at ti
at esh
at op
at ales
at ures
at tend
at tribu
at urÃ©
at omiques
at olie
at chev
at omiste
ag i
ag eux
ag ons
ag ence
ag Ã¨res
ag nies
ag issait
ag amu
Ġau f
Ġau di
Ġau quel
ai c
ai ve
ai ter
ai der
ai tement
ai ler
ĠD a
ĠD end
ĠD Ã©r
ĠD Ã¨s
ĠD Ã©t
ĠD ivers
ĠD Ã©m
ĠD ensitÃ©
ĠD erae
ĠD ata
ĠD roits
ĠD own
ĠD AX
ĠÃ© s
ĠÃ© tern
ĠÃ© lab
ĠÃ© dit
ĠÃ© val
ĠÃ© lar
ĠÃ© duc
Ġre j
Ġre le
Ġre ct
Ġre mi
Ġre lais
Ġre qui
Ġre tenu
Ġre liÃ©
Ġre lÃ¨ve
Ġre quest
ĠS G
ĠS en
ĠS qu
ĠS ac
ĠS ens
ĠS ouv
ĠS esh
ĠS um
ĠS ir
ĠS iv
ĠS ap
ĠS oy
ĠS la
ĠS ob
ĠS cu
ĠS tra
ĠS tr
ĠS Ã©ra
ĠS ouver
ĠS cul
ĠS onde
ĠS hes
ĠS har
ĠS cri
ĠS uc
ĠS avi
ĠS oud
ĠS umm
ĠS log
ĠS aig
ĠS oudan
ĠS treet
ĠS anner
ĠS cott
ĠS hirakawa
ĠS pring
ĠS milla
ĠS CSI
de p
de au
Ġ1 3
Ġ1 10
Ġ1 26
Ġ1 192
Ġ1 2000
Ġch ang
Ġch ut
Ġch th
Ġch ari
Ġch anti
ac a
ac ine
ac Ã©es
ac ob
ac teur
ac cess
ac ronyme
ac ception
ac tivitÃ©
ac ariens
ac tivitÃ©s
Ġpo ts
Ġpo Ã¨me
Ġpo Ã©tique
Ġpo Ã¨tes
Ġpo wi
ĠB C
ĠB I
ĠB es
ĠB oi
ĠB ag
ĠB ran
ĠB and
ĠB ois
ĠB ille
ĠB out
ĠB ut
ĠB omb
ĠB lus
ĠB ass
ĠB Ã©n
ĠB ible
ĠB oot
ĠB rie
ĠB ande
ĠB udget
ĠB Ã©rard
ĠB aug
ĠB ureau
ĠB Ã©lier
ĠB aneb
ĠB ASI
ĠB azo
ĠB Åįs
ĠB OJ
ĠB entley
ter fly
ĠÂ §
ĠÂ ±
ci ent
ci tement
ci otto
rÃ© aliste
rÃ© gion
rÃ© chet
rÃ© hension
Ġou b
ui ent
ui fs
ĠdÃ© g
ĠdÃ© ten
ĠdÃ© fi
ĠdÃ© cident
ĠdÃ© tenu
ĠdÃ© tenue
ĠdÃ© formation
Ġe ds
ĠG er
ĠG our
ĠG il
ĠG ab
ĠG ord
ĠG ap
ĠG raph
ĠG ains
ĠG ros
ĠG han
ĠG ym
ĠG rÃ¨
ĠG orb
ĠG old
ĠG abri
ĠG PS
ĠG onji
ĠG rim
ĠG aÃ¯a
ĠG olden
ĠG atesh
ĠM O
ĠM b
ĠM u
ĠM et
ĠM and
ĠM ati
ĠM ille
ĠM ons
ĠM Ã©r
ĠM nÃ©
ĠM ore
ĠM Ãªme
ĠM Ã©t
ĠM oles
ĠM onde
ĠM ade
ĠM ali
ĠM oute
ĠM ouvement
ĠM eth
ĠM aig
ĠM obile
ĠM iser
ĠM alem
ĠM ario
ĠM OS
ĠM erton
ĠM anner
ĠM ansle
ĠM assif
ĠM agna
ĠM cCook
ĠM god
Ġca mps
ran e
ran ie
ran ges
Ġpas tor
ĠI D
ĠI P
ĠI ci
ĠI ni
ĠI rak
ĠI EC
ĠI TIS
Ġin de
Ġin ves
Ġin tent
Ġin hum
Ġin tera
Ġin Ã©d
Ġin vention
Ġin citer
Ġin time
Ġin aug
Ġin effic
Ġin diss
Ġin convÃ©nients
Ġin attend
ale ctes
ot re
ot Ã©e
xp ressible
di x
di us
di ci
di ale
di ct
di ennes
di fication
di mir
di otÃ©lÃ©
ble ville
end a
end es
Ġst or
Ġst ric
Ġst rict
ff ice
ĠV Z
ĠV ar
ĠV au
ĠV ir
ĠV aux
ĠV oy
ĠV la
ĠV ene
ĠV ich
ĠV ita
ge a
ge ment
ge oche
Ġte e
Ġte ct
ĠJ i
ĠJ en
ĠJ et
ĠJ ar
ĠJ ab
ĠJ uni
ĠJ ardin
ĠJ oe
ĠJ avier
ĠJ tn
ĠJ acob
ĠJ uifs
ĠO t
ĠO ur
ĠO ce
ĠO st
ĠO cte
ĠO ld
ĠO tta
ĠO xford
ĠO ffice
tÃ© lÃ©
Ġh ol
Ġh at
Ġh am
Ġh Ã´
Ġh aine
Ġh are
Ġh Ã©n
Ġh app
Ġh Ã¡
Ġh Ã¥
Ġh ommage
Ġque chu
pp ing
Ġsur faces
Ġsur rÃ©aliste
ens nou
Ġdi ch
Ġdi ag
Ġdi able
Ġdi asp
che ologues
che btis
og Ã¨ne
og oun
og doade
og lass
og Ã©nie
ĠN E
ĠN ous
ĠN um
ĠN out
ĠN ole
ĠN ex
ĠN aur
ĠN ombre
ĠN aye
ĠN ouveaux
ĠN adj
ĠN ASA
ĠN YSE
ĠN iger
ĠN zango
itÃ© es
ĠR S
ĠR ois
ĠR ang
ĠR ub
ĠR ivers
ĠR ica
ĠR ick
ĠR atta
ĠR ese
ĠR adu
ĠR umba
Ġon ze
am es
am ond
am enti
am Ã©li
am oun
am oto
ain c
ain tes
ul a
ul d
ul z
ul us
ul ant
ul tÃ©
ĠrÃ© f
ĠrÃ© cu
ĠrÃ© els
ĠrÃ© form
ĠrÃ© uni
ĠrÃ© cur
ĠrÃ© clam
ĠrÃ© forme
ĠrÃ© act
ĠrÃ© organis
ĠrÃ© appro
Ġpro tÃ©g
Ġpro jec
Ġpro position
Ġpro car
Ġpro je
Ġpro visional
Ġpro crÃ©
Ġpro cÃ¨de
Ġpro duire
Ġpro lifique
ers tein
and a
and y
and on
and ina
Ġvi vent
Ġvi vait
ĠW ils
ĠW oll
ĠW ho
ĠW illie
ĠW orld
ĠW ailer
mo re
mo yenne
ois e
ois i
uis erie
ĠH A
ĠH D
ĠH es
ĠH it
ĠH el
ĠH ans
ĠH end
ĠH ig
ĠH ard
ĠH ub
ĠH omm
ĠH aut
ĠH aÃ¯
ĠH ide
ĠH av
ĠH aka
ĠH igh
ĠH ollywood
ĠH abou
ĠH onning
ĠH ills
tu er
tu elle
tu ellement
ab out
ab ad
ab oli
ab eth
ab ulaire
ab lit
ab rÃ©viations
ĠF M
ĠF O
ĠF it
ĠF ra
ĠF ille
ĠF ace
ĠF id
ĠF ox
ĠF orme
ĠF ils
ĠF ern
ĠF ige
ĠF oto
ĠF avor
ĠF ieber
ĠF olk
ĠF ake
ĠF enÃªtre
ĠF rÃ©chet
Ġdis traire
Ġ19 20
Ġ19 16
Ġ19 12
Ġ19 25
ous ser
ang s
ang u
ang age
ang ulaire
im mob
im mig
ĠLe e
ĠLe on
ĠLe cture
ĠLe yde
ĠLe gend
Ġco der
Ġco ok
Ġco auteur
age ments
Ġ- ,
ati ence
ati vus
oc a
oc li
oc ap
oc ence
oc cu
oc currence
ord in
ord res
ons o
pe cteur
Ġsa x
Ġsa illie
Ġsa tell
ph ie
ph Ã¨re
ph ren
ph Ã¨te
Ġtu e
Ġtu Ã©s
Ġtu bes
âĢĻ Â«
Ã©r is
Ã©r in
Ã©r arch
Ã©r isme
vi k
vi te
vi endra
Ġcomp lÃ©
Ġcomp Ã©t
Ġcomp lais
Ġcomp Ã©ti
Ġcomp ortant
Ġcomp tait
Ġcomp agnies
Ġcomp rÃ©hension
Ġcomm on
Ġcomm ises
Ġcomm andait
Ġcomm ission
Ġcomm utation
os t
os us
os ter
os itÃ©
os yst
ors es
um a
um Ã©e
nÃ© l
nÃ© table
ĠPour tant
ic on
ic us
ic yonidae
out s
out res
out able
out taneb
Ġmon o
Ġmon op
Ġmon na
Ġmon nai
Ġmon iteur
ni a
ni ers
ni Ã¨re
ni fic
Ġce ci
Ġce int
orm es
oule t
ist ent
ist ra
ist air
ist ote
Ġtr ente
Ġtr omboniste
ĠJe dd
ĠJe unesse
ir is
ir ant
ir rig
Ġ20 8
ert y
lis h
lis s
lis ation
lis abeth
Ġson ore
Ġson nant
iv ore
ig a
ig ie
Ġan arch
Ġan tiqu
Ġan ime
Ġan alyse
Ġan alytique
Ġan atomiste
Ġpr oie
Ġpr ison
Ã§ on
Ã§ ants
ut h
ut ention
Ġnom e
ond itÃ©
Ġex ige
Ġex clam
Ġex tÃ©rieure
Ġex trÃ©
Ġex trÃªme
ĠLa f
ĠLa wn
ĠLa dy
ĠCh a
ĠCh es
ĠCh ant
ĠCh at
ĠCh ai
ĠCh Å«
ĠCh oisi
ĠAl s
ĠAl len
ĠAl cane
Ã©s er
Ġar g
Ġar ist
Ġar ith
Ġar ticle
Ġar rondissements
Ġar range
Ġar gentin
ret s
ret Ã¨che
ret zoi
Ġme xic
ap in
ap our
ap ogÃ©e
ĠprÃ© di
ĠprÃ© con
ĠprÃ© fÃ©rence
ĠprÃ© dit
ĠprÃ© fÃ©rant
ĠprÃ© Ã©min
Ġcar oti
ĠLes lau
der mann
ct rices
mi er
mi dt
mi otique
Ġav anc
Ġav ancÃ©e
Ġjus tif
aux iliaire
Ġfait es
olog uÃ©e
ĠEn f
ĠEn suite
ĠEn vironnement
Ġconc ur
Ġconc omitant
Ġsu Ã©d
Ġra b
Ġra re
Ġra ff
Ġra id
Ġra jou
Ġne ur
Ġne mor
bre ren
bre cht
Ġapp rentissage
Ġapp rouvÃ©
ence inte
ĠK V
ĠK y
ĠK on
ĠK in
ĠK az
ĠK ong
ĠK ud
ĠK ane
ĠK Åį
ĠK ail
ĠK aiser
ĠK uroda
ĠK retzoi
oy Ã©es
ins on
Ġpeu plÃ©e
tin s
Ã©ri ens
Ã©ri vÃ©
Ã©ri anthro
par Ãª
ĠÃī ch
ĠÃī di
ĠÃī dition
ĠÃī char
ĠÃī lÃ©ments
ĠÃī lÃ¨ve
ĠÃī mile
ĠÃī quateur
ĠÃī lections
ĠÃī cosse
ĠFran c
Ġim ages
ĠÃ©t ats
ĠÃ©t oiles
ĠÃ©t ape
ĠÃ©t ymologie
Ġcommun Ã©ment
op i
op is
op timis
enti elle
enti lÃ©
enti els
Ġmais ons
ard Ã©
ard ie
ard Ã©e
ard enac
19 13
19 10
19 26
19 53
ĠU ru
ĠU sur
ĠU mm
ĠU bis
ĠU kraine
Ġal lÃ©
Ġal lus
Ġal lu
Ġal latif
Ġal gÃ¨bre
Ġal fa
Ġplan Ã©taire
onne urs
ĠAr chi
ĠAr ctique
ĠAr gentine
ĠAr nt
ĠAr ensnou
ĠAr cheologues
dÃ© mocra
Ġcour ts
Ġcour antes
Ġcour tine
Ġcour bÃ©
ay o
ay ri
ay ak
ĠOn tario
ĠOn ouris
lÃ© es
lÃ© naire
iss ar
iss ue
iss ants
Ġso in
Ġso vie
Ġsac re
Ġsac ri
la us
la zac
yp tol
Ġac Ã©t
Ġac quis
Ġac cessible
Ġk a
Ġk ar
Ġk Ã¦
Ġk oweÃ¯
Ġk ato
Ġk hmer
Ġk leb
Ġpre uves
utilis ateur
ib is
ib aut
ib Åį
ib rÃ©e
ib ilitÃ©
ib elani
Ġtra d
Ġtra itÃ©s
Ġtra cÃ©
Ġtra itant
Ġtra ductions
Ġconcret s
od or
od isc
Ġpens ent
ub st
ore use
Ġpuis sent
Ġres titu
ron ter
ron Ã©sie
Ġsy lvi
ĠAn s
ĠAn at
ĠAn ty
ĠAn tilles
ĠAn ciens
ĠAn tiquitÃ©
ĠAn qet
ĠAn tarc
ĠAn ouket
Ġi ce
Ġi ons
Ġi kkun
Ġinter dite
Ġinter vention
Ġinter net
Ġinter rog
Ġinter view
Ġinter dits
Ġpe ine
Ġpe intes
Ġph osph
Ġph rÃ©atique
th Ã©
rit a
rit z
ing hi
ing Ã©nierie
ĠgÃ© n
ĠgÃ© ographie
Ġper les
Ġper Ã§
Ġper man
Ġper dus
Ġper mir
Ġper cussions
Ġper Ã§u
Ġper mit
ad o
ad aire
ad esh
ad os
ad ap
ad jet
ad resses
Ġmin ul
Ġmin istÃ©ri
aÃ «l
onn ant
onn aire
onn aise
ob ales
ob Ã©nÃ©
ob Åį
ob ilis
ob server
ob actÃ©ries
ob last
Ġdire ctive
he pa
ĠIn des
ĠIn form
ĠIn tro
ĠIn dustrie
ĠIn sp
ĠIn azu
ec tuer
Ġmar qu
Ġmar oc
Ġmar iti
Ġmar quer
Ġmar quent
Ġmar Ã©chal
ĠDis cographie
Ġes timent
rou x
rou illy
rou zier
Ġter ti
Ġter ri
Ġcou lis
cu te
cip ation
Ġser Äī
iff roy
Ġutilis ait
Ġutilis ables
omm oir
tra cteurs
Ġentre r
Ġentre pr
ĠPar ois
ĠPar ad
ĠPar tis
ĠPar fois
ĠPar allÃ¨le
ĠPar agons
lan et
lan ter
Ġcol l
Ġcol s
Ġcol or
Ġcol lÃ©
Ġcol lier
Ġcol lab
Ġcol osses
lle r
Ġbou cle
acc usations
mb res
Ġfin ie
Ġfin ales
Ġfin landais
Ġfin ancement
Ġrep rend
Ġrep osant
Ġrep ousser
Ã´ m
lo ge
Ġcons Ã©quent
az ine
uer Ã©t
ĠmÃ© n
ĠmÃ© lo
ĠmÃ© tier
ĠmÃ© mor
ĠmÃ© moires
hÃ© tique
hÃ© dra
hÃ© breu
ise i
Ġtou re
Ġtou che
Ġ18 20
Ġ18 15
Ġ18 58
Ġ18 11
Ġ18 55
Ġ18 56
Ġ18 54
Ġor ale
lig atif
lig raphie
Ġ10 87
int on
mÃ© tiques
Ġbas Ã©
Ġbas ent
Ġbas Ã©s
Ġbas tille
Ġbas siste
Ġsec tes
Ġsui vis
omb res
omb olo
ten us
tr asp
ari es
ches ter
ak s
ak u
ak er
ĠgÃ©nÃ© rÃ©
ĠgÃ©nÃ© tiques
ĠgÃ©nÃ© ticien
des ses
onc Ã©e
onc Ã©es
Ġnorm Ã©es
ole v
Ġgran di
ente in
alis ateur
aut ant
du cteurs
Ġad ver
Ġad oles
Ġad ress
Ġad mis
Ġad ministre
Ġad hÃ¨re
ae a
ae mus
Ġcas trale
Ġtrop ic
nis ation
nis seur
Ġver se
Ġver bale
Ġver dict
ill us
ill ait
ill Ã©e
ill ons
ill Ã©s
Ġam ar
Ġam our
Ġam ateur
Ġam ateurs
Ġam ule
Ġrec ueilli
ver si
Ġcl os
Ġcl Ã©s
Ġcor rig
Ġcor beaux
Ġcor Ã©cipiendaire
Ġexp lor
Ġexp loit
apon e
Ã©ra h
Ã©ra k
Ã©ra ble
Ã©ra lisme
Ã©c ois
Ã©c oulement
Ġmil lÃ©naire
ouver tes
Ġmont rÃ©
Ġmont age
Ġmont ure
Ġmont rouzier
Ġcha peau
ici le
ici el
ici els
Ġpres sions
Ġpres sant
Ġpres sÃ©
but ane
ĠDe d
ĠDe me
ĠDe ir
ĠdÃ©c er
ĠdÃ©c or
ĠdÃ©c ouv
ĠdÃ©c ane
ĠdÃ©c ouvrir
ĠdÃ©c line
ĠdÃ©c oncent
ĠdÃ©c ennie
ĠdÃ©c lara
Ãī laboration
Ãī vang
Ãī tats
Ãī dification
Ġsou p
Ġsou fre
Ġsou mettre
Ġsou lign
Ġavant ages
Ġavant ageux
Ġat tein
Ġat tribue
Ġab us
Ġab ond
Ġab aque
Ġab rite
ĠAm mon
ĠAm haric
ĠAm sterdam
form at
form ance
Ġtrans position
Ġtrans cription
Ġtrans mise
Ġmus cul
id Ã©s
id optÃ¨res
Ġtoi les
Ġimp li
Ġimp ortÃ©e
Ġimp Ã´ts
ven iste
Ġtour iste
Ġtour nant
Ġtour istique
Ġtour istiques
Ġfil aments
18 5
18 23
18 21
18 13
18 27
18 83
18 57
18 35
18 84
lus ques
Ġdit s
Ġdit es
ĠRÃ© fÃ©rence
ĠRÃ© union
ĠRÃ© cipiendaire
ĠRÃ© glementation
ĠRÃ© alisateur
Ã©t y
Ã©t ant
Ã©t rique
Ã©t alonn
Ã©t ablit
ĠQ ui
ĠQ ue
ĠQ Ã©b
ĠQ adesh
ĠQ uerÃ©t
ĠcrÃ© a
ĠcrÃ© Ã©es
ĠcrÃ© ateurs
ĠRe f
ĠRe el
ĠRe dÃ©
ĠRe mar
ĠRe fer
ĠRe venir
ĠRe quest
ĠRe ggae
anis tes
itu de
Ġcap teur
Ġcap onni
Ġcap acitÃ©s
ĠAu de
ĠAu di
ĠAu ge
aÃ¯ l
aÃ¯ t
aÃ¯ lande
Ġmot ocycle
ĠdÃ©partement ale
Ġob lique
Ġob ten
Ġob tenir
Ġob tenue
Ġob serv
Ġob tint
Ã©tÃ© ro
ĠMe kh
ĠMe ier
ĠMe hen
ĠMe mbres
ĠĠĠĠĠĠĠĠ ĠĠĠĠĠĠĠĠĠĠĠĠĠ
ĠĠĠĠĠĠĠĠ ĠĠĠĠĠĠĠĠĠĠĠĠĠĠ
Ġ6 1
Ġ6 502
Ġ6 510
Ġcal end
Ġcal caire
Ġcal ibrÃ©e
Ġag ran
Ġag ronome
Ġag glu
Ġrou x
Ġrou ges
Ġrou tier
Ġforme l
erg Ã©
erg ues
Ġconst ate
20 16
20 23
20 10
20 14
min ant
min ation
ĠrÃ©g ence
ĠrÃ©g ents
ĠrÃ©g issant
Ġform ats
Ġform ulation
Ġta illes
Ġta xin
Ã©g ide
Ã©g alitÃ©
Ã©g lise
Ġsol s
Ġsol dat
Ġass is
Ġass iste
Ġass urant
Ġass urÃ©e
Ġvis ant
Ġvis ites
Ġvis uelle
Ġvis iteur
Ġvis cÃ¨res
ature lle
Ġarri vant
Ġarri vait
dent aire
vel ot
Ġpri or
Ġpri ori
Ġpri mat
Ġpri vil
Ġcul minant
Ġesp Ã©ranto
ex clus
ex traction
ex cell
ex erce
ex erci
opp ose
opp osition
Ġacc Ã¨de
Ġacc Ã©der
Ġacc oster
Ġreste ra
cul a
Ġá ¸¥
Ġá ¼Ī
Ġces sÃ©
fi ent
fi Ã©s
fi Ã©es
ocor idae
Ġmes urÃ©
Ġmes urent
Ġaut onomie
Ġaut och
Ġaut ocra
Ġaut ocrate
ĠBab aÃ¯
mati c
oci ent
oci able
oci dae
Ġfi bre
ass a
ass ant
ass ades
ass urer
ass assin
ass ocient
ĠCe d
ĠCe ci
Ġsig les
Ġsig nÃ©
Ġsig lais
Ã©n en
Ã©n as
Ã©n ager
ĠQu ad
ĠQu atre
Ġfer ont
Ġfer mÃ©
Ġfer tile
Ġfer mier
Ġdou ze
Ġdou bl
Ġbr as
Ġbr ome
Ġbr Äģ
av Ã¨rent
Ġfond Ã©es
Ġgar ni
Ġgar dien
one y
one ige
ĠdiffÃ©r ent
ĠdiffÃ©r entiel
ĠdiffÃ©r enci
Ġport a
Ġport s
be at
cl opÃ©
ose iidae
Ġvais seau
Ġbi ochim
Ġbi punctata
Ġbi omat
Ġroi deur
ĠAh mÃ´sis
ĠNe khen
ĠNe khbet
ĠNe dder
ĠNe kheb
Ġprop ane
Ġconn ues
Ġconn aÃ®tr
velopp eur
oph age
oph ones
tionn iste
tionn elles
Ġ5 6
Ġ5 00
Ġappel lations
mis es
ste matic
Ġlong ues
Ġpat ron
Ġas semblÃ©e
Ġren omm
Ġren vers
Ġren aÃ®tre
Ġren ommÃ©
Ġren ommÃ©e
Ġ198 7
Ġsoci al
Ġsoci atif
Ġsoci ety
Ġsoci olinguis
Ġman ette
Ġman ettes
Ġman ier
Ġman uel
Ġman quant
Ġman uels
Ġman utention
Ġali ments
Ġali menter
Ġvie illard
ric tive
Ġsign aux
ĠMar s
ĠMar que
ĠMar ta
ĠMar ko
ĠMar ino
ĠMar kun
Ġbase ball
app el
app areil
app rocher
app lications
app uient
Ġli ons
Ġli aisons
ony a
Ġrest es
Ġrest ant
Ġrest ait
Ġrest Ã©e
Ġrest rictive
Ġgra de
Ġgra ines
Ġgra vÃ©
Ġgra vÃ©e
ĠY ves
ĠY outh
ĠY orim
Ã©li te
ĠCar ape
ĠCar Ã©liens
Ġchar s
Ġchar tes
Ġchar ismatique
Ġappar aÃ®tre
ĠreprÃ©sent ait
ĠreprÃ©sent aient
ĠreprÃ©sent ative
ĠreprÃ©sent atives
ser rat
yl onien
ĠsÃ© di
ĠsÃ© jour
ĠsÃ© jours
ĠsÃ© mitiques
ĠsÃ© miotique
Ġvra ies
Ġvra isembla
17 03
17 84
Ġmer lon
Ġbar be
Ġbar oque
Ġang les
Ġfut urs
eur in
kh ety
kh aÃ¯l
Ġpart ant
Ġpart agÃ©
Ġpart agent
Ġ17 59
lace ments
Ġliv rÃ©e
Ġref usant
In ternet
commun alitÃ©s
ox yg
Ġfr uit
ĠPro jet
ĠPro cÃ©
ĠPro vence
exp lor
exp Ã©dition
exp lication
ĠÃ©c riv
ĠÃ©c oss
ĠÃ©c ologiques
ĠÃ©c osyst
Ġmilli on
Ġcapit alisation
Åĵ urs
Ġpi Ã¨ce
ĠfÃ© lin
Ġnuit s
gu Ã©e
gu ay
ton es
Ġju dici
ĠdÃ©velopp Ã©s
ĠdÃ©velopp eur
An ton
An gel
An toine
An gleterre
An atolie
Ġcent res
Ġsau te
Ġsau vage
Ġsau vages
Ġouv rant
Ġouv riÃ¨re
ĠParis ienne
cal ade
ok oro
pt Ã¨res
Ġcro Ã®tre
ann on
Ġai der
Ġai dÃ©
ali mentation
Ġoff rant
har ign
ĠTh at
ĠTh unberg
ĠTh aÃ¯lande
Ġinst ruction
Ġw ant
Ġw ith
Ġbul le
Ġpersonn alitÃ©s
hi ko
hi polis
hi ppopotame
hi kaga
ori Ã©
ori els
Ġvoy ous
Ġvoy elles
Ġvoy ez
Ġrom ans
Ġrom aines
Ġrom ains
cra tif
Ġfra ction
Ġfra ctions
Ġfra Ã®
Ġfra udes
ĠAs si
ĠAs pect
ĠAs tÃ©rix
ĠAs hikaga
ath Ã©riens
Ġrel ati
Ġrel atif
Ġrel atifs
ĠrÃ©p ondre
ĠrÃ©p utation
ĠrÃ©p Ã©ter
Ġprof ond
Ġprof ane
Ġprof its
Ġprof esseurs
Ġcolle ctions
mÃ©ni de
Ã³ r
anti nes
anti ll
ast rÃ©es
Ġroy aumes
Ġeff ets
Ġeff igie
Ġinc ert
Ġinc lus
tÃ©r itÃ©
Ġcompos ant
Ġcompos Ã©es
Åį bu
Åį sa
Ġent lang
Ġent omologiste
Ġent otympanique
oun et
ĠChar ly
Ġsyn onymie
Ġsyn thÃ©tiques
ĠAmon et
200 8
cri me
Ġoc cup
Ġoc casion
Ġiss ues
Ġnature ls
ĠThe odor
ĠSh out
ĠSh ama
ĠSh aw
ĠSh alit
ĠSh annon
Ġrapp ro
Ġrapp orter
eff et
eff ectuer
ĠX ibelani
Ġpoi x
Ġcr yp
Ġcr Ã¢
Ġcr iniÃ¨re
arch Ã©es
ili er
ili ppe
Ġni hilo
olais e
ĠÃ©tu diant
Ġsal aires
Ġsal sa
Ġsal tas
Ġtri o
Ġtri p
Ġtri omphe
ĠSon ic
ĠprÃ©cis es
ĠprÃ©cis Ã©
ĠprÃ©cis er
ĠprÃ©cis Ã©e
ĠspÃ©ci aux
Al bert
Al liance
oin te
Ġis a
Ġis lam
enir s
Ġpous siÃ¨re
ĠMi a
ĠMi y
ĠMi khaÃ¯l
ologique ment
Ġphysi co
SI G
SI WY
Ã¯ n
Ã¯ que
Ã¯ tÃ©
Ã¯ avie
let tres
Ġmal ade
Ġmal fais
ĠCon versation
Ġri che
ĠAp is
oll on
Ġsuper f
Ġsuper vision
Ġess entiel
Ġ7 498
Ġ7 185
Ġaff e
Ġaff aire
Ġmain tien
Ġmain tenu
Ġmain tenus
ĠBas es
ĠBas ic
ĠBas ta
Ġcad astrÃ©es
Ġindi en
Ġindi quant
Ġindi quÃ©
Ġindi quÃ©e
Ġconstitu Ã©s
Ġconstitu tions
Ġconstitu ants
Ġconstitu tionnelle
Ġconstitu tionnelles
mar ine
pl ay
Ġ% .
Ġlet ton
Ġsor tes
Ġsor tit
Ġsitu Ã©es
ilis Ã©
ĠCan iformia
ĠCan oÃ«
ĠSt orm
ĠSt one
ĠSt ructure
ĠSt chot
Ġchim io
Ġsty les
Ġprog rÃ¨s
Ġprog ression
Ġprog rammes
Ġop us
Ġop tionnels
ĠdÃ©fini tif
Ġoffici elles
inter face
inter national
inter prÃ©tation
inter rogation
Ġfac es
Ġfac teur
Ġfac ilit
Ġfac ultÃ©
Ġpass Ã©es
ĠrÃ©s ur
Ġcommer ces
Ġcommer Ã§ants
Ġdirect rices
verse ment
landais es
Ġgouvernement aux
ira do
Ġmen en
Ġmen Ã©e
Ġmen uiserie
Ġvari able
Ġvari antes
Ġvari ables
ĠdÃ©f endant
ĠdÃ©f unts
ĠdÃ©f enses
Ġins pect
amb ie
lÃ©ment ation
ĠAnd rome
Ġsc ru
Ġsc Ã¨nes
Ġsc andina
Ġsc outs
urb anisation
Ġvol t
Ġconf is
Ġconf orme
Ġconf Ã¨rent
Ġcontre poids
ĠsiÃ¨ ges
Ġ194 2
Ġ194 3
Ġ194 4
ĠprÃ©si dence
16 03
16 97
gl ass
ile y
ile us
ile ith
mon ie
no ble
oot s
esp aces
esp Ã¨ce
Ġnou e
ĠCom tÃ©
ĠCom position
Ġ16 34
Ġ16 41
Ġ16 75
Ġpos tes
Ġpos tÃ©rieure
ĠIs et
ĠIs ab
ĠIs ht
hÃ©mati cien
imp r
imp oser
imp erator
imp atience
Ġdon jon
ĠlÃ©g Ã¨rement
ĠlÃ©g endes
Ġmol lusques
Ġnoir s
ĠPh ot
ĠPh one
ĠPh yt
ĠPh onÃ©tique
Ġann ule
Ar ch
Ar gent
Ar gentine
Ġcan on
Ġcan ope
Ġsin ogrammes
Ġth at
Ġth Ã©rianthro
Ġbour g
Ġbour siÃ¨re
Ġrempl ie
ĠSy n
ĠSy stem
ĠSy stÃ©matique
ĠSy stematic
ult z
ĠprÃ©sent a
ĠprÃ©sent ant
ĠprÃ©sent Ã©e
ĠprÃ©sent oir
Ġmaj eure
Ġmaj uscule
Ġconstr uite
Ġassoci atif
Ġfonction n
Ġfonction nement
Ġfonction nent
Ġlinguis tes
Ġporte rait
Ġpublic itÃ©
cep tible
ĠSa qqarah
Ġpost hume
Ġinform ati
Ġ8 2
Ġ8 00
Ġant h
Ġant agoniste
Ġmag nific
Ġmag istra
Ġmag azine
uni fÉĶ
Ġfai bles
Ġcomb iner
Ġgene vois
ĠDÃ© v
tÃ©ra tion
Ġrap ides
Ġorganis er
Ġorganis Ã©e
ĠdÃ©sign Ã©e
oli o
Ġel nÃ¶
Ġcin quant
Ġcin Ã©mat
Ġnum Ã©ros
Ġcontra ts
Ġcher chant
ĠMan che
ĠMan oire
ĠMan rique
ĠMan uel
ĠMan chester
ĠHe h
ĠHe het
ĠHe dj
ĠHe ights
ĠHar akh
ĠHar saphes
ĠHar parÃª
Ġsupp ort
Ġsupp os
Ġsupp orts
Ġsupp rimÃ©
Åĵu fs
Åĵu vres
Ġremplac ent
Ġremplac Ã©s
ki pÃ©
pr incip
rie d
ĠZ eus
Ġci ter
Ġci metiÃ¨re
Ġmur aille
Ġno tions
Ġgl aive
ĠTe mpete
ĠdÃ©p asse
ĠdÃ©p osent
Ġ193 5
Ġ193 7
ĠmathÃ©mati ciens
Ġcentra lisÃ©e
Ġsh ort
Ġsh uff
Ġfrig id
ĠDÃ©c athlon
ĠDÃ©c laration
ĠÃ©p ique
ĠÃ©p ith
ĠÃ©le ver
ĠÃ©le vÃ©s
ĠÃ©le vÃ©es
ĠSe y
ĠSe at
ĠSe ine
ĠSe pt
Ġsaou diennes
Ġmondi alement
198 1
198 3
198 4
198 7
Ġculture lles
Ġcli matique
Ġspe ctre
ern et
Ġbru te
ĠCons tr
ĠCons truction
ĠPas illo
ĠBi ologie
ĠBi odiversitÃ©
Ġemp ires
Ġemp lacement
ĠMa uss
ĠMa astrich
ĠChamp ion
Ġtransp orts
dit ation
ow ling
Ġpub liÃ©s
Ġcy tologiste
inst ar
Ġmulti mÃ¨tre
Ġrend ent
ĠBr un
ĠBr ut
ĠBr antÃ´me
ĠrÃ©alis er
ĠrÃ©alis ations
ĠrÃ©alis era
Ġmeille urs
Ġsub s
Ġsub it
Ġsub jec
Ġsub stitu
ĠKh oro
Ġorient aux
Ġorient ations
Ġcorrespond ent
Ġcorrespond ance
Ã¡ g
ËĪ d
ËĪ t
ËĪ v
áĪ İáī
áĪ Ĳáĭ
áĪ ĺáĪ
ĠtÃ©lÃ© film
ĠtÃ©lÃ© visÃ©e
Ġvo ja
ĠÃĤ mm
Ġbrit anniques
ĠCa chÃ©
ĠCor ps
ĠCor respond
ĠCor quoy
Ġgrou p
Ġchoc s
Ġinv ra
Ġstat istique
ĠOu adj
Ġrespe ct
Ġrespe ctive
Ġcolon el
Ġcolon ies
ga ch
ht ocap
Ã©lect ro
Ġdev aient
Ġdev ise
Ġdev rait
Ġmyth es
Ġmyth ique
ĠAut om
ĠAut riche
ĠAut omotive
ĠAut oglass
ĠBl ues
ĠBl ock
ĠBl omho
ĠMont rÃ©al
ĠMont aign
ĠMont pensi
ĠMont sore
ĠMont serrat
Ġprot Ã¨gent
uy aient
arde ments
Ġlev Ã©e
Ġty tÃ¶
Ġenf antÃ©
ell ation
Ġbeau x
ĠPr usse
Ġparf um
Ġparf aitement
Ġcont act
Ġcont acts
ĠKar j
199 1
199 2
199 6
199 8
199 9
Ġterrit oires
Ġterrit orial
ĠmÃ©di ca
ĠmÃ©di Ã©val
ĠabrÃ©vi atif
ĠconsidÃ© rÃ©es
Ġcircuit s
han ou
Ġven ue
Ġven deur
Ġbat teur
Ġbat tant
Ġbat tle
Ġbat terie
ĠComm and
ĠComm une
ĠComm ittee
ĠdÃ©ci dÃ©
Ġprom ul
Ġprom ouvoir
ĠprÃ©f ace
ĠprÃ©f Ã©rer
Ġparticip ent
eck el
Ġdivers itÃ©
ĠáĪ ĥáĪ
Ġlogici elle
Ġcommerci aux
Ġcommerci aliser
cit anie
Ġfoot balle
ĠLin nÃ©
Ġgraph ie
Ġgraph ics
ĠÃ©di fices
Ġsept entri
Ġ190 5
Ġ190 6
Ġ190 7
Ġmemb rane
Ġsup Ã©rieures
Ġsup Ã©rieurs
197 0
197 8
197 9
Ġexpri mÃ©e
ĠjamaÃ¯c aines
ĠjamaÃ¯c ains
15 9
15 14
15 73
Am iga
val a
val ise
Ġquar ante
Ġquar tiers
uri ers
ĠAd dis
ĠAd ministration
ĠAd vance
ĠPer formance
ĠÃ©conom ie
ĠBou siris
ĠBou bastis
ĠBou lazac
Ġiniti ation
Ġiniti ale
Ġtransf Ã©rÃ©es
ĠáĬ ¸
ĠáĬ ¥áĪ³áī
ĠâĨ Ķ
Ġtend ent
ĠCO DATA
ĠAvant ages
ĠJam es
ĠFer mig
lisse ment
190 5
190 8
ĠAnth ocoridae
Ġ188 0
Ġ188 3
Ġ188 5
Ġ189 0
autom ne
autom obile
autom obilis
Ġtravers ant
Ġjoue use
Ġpratique ment
Ġpharaon iques
Ch er
Ch amond
ca use
latif s
Ġ9 0
Ġ9 3
Ġ9 4
Ġ9 7
Ġdem and
Ġdem andes
Ġenti Ã¨re
Ġenviron nant
ĠÃ¨ k
ĠÃ¨ tt
Ġbeff roy
ĠDi dier
ĠDi alectes
ĠMÃ© lis
ĠMÃ© moire
ĠMus Ã©es
ĠMus ashi
Ġhom Ã©riques
Ġhom ologuÃ©e
mod ynamique
Ġcommen Ã§aient
196 3
196 4
ĠUni on
Ãīc ologie
ĠEsp agnol
Ã©tu dier
Ġcat alyse
Ġcat hÃ©dra
Ġajout s
Ġajout ant
entend u
ĠbÃ©nÃ© ficie
Ġaug mentation
ĠGo a
ĠGo ogle
Ġinf rast
ĠNÃ© el
ĠNÃ© fertoum
ĠRoy al
ĠFin nois
ign ant
Ġarch aÃ¯que
âĶ¬ âĶĢâĶĢâĶĢâĶĢâĶĢâĶĢ
193 1
193 2
193 4
193 5
193 6
193 7
193 8
Ġconser vÃ©es
Ġfix er
Ġfix Ã©e
ĠsÃ©par ent
Ġentend u
ko va
xim ativement
Ġtom es
Ġtyp ographie
Ġtyp iquement
Ġbal con
ĠCal cul
ĠCal endrier
ĠCal tech
ĠCal ligraphie
ĠÃ©qu im
ĠÃ©qu ilibre
ĠSch ock
ĠSch ool
Ġchois i
Ġchois is
Ġchois it
ĠBan co
ĠBan ach
Ġcamp us
ĠII S
ĠintÃ©g rait
ĠintÃ©g rÃ©e
ĠintÃ©g rer
ĠintÃ©g rable
Ġtrouv Ã©
Ġtrouv Ã©s
194 0
194 7
194 9
Ġall ant
ĠInter p
ĠInter face
ĠInter view
ĠInter conne
ĠInter communalitÃ©s
Ġsouff ert
ĠcaractÃ©ris Ã©e
Ġcrist all
Or ne
UL LAC
pend ent
rÃ¨ tes
Ã©p re
Ã©p Ã©e
Ã©p ouse
Ã©p oux
Ã©p aule
Ã©qu ations
Ã©qu ilibre
Ġciv il
Ġciv iles
org ie
org hini
Ġfour nisseur
Ġenv oyÃ©es
ĠDon nÃ©es
ĠDon bass
Ġmod elÃ©s
Ġmodi fiÃ©
ĠarmÃ©ni ens
Ġ183 2
Ġ183 4
Ġ183 8
Ġadministra tion
Ġadministra tif
Ġadministra tives
Ġlocalis Ã©
ĠÃ©crit ure
Ġoccident ales
ĠTechn ologies
ĠindÃ©pendant es
ho of
Ġmai d
Ġfusion ne
Ġfusion nÃ©
Ġfusion nÃ©es
ital ien
Ġunivers elle
Ġunivers ellement
ĠLib res
ĠLib Ã©ralisme
Ġbl Ã©s
Ġboy s
ĠAc ade
ĠAc tivitÃ©s
ĠAc tivision
ĠAc tuellement
Ġgramm aires
ĠTro arn
Ġremp arts
Ġremp orta
ĠSer bie
ĠSoci al
ĠBar ry
ĠMo ore
Ġhor loge
ĠKe ket
ĠKe mour
ĠKe isei
ĠÃ©tab lis
ĠÃ©tab lie
utiliser a
ĠmÃ©t ropole
Ġadop ter
ĠÃ©gyptien nes
Ġautor ise
Ġautor oute
ĠnÃ©cess itÃ©
ĠnÃ©cess itant
Ġprofessionn elle
Ġsorti r
Ġsorti ra
En cy
Ou tre
su jet
Ã¶ z
Ġdent ure
Ġdent ales
oure ux
Ġmix te
Ġmix tes
Ġvoc abulaire
Ġneu tra
ĠTop onymie
agnÃ© tique
agnÃ© tisme
ĠÃ©ch ange
ĠÃ©ch app
ĠÃ©ch antill
ĠGar dien
ĠGar vey
ĠGar diens
ĠGar cÃŃa
ĠGam ay
Ġcompar able
Ġcompar ables
Ġcompar aison
Ġcompar ative
ĠChrysop idae
Ġ187 0
Ġ187 1
ĠProg ressivement
ĠopÃ©ra teur
ĠopÃ©ra teurs
PC US
den ou
pÃ© rer
ĠÅ ¡n
ĠÐ ²
ĠÐ ´Ð¾Ð
ĠÐ ¸Ð
Ġfig ur
Ġfig Ã©es
Ġfig ures
Ġvend re
Ġro che
ĠDou glas
Ġretra ce
Ġ14 6
ĠMon et
ĠMon od
ĠMon uments
ĠMon ica
Ġdisc ours
Ġdisc oth
âĶĢâĶ¬ âĶĢâĶĢâĶĢâĶĢ
Ġpuiss ante
Ġpuiss ances
Ġrepro chÃ©
Ġrecons titution
Ġimpos ent
Ġmess ager
Ġcroy ances
quipe ment
Ġmultip olaris
Ġmunicip al
Ġmunicip aux
Ġmunicip ales
Ġmunicip alitÃ©s
ĠfrÃ©qu entes
11 1
Is raÃ«l
ly se
off ici
zz a
ess ai
Ġlo ve
Ġlo ge
eng ager
eng agent
Ġdeme urent
tim ate
inf lation
inf rarouge
Ġto o
Ġflot tante
Ġflam mes
Ġflam ande
Ġve iller
illÃ© es
ĠCy rÃ©
ĠCy rÃ¨ne
ĠSw an
ĠSw inn
ĠSur nom
ĠSal t
ĠSal vad
ĠSal omon
Ġpot entiellement
ĠBus h
ĠGu in
ĠGu adel
Ġsep tiÃ¨me
Ġhi pp
Ġhi Ã©rarch
Ġdirig ent
Ġdirig Ã©s
Ġfranc ophones
Ġfortif ications
ĠidÃ© al
ĠidÃ© ologie
ĠidÃ© ogramme
Ġirak iens
Ġconsac rer
Ġadul te
Ġmaxim ale
Ġmaxim um
europÃ© en
europÃ© enne
ĠThom as
Ġorigin ellement
AD ULLAC
emb ouch
iy ama
lant a
odi que
Ġdat ent
Ġdat ant
Ġdonn ent
Ġpap yr
Ġsout enir
ĠvÃ©r itÃ©s
Ġense ignement
Ġense ignes
Ġbe at
Ġbe iffroy
ĠbÃ¢ tis
ĠbÃ¢ tir
ĠCl aire
ĠCl ay
ĠCl ub
ĠCou Ã¯avie
ĠCent res
ĠTur k
ĠTur dine
ĠDun c
Ġrev anche
ĠBa al
ĠBa ie
ĠBa fana
ĠBer ne
ĠBer ry
ĠBer hanou
ĠMal oya
Ġstand ards
ĠrÃ©par tis
ĠprotÃ© gÃ©
ĠprÃ©cÃ© dant
ĠprÃ©cÃ© dente
Ġappli quer
ĠArend s
Ġidenti tÃ©s
Ġidenti fier
Ġidenti fiÃ©
Ġconsomm Ã©e
Ġpropos Ã©
Ġpropos Ã©e
ĠProduit s
ĠMich igan
ĠMich ael
Ġancienne ment
ĠcontrÃ´le urs
EE DD
Ġdoll ar
enf ant
Ã©h out
Ġcrois Ã©
Ġcrois Ã©s
arc ation
ĠthÃ© ologie
ĠthÃ© Ã¢tre
Ġvit rage
ĠLig niÃ¨res
Ġplac Ã©e
Ġplac Ã©s
ĠPe k
ĠTra de
ĠTra itÃ©
ĠTra vaille
agas car
ĠDj ogoun
ĠDj Ã©ser
Ġred outable
ĠSou kous
ĠSci entifique
ĠBo ole
ĠdÃ©termin Ã©e
ĠdÃ©termin atif
ĠMat hemati
ĠJus t
ĠJus que
ĠJus tin
Ġhyd rocar
ĠrÃ©d uis
ĠrÃ©d uire
Ġdispar u
Ġcoord onne
Ġmob iles
ĠChÃ¢te aux
Ġjourn aliste
Ġjourn alistes
ĠmÃ©c anisme
Ġreconn ue
Ġreconn aÃ®tre
Ġregroupe ment
Ġdivis Ã©
Ġdivis Ã©e
Ġtransform er
Ġtransform ation
Ġtransform ations
Ġ178 4
Ġ178 8
Ġ178 9
Ġeffec tive
ĠÃ©tudi Ã©
ĠlinÃ© aires
ĠmagnÃ© tisme
Ġcombat tu
Ġreligieuse ment
US DA
cour t
ifi Ã©e
rest res
Ġdanse urs
Ã©ch elle
Ã©ch ange
Ġsus ceptible
Ġmass ac
Ġval able
Ġval id
roÃ¯ des
ĠEr ment
ĠDom inique
ĠDel ta
ĠÃ©v Ã¨nement
ĠSie bold
Ġchan ter
ĠGl ass
ĠGl obe
ĠGÃ© orgie
Ġindustri es
Ġindustri elles
ĠVol tige
ĠrÃ©ser voir
ĠFu ku
ĠChac une
ĠChange ment
ĠprÃ©c autions
Ġcarot te
Ġkil o
Ġkil omÃ¨tres
Ġtrai ter
Ġtradition alistes
Ġfinanci er
Ġfinanci ers
Ġ184 4
ĠimpÃ©ri aux
184 2
186 7
186 9
Ġobs ol
Ġcallig raphie
Ġencod ages
Ġrestaur Ã©s
enregistre ments
Ġpoign ardÃ©e
import antes
ĠpÃ©tro liÃ¨re
Ġinflu ences
ä¸Ģ åįģä¸Ģ
hom mes
je k
á¸ ı
ĠnÃ©g ation
Ġbille ts
anthrop ologue
ĠPÃ©ri ode
ĠPremi ers
ĠTa ouret
ĠÃ©vent uel
ĠSab rina
ĠBour se
Ġouver tes
ĠdÃ©v oi
ĠNom s
ĠRou illac
ĠRet urn
ĠrÃ©si dences
Ġ28 0
ĠHa wk
ĠHa eckel
ĠHen outtaneb
ĠHer bert
ĠFor est
Ġanc Ãªtre
ĠChris tine
Ġmeur tre
Ġcarb ones
ĠKen jutsu
Ġaltern ative
Ġphr ases
Ġcollabor Ã©
Ġcollabor ateurs
187 7
Ġpleine ment
Ġcrash ers
Ġprotoc ole
Ġinstrument al
Ġinstrument ales
ĠÃ©trang Ã¨res
ĠstratÃ©g ique
36 3
Hor akhty
col onel
fond ateurs
not Ã©e
pro vince
up et
ysi ques
Ðµ ÑĤ
Ðµ Ð»
áĬ ĳ
áĬ ķáī
Ġclo ches
Ġclo chers
Ġtro tskiste
Ġeng endre
Ġeng agÃ©
ĠCap itale
Ġrang Ã©e
ĠAt las
ĠAth Ã¨nes
ĠAth Äĵ
ĠAth ribis
Ġger mination
ĠPan ama
Ġconj onc
ĠDire ct
ĠÃ©volu tionniste
Ġcham bre
Ġcham ito
Ġposi tif
Ġposi tions
ĠBro th
ĠBro wn
ĠdÃ©bu tÃ©s
ĠMel bourne
ĠMel odisc
ĠMoul der
ĠintÃ©r ieure
ĠintÃ©r ieures
Ġhar an
Ġdiver tir
ĠrÃ©gn er
ĠrÃ©gn ait
ĠcomplÃ©ment aire
Ġcommande ur
orth ographe
Ġexist ent
Ġexist ait
Ġradi c
Ġminor itaires
Ġminim al
Ġminim um
Ġminim iser
Ġ180 7
Ġ180 8
Ġsouverain etÃ©
Ġadap tÃ©e
Ġadap tation
Ġadap tateur
Ġclass es
Ġclass Ã©
ĠgÃ©nÃ©ralis Ã©
ĠdÃ©clin aison
Ġlumine uses
Ġabs olue
Ã©tend ue
Ġrende ments
177 4
177 6
Ġsignifi ait
Ġconsid Ã¨rent
ĠdÃ©pend ance
ĠmÃ©diÃ©v aux
ĠCommon we
ĠtempÃ©ra tures
ĠnÃ©cessaire ment
ĠexpÃ©riment ales
Ð¾Ð ²Ðµ
56 7
57 0
AC M
Char les
Char ente
Char entes
bo xe
heure usement
ov ine
Ã¦ us
Äģ n
ÉĽ l
Ġpal Ã©
Ġpal iss
Ġpal atales
ĠpÃ©r il
ĠmÃ¢ t
Ġquin quenn
Ġquasi ment
Ġenne mi
Ġenne mie
ĠLim ite
ĠLamb orghini
Ġbomb ardi
Ġbomb ardÃ©
Ġbomb ardements
ĠCin quiÃ¨me
ĠClau dius
Ġcomment aires
Ġrasta fari
ĠEx ten
ĠEx tended
ĠTrans cription
ĠTrans cendance
Ġcong olaise
Ġconv osco
Ġconv ainc
Ġconduit s
ĠDo eff
ĠÃ©m ulÃ©
ĠÃ©m ergÃ©
ĠÃ©vo quer
ĠSav oir
ĠSav oye
ĠBor is
ĠdÃ©b ranch
ĠdÃ©b oucher
ĠdÃ©ri ve
ĠGr Ã¢ce
ĠGod desses
ĠMas ayoshi
ĠinfÃ©r ieur
Ġdiction naires
ĠRa diotÃ©lÃ©
ĠprocÃ© dÃ©s
ĠprocÃ© dures
ĠWh y
ĠWh at
ĠcoÃ» t
Ġcommand Ã©
Ġcommand ent
Ġcommand Ã©e
ĠprÃ©tend re
ĠprÃ©tend ait
ĠAng lais
Ġmari Ã©
Ġ186 1
Ġ186 6
Ġvertic ale
Ġobjectif s
Ġspor tifs
Ġ179 0
Ġ179 1
Ġ179 3
âĶĢâĶĢâĶĢâĶĢâĶĢâĶĢâĶĢâĶĢ âĶĢâĶĢâĶĢâĶĢ
âĶĢâĶĢâĶĢâĶĢâĶĢâĶĢâĶĢâĶĢ âĶĢâĶĲ
ĠspÃ©cialis Ã©
ĠspÃ©cialis Ã©e
ĠspÃ©cialis Ã©es
ĠâĦ Ĥ
ĠâĦ Ŀ
ĠPhil adel
ĠPhili pp
ĠnumÃ©ro tation
Ġgrammatic aux
Ġgrammatic alement
Ġgrammatic alisation
ĠindÃ©pend amment
ĠáĬł áĪ
ĠvÃ©rit ablement
Ġassimil ation
Ġassimil Ã©e
Az ergues
hÃ©r itage
habit ants
sh irt
van omÃ¨tre
åį ĥ
Ġlu cratif
Ġpand a
Ġsab re
Ġsab oter
Ġsing le
Ġara bes
orÃ© duction
Ġtamb ours
Ġquit tent
Ġbord elais
ĠCat Ã©gorie
ĠCop ley
Ġriv al
ĠPeu tinger
ĠPol y
ĠPol it
ĠPort land
ĠEst ados
ĠTour nai
ĠÃ©cl aire
ĠSar at
ĠSar roux
ĠSig les
ĠdÃ©mont rÃ©
othÃ© isme
Ġsurn omme
ĠNa unet
ĠNot amment
ĠNap ata
ĠRel ation
ĠrÃ©v olte
ĠrÃ©duit es
ĠrÃ©fle cteur
Ġviol ence
Ġviol ents
Ġcompil ation
Ġcompil ateurs
ĠChim ie
ĠChim Ã¨re
ĠChim bote
ĠarchÃ© ologique
ĠarchÃ© ologue
ĠarchÃ© ologues
ĠprÃ©h istorique
ĠprÃ©par ation
Ġappro vision
Ġappro fon
ĠÃīlect rom
ĠUtilis ations
accomp lisse
Ġsouter raine
189 5
trib uer
ĠAugus te
entraÃ® nement
apprend re
ĠCarac tÃ¨res
179 5
ĠfÃ©od al
And rÃ©
And erson
Ġdomin Ã©e
Ġdomin icain
ĠApoll inopolis
Ġaffir me
Ġaffir mant
Ġinscrit s
Ġpratiqu ant
ĠsupplÃ©ment aire
ĠdÃ©cim aux
ĠáĪĲ áĪĺáĪ
Ġarchite ctur
ĠÃ©tabli r
Ġseigneuri ale
ĠhiÃ©rogly phe
ĠhiÃ©rogly phique
Ġfortifi Ã©
ĠGalli en
ĠrÃ©comp ens
Ġgerman iques
ĠtÃ©moign er
ĠtÃ©moign ent
Ġfrottement s
ĠMystic s
30 826
Ab olition
Se ine
aj oute
ajout ent
crÃ© ature
fric ain
lang ue
mou ia
tul atus
yra ud
zac ais
ÑĤ Ñ
ĠÅĵu fs
ĠÅĵu vres
Ã©th ologie
Ġpau vres
Ġpav illon
Ġcum ul
Ġcum ule
ĠcÃ¢ bles
ĠcÃ¢ blÃ©es
anim aux
Ġmun ie
Ġmor ale
Ġten ues
Ġflu vi
Ġvac uitÃ©
ĠCrÃ© ation
ĠCiv itas
ĠCross fire
ĠAg bad
ĠPic ciotto
Ġpartis ans
ĠElectron ic
Ġjuri diques
ĠÃ©rig Ã©e
ĠSing apour
ĠBen ben
ĠBen veniste
ĠBord es
ĠBelle vue
ĠGen Ã¨se
ĠGen eral
ĠGas ton
ĠGra ves
ĠGau les
ĠGuy ane
ĠMic ropro
ĠMic ronÃ©sie
ĠImp rimerie
Ġint Ã¨gre
Ġinten tions
Ġintellig ent
ĠVic tor
ĠJack ie
Ġhilber tiennes
Ġdimin utif
Ġdipl Ã´me
ĠNic Ã©e
ĠNic ole
ĠNic olas
ĠRÃ©s umÃ©
ams Ã¨s
ĠrÃ©un is
Ġprovo quer
Ġvic times
mois elle
ĠHat ti
Ġcos mique
Ġmonarch ies
ĠCham bre
ĠChrist ophe
ĠÃ©troi te
ĠÃ©troi tes
ĠÃ©troi tement
ĠacadÃ© mique
heb dom
Ġexpli quer
Ġexpli citement
ĠdÃ©cis ion
Ġaband onnÃ©
ĠimpÃ©ra tif
ĠReprÃ© sent
ĠĠĠĠĠĠĠĠĠĠĠĠĠĠĠĠ ĠĠ
Ġsuccessi vement
Ġpartage ait
ĠfÃ©dÃ© rÃ©
Ang oulÃªme
Ang oumois
Ġprofonde urs
Ġincar ne
Ġsynta xique
ĠconsidÃ©ra tion
ĠconsidÃ©ra ble
ĠconsidÃ©ra blement
Ġvolont aires
ĠâĶĮ âĶĢâĶĢâĶĢâĶĢâĶĢâĶĢâĶĢâĶĢâĶĢâĶĢ
ĠÃ©pous a
ĠÃ©pous es
ĠKhent amenti
tell um
Ġsynchron isation
ĠcatÃ©g orie
Ġaugment ant
ĠGood bye
ĠÃ©quiv al
ĠÃ©tablisse ment
ĠbÃ©nÃ©fici aire
Ġsouten u
Ġenregistre ments
ĠsÊ¼Ã¤ lot
ĠsÊ¼Ã¤ hay
Ġdangere uses
ĠnÉĻgus u
Her zÃ©g
Mar tin
Son ara
Son ora
bri de
bri dge
dj edet
mus ique
oÃ¯ s
ÈĿ st
Ð» ÐµÑĤ
à® Ł
Ġu chig
Ġorth og
Ġorth ograph
Ġlut te
Ġlut tant
Ġpond Ã©rale
Ġcouv rant
Ġcouv erts
Ġcath oliques
Ġsultan at
Ġaqu atiques
Ġajou tÃ©
eri um
Ġtardi f
Ġvain cre
ĠvÃ©ri fie
ĠvÃ©nÃ© rÃ©
ĠLo gement
ĠLag arde
ĠLag uenne
ĠLinguis te
ĠÃ¢ gÃ©
ĠCI E
ĠCI MMYT
ĠCro cod
ĠCamb ridge
ĠCamb odge
ĠAli en
ĠPri onod
Ġparois ses
ĠEl lis
Ġconver sion
Ġconver tir
Ġreti rÃ©s
ĠSok ar
ĠSno ws
Ġ115 5
Ġ115 8
Ġsim ilis
ĠBu enos
ĠBre ker
ĠBit uriges
ĠBos nie
ĠdÃ©li v
ĠdÃ©lÃ© gations
ĠdÃ©mar che
ĠMor se
ĠMot oneige
ĠMad ame
ĠMad agascar
ĠMah food
Ġintit ulÃ©e
ĠindonÃ©si en
ĠRos et
Ġprosp Ã©ritÃ©
ĠWi kipÃ©
ĠHyd ronyme
ĠFÃ© dÃ©ration
ĠFond ation
Ġanalog ues
ĠKhÃ© pri
ĠKhÃ© phren
Ġkan ji
ĠminÃ©ra l
ĠminÃ©ra ux
Ġcass ettes
ĠamÃ©rindi enne
ĠamÃ©rindi ennes
Ġrecommand ation
Ġrecommand Ã©es
Ġregroup Ã©s
Ġregroup Ã©es
Ġattribut s
Ġdiffus Ã©
Ġdiffus ent
Ġmatern itÃ©
Ġmatern elle
ĠMem orial
ĠMem oirs
Ġcalif at
Ġcalif ornien
Ġcultiv Ã©e
Ġáī ¥áĭ
Ġfamili al
Ġfamili ale
Ġgaranti r
Ġrenv oie
ĠMartin ique
ĠsÃ©pare r
ĠÃ©lectrom Ã¨tres
ĠÃ©lectrom agnÃ©tique
Ġ176 7
Ġjuli ens
Ġjuli ett
Ġcroise ur
Ġcroise ment
ĠThermo coc
Ġinstantan Ã©
Ġinstantan Ã©ment
Ġgouverne urs
Ġfrag ile
ĠrÃ©public ain
Ġentour ent
Ġentour Ã©e
ĠShim ura
ĠShim Åįsa
archÃ© ologie
archÃ© ologue
Ġtribun al
Ġtribun aux
Ġ79 9
Ġcadmi age
ĠSymb olique
ĠcÃ©rÃ© ales
Ġcircons cription
ĠConst ante
Ġempr unt
Ġempr unts
Ġpronom s
Ġsouhait Ã©
ĠÃ©chang es
ĠáįĢ áĪĲáĭ
ĠthÃ©b ains
ĠRoche fort
Ġenregist rÃ©
Ġmandat Ã©
Ġvirgu les
Ġnaval s
ĠáĮ¸ áĪİáī
Ġastron omiques
Ġraccour ci
Ġraccour cissement
çĻ¾ åįģä¸Ģ
çĻ¾ ä¸Ģåįģä¸Ģ
ĠcÃ©lÃ©b ration
ĠHalobacteri a
As semblÃ©e
Amp hipolis
Den is
Ex trÃªme
Je an
Re gion
Th ibaut
ave z
cie mment
cons acrÃ©
emp Ãª
fri dare
fri Ã¾u
tur ne
tas ie
tta ouy
var ienne
work s
¥áĭ ķ
Ñĩ ÐµÐ»
á¹ Ń
escla vage
Ã©re ction
ĠpÃ© jor
Ġpoire au
Ġpsych ologie
Ġsla ve
Ġsla ves
ĠsÃ» r
ĠsÃ» retÃ©
Ġasi atique
Ġasi atiques
Ġami ra
Ġath lÃ¨te
ind rique
arr Ãªte
arab e
Ġtre z
ĠtÃ¢ che
ĠtÃ¢ ches
Ġquad ri
Ġvil la
Ġvil jan
Ġvoul oir
Ġeth nique
Ġnour r
ĠLÃ© on
ĠLog iciels
Ġbin aires
Ġbin ary
Ġbil an
Ġbob inage
ĠCri tique
ĠCentra l
ĠCrist Ã³bal
ĠCalifor nie
ĠCalifor nia
Ġrig oureuse
ĠAff aires
ĠAape f
ĠAape p
chim iques
Ġgross esse
ĠPOI D
Ġparam Ã¨tres
Ġparodi Ã©
ĠEth ernet
ĠTr omboniste
ĠTw ist
ĠTyp ographie
ĠTÃ©lÃ© vision
ĠTÃ©lÃ© com
Ġconqu Ãªte
Ġconqu Ãªtes
atch ok
attein dre
ĠSel k
ĠStat es
Ġ133 3
Ġchante use
aci Ã³n
ĠBir ch
ĠGate way
ĠGÃ©nÃ©ra lement
ĠMend Ã¨s
ĠMay im
ĠMod Ã¨le
ĠIoun yt
ĠVers ailles
ĠVig noble
ĠhÃ©b erg
Ġsurmont Ã©
ĠNav y
ĠNik ola
ĠRh ins
ĠRi ordan
ĠWilli am
ĠWilli ams
ĠHap ou
ĠHak ko
Ġcomplex es
Ġexer cÃ©e
ĠexcÃ© der
ĠexcÃ© dentaire
ĠprÃ©v oit
Ġappropri Ã©
ĠKid s
insp irant
ĠFrank lin
ĠÃ©tym ologies
ĠUS B
ĠUl timate
Ġkir k
Ġauxqu elles
Ġauxqu els
ropro cesseurs
Ġmomifi Ã©s
Ġinterven tions
Ġesti mÃ©
Ġesti mÃ©e
ĠParc oul
ĠParc ours
Ġconsult atif
Ġconsult ative
ĠmÃ©tra ge
ĠmÃ©tra ges
Ġnormalis antes
Ġexpos ants
identi tÃ©
ĠRecher che
ĠagrÃ© ment
Ġspiritu els
Ġaccus Ã©
Ġmanip ul
ĠCaraÃ¯ be
ĠCaraÃ¯ bes
serv atoire
Ġdomes tique
Ġdomes tiques
ĠrÃ©pert oriÃ©
effic acitÃ©
Ġnipp ons
Ġisomor phe
ĠConf lict
ĠStan ford
Ġsymbolis aient
ĠbactÃ©ri orhodopsine
Ġinspi rÃ©es
Ġconfond us
Ġther modynamique
Ġthermo philes
Ġbourgeois ie
ĠDÃ©partement s
ĠpossÃ©d ant
ĠpossÃ©d Ã©e
ĠempÃª cher
Ġmultipo int
Ġmultipo ints
ĠAcc ueil
ĠKek ou
ĠmÃ©tal angage
ĠÅĴu vre
ĠÅĴu vres
Ġflexion nelle
ĠrÃ©parti tion
ĠSpÃ©ci alitÃ©
Ġmeurtri Ã¨re
Ġmeurtri Ã¨res
ĠBoyz one
ĠViol enta
Ġmarchand s
ĠFonction nement
Ġpauvre tÃ©
Ġdiplom atique
Ġdiplom atie
Ġsugg Ã¨re
Ġintellectu elle
ĠáĬķáĮīáĪ ¡
ĠáĬķáĮīáĪ ¥
Ag ence
Ap ollon
Blan zacais
CL OC
DRE AL
Gu Ã©rin
Hen ri
Ph ilippe
We ise
fiel d
gy Åį
histor ien
uk ata
zay i
ÄĿ os
Î± Î
Î½ Î±Î
env oyer
onÃ§ a
Ã©le ver
Ġpen co
Ġpure ment
Ġcra int
Ġcot Ã©es
Ġcouver cle
Ġsan itaire
Ġsti p
Ġsatur Ã©s
Ġsensible ment
ref rain
Ġmons tres
Ġmic roprocesseurs
Ġmoul in
Ġmyri ades
Ġtau reau
Ġfant astique
Ġvoud rait
Ġvulg aire
Ġuniform es
Ġenvi rons
Ġnor dique
ĠLor enz
ĠLau rel
ĠLouv ain
alli ances
Ġbles s
Ġbab ylonien
Ġbap tisÃ©
ĠbrÃ©sil iennes
augu ette
ĠCr yptol
ĠCÃ´ lon
Ġrur ale
ĠAra ki
ĠAvent ures
ĠAbe be
ĠAnec dotes
Ġgre cs
ĠPoi tiers
ĠPriv ate
Ġparcour ue
ĠEgyp t
Ġjet Ã©es
ĠTat Ã©nen
ĠTÃ¡ rs
Ġconven tionnel
agon istes
agrand isseur
ĠDie ter
ĠÃ©l oign
ĠSot obÅį
ĠSul pice
ĠSop dou
ĠSyl vi
ĠSÃ©p ulture
ĠSovi et
Ġ112 9
Ġchance ux
ĠchaÃ® nes
ĠBrad ley
ĠBulg arie
ĠBlizz ard
ĠdÃ©nomin ation
ĠGum be
ĠGusta ve
ĠMag y
ĠMir zayi
ĠMats ukata
ĠMalais ie
ĠIne xpressible
ĠIdenti ty
ĠVend ry
ĠViv isques
ĠVars ovi
ĠJourn al
ĠOc citanie
ĠOp Ã©ra
Ġhal obactÃ©ries
ĠhÃ©r itÃ©s
ĠhÃ¢ li
Ġdialog ue
ĠNR Z
ĠRÃ¨ gne
ĠRÃ¢ ttaouy
amÃ©n agement
ĠrÃ©di gÃ©
ĠrÃ©fu gie
ĠWil kins
ĠWal ter
ĠFF II
ĠFel iformia
ĠFal dermann
ĠFut urism
Ġdiss ociation
ĠcohÃ©r ence
Ġcompli quÃ©e
Ġmodu le
Ġmolet tes
Ġexcell ente
ĠChev alier
ĠAlph onso
ĠprÃ©fe ctor
ĠprÃ©pond Ã©
ĠcartÃ©si ennes
ĠEnviron ment
ĠKale vala
ĠKÃ´ mir
ĠUch ibÅį
ĠalÃ© atoire
Ġsophis tiqu
ĠAnarch y
ĠitinÃ© rante
Ġpercussionn iste
Ġsoustra ctions
ĠDistin ctions
Ġescla ves
accou chement
âĶĢâĶĢâĶĢâĶ¬ âĶĢâĶĢ
Ġadminist rÃ©e
Ġtitul ature
Ġamen er
Ã©clai rage
Ġmilit ants
Ġregrou pent
ĠDeb ka
Ġavantage use
ĠmaÃ§onner ie
ĠMedi active
Ġnotori Ã©tÃ©
ĠsuccÃ© der
Ġblanchi ment
Ġpolitic al
Ġpataph ysique
Ġrenfer me
Ġsignale r
ĠCarniv ora
Ġapparten aient
170 7
Ġmerc enaires
ĠÃ©lector ales
expÃ©ri ence
ĠfÃ©l ins
Ġsignific ative
Ġinstr uire
Ġwak izashi
Ġbulg are
ĠrÃ©pu tÃ©
Ġoctro yÃ©
Ġisom Ã¨res
Ġisra Ã©lien
Ġindig Ã¨ne
ĠStar gate
interpr Ã¨tes
ĠdÃ©fensi ve
ĠDivert issement
Ġposit ron
ĠPhyl ogÃ©nie
ĠPhysi cien
Ġcandi dats
Ġmaje urs
Ġportefeu ille
ĠSaou dite
Ġposses sive
ĠHars omtous
ĠBio geoche
install Ã¨rent
ĠtÃ©lÃ©charge ment
ĠvoÃ» tes
Ġinvest issements
ĠOuas et
Ã©lectrom Ã©nager
ĠMontre uil
Ġvictor ieux
ĠmÃ©diatis Ã©
ĠfrÃ©quent ation
Ġquantit ative
Ġremont ent
Ġtempor aires
Ġprovin ci
ĠboÃ® tier
Ġbyz antine
ĠServi ces
ĠMoz amb
ĠmÃ©tab olique
Ã¶r tÃ©
ĠCourami au
ĠÐ½ Ð°
Ġreconstr uit
Ġphotosyn thÃ©tiques
Ġplacent aires
Ġdynam iques
Ġanthropomor phe
Ġengend rÃ©
ĠAttribut s
Ġconvert is
ĠWhite head
Ġenglob Ã©e
ĠhypothÃ© tique
ĠNormand ie
Ġfluoresc entes
Ġremarqu able
ĠKhenty khety
Ġinnov ations
ĠThermoprote i
ĠPinni pÃ¨des
ĠDiffÃ©r entes
ĠdÃ©roule ra
Ġhorizont ale
×ĳ× Ļ×ª
ĠpÃ¨ler inage
ĠLudw ig
Ġriddim s
ĠintÃ©ress Ã©s
ĠecclÃ©si astique
'- '
Ame met
Aut riche
Amer ican
Aval ouze
AES C
AmÃ©n agement
Bal amoun
Bonn ieure
Bef ore
Clau de
CSP LA
Califor nie
Dar uma
Dire ction
Ed fou
Empl oi
Electron ic
FallÃ© n
Ir ty
Iv oire
Jam aÃ¯que
Kh ali
Knig htocap
Ly kke
MÃ© neville
MÃ©d ard
Ny onya
Nap oca
Ode brecht
OcÃ© an
Pall u
Plex aris
PomÃ© ranie
Sok ar
SÃ©v Ã¨re
Tan iyama
Tur key
Thom as
Tef nout
UW I
Uz Ã¨s
Uss el
br as
bÃ¤ r
baÃ¯d jan
coun try
djou k
hyp othÃ¨se
hren gard
march Ã©s
mach ine
rlig hed
romp ues
zuel a
±Ð¸ Ð»ÐµÑĤ
ÃĬ tre
âĭ ħ
éĽ ¶
Ġub i
Ġero breren
ĠÑĢ Ð¾Ð
Ġ×Ķ ×ĳ×Ļ×ª
Įáī ³
ĠlÃ© opard
Ã©os tasie
Ġpagin Ã©e
Ġpaci fique
ĠptolÃ©m aÃ¯que
Ġcyl indrique
Ġscri be
ĠsÉĻ nt
Ġsmart phones
anat omie
anote chn
quÃ©ri r
Ġample ur
Ġajour Ã©
Ġarab ique
leure ments
intÃ© resse
incit ation
inconvÃ©ni ent
Ġmori o
Ġmys tique
arist ocratie
arriv Ã©e
artille rie
Ġtam oul
ĠtÃ©n Ã¨bres
ĠthÃ©mati que
Ġtsu ka
ĠquÃ©b Ã©cois
urasi athÃ©riens
Ġflan quement
ĠfÃ©c onditÃ©
Ġfenn ique
Ġfav ori
ĠflÃ¨ ches
Ġfric ative
Ġfossi le
Ġnoc turne
Ġnut ri
Ġnette ment
rament o
ĠLyd ie
ĠLÃ¤n dler
alphab Ã¨tes
Ġbeur re
Ġboli varienne
ĠbÃ« r
Ġbagar res
ĠbÉĻz u
Ġbachel or
ĠCuis ine
ĠComb at
ĠClu j
ĠCovi d
Ġruis seau
Ġrume urs
ĠAran na
ĠAlex and
ĠAzer baÃ¯djan
rows ki
Ġghan Ã©en
ĠPors che
ĠPall as
ĠPira tes
ĠPith Ã´m
ĠPull man
ĠPrad esh
ĠPassÃ© ism
ĠEiff el
ĠEmpl oyÃ©
ĠEuropÃ© enne
ĠEiki chi
respe ctivement
ĠTomm y
ĠTyl or
ĠTchÃ© quie
ĠTelang ana
Ġconvec tion
Ġconces sions
Ġconform Ã©ment
attribu tion
agamu wa
Ġaudi tive
ĠDend Ã©rah
ĠDÃ©r oulement
ĠDÃ©t roit
ĠDÃ©m ographie
ĠDerae ocor
ĠÃ©lar gie
Ġrect angulaire
Ġremi xes
ĠSac ramento
ĠSouv enirs
ĠSap ins
ĠSoy ouz
ĠSob olev
ĠSouver ains
ĠShar p
ĠSoud ayri
ĠSumm it
ĠSlog an
ĠSanner ville
Ġchari a
Ġchanti ers
access oires
Ġpowi at
ĠBout o
ĠBut terfly
ĠBlus sÃ©
ĠBaug y
ĠBaneb djedet
ĠBASI C
ĠBazo ches
ĠBÅįs Åį
ĠGains bourg
ĠGhan a
ĠGym nastique
ĠGrÃ¨ ce
ĠGorb atchev
ĠGabri el
ĠGonji ro
ĠGrim al
ĠGatesh ead
ĠMons ieur
ĠMnÃ© vis
ĠMÃ©t ropole
ĠMoles kine
ĠMade moiselle
ĠMoute mouia
ĠMaig ret
ĠMiser y
ĠMalem ort
ĠManner heim
ĠMgod ro
ĠIni ti
Ġintent Ã©
Ġinhum Ã©e
ĠinÃ©d its
Ġinciter ont
Ġineffic aces
Ġindiss ociable
Ġstric tement
Ġstrict s
ĠVla dimir
ĠVene zuela
ĠVich y
Ġtect onique
ĠJuni or
ĠOst rowski
ĠOtta wa
tÃ©lÃ© film
Ġhare m
ĠhÃ¡ z
ĠhÃ¥ b
Ġdiasp ora
ĠNum Ã©ration
ĠNombre ux
ĠNaye f
ĠRese arch
amÃ©li oration
ĠrÃ©cu pÃ©rer
ĠrÃ©form ateur
ĠrÃ©act ants
ĠrÃ©appro vision
Ġprojec tiles
Ġprocar yotes
ĠWils on
ĠWoll aston
ĠWailer s
ĠHomm ages
ĠHaÃ¯ ti
about issement
ĠFige ac
ĠFavor ite
Ġcook ies
occu per
Ġsatell ites
ĠcomplÃ© tÃ©
ĠcompÃ©ti tivitÃ©
Ġmonop oles
Ġmonna ie
Ġmonnai es
ĠJedd ah
irrig ation
Ġanarch iste
ĠextrÃ© mitÃ©s
ĠextrÃªme ment
ĠChÅ« Åį
Ġmexic aines
ĠprÃ©Ã©min ence
Ġcaroti de
Ġavanc Ã©es
ĠsuÃ©d ois
Ġraid s
ĠKaz atchok
ĠKail ao
ĠÃīchar meaux
optimis ation
ĠUru guay
ĠUsur pateurs
ĠUbis oft
Ġallus ion
Ġallu vi
ĠArchi ve
ĠArensnou phis
Ġsovie tique
ĠacÃ©t ate
ĠkÃ¦ rlighed
ĠAntarc tique
Ġperman ent
Ġpermir ent
obÃ©nÃ© factif
ĠIntro duction
ĠInazu ka
ĠserÄī as
Ġadoles cence
Ġrecueilli r
Ġmontrouzier i
ĠdÃ©concent rÃ©s
Ãīvang ile
Ã©talonn age
ĠQÃ©b Ã©hout
ĠQuerÃ©t aro
ĠRefer ence
Ġcaponni Ã¨re
Ġmotocycle tte
Ġagglu tin
Ġprimat ologue
Ġprivil Ã©g
exclus ivitÃ©
exerci ce
Ġá¼Ī Î¸
Ġautocra ties
assassin at
Ġsiglais on
clopÃ© die
ĠNedder meyer
ĠconnaÃ®tr ont
Ġrenvers er
Ġsociolinguis tique
ĠCarape zza
Ġvraisembla blement
oxyg Ã¨ne
explor ation
ĠÃ©cosyst Ã¨mes
harign a
Albert o
SIWY G
Ġmalfais ants
ĠStchot y
Ġscandina ves
ĠIsht ar
ĠPhyt oseiidae
Argent at
ĠthÃ©rianthro pe
unifÉĶ m
Ġcinquant aine
Ġshuff le
ĠÃ©pith Ã¨tes
ĠMaastrich t
ĠKhoro vod
Ġvoja ÄĿos
ĠÃĤmm out
ĠOuadj it
ĠBlomho ff
ĠMontaign ac
ĠMontpensi er
ĠMontsore au
ĠtytÃ¶ lle
ĠmÃ©dica ments
ĠáĪĥáĪ Įáī³
Ġfootballe ur
ĠAdvance d
ĠFermig ier
automobilis me
ĠcathÃ©dra le
Ġinfrast ructures
Ency clopÃ©die
ĠÃ©chantill ons
ĠÐ´Ð¾Ð ¼
Ġdiscoth Ã¨ques
Ġmultipolaris Ã©es
ĠSwinn erton
ĠSalvad or
ĠGuadel oupe
ADULLAC T
embouch ure
Ġpapyr us
EEDD M
ĠDjogoun s
Ġhydrocar b
ĠFuku oka
ĠCommonwe alth
Ð¾Ð²Ðµ Ðº
ĠdÃ©branch ables
ĠRadiotÃ©lÃ© phonie
ĠPhiladel phie
ĠAgbad ja
ĠMicropro cesseur
hebdom adaire
ĠKhentamenti ou
HerzÃ©g ovine
Ġuchig atana
ĠPrionod on
ĠWikipÃ© dia
Ġáī¥áĭ ĻáĬ
ÑĩÐµÐ» Ð¾Ð²ÐµÐº
ĠpÃ©jor atif
CLOC K
ĠCryptol aemus
ĠBiogeoche mical
Knightocap sus
