#version: 0.2
e s
Ġ d
Ġ l
Ã ©
e n
o n
Ġ p
Ġ c
a n
Ġ s
Ġd e
o u
t i
č Ċ
r e
i s
q u
t e
Ġ a
i n
l e
e r
en t
a r
e t
Ġ m
u n
o r
Ġl a
Ġl e
o m
i t
u r
Ġ t
Ġ et
Ġ f
Ġ qu
u s
o i
Ġ un
ti on
Ġ čĊ
r a
Ġd es
Ġ v
i l
Ġ Ã
Ġ en
Ġ L
es t
Ġl es
ou r
Ġ n
e l
a l
a s
Ġ C
Ġ (
i e
qu e
m e
m ent
Ã ¨
Ġ A
Ġd u
r Ã©
an t
Ġ b
a u
ĠÃ ł
r o
Ġ :
r i
c e
Ġc om
o l
c h
s i
Ġp ar
n e
r es
s e
an s
Ġ P
Ġ g
l i
Ġ Ã©
a t
m p
Ġ est
Ġc on
a is
Ġ S
Ġa u
a tion
e u
Ġ E
v e
Ġ 1
a i
Ġ B
Ġ D
Ġp l
a g
Ġ Â
d e
c i
Ġ T
Ġp our
Ġqu i
te r
Ġ j
Ġ ?
on t
Ġd Ã©
Ġ re
Ġc h
Ġ M
a c
l es
r an
Ġ I
Ġun e
Ġ ou
Ġ in
Ġ e
Ġd ans
o t
d i
a le
Ġpl us
a in
u i
Ġs i
t Ã©
Ġ G
â Ģ
it Ã©
Ġ N
a b
o g
Ã© e
Ġs e
o p
Ġ rÃ©
Ġ R
a it
f f
Ġs ur
Ġ r
Ġd i
Ġp ro
u l
en d
Ġ h
Ġqu e
g e
a m
o s
Ġ J
Ġ1 9
Ġp as
Ġ H
er s
ĠÂ »
Ġ -
Ġ V
Ġcom me
o c
Ġ ;
en s
Ġ F
a p
t u
Ġ 2
is te
âĢ Ļ
c es
ou v
i que
Ã© r
ĠÂ «
ĠL e
Ġ |
eu x
ve c
Ġ O
a ti
an d
is t
Ġ te
ai re
x p
ur s
in e
m b
Ġcom m
Ġ il
qu es
el le
i c
il le
n Ã©
an g
o is
s t
ch e
) ,
Ġa vec
mp le
t re
v i
Ġs t
ag e
n i
or d
p p
u x
Ġp o
qu oi
or t
Ġc a
ou s
u is
Ã¨ re
m i
p e
on s
Ġ W
Ġv i
u e
Ġcom p
p h
Ġ on
ou t
i m
Ġ Ġ
un e
c tion
Ã §
Ġs a
or m
Ġn om
n es
Ġ o
oi r
ĠI l
Ġe x
Ã© s
Ġs ont
Ġ2 0
Ġp rÃ©
Ġle ur
Ġsi mple
l is
Ġp r
Ġ an
Ġc o
or s
u t
li que
) .
u m
ti que
Ã ª
ĠC h
Ã¨ s
e au
Ġs on
Ġd is
ĠL a
Ġc e
ol og
us si
i g
Ġv eux
c t
ĠE n
on d
er t
Ġm o
ĠL es
Ġt r
â Ķ
i r
u re
Ġpo te
Ġa ussi
Ġs u
m o
Ġm on
Ġ K
a te
Ġa r
xp lique
i v
Ġc ar
au x
Ġn on
Ġm oi
i b
Ã© ri
ĠÃ ī
d u
Ġ .
ĠÃ© t
Ġcomm un
p ar
Ġf ran
en ce
Ġ ,
Ġt u
Ġp eu
si on
es h
an ce
ĠÃ© g
i on
Ġa pp
ĠP our
Ġa v
1 9
f Ã©r
u ti
en ces
ou le
d Ã©
Ġ ra
i en
t es
ĠT u
Ġpar ti
oi re
ĠA r
se mb
m es
Ġ U
Ġa l
Ġj e
ĠW esh
ĠF ran
l Ã©
Ġn e
Ã§ ais
ĠA l
y p
âĶ Ģ
ent re
ar d
et te
Ġt on
a y
ĠJ e
Ġfran Ã§ais
ti n
Ġf ait
in s
Ġqu oi
semb le
Ã© es
Ġau x
Ġpour quoi
Ġ| |
uti lis
u b
ĠA n
ĠG ui
b re
r on
en ti
Ġm e
Ġf or
z mo
ĠE xplique
ĠV as
Ġst p
ĠPour quoi
ĠGui zmo
o y
Ġm ais
Ġde ux
re t
Ġa c
Ġt ra
Ġin ter
l a
Ġg Ã©
Ġj us
t at
Ġ i
Ġl ang
Ġs y
in g
t h
us e
Ġcon c
fÃ©r ences
Ġp h
Ġc our
te ment
Ġd on
Ġs o
h e
Ã ¢
Ġen semble
g n
ĠI n
ale ment
ot es
o b
Ġp re
tu re
d er
r u
ĠL iste
r it
Ġcommun es
t res
ation s
r ou
a Ã
ci p
s ent
al es
0 0
a d
om m
m oi
o d
te ur
er m
ĠN otes
c u
Ġ utilis
Ġ ter
âĶĢ âĶĢ
en ne
in ce
Ã ´
Ġs ous
e c
t s
u es
el les
f in
Ġt out
tion s
ĠP ar
Ġm Ã©
h Ã©
p r
Ġf in
Ġcon s
Ġ es
ra ph
ai ent
Ġpre mi
o re
s s
Ġ ont
Ġ1 8
ab le
ĠFran ce
l le
Ġp uis
ai res
v ant
Ġ 3
on n
Ã¨ me
ti f
Ġqu el
ĠO n
Ġ entre
ti c
Ġs es
ro p
Ġ im
Ġs er
a ce
ti s
Ġm ar
ain e
ĠĠ ĠĠ
Ġ k
ie u
Ġpeu t
t en
Ġs ui
Ġpr in
i re
ĠgÃ© nÃ©
Ġ or
Ġ res
Ġc re
Ġ y
Ġj our
ĠÃ© tÃ©
itÃ© s
Ġ âĢ
l an
ment s
Ġre p
ĠrÃ© fÃ©rences
a k
Ġc ol
a e
d es
n is
t ra
Ġdi re
m Ã©
v er
ar i
it s
Ã¨ res
is e
ur es
ant s
Ġpl an
ap on
ĠO k
ati f
nÃ© es
olog ie
o le
in t
ra m
as y
ve au
Ġjus te
Ã© ra
is s
Ġ19 9
o it
Ġg ran
en te
Ġp e
li g
Ġnom bre
Ã© c
Ġp os
i ci
Ġs ac
al l
ne x
a z
Ġc ou
Ġa m
Ġm in
ĠgÃ©nÃ© ra
ag ine
i te
r oi
el s
ĠdÃ© c
Ãª me
t r
Ã ī
Ã ł
al is
Ġb as
ĠAl ors
tat s
on g
i ff
p o
t a
Ġ +
on ne
Ġa d
in si
Ġ ti
Ġs ouv
om b
ĠE asy
og raph
il l
ac c
ain es
i ens
u er
ĠA m
Ġb ou
ĠD ans
f ic
end ant
Ġprin cip
Ġm om
ĠÃ©g alement
Ġim agine
Ġcre use
Ġs ans
ĠÃ ª
ne ment
Ġpro du
1 8
f orm
Ġd ont
an te
Ġqu and
Ġc l
le ct
ĠR Ã©
Ġ20 0
par tement
Ġc as
Ġb ien
ĠD e
Ġco ince
Ġconc ret
v en
x e
Ġp ens
Ġv er
Ġse c
ay s
Ġc rÃ©
Ġs eu
ai r
ĠÃª tre
i d
Ġ ro
Ġm il
au t
Ġcon nex
ĠB eau
Ġre c
Ġdi ff
ouv er
ĠâĢ Ķ
ol i
ch es
se ment
Ġvi der
ĠÃī tats
Ġmom ent
Ġa b
li c
ĠV oir
Ġcomp r
Ġ =
Ġs ou
ĠR e
Ġsa oule
a re
ti tu
le ment
om me
ie ux
ĠdÃ© partement
Ġex ter
Ġmo ins
rou pe
Ã© t
Ã© tÃ©
Ġc or
Ġf il
ci en
Ġe xp
Ġi mp
Ġc er
an is
ri b
ĠT oi
ain s
ĠÃ©t ait
Ġpens es
es se
Ġp ers
Ġp erm
Ġm et
st ru
Ġo b
f i
v es
Ġc ap
ti ques
Ġn orm
ĠrÃ© g
omm un
tic les
ograph ie
a mp
Ġ elle
Ġm ot
Ġf orm
m in
Ġl ui
ĠA u
Ġ20 1
aÃ ¯
j et
Ã© g
Ġm us
ĠD is
i es
n ation
Ġp ri
Ġc ul
ti ve
Ġa t
Ġa insi
Ġdi v
ĠÃ©g yp
ĠM e
Ġes p
Ġrep rÃ©
U nis
r is
v ent
le r
Ġm a
Ġm an
Ġ1 0
ĠAr ticles
Ġconnex es
Ġc ette
ĠÃ© c
ais s
2 0
a h
d ent
Ġ á
ĠL iens
ĠÂ» .
Ġtr ans
Ġav ant
Ġfor me
Ġsouv ent
Ġexter nes
l o
Ã ¹
ou te
Ġa ss
ent ra
al itÃ©
ĠE lle
end s
ction s
j our
l us
Ġp op
Ġp ays
il les
ĠC ol
li er
ĠÂ» ,
ate ur
Ã©ri c
Ġpe ti
Ġv ers
ri c
ol u
oc or
p es
v el
it u
ro is
ag es
m an
m ati
n Ã©e
o ci
p Ã©
Ġ Q
Ġl iste
Ġp res
Ġs uis
Ġt our
Ġn ot
el on
mp l
ag ne
a ille
c Ã©
i ques
Ġ19 7
ist oire
p s
Ġ ri
Ġm ont
Ġch e
ĠU n
b le
c te
d s
e x
Ġm es
Ġsi g
pr Ã¨s
p er
Ġre g
op h
Ġperm et
en n
Ġc es
Ġc al
ou ve
Ġm Ãªme
ĠC e
ain t
Ġcer veau
c is
Ġ ord
Ġv ille
ĠdÃ© fin
Ġac c
Ġinter nation
o te
r ent
Ġl ib
Ã© n
en ter
Ġle urs
mp e
ĠB ab
vi ent
Ġsy st
Ġdiff Ã©r
aiss ance
a v
Ġde r
ur op
as si
ĠC ette
ol es
Ġan nÃ©es
Ġlang ues
u d
Ġ 6
ie urs
Ġau t
ĠN e
Ġo Ã¹
Ġex e
Ġco de
Ġtra v
Ġpop ul
k e
Ġc el
at ure
Ġcon n
Ġcon tin
b ut
e xplique
p uis
Ġc ert
Ġt rop
Ġf am
tion n
Ġpro p
Ġme me
a que
g anis
Ġp er
or te
Ġv is
Ã¢ te
g yp
on e
Ġa g
Ġv ois
Ġen c
as s
ri que
ch er
Ġre lig
Ġr oi
Ġ19 8
hÃ© or
Ġam Ã©ric
vel op
l Ã¨
Ġ 4
Ġ ans
Ġp ort
er g
ent s
it es
ĠJ apon
= "
f ort
l ais
Ġp oli
Ġa li
Ġf ond
Ġn Ã©
Ġb i
Ġg roupe
mp s
ĠM ar
r ie
s es
on y
on de
Ġte l
elle ment
Ġo f
Ġdon c
g ne
l u
y s
Ġ Y
Ġl ors
Ã© li
ĠC ar
ĠdÃ© si
oc c
ub lic
Ġso ci
aÃ ®
ĠreprÃ© sent
Ġp ouv
Ġs Ã©
Ġn ouv
ĠdÃ© m
Ġch at
Ġr en
Ġ19 6
Ã©r ie
che ment
Ġpremi er
Ġder ni
1 7
k a
l and
u it
Ġl ong
ti v
Ġm at
or i
ale ur
Ġmon de
b e
k h
ou l
in es
Ġf ut
ĠÃ Ģ
ro s
Ġ| -
Ġapp el
Ġal ors
Ġseu l
ĠÃ©gyp ti
f ois
s er
on om
an e
Ġs ens
ti e
ĠC on
se e
ĠÃ© lect
Ġ1 7
Ġch ar
Ġcomm une
ĠfranÃ§ais e
roi d
rib u
c ul
v Ã©
y th
Ġd it
Ġl ieu
Ġc ant
te urs
ri g
ĠS aint
ist or
Ġil s
Ġsu c
ate urs
Ġph y
C I
I n
c ommun
n er
v is
Ġl um
Ã© m
om p
si tion
ĠP ro
Ġapp ar
âĶĢâĶĢ âĶĢâĶĢ
Ġsui te
Ġcompr ends
e xp
an ge
Ġou v
oc ra
Ġar ri
iv ers
Ġlang ue
Ġcour ant
Ġcap it
Ġfam ille
i er
Å ĵ
Ġ op
Ġt oi
Ġv a
Ġau tres
Ġdon ne
ocor is
U ni
Ġ ang
en nes
Ġf Ã©
Ġf on
Ġf ois
ĠdÃ© velop
Ġin c
Ġplus ieurs
am ment
Ġparti e
ĠQ u
Ġexe mple
A n
o se
o de
ti ent
Ġt ous
Ġg ra
Ġj apon
Ġbas e
c al
h i
i el
o k
p t
Ġ 5
Ġd om
Ġl i
Ġm ati
Ġt hÃ©or
Ġf i
al i
ĠB as
Ġch Ã¢te
olog iste
Ġtr Ã¨s
Ġsig ni
Ġjapon ais
c le
c ture
h ar
p i
Ġc oule
re ur
Ġa s
Ã¨ ne
ant es
ch n
Ġg az
ĠB ib
ĠT h
Ġj ou
Ġan cien
Ġter me
Ġres te
ĠBab a
c enter
g es
g er
qu i
Ġa prÃ¨s
in el
rÃ© s
Ġb ar
Ġg ouver
Ġj am
Ġch au
Ġch iff
Ġo ff
ĠBeau fort
Ġpers onn
ĠrÃ©g ion
Ġpri x
Ġali gn
a de
e ur
g u
p endant
t on
v re
Ã ¯
Ġ [
Ġd ur
Ġl oc
Ã© nÃ©
Ġs ci
in itÃ©
Ġf a
Ġf roid
Ġdes s
Ġv ie
Ġb lan
Ġpar t
Ġch aque
Ġr est
Ġjus qu
Ġk iff
ram m
occ inel
ĠBib li
e m
Ġl og
an n
Ġs ol
Ġm ort
Ġf er
au me
Ġg en
mp ire
ist es
Ġinter commun
mÃ© ni
pÃ© ci
Ġenc ore
ĠBibli ographie
f t
Ã ³
Ġ )
Ġd ro
Ã© lÃ©
an ti
re c
le u
Ġn ation
Ġb an
ĠdÃ© esse
di tion
tÃ© s
ab ord
ĠH istoire
Ġcomp os
ĠPar is
Ġro y
Ġpouv oir
ĠĠĠĠ ĠĠĠĠ
f ie
Å į
Ġ "
Ġ w
Ġde puis
ou n
le il
it aire
oi e
Ġv oit
Ġpro f
ĠCh ar
ig ine
Ġso leil
Ġsui vant
ĠAm on
ĠBeau j
Ġsyst Ã¨me
gyp te
2 00
b es
y l
Ġ '
Ġ iss
ou m
il b
at h
ĠT he
Ġe ff
Ġr om
Ġpro te
Ġvi te
iv er
Ġcar ac
Ġparti cu
Ġy eux
ĠRÃ© fÃ©rences
Ġpeti t
Ġcontin uer
ĠamÃ©ric ain
a ur
m en
Ġ X
Ġd ou
Ġl iv
Ġp endant
ti er
ar ch
Ġb us
ol ais
ĠÃ© tu
Ġj eu
Ġre l
ui te
ĠU ne
Ġpremi Ã¨re
fic ation
Ġcor ps
Ġpopul ation
d o
i ent
i ons
Ġl ar
Ġs elon
Ġs pÃ©ci
Ġa p
ar a
Ġt ou
Ġt rois
Ġf aire
us es
Ġcon st
ĠS h
ĠS on
ter n
ati que
Ġvi dÃ©
ĠprÃ© cis
du it
Ġcel ui
Ġpoli tique
A l
c er
g ue
n om
n ie
Ã ®
Ġp at
Ġm ic
Ġt a
Ġt ant
el l
rÃ© vi
Ġb leu
ĠM i
Ġe c
ĠrÃ© p
end re
vi ron
olog ique
Ġnot amment
enn ent
Ġphy si
S I
h ui
i le
o x
r Ã¨s
u le
Ã ¤
Ġs al
Ġa i
le m
Ġm er
Ġt omb
Ġf ont
al itÃ©s
ie re
ĠA h
ĠS t
Ġ19 5
ens itÃ©
ang er
Ġra pp
Ġparti r
oy en
Ġgran d
acc ord
Ġcl assi
olu tion
Ġchiff res
occinel la
Â «
c teur
e ff
i tion
l ab
p l
t ant
Ġd ieu
Ġs or
Ġde vient
Ġa mp
Ġt en
Ġn i
rÃ© e
Ġin di
Ġdi ale
Ġte mps
ig ne
Ġsu per
ĠÃ©t ant
enti r
Ġcons titu
Ġcou p
alis ation
Ġmil li
Ġnorm al
Ġarri ve
Ġ %
f e
m is
Ġ oc
Ġ and
Ġl et
Ġs itu
er ae
or me
or igine
Ġt he
Ġf r
oi res
il s
ĠL ang
Ġn ord
ĠC an
res s
ĠP lus
Ġcon si
Ġsi gn
Ġcomp te
la ce
Ġlang age
Ġsy mb
Ġprincip al
Ġmes ure
Ġoff ici
b res
c tive
f ique
g Ã©
k s
o h
v ers
Ġt able
ra b
au tres
ĠP CI
Ġg ar
mp les
Ġj u
ĠrÃ© s
Ġr Ã¨
Ġpas s
Ġcomm er
Ġpo int
Ãª te
Ġsy n
Ġtout es
Ġmus ique
erg ie
land ais
Ġgouver nement
Ã³ n
Ġs au
Ġv ais
Ġv ari
il i
Ġn ature
ol is
ch i
ch Ã©
ĠdÃ© f
ĠM oyen
Ġin s
Ġpro g
mb re
Ġav ait
lÃ© ment
ĠAn d
po que
Ġsec ond
ĠÃ©gypti enne
Ġcapit ale
Ġkiff e
ĠvidÃ© o
erae ocoris
. .
t Ã¨res
y d
y ant
Ġd ist
Ġc ro
Ġa ff
in di
ent es
ur b
ur Ã©
ra ge
Ġv ra
al ais
ĠC om
Ġcon f
Ġcon tre
Ġcon stru
Ġpl u
Ġre f
ac tion
Ġsi Ã¨
ul ti
Ġ19 4
ĠprÃ© si
Ġdis tin
Ãī tat
jour s
mpe reur
urop e
ĠdÃ©m ocra
istor ique
Ġang lais
1 6
i ti
i mp
l in
m et
r ond
z e
Ã© ro
Ġp age
Ġc ent
an ces
le t
un ivers
Ġt oute
Ġf ais
ra tion
Ġv oy
si ons
Ġg rec
ĠI s
di te
Ġr ou
Ġh au
am b
Ġcomm ence
fÃ©r ence
hÃ© mati
uer re
Ġche f
Ġnouv elle
Ġmic ro
t o
t y
Ġ z
Ġ â
Ġ is
es p
Ġd oc
Ġl Ã©g
Ġm ol
or es
oi x
il es
ĠC es
ĠA b
ĠP h
ĠdÃ© s
ĠN aissance
ĠÂ» )
Ġan n
ĠJe an
Ġutilis Ã©
Ġfin n
Ġimp ort
Ġsoci Ã©tÃ©
ĠBeauj olais
rond is
Ġ <
A r
a vi
c o
c ri
g l
h es
i f
m Ã©e
t al
Ġ ent
Ġ âĶ
Ġp le
Ġc elle
Ġc ir
Ġde ven
Ġde but
is es
Ġt ot
Ġf eu
Ġf ac
ra it
ĠC ommun
Ã¨ ces
Ġb r
Ġpar fois
ĠD iv
Ġre mpl
ab les
Ġh um
ap rÃ¨s
ĠprÃ© s
ĠprÃ© sent
Ġpr end
Ġmo der
ĠÃ©t aient
ĠFran chement
ĠgÃ©nÃ©ra l
Ġti tre
Ġmot s
Ġat t
Ġass oci
ĠCol Ã³n
Ġinternation al
Ġlum iere
Ġfon ction
o w
o ft
Ġ 7
Ġ elles
Ġl ing
Ã© tique
Ġp ra
Ġp ublic
te t
Ġm ag
or de
Ġf ra
Ġf ort
us s
us ion
ĠA s
ce p
at a
Ġch aleur
Ġin form
di re
Ġpro b
Ġca d
Ġpeu vent
ĠIn de
ĠPar ti
Ġquel ques
Ġgran de
ĠgÃ©nÃ©ra lement
Ãī gypte
fic ie
Ġprodu its
Ġfil m
jour d
Ġchat s
Uni on
ĠdÃ©velop pe
Ġmati n
Ġfa Ã§
Ġtou jours
Ġ( Â«
c on
p ond
t ures
u mi
v oir
Ġ urb
en se
Ġa yant
Ġm en
Ġt h
Ġt ri
Ġf em
Ġv oir
Ġn ou
Ġcon t
ĠS a
ci dent
Ġin tÃ©
Ġdi ver
ĠH ar
ces s
Ġte x
Ġtr ouve
Ġav oir
Ġes s
Ġser vi
Ġor ganis
ĠcrÃ© ation
ah a
urop Ã©
ĠdÃ©si gn
Ġcant on
Ġap res
ĠDiv initÃ©
D F
k i
n ant
Ġp ie
Ġp Ã©ri
Ġc Ã©
Ġc in
re r
in ter
in ois
Ġm al
Ġm ain
or ce
Ġqu at
us atif
Ġn um
Ġpar ce
ĠÃ© v
ĠS e
ĠdÃ© p
ĠN ord
Ġpas se
ib le
Ġconc entra
Ġcour s
Ã´ le
Ġpremi ers
ony me
Ã©li en
aÃ® t
Åĵ u
Ġrempl ac
- ),
A m
h iver
l am
u c
y c
Ã »
Ġ 8
Ġ Z
Ġd ensitÃ©
Ġl it
Ġc an
Ġs c
ar t
ur ent
Ã¨ de
Ã¨ mes
ĠA p
ĠS elon
ĠE s
Ġ1 5
ĠD es
ĠT e
tÃ© ra
Ġh aut
Ġ19 3
ĠH aha
Ãª tre
Ġter re
lan de
Ġnombre ux
Ġprodu it
Ġsou n
Ġma j
Ġconn u
Ġmat hÃ©mati
ĠchÃ¢te au
Ġsigni fie
Ġchau ff
Ġiss us
ilb ert
Ġsuper ficie
Ġconsi dÃ©
e ter
l les
o in
r ist
Ã© v
Ġp orte
Ġc entra
an se
Ġs p
Ġs Ã©rie
un i
Ġt es
Ġv ol
as se
Ã¨ rent
ri ce
Ġcom b
ol l
si ble
res pond
ĠÃ© le
Ġcon tra
ĠS i
ĠB el
ĠD Ã©c
Ġpl ace
ĠdÃ© but
ĠM an
ac es
ĠG e
âĢ ¦
ĠH ilbert
uis tique
Ġsa ou
ĠCh amp
Ġsu d
Ġsu pp
19 8
ien ne
Ġcol le
Ã©ra tion
po sition
Ġprincip alement
Ġcul ture
Ġpres sion
In see
Ġancien nes
Ġdiale cte
rondis sement
Ġnou veau
ĠP as
2 3
l au
t ent
Ġd oi
Ġp om
Ġs h
Ġs el
Ġs oir
ti en
is me
te l
te m
Ġa fin
er re
Ġm ois
Ġm entir
Ġla che
Ġn uit
Ġb ois
ri es
si f
ĠÃ© p
ĠS y
Ġ1 6
ĠB i
Ġch amp
ĠM a
Ġou ais
ĠJ oh
Ġte te
Ġ20 20
Ġco te
Ġav is
ĠAr m
Ġob jet
min ist
ouve ment
Ġcert ains
ĠfÃ© dÃ©
ĠQu and
Ġdom aine
ĠBas tet
mÃ©ni en
Ġliv re
ĠrÃ¨ gne
urÃ© at
ĠâĶ Ĥ
a ff
j ec
l ot
o v
r y
t Ã¨re
Ġ !
Ġp oi
Ġp ub
Ġs our
Ġde g
in form
et tes
Ġm ulti
ĠC occinella
ie ur
Ġdu b
Ġb ul
res sion
ĠP ers
Ġau tre
ĠE xe
ĠD Ã©
Ġin st
ĠrÃ© alis
ĠH e
ap p
tu di
ĠO r
ati ve
Ġte chn
ord s
pp er
Ġex iste
Ġan ci
Ġmo y
Ġsu b
ĠK h
ĠmÃ© m
tis te
Ġdire ct
Ġcor respond
Ġmet al
ĠÃ©gyp t
Ġesp ace
Ġman i
ĠdiffÃ©r ents
ribu tion
ĠthÃ©or ie
Ġdro it
Ġlet tres
Ġtable au
A N
G P
d enti
m ar
m ie
o ot
u g
Ã ¡
Ë Ī
á Ī
Ġ el
Ġc i
Ġc Ã´
ou p
te ra
in n
Ġm is
Ġla b
Ġla tin
it h
it ch
Ġt Ã©lÃ©
il is
ĠÃ Ĥ
ĠC or
Ġb our
Ġb rit
Ġg rou
Ġg ram
ĠE mpire
ĠD u
Ġj eux
Ġch inois
op olis
ĠR Ãª
vi er
Ġst y
Ġst at
Ġso it
Ġcol on
acc usatif
Ġform es
Ġord re
Ġinternation ale
Ġsci enti
Ġsign al
univers itÃ©
hes ite
Ġgram mati
1 2
F ran
d us
g ique
m Ãªme
p rÃ©
Ã© lect
Ġp i
Ġp or
Ġp ous
Ġm i
Ġm yth
Ġv aleur
il itÃ©
Ġn o
al og
al iste
Ã¨ le
ĠA t
ĠA ut
au tre
ri m
ri er
res se
se ur
ĠP r
ĠB e
ĠB l
Ġj a
Ġch ac
Ġch ange
ĠM ont
Ġin dÃ©
tÃ© rie
ĠrÃ© fÃ©rence
ĠO u
ct es
Ġmon di
Ġar rondissement
ib a
par t
Ġph il
Ã´ ne
tis sement
Ġor ient
Ġjour nÃ©e
Ġpos s
Ġfil s
Ġsyst Ã¨mes
Ġbi ologiste
Ġjam ais
Ġblan c
Ġrapp ort
Ġclassi que
Ġsoun d
2 1
a il
b um
l or
Ġ us
Ġ ant
Ġd roi
en sement
Ġc li
qu er
er landais
om Ã¨
Ġt y
Ġv ic
Ġen f
ĠC oul
Ġb ac
Ġb eau
Ġg r
Ġg au
li on
ĠS ec
ĠD on
Ġre ve
Ġch ans
Ġsi te
Ġse m
Ġpro v
im a
olog ue
ĠK ar
19 9
Ġph ot
ĠIn see
Ġter rit
ĠmÃ© di
Ġpos tal
Ġmil itaire
Ġrec ensement
Ġab rÃ©vi
Ġcant ons
ann ique
Ġintercommun alitÃ©s
ĠprÃ©cis ant
lem and
rab ie
cri p
Ġling uistique
ĠdÃ©veloppe ment
ĠfaÃ§ on
ĠPers onn
ĠmÃ©m oire
I I
b all
c tif
h an
j ou
l ie
w a
y n
É Ļ
Ġ /
Ġ ĠčĊ
Ġ eux
en ir
Ġc entre
an es
an ique
Ġde c
re g
qu el
om e
Ġv eu
ĠL istes
Ġn ous
ĠC omm
ĠA insi
ch ent
se au
Ġg out
Ġg uerre
Ġcon se
ĠB r
ĠD i
ĠD eraeocoris
de ment
ĠdÃ© ci
Ġre Ã§
Ġch er
ac k
tÃ© e
tÃ© ris
ĠG az
ab it
Ġpro t
ul ture
and es
st ra
pp le
ĠprÃ© f
Ġpr om
ĠCh iba
Ġsu p
Ġcommun iste
Ġapp r
Ġparti cip
Ġme ille
Ġph ara
Ġso vi
Ġor ig
ram me
Ġgran ds
Ġpe ur
Ġseu le
aÃ¯ c
Ġdiv ers
ĠreprÃ© s
Ġá Ī
man de
Ġcal cul
ĠNe w
Ġcert aines
ganis ation
Ġrelig ieux
Ġcoule ur
Ġlog ici
Ġgen re
Ġintercommun alitÃ©
Ġroy aume
Ġcommer ci
Ġfinn ois
ĠDÃ©c Ã¨s
ĠJoh n
Ġdub pl
Ġbrit annique
Ġgrou pes
ĠCoul omb
M ari
c ar
p ent
s uite
Ġl in
Ġl im
en ergie
Ġs pe
Ġs omme
ou d
in aire
Ġm ur
Ġm uni
it aires
ur i
Ġf rÃ©
Ġf ai
Ġf ati
ra s
ra t
Ġv ert
ĠL ou
al le
as t
ĠA vec
au te
ri ge
ol lion
Ġg e
Ġg raph
ĠÃ© di
at s
Ġcon tr
ĠT erre
Ġre t
og ne
Ġse pt
ĠR ec
Ġ19 0
oc k
mb res
Ġan im
ig n
19 7
Ġra pi
ĠAl pes
ten u
Ġres s
Ġres pe
Ġjour s
ĠâĢ ĵ
iss ant
Ã©c rit
ite cture
Ġver sion
Ã©t ro
Ã©tÃ© s
Ġcul tures
Ġche z
ĠdÃ©fin i
Ġlib Ã©ra
Ġvis ible
omp ag
Ġjam aÃ¯c
Ġlar ge
Ġten sion
ĠrÃ©s ul
esp ace
ĠCommun es
Ġmoder ne
ĠpÃ©ri ode
ĠChamp ollion
Ġbul les
ĠÃ©gypt ologique
Ġphil os
Mari ti
1 3
1 5
a me
a ch
d is
d in
d ae
e mpereur
g le
g ts
h t
i ce
i Ã¨me
l oit
p le
p os
u te
v ille
Ġd oit
en nis
on es
Ġp u
Ġc eux
Ġde v
ti qu
te mps
le ction
ar s
Ġle quel
Ġf re
ra k
il ocor
Ġen viron
our s
al a
as tique
Ã¨ te
Ã¨ ge
ĠA d
Ġb on
ri v
se ments
Ġg ard
ĠE urope
ĠB ou
ci pe
Ġch i
ĠM ic
Ġin iti
di en
ui re
ĠG u
Ġr itu
ul aire
ĠÂ» ).
ati ves
ni ques
ord re
ord ogne
ph e
ph ab
Ġnom bres
ĠIl s
ĠCh ilocor
Ġcar tes
Ã©ri que
ĠÃ©g lis
Ġal lemand
Ġfor ment
Ġmais on
od es
Ġmar che
ver se
tr ine
Ġad minist
Ġcul te
ĠÃ©c onom
Ġá Ĭ
aille urs
ĠdiffÃ©r entes
Ġ6 0
Ġag ric
Ġtel s
aÃ® tre
Ġnouv elles
Ġderni er
Ġderni Ã¨re
vis ion
Ġnation ale
Ġeff et
Ã® le
Ġphysi que
Ġâ Ĩ
ĠInde x
Ġconcentra tion
ĠBel gique
Ġsaou dite
Ġdoi gts
ĠfÃ©dÃ© ra
Ġmani Ã¨re
tera ctive
ĠRec ords
ĠChilocor us
1 0
D A
c Ã¨s
e v
l it
r ans
r Ãª
s ur
s ant
u ments
Ġ 0
es tion
Ġd ate
Ã© poque
er n
ar mÃ©nien
Ġm el
or k
or at
Ġf ille
Ġqu anti
as h
ĠC omme
Ġ( -
Ã¨ che
Ġb it
Ġb ru
ri ques
se z
Ġg l
li Ã¨re
at es
ais se
ve ment
Ġe mp
ĠR itch
ul t
end u
end ance
ouv ert
and ard
ist re
Ġst ru
Ġex c
Ġsu ff
Ġfran chement
19 0
ĠAn th
ron y
Ġme mbres
Ġac tiv
Ġtra di
od ie
Ġ18 8
Ġ18 9
ĠgÃ©nÃ©ra le
lo se
Ġtour ne
oph is
Ġord in
ĠchÃ¢te aux
indi ce
Ġcir cu
Ġpra tique
Ġfem mes
Ġquat re
inform ation
ĠÃĤ ge
Ġscienti fique
Ġdroi te
Ġgau che
Ġphara on
ĠRitch ie
5 8
C h
E C
c k
c tu
e te
l atif
m on
m il
Ġ 9
Ġ eu
Ġ ran
Ã© b
Ã© op
Ġp Ã©tro
Ġc la
Ġc iel
ti t
is ation
te in
in er
Ġm orce
Ġt ard
Ġt Ãªte
Ġqu ar
Ġun itÃ©
Ġv en
ĠÃ ¨
Ġen ti
Ġen suite
Ġn oir
Ã¨ nes
rÃ© t
rÃ© es
Ġb at
Ġb ret
Ġb eff
ri x
ri Ã¨re
si b
ais on
ĠB an
ĠD ordogne
ag n
ĠM us
Ġe mpl
Ġsi x
ĠR en
Ġh om
os s
ĠJ eu
ĠH istorique
ati s
ille t
sion n
19 6
Ġra di
ĠU ni
ĠIn teractive
able ment
Ãī c
Ġnorm es
Ġesp Ã¨ces
Ġman ge
Ġlib er
onom ie
ĠÃ©lect rique
har ique
ĠChar les
ĠÃ©tu des
Ġsal on
Ġsymb ole
Ġvra i
ĠprÃ©si dent
Ġrou ge
ĠEs p
loit ation
ĠâĨ Ĵ
2 2
2 6
E G
I eter
a ment
c a
c ine
c rit
d it
e b
e d
g Ã¨
h ors
h rop
j Ãł
r en
t out
u el
v ie
Ġl oi
Ã© d
Ã© qu
Ġp ol
Ġp alais
Ġc y
Ġc et
Ġc at
Ġs in
Ġs ale
ou se
ti gu
qu Ã©
Ġa ur
in c
ar b
Ġt op
Ġv o
Ã¨ se
Ġb ut
Ġb onne
Ġb Ã©nÃ©
ne e
ĠS ans
ĠD ist
ci de
ĠT ok
ĠdÃ© jÃł
Ġre cher
di a
ĠG o
ĠG ran
ĠR oy
Ġr yth
Ġdi rige
Ġh e
Ġte mple
Ġnom s
Ġmo le
Ġtr ou
âĶ ¬
Ġar ch
Ġcar te
19 3
Ġal bum
Ġne z
ub lique
Ġdon nÃ©es
ad a
cu les
Ġcons er
Ġk m
Ġnombre uses
ill age
Ġbou lier
ĠRe id
Ġmus ic
Ġdiv in
Ġtrans p
oci ation
ĠCe pendant
Ġprop re
ĠsÃ© par
Ã©m a
ier re
ĠChar ente
Ġparticu lier
Ġamp oule
Ġmilli ons
Ġplu part
ĠdÃ©mocra tie
ĠdÃ©sign er
Ġgrammati cal
Ġmyth ologie
Ġty pe
Ġveu t
Ġsup Ã©rie
Ġsovi Ã©tique
Ġfati gue
ĠÃ©glis es
Ieter en
gÃ¨ bre
. )
5 0
A rabie
E L
e z
f s
f er
g us
g ie
h Ã´ne
j i
j out
x im
Ġl igne
on on
an nÃ©e
Ġde mande
ti ne
qu elle
in stru
le x
et h
Ġm ieux
or itÃ©
Ġla mpe
Ġla quelle
Ġt yp
Ġf ab
Ġf ace
oi le
oi les
ra in
Ġv as
Ġn aissance
al ent
ĠC al
ce pt
ĠP er
ĠP rÃ©
Ġg ag
li ers
ĠÃ© qu
at on
ĠS u
ĠS te
ĠS ch
ĠE lles
Ġ1 00
ĠB ur
ag it
ĠI I
Ġin stru
ĠN Ã©
Ġr us
Ġdi men
Ġh abit
ique ment
ic ation
Ġca mp
mi ques
Ġpr onon
Ġtr ouv
du ction
Ġapp lic
19 4
lÃ© ments
Ġac tu
ĠIn ter
Ġutilis Ã©s
ĠmÃ© de
pr ise
Ġser a
des s
Ġgran des
ĠRe p
anis me
aÃ¯ que
Ġesp aces
tionn elle
Ġrelig ie
ĠnÃ© erlandais
ĠdÃ©si gne
Ġlong ue
Ġchar ge
exp loitation
Ġfon ctions
Ġpersonn el
Ġdur ant
Ġban de
Ġcarac tÃ©ris
Ġtomb e
ĠintÃ© g
Åĵu vre
ĠExe mples
Ġvic t
crip tion
ĠreprÃ©s ente
Ġsomme il
rony me
tigu a
A pple
O r
U L
a vec
c s
c oup
d re
e e
f rique
g ent
i me
i ch
j o
j ima
k et
l s
r Ã¨
r ys
s titu
v ence
es sionn
Ġd Ã¨s
Ġp eau
Ġc iv
an ci
Ġs ort
ou est
ti ens
is sent
in tes
er ni
et s
or in
Ġla it
it al
Ġet c
Ġf urent
ra v
ĠL ib
Ġles qu
ĠC ert
ĠA prÃ¨s
ĠA GP
Ġb and
Ġb aisse
au l
ri re
ĠP ays
ĠP EG
Ġg ros
ĠÃ© lÃ©ment
ais ir
ĠS au
Ġau jourd
ĠB Ã¨s
ĠB EL
ĠdÃ© b
Ġre tr
Ġch oix
ac itÃ©
ac tif
Ġin f
Ġin v
Ġe uropÃ©
ale urs
ĠN ob
og un
ĠrÃ© c
Ġsur tout
Ġr ond
Ġh omme
ĠJ ac
ĠJ am
oc ke
ĠF in
and is
st Ã¨me
ux elles
Ġco ol
ĠLa urÃ©at
Ġmo d
Ġmo di
Ġar mÃ©ni
Ġcar Ã©lien
ĠAn ge
ron ique
enti ellement
Ġfor te
Ġsy s
Ġ18 3
Ġmar chÃ©
ten sion
Ġdire ction
Ġ199 0
Ġpos sible
all Ã©e
ĠdÃ©c rit
po si
Ġ200 7
Ġver re
Ġpers onne
Ġob tient
Ġdiv initÃ©
ĠÃ©c rit
Ġpres que
Ġ197 0
cte urs
ex ist
ĠdÃ©fin ition
Ġlib re
ĠBab yl
Ġtrav ers
Ġtrav ail
ĠY ork
Ġappel Ã©
Ġsuc re
ose ph
Ġfi xe
Ġdro its
Ġcompos Ã©
Ġcarac tÃ¨re
Ġoc cident
Ġann on
Ġdiver tissement
Ġlit tÃ©ra
ĠTe chn
ĠmathÃ©mati ques
ĠSy stÃ¨me
jec tif
Ġenf ants
Ġterrit oire
ĠBr uxelles
ĠfrÃ© qu
ĠLou is
Ġempl oy
Ãīc ole
Ġdimen sion
' ,
' s
6 4
E mpire
c ont
c les
c ks
g a
h o
i k
l ant
l og
n ak
t ro
t aient
u me
v al
v Ã©e
Ġl ois
Ã© tu
Ġp Ã¨re
Ġc uis
ou che
ti nÃ©
qu ant
qu ette
le y
er ie
et on
Ġf rig
Ġf usion
Ġun ivers
Ġv ap
Ġv aleurs
ĠÃ ®
ĠL oire
Ġn ote
Ġn orme
al y
as is
ĠC ons
Ġb l
Ġb y
Ġb oy
Ġb its
ro che
si ris
Ġg ramm
ĠÃ© poque
ĠS er
ĠS oci
ĠS ud
ai de
ĠD r
ĠD oc
Ġpl aisir
ĠT ro
Ġre mp
Ġch ois
ĠM Ã©
ĠG en
ĠG am
ĠG roupe
ĠrÃ© v
Ġr Ã´le
Ġh er
Ġh ong
ĠH or
ĠÂ» ),
ĠV al
ces seur
ati ques
ic ations
ille r
Ġst ress
ni v
Ġvi de
ph es
orm ais
ĠÃ©t ab
Ġra t
Ġra is
enti el
cu le
Ġutilis e
Ġutilis ant
pr ises
Ġ3 00
Ġmar que
ten ant
ae us
Ġ199 5
Ġ199 7
po se
Ġad op
Ġprodu ction
ĠDe jima
Ġseu lement
id ae
Ġcompr om
fi er
Ġ201 1
jet s
ris h
Ġtrans f
ud a
Ġprop ri
Ġrelig ion
ĠnÃ© cess
ĠMar c
Ġlors qu
Ġsuc cÃ¨s
Ġas sez
Ġnation al
Ġprof essionn
lab or
Ġsor ti
Ġsor tie
Ġni veau
ĠLang ue
Ġprog ramm
Ġconstru ction
ĠdÃ©s ormais
Ġservi ces
inn aeus
Ġsty le
Ġstat ut
Fran ce
ĠAt oum
Ġja une
ĠindÃ© pendant
Ġbeau coup
Ġchans on
Ġprov ince
Ġmeille ur
ĠAnth ocoris
Ġsin on
ĠbÃ©nÃ© f
ĠDist ribution
Ġhe ures
rys op
. -
2 5
E n
E urope
O u
P ro
S O
c ence
c tement
d Ã©s
g en
g Ã©e
h a
i a
i z
j a
k er
l Ã©e
l lab
m ment
o che
p are
r ant
u les
u age
v age
y m
y on
Ã ¶
ä ¸
Ġd ieux
Ġl une
Ã© p
Ã© ment
en che
on ie
Ġp ain
Ġp ate
Ġp omme
Ġc r
Ġc lig
an a
Ġde vi
ti ers
le xe
Ġm iel
Ġm ouvement
un ct
or g
Ġt andis
Ġet oiles
Ġf oot
Ġun itÃ©s
ra ges
el a
ĠC et
Ġb ran
Ġb lÃ©
Ġb lo
ro ss
ri ch
ch niques
Ġpar f
li Ã©
ĠÃ© ch
ĠÃ© lÃ©ments
at ur
Ġcon te
Ġau g
ĠE xp
ve ur
ĠD anse
ĠT op
ter min
Ġch oc
Ġch im
ĠM on
ĠM in
Ġe au
Ġe mb
tÃ© es
ĠG ar
ĠN ouv
Ġse che
Ġse igne
ĠR ob
Ġh istor
Ġh istorique
ĠH au
Ġte mp
Ġst ab
ort s
Ġvi ent
Ġcomp ar
um m
ĠCh rysop
ct rice
ert z
Ġmo de
Ġar tis
Ġcar t
Ġconc er
Ġcour onne
Ã¢ ge
Ã´ t
ĠmÃ© th
Ġ18 7
tic le
Ġcre v
Ġjour nee
Ġ199 8
tr ie
ĠRÃ© p
Ġ200 2
ĠcrÃ© Ã©
Ġma ch
Ġpeti ts
Ġacc ompag
Ġaut or
Ġaut om
ublic an
ĠreprÃ©sent Ã©
Ġmat Ã©ri
ori al
ros oft
ĠPro g
Ġappar aÃ®t
Ġop Ã©ra
Ġfi x
Ġjou e
Ġsol aire
Ġgen e
Ġprote ction
Ġparticu liÃ¨re
Al pes
Ġsitu Ã©
ĠCan ada
Ġmesure r
Ġgar de
Ġvari Ã©tÃ©s
ĠsiÃ¨ cle
Ġvoy age
Ġmol aire
Ġdeven ir
Ġcad re
Ġurb aines
ĠArm y
Ġdeg res
Ġanci ens
Ġadminist ra
ev ap
Ġquanti tÃ©
Ġcircu it
Ġquar tier
Ġcy cle
Ġhabit ants
ĠRep ublican
ĠNob el
Ã©tu de
ĠPas cal
3 3
C occinella
D eraeocoris
P C
a vant
b ac
d ou
e f
e ch
f u
g el
g ion
h y
h istoire
l on
r om
s u
s y
s on
t te
t ri
w are
Ġ &
Ġ Å
Ġ Ð
es tiv
en semble
on nes
Ġc ri
Ġc ui
an de
Ġde vant
ou ra
ti ves
Ġa vi
ar de
Ġm ise
Ġm assi
Ġf en
Ġf ig
oi es
Ġdes c
Ġv illage
ĠL ors
our ces
el ge
ĠC a
ĠA c
ĠA ss
Ġb al
au tÃ©
Ġpar oles
ĠP at
ĠS an
ĠS al
Ġ1 4
ĠB at
ĠD ou
ĠD ennis
ĠT hÃ©or
Ġre vient
ĠM ais
ĠI m
Ġse in
ĠrÃ© f
Ġdi x
Ġdi man
Ġpro tÃ©
end ent
Ġh istoire
oc cu
ouv re
Ġte chniques
Ġcomm en
st ar
Ġvi a
Ġce pendant
ĠEn tre
mo d
ĠK e
Ġar ts
âĶĢ âĶ¬
Ġlang ages
Ã¢ ce
ad es
Ġutilis Ã©e
Ġpuis s
Ġdire ctement
nex es
Ġ200 5
ven tion
Ġmil ieu
Ġexp Ã©ri
Ġcap acitÃ©
ĠAu jourd
Ġpri m
Ġá į
ric itÃ©
Ġtrav aux
Ġpopul aire
Ġpoli tiques
kh en
Ġappel Ã©e
ĠÃ©gypti en
Ġlum in
Ġcoule urs
Ġdess ous
Ġrom an
Ġrom ain
Ġsitu Ã©e
Ġoffici el
ĠCom itÃ©
Ġess entiellement
Ġservi ce
ĠcÃ© lÃ¨
AN SI
Ġpous se
Ġchac un
tÃ©rie ur
Ġposs Ã¨de
omÃ¨ tre
ĠKar nak
ĠPersonn alitÃ©
Ġconse il
Ġmuni cip
Ġgard er
ĠMic rosoft
Ġexc lus
Ġordin ateurs
ĠÃ¨ re
ĠmÃ©de cine
Ġprogramm ation
Pro vence
unct ata
Ġdiman che
1 1
2 8
5 3
E S
I s
R hÃ´ne
b i
b les
d en
e uropÃ©
f ace
g han
j an
k o
o di
s Ã©
t ain
es s
Ġl an
Ġl ig
Ã© dition
Ġp a
Ġs ka
Ġde me
Ġde hors
ti enne
qu is
qu Ã©e
in ts
Ġm ang
Ġm ains
un itÃ©
or ter
Ġt o
Ġf our
oi gn
ra g
ra y
Ġdes tinÃ©
Ġv e
Ġv illes
Ġen v
ĠL in
Ġn eu
ĠC O
ĠC l
Ã¨ t
ĠA vant
Ġb o
Ġb elge
ri mo
ch ar
Ġpar ler
ĠP rix
Ġg agne
Ġg lace
ĠÃ© n
Ġcon Ã§
Ġcon tient
ais sent
ĠS ur
eu re
ĠE C
ai mes
ĠB a
ĠB us
Ġpl at
ag er
ĠdÃ© di
Ġre ven
ĠM o
ĠI rish
ot o
ot om
di g
Ġse p
Ġse mb
op he
Ġr u
Ġdi rig
Ġh i
ĠJ ap
ĠF erm
Ġ2 5
ĠLe ur
ist ant
ist oires
ang lais
Ġpo sition
Ġvi vant
ph a
Ġsa voir
Ġo re
Ã©s ie
Ġ20 00
ĠprÃ© c
Ãª mes
ĠCh aque
olog ies
ct s
Ã©ri ques
ĠÃ©t ran
ien nes
ĠAn nexes
ron ti
Ġfor tif
Ġi dÃ©
Ġi rak
Ġutilis ent
Ġutilis Ã©es
ec k
Ġcons ac
ten ir
Ġor g
Ġpos te
Ġcou che
Ġmin ist
Ġad ul
ĠDans es
Ġcas se
ĠDe puis
Ġver be
Ġro is
aut om
ouver te
Ġexp rim
Ġmet tre
Ġnorm alisation
Ġform ation
Ġ201 6
Ġma xim
Ġpermet tant
ote p
tionn aire
lÃ¨ ve
ys tem
Ġren cont
Ġ196 0
Ġ17 58
Ġphy t
Åĵ ur
Ġinc andes
Ġmati Ã¨re
ĠthÃ©or Ã¨me
ĠTh om
Ġbar bac
Ġdess in
Ġlog ique
ath or
ĠÃ©tu di
Ġconst r
Ġai me
lem agne
Ġsyn ch
Ġconstru it
ĠsiÃ¨ ge
Ġhau teur
Ġimport ant
Ġassoci Ã©
Ġtri ade
ĠconsidÃ© rÃ©
Ġcentra le
Ġcolle ctif
Ġsh ogun
ĠBi ographie
Ġpoi ds
Ġmulti p
Ġmondi ale
Ġdubpl ate
Ġress ources
phab et
ĠÃ©conom ique
Ġ(- )
Ġmorce au
Ġbret Ã¨che
Ġhom mes
arb uda
ĠRoy aume
erni ghan
Ġlesqu els
ĠFin lande
Ġfrig o
Ġvap eur
ĠDr umm
ĠChrysop a
Ġcart ouche
ĠRÃ©p ublique
ĠFerm at
Ġincandes cence
ĠDrumm ond
1 4
2 7
9 4
: =
A D
A F
A S
N orin
b y
b er
b it
c as
c li
d at
e mb
e xe
g ae
h otep
i y
i ra
i ge
l y
m er
o ch
o Ã¹
o sition
p a
r ont
t t
t end
u ment
v on
v ue
x te
y o
á ĭ
Ġ ir
Ġd or
Ġd at
Ġl ire
en g
Ġp ages
Ġc ord
Ġs out
Ġde m
ou g
ti l
ti es
ti lis
qu ent
in i
ar mÃ©e
Ġm ai
it a
Ġf aut
Ġv Ã©r
Ġv oire
Ġv oix
Ġen se
ĠL i
ĠL ab
Ġn et
Ġn atur
al gÃ¨bre
ĠC ent
ĠC our
ĠC as
ĠA N
Ġb Ã¢
Ġ: :=
ri ent
ch ant
si dent
Ġpar le
Ġpar mi
ĠÃ© d
ĠÃ© vi
Ġcon cept
ais e
ais ons
ĠE DF
ĠB er
ĠB ien
ĠB orde
ĠD un
ci al
ĠT ur
Ġpour s
ter tain
Ġre m
Ġch rÃ©
ĠM al
ac te
ĠrÃ© par
ĠrÃ© seau
end o
am a
ĠJ oseph
ers on
ĠV ille
ĠV ienne
ap par
ĠO rig
nÃ© tique
Ġst andard
ni es
ous s
mi r
Ã§ ois
Ġ20 19
ĠprÃ© cÃ©
Ġan tique
ĠK ernighan
Ġcar re
ĠÃī tudi
Ġpeu ple
Ġapp li
Ġra y
Ġal l
Ġje une
utilis er
utilis ation
Ġinter ne
Ġi denti
ing ton
Ġph Ã©n
Ġcour t
Ġcour te
ob ile
fin ition
Ġfin alement
Ġcons omm
Ġ3 0
Ġser ait
ten ue
lan te
ak i
Ġcou pe
Ġsouv enir
ill on
fic ations
Ġprincip ale
ĠcrÃ© er
Ġab rÃ©
Ġexter ne
Ġob tenu
ĠMe illet
Ġri en
Ġri re
Ġmes s
Ġcel a
tionn el
Ġprop os
Ġ198 0
lÃ¨ mes
Ġ4 0
ĠsÃ© lection
Ġlong temps
âĶĢâĶĢâĶĢâĶĢ âĶĢâĶĢ
exp ression
Ġouv rage
Ġgra s
Ġjou er
Ġrest ent
ramm ing
Ġsuivant es
200 4
Ġdou ble
Ġconst ante
ĠMi ch
Ġmilli ard
Ġsecond es
ĠprÃ©s ente
uss ie
Ġcont ribu
Ġremplac Ã©
Ġpom pe
Ġanci enne
Ġmoy en
Ġlab el
ĠDu ke
12 8
ĠAut res
Ġgr Ã¢ce
ĠdÃ©ci m
Ġprot Ã¨ge
Ġorig in
Ġlogici els
Ġlim itÃ©
Ġcontr Ã´le
Ġrapi dement
Ġphilos oph
Ġritu el
rÃ©t aire
Ġvrai ment
ĠTok yo
Ġdivin itÃ©s
Ġapplic ation
Ġband s
Ġsys tem
ĠProg ramming
estiv al
rimo ine
ĠJap an
ĠBorde aux
tertain ment
ĠÃītudi ant
Ġav aient
ĠĠĠĠĠĠĠĠ ĠĠĠĠ
E E
H aute
O rient
d on
d el
d ans
e illes
e mpl
g ies
h ab
h umi
m ouvement
n ent
s ons
s ystem
u y
u lier
Ġ ),
Ġd oll
Ã© h
on ron
Ġp ot
Ġp ois
Ġp enche
an ne
an cien
an vier
Ġs ang
Ġs ante
Ġs ites
Ġs cal
Ġs olution
is ion
te ries
Ġa ig
Ġa jout
in f
in age
er ain
ar c
ar es
ar tiste
et res
or ganisation
Ġla urÃ©at
Ġle v
Ġle ve
Ġle cteur
ur rent
Ġt hÃ©
Ġf lot
Ġf ete
Ġqu alitÃ©
Ġv it
Ġv oc
Ġv eau
Ġv ec
Ġv ente
Ġv oile
Ġv allÃ©e
il lante
ĠL ig
ĠL ond
Ġn avi
al lÃ©
ĠC ant
me aux
Ã¨ bes
ĠA ka
ĠA star
Ġb es
Ġb inaire
ol o
ne ments
res ses
ĠP e
Ġg estion
mp es
ĠS ci
ĠS ous
ve y
ĠB o
ĠB ell
ĠD j
Ġpl ac
Ġpl antes
ag as
ag ue
ĠT a
ĠT re
Ġj anvier
ĠdÃ© t
ĠdÃ© termin
Ġre action
ĠM at
Ġin do
Ġe tern
ĠG al
ĠG uerre
ĠN om
ĠN il
op ie
ĠrÃ© d
ĠR om
Ġr is
Ġr onron
Ġpro ches
end t
Ġh Ã©
Ġh alog
ĠJ us
Ġpas ser
tu ce
Ã©r ant
age ment
Ġpo se
Ġca fe
Ġsa von
Ġ20 23
Ġpr is
Ġpr Ã¨s
Ġco ord
ut es
ĠCh Ã¢te
Ġdis que
Ġdis par
ig nement
Ġmo b
Ġtr ous
Ġtr uc
ure r
Ġmon uments
ĠK ing
ib les
ĠÃī gypte
Ġfran c
uti f
dÃ© mie
Ġra l
Ġal gÃ©
ĠAl lemagne
Ġac ce
ĠgÃ© nie
Ġdon nÃ©
Ġter mes
ĠmÃ© c
ĠmÃ© t
Ġpuis que
Ġser pent
Ġprin cipe
Ġjour n
mÃ© di
int endo
Ġ199 2
Ġ199 3
Ġam harique
Ġad ore
Ġti ent
18 6
Ġ200 1
Ġ200 4
Ġ200 9
Ġsec teur
Ġsec onde
Ġrec onn
ouver ture
Ġab eilles
titu de
Ġexp lose
rib ut
esse ur
fi ques
ĠrÃ©g ions
Ġ201 3
Ġat ti
Ġtrans form
Ġpeti te
ps on
Ġmont res
Ġmes ures
Ġreg roupe
Ġper du
Ġ198 8
velop pe
Ġfond ateur
ony mie
ĠdÃ©si g
Ġ196 5
onom ise
Ġ17 8
Ġsuc ces
Ġouv ert
Ġsci ence
Ġsci ences
Ġblan quette
Ġpart out
Ġeff ec
Ġliv res
rÃ©vi ation
Ġec onomise
viron nement
Ġai res
Ġamp Ã¨re
Ġfr iss
ĠPlus ieurs
Ġnature lle
ĠdÃ©f ense
Ġcro issant
Ġvra ie
Ġcent aines
Ġhau te
Ġfinn o
ĠAs tuce
cep tion
Ġinform atique
Ġprob lÃ¨mes
Ġpie ds
Ġmaj or
Ġcentra l
Ġcomb at
Ġcontra ire
Ġsour ce
Ġus age
Ġbac teries
Ġsem aines
reg istre
stra d
Ġprom o
Ġdivers es
Ġlin Ã©
Ġlin ge
Ġspe cial
Ġge le
ĠlibÃ©ra le
Mariti me
Mariti mes
Ġchi miques
phe re
Ġbru le
Ġstru cture
Ġtradi tionn
Ã©op tÃ¨res
Ġradi o
Ġreligie use
rÃ¨ ze
ĠJac ques
Ġmod Ã¨le
exist ence
Ġgramm aire
ĠDoc trine
ĠGam es
niv ores
Ġrais on
Ġcomprom is
Ou est
Ġclig nes
Ġblo que
Ġstab ilis
Ġcrev ettes
evap ore
Ġdesc end
khen aton
dig ala
Ġsep te
Ġadul tes
ĠThom pson
exe mple
Ġnatur aliste
Ġscal aire
ĠalgÃ© b
. ,
A frique
N F
O I
R E
R Ãª
S aint
U S
b et
c re
c om
c ter
c Ã©e
d a
f re
h um
h Åį
i de
i xe
l ent
l ieu
m at
m Ã©es
o si
p el
r il
r est
r lande
s a
v olution
´ ne
Ã «
Ð ¾
á ī
es te
Ġd ais
Ġd anger
Ġd anse
Ġl ion
Ã© ch
en ant
on te
Ġp Ã©n
Ġc it
Ġc os
Ġc rist
an as
Ġs us
Ġde b
ou k
ou re
ou ch
ti m
ti Ã©
ti le
ti ce
ti ennent
re v
re mi
is ter
te int
Ġa mb
in a
in tÃ©
in ture
ar ie
ar di
Ġm Ã¨re
un es
or a
or b
Ġla mpes
om iques
it ant
ur a
Ġt om
Ġt aille
Ġf uite
Ġf Ãªte
Ġqu es
us age
Ġv entre
Ġv ieux
Ġv olu
il li
our g
Ġn ul
Ġn os
as e
as tis
ĠC li
ĠC elle
ment ation
Ã¨ nement
ĠA ge
ĠA tra
ĠA EC
au teur
ri me
ol d
ol Ã©
Ġpar lÃ©
ĠP DA
ĠP aul
ĠS m
ĠS ie
ĠS oft
Ġau c
Ġau teurs
ĠE r
ĠB ar
ĠB ri
ĠB ack
ĠB NF
ĠD om
ĠD el
Ġpl ut
Ġpl astique
ĠT V
ĠdÃ© v
ĠdÃ© ta
ĠdÃ© riv
Ġre tra
Ġin fin
Ġin dus
ot h
di tions
tÃ© ries
ĠG l
ĠG Ã©
ĠG ir
ĠN intendo
ĠrÃ© ser
Ġr oute
Ġdi z
Ġpro che
Ġpro cess
ul Ã©
Ġh or
Ġh ors
ĠV ol
ens it
ap e
ĠO b
ic a
Ġst ra
Ġst ock
pp e
Ġcomp are
out es
ĠĠ Ġ
Ġnom mÃ©
Ġ20 18
ĠprÃ© d
Ġan nÃ©e
Ġdis c
Ġdis pos
olog y
olog ues
ct otom
ĠEn tertainment
ir s
Ġmon te
iv alent
Ġmoi tiÃ©
ĠÃī c
ĠÃī tat
ĠÃī gyp
Ġra st
Ġparti cipe
ĠAr endt
utilis e
Ġfor ce
Ġtra i
Ġtra dition
Ġi f
Ġdon ner
ob s
aÃ ´ne
00 0
Ġter min
pr end
Ġfin al
Ġfin anci
Ġ18 4
Ġquel que
Ġser vant
tis sements
Ġmar s
Ġk il
Ġsui v
Ġprin ces
Ġres ter
Ġrep ro
atif s
ram mes
Ġ199 1
Ġ199 4
ĠdÃ©c ouverte
Ġbas se
Ġti tres
Ġbou les
Ġprincip aux
18 4
ven ir
Ġrec on
Ġcompr end
Ġsou h
Ġsou ff
are il
ĠdÃ©partement s
Ġimp os
Ġimp Ã©ri
Ġ201 4
Ġnot re
Ġ197 7
Ġmont re
Ġmont agne
ex t
Ġreg gae
Ġcal lig
Ġ6 128
Ġaut our
Ġcert ain
Ġprop res
Ġvis age
Ġfond Ã©e
ĠreprÃ©sent ant
ĠreprÃ©sent Ã©e
ĠPro duit
ali a
Ġjaponais e
ĠTh Ã¨bes
qui pe
Ġpersonn age
Ġrest aur
Ġmort s
anti ne
Ġpouvoir s
ĠBeauj eu
arch itecture
Ġconst antes
Al lier
Ġpat tes
Ġphysi ologie
ox y
Ġlet tre
Ġoffici elle
ctive ment
Ġpass age
.. .
Ġcro y
imp ort
Ġmicro bi
Ġimport ante
Ġdeven u
Ġfac tions
Ġhum aine
ĠprÃ©s ence
Ġmoder nes
ow e
Ġfem me
Ġtex te
Ġtex tes
Ġpie d
Ġcin q
ĠAp ophis
ĠGe or
ĠArm orial
ĠDÃ© finition
Ġtechn ique
ĠcÃ´ tÃ©
ĠCor rÃ¨ze
Ġpor tÃ©
Ġchange ment
ĠmÃ©di Ã©v
Ġdubpl ates
Ġcontr Ã´
Ġanim al
ĠjamaÃ¯c ain
ĠrÃ©sul tat
Ġphilos ophe
Ġagric ole
Ġactiv itÃ©
Ġran ge
ca dÃ©mie
Ġrecher che
ĠsupÃ©rie ur
ĠBur digala
dess us
Ġvict oire
ĠCert ains
Ġinf lu
ĠarmÃ©ni enne
ĠSoci Ã©tÃ©
Ġhong rois
ĠbÃ©nÃ©f actif
ä¸ Ģ
Ġparf ait
Ġchim ique
ĠparticuliÃ¨re ment
Ġlumin eux
AF UL
Ġdais hÅį
Ġvolu me
ĠAtra ctotom
Ġprocess us
Ġmicrobi ologiste
ĠAtractotom us
% "
A lle
A cadÃ©mie
B as
C O
S P
S S
a cide
b erg
c it
c our
d ge
e il
f or
f ond
g it
g rÃ©
h et
h om
l ar
l ation
l aire
m agne
n a
o ti
o ff
p on
s ous
t ation
u k
u li
u els
v res
v ait
w an
y a
y r
Ê ¼
á ¸
Ġ ]
Ġ {
Ġ ul
Ġ Åĵuvre
Ġd od
Ġd yn
Ġl ance
Ġl umi
Ġl oin
Ã© rop
en tement
Ġp ai
Ġp ion
Ġc elles
Ġc rois
Ġs an
Ġs am
Ġde l
ti tion
ti ge
is Ã©
is er
ent h
ar ts
ar ticle
Ġm as
Ġm anger
Ġm asse
Ġm Ãªmes
un t
un itÃ©s
or ie
om or
it ation
ur y
ur on
ur ant
Ġt res
Ġt aux
Ġt endance
Ġf lam
ra ire
Ġv on
Ġv in
Ġv ue
Ġv ague
il m
il lÃ©
ĠL innaeus
Ġn Ã©g
as i
ĠC PC
Ġ( )
ment al
Ã¨ ce
Ã¨ tres
ĠA me
rÃ© d
ant hrop
Ġb out
au ff
ro it
ro Ã¯
ri r
ri te
ol f
ch ons
ch itecture
si vement
se aux
ĠP C
ĠP i
ĠP Ã©ri
ĠP lan
ĠP eter
ĠP ierre
ĠP remi
ĠÃ© vent
mp unctata
ĠS k
ĠS es
ĠS ab
ĠS ole
ĠS aÃ´ne
eu ter
ĠE t
ai g
ĠB our
ĠB ak
ĠD an
ĠD ic
ĠT it
ĠT ell
ter re
Ġch an
Ġch ute
Ġch eck
ac tions
ot a
ot t
di um
ĠN agas
ab ri
Ġse mi
ĠrÃ© si
ĠR a
ĠR ussie
Ġh istoires
ge on
am er
os ph
ĠH a
ĠH en
ĠH all
ĠH athor
ĠV O
ĠV i
ĠF or
tu des
Ġ2 8
Ġcomm and
ic k
ille urs
nÃ© s
st es
vi le
ni er
Ġpo d
Ġpo ints
ĠW eb
ph asy
Ã§ ant
Ġex ac
ĠprÃ© position
lis me
Ġpr ince
Ġpr oies
ĠCh er
ĠCh ine
ĠCh ris
ct ures
Ġtr ouver
Ġsu jet
mo ins
ĠK en
ate au
Ġcar b
ĠU r
Ġal tern
ĠFran cis
ins ule
ĠAn tigua
Ġme ur
Ġfor ces
Ġtra verse
Ġph ra
he ad
Ġpre u
rit s
rou p
cu pe
Ġpremi Ã¨res
onn er
Ġcol labor
Ġdire ctions
mÃ© n
mÃ© nie
ĠdÃ©c ouvert
ĠAm en
Ġbou chons
Ġprodu cteurs
18 7
ĠRÃ© gion
id th
Ġmil itaires
ĠRe d
Ã©t ait
fi Ã©
fi Ã©e
Ġ201 0
Ġ201 5
Ġ201 7
tive ment
Ġat ta
Ġtrans par
Ġpeti tes
Ġpres se
Ġ197 3
Ġsig le
Ġreg ard
Ġpermet tre
ĠdÃ©fin ir
Ġacc ent
Ã©n ieur
ud g
Ġ6 4
Ġtrav aille
Ġconn ue
Ġcontin u
Ġ198 5
Ġport ent
Ġport ant
lu ent
Ã©li opolis
ĠCar l
ĠdÃ©m on
Ġderni Ã¨res
Ġappel Ã©s
Ġseul s
ĠCon st
Ġcapit ales
ĠfÃ© min
Ġgra tu
Ġdom aines
Ġli Ã©e
Ġas si
Ġchau d
Ġchau de
ĠrÃ©gion ales
Ġloc alis
Ġkiff es
Ġroy ale
Ġw idth
Ġiss u
ilb er
Ġprote ctrice
Ġcarac tÃ¨res
Ġrel ie
Ġlar ves
ĠspÃ©ci fique
Ġpat es
ĠrÃ©p and
Ġpass Ã©
Ġcommer ce
Ġsau ve
Ġins titu
ĠAnd rÃ©
ĠAnd erson
Ġdist ance
Ġdist ribution
Ġplu ie
ĠprÃ©si denti
Ġfais ant
Ġfais aient
Ġhau tes
ty lose
Ġdoc trine
ĠsociÃ©tÃ© s
ĠCommun autÃ©
Ġhum ains
Ġmag nÃ©tique
Ġprob ablement
con te
Ġurb aine
Ġcin Ã©ma
Ġremplac er
Ġchauff e
ĠGe ertz
âĢ¦ )
Ġpom mes
tel lig
ĠÃ©p ouse
Ġobjet s
Ġpub liÃ©
ĠExe mple
Ġtechn ologie
Ġmoy enne
Ġci vile
Ġmis sion
Ã©lect ricitÃ©
Ġmi x
Ġmondi al
Ġant Ã©rie
Ġant hrop
ĠSec onde
ĠabrÃ©vi ation
ĠabrÃ©vi ations
reg ist
ĠreÃ§ u
ĠreÃ§ oit
Ġappr endre
Ġparticip ation
Ġlogici el
Ġgraph ique
Ġret our
Ã©crit ure
ĠAd alia
Ġritu els
ĠfÃ©dÃ©ra l
ĠpÃ©tro le
Ġbeff rois
Ġliber tÃ©s
Ġaur ait
ĠGran d
Ġryth me
Ġmusic ale
ĠSte ve
Ġcamp agne
Ġlongue ur
stitu t
rav o
Ġretr ouv
posi tions
ĠBabyl one
ĠTechn ology
ĠÃ® le
aly se
ĠGen re
llab aire
Ġconte xte
ĠRob ert
Ġhistor iques
ĠHau tes
Ġartis tique
sy mb
Ġcui vre
Ġmassi f
ĠAss ociation
Ġpuiss ance
Ġáį ¡
ĠÃ©tran g
Ġcord es
oug ri
Ġray ons
Ġsouvenir s
Ġdoll ars
vey ron
anas tylose
Ġdeb orde
Ġques tions
Ġstra tÃ©
ĠprÃ©d ateurs
ĠÃīgyp tiens
Alle magne
Ġdod o
Ġpai x
ĠSole il
ĠNagas aki
phasy llabaire
' '
2 4
3 6
8 3
A p
A s
A t
A u
A veyron
C alais
E ure
H or
H Ã©liopolis
O siris
c ol
c omme
d ont
d aille
d ote
h is
h yd
j e
j us
l Ã¨me
m ant
n o
n et
n ot
o vi
p end
p onyme
s et
t ait
v ad
x ique
y t
Ã ¼
Ã Ń
Å «
Ð µ
à ¦
á Ĭ
Ġ x
Ġ }
Ġ ital
Ġ oign
Ġd il
Ġd atif
Ġd ensit
Ġl entement
Ã© tiques
on f
on iste
Ġp ap
Ġp iv
Ġc yc
Ġc Åĵur
an iste
an tin
an moins
Ġs oli
Ġs olu
Ġs orte
ou les
re urs
is ne
is sion
Ġa out
Ġa Ã©ri
Ġa ctions
Ġa illeurs
in tÃ©rieur
er o
ar m
ar y
ar itÃ©
ar bre
un g
un it
or Ã©
or di
Ġla ve
Ġle cture
om ie
om Ã¨ne
ur al
ur itÃ©
Ġt ro
Ġf ine
us tra
ra d
Ġv ent
Ġen g
ĠL os
ĠL iv
al istes
al phabet
as hi
ĠC ou
ĠC ont
ĠC ap
ĠC omp
ie ure
Ã¨ tre
Ã¨ tes
ĠA th
ĠA khenaton
Ġb oule
Ġb ravo
ro t
ri Ã¨me
ol ique
ch et
ch Ã©e
se urs
ĠP al
ĠP Ã©r
ĠP oli
ĠP ublic
Ġg am
Ġg erm
Ġg onf
li ques
at t
at al
mp oule
Ġcon j
ĠE d
ĠE au
ĠB ro
ĠB oy
ĠD ieu
ĠD ire
ag nes
ci ation
ĠT ra
Ġj oie
ĠM er
ĠM el
ĠM ac
ĠM oul
ĠM aur
les te
ĠI SO
Ġe mpereur
ot te
ot ro
di dat
ain te
ĠN ation
ab ilitÃ©
ab latif
op e
ĠrÃ© el
ĠrÃ© gn
ĠrÃ© action
Ġr end
Ġr outes
Ġpro jet
end rier
Ġh o
Ġh ar
Ġh Ã©ri
am harique
os hi
ĠH om
ĠH al
ĠF estival
tu me
Ġ2 3
Ġte mples
ic s
ic ain
st on
ni tif
Ġpo si
ort h
ĠW iles
Ġvi b
Ġvi gne
Ġcomp or
Ġcomp ag
Ġcomp ati
Ġcomp lÃ©ment
im age
Ġex ist
Ġex tra
Ġex tension
Ġ20 21
Ġco ali
Ġdis ent
ĠEn fin
ond re
Ġar bres
Ġcar Ã©li
ĠÃī tudes
ĠÃī ponyme
ĠÃ©t hi
Ġcommun ication
Ġav ril
Ġra conte
Ġparti es
semb l
ĠFran Ã§ais
ub e
ub ie
Ġme mbre
ĠgÃ© nitif
Ã¢ t
ob e
ob jet
omm Ã©
od a
ĠmÃ© daille
raph ie
Ġ18 0
Ġ18 6
Ġpuis qu
tif s
Ġim mÃ©di
Ġser ont
tis me
Ġsui vi
int ensitÃ©
Ã©c onomie
Ã©c utif
ici en
Ġmin im
Ġmin utes
ĠdÃ©c lin
Ġbas es
ta h
Ġad ap
Ġti ge
Ġsouv erain
ill ent
ill ant
ill ard
Ġbou gies
Ġcl ass
Ġ200 6
Ġver sions
Ġab s
Ġfil i
Ġfil ament
Ġpers on
Ġperm is
stru ction
Ġform Ã©
Ġform ule
Ġ201 2
Ġmus Ã©e
Ġá ĭ
Ġass istant
ĠCol on
ric ulture
Ġnot ation
Ġ197 5
Ġri vi
ex tension
ĠdÃ©fin it
Ġinternation ales
mpe reurs
av or
Ġaut ant
Ġexe mples
Ġtrav ailleurs
Ġrelig ions
ĠamÃ©ric aine
Ġ4 5
Ġfond ament
Ġren ouv
Ġ196 9
Ġderni ers
17 7
land es
tiv itÃ©
ĠÃ©lect riques
Ġlum ine
Ġouv rages
Ġop pos
Ġva che
ĠQu Ã©b
An tigua
Ġli qui
Ġsigni fi
Ġjou eur
Ġchiff re
Ġpersonn els
Ã¯ s
Ġdess us
Ġban que
Ġcompos Ã©s
Ġvoit ure
200 1
ath lon
cer ons
Ġpat rimoine
hui le
ĠSt andard
Ġclassi fication
Ġindi vi
ĠLang ues
Ġconsi d
Ġsymb oles
Ġoffici ellement
Ġsau ce
Ġprog res
Ġsecond aire
ĠCom mod
Ġdistin gue
ĠdÃ©mocra ties
Ġgrec que
ĠIs is
ĠIs le
to ine
Ġdoc t
Ġfeu ille
Ġatt est
Ġmag as
Ġfra is
Ġfilm s
umi Ã¨res
Ġorganis mes
Ġorganis ations
ĠcÃ© leste
Ġquat riÃ¨me
Ġnum Ã©rique
ĠÃ©v olu
Ġchamp s
tudi o
ĠtÃ©lÃ© ph
Fran Ã§ois
dus trie
ĠPr inc
Ġchac une
ĠSec rÃ©taire
Ġchans ons
Ġphot os
ĠComm on
Ġcalcul s
Ġfai te
ĠÃ©di tions
ĠÃ©di teurs
Ġrapi de
ĠjamaÃ¯c aine
ĠrÃ©sul tats
ĠfÃ©dÃ©ra le
ash ington
Ġgl ac
Ġsuff it
Ġactiv itÃ©s
Ġeu cli
Ġbeff roi
ĠUni x
Ġrecher ches
Ġrus se
Ġgros se
ĠeuropÃ© enne
ocke y
ĠTro jan
ĠnÃ©cess aire
pare r
Ġdevi ennent
Ġbran che
ĠExp ress
Ġtemp Ã©ra
Ġconcer nant
Ġavi ons
ĠprotÃ© ger
ĠcÃ©lÃ¨ bre
Ġexclus i
Ġlan cÃ©
Ġreven us
Ġore illes
Ġexprim ant
Ġmaxim al
Ġconstr uire
ĠbÃ¢ ti
ĠDun geon
ĠphÃ©n omÃ¨ne
ĠKing ston
Ġpromo tion
ĠlinÃ© aire
Ġspecial s
Ġsepte mbre
ĠalgÃ©b riques
Ð¾ Ð
ĠpÃ©n insule
ĠBack us
Ġplut Ã´t
Ġindus tri
Ġtrai tement
Ġlumi Ã¨re
uron ext
ĠAmen hotep
udg et
ougri ennes
ĠPÃ©r ou
Ġcoali tion
ĠQuÃ©b ec
ĠCommod ore
ĠPrinc eton
2 9
5 5
5 6
5 7
A C
A isne
B arbuda
C har
I e
S p
b ert
c ons
c ussi
c la
d al
d am
d uis
d ence
e urs
g uer
h u
i res
l d
l ist
l ine
l ing
l air
m a
m ique
m Ã©s
m ente
o que
o ter
p ire
s h
s o
t le
t tes
t oie
u p
u iste
u fu
v a
v an
w e
w i
w s
w ay
y er
y um
z y
z z
Ã ¥
Ã ¦
Ä ģ
Å ¡
É Ľ
Ġ âĶĢ
Ġd ot
Ġl ieux
Ã© l
Ã© cu
en de
en vers
en sif
on ien
on iens
Ġp an
Ġp et
Ġp al
Ġp Ã©r
Ġp ince
Ġc ra
Ġc itÃ©
Ġc lan
Ġc ouvert
an ie
Ġs ent
Ġs oi
Ġs ature
Ġs Ê¼
Ġde cis
Ġde dans
ou y
ou ge
ti ble
ti stes
re ment
qu et
qu ie
Ġa it
Ġa ction
in o
in te
in st
in cip
in do
in cer
le re
ar is
ar me
ar tif
et y
et ale
Ġm eu
Ġm and
Ġm aÃ®tre
or n
or o
om es
om bre
it y
ur ite
ur Ã©lien
Ġet re
Ġf ou
Ġf un
Ġf li
Ġf ui
Ġf eux
Ġf oy
Ġqu in
Ġqu ant
Ġqu estion
Ġqu asi
us ant
us se
us ta
Ġun iquement
ra ss
ra ient
Ġv u
Ġv al
Ġv enti
Ġv aut
Ġen ne
ĠL it
ĠL amb
ĠL andes
est ent
al ine
al phasyllabaire
as ure
as ta
ĠC in
ĠC ode
ĠC lau
ĠC ulture
ĠC ela
me d
ĠA K
ĠA g
ĠA pp
ĠA urÃ©lien
Ġb e
Ġb u
Ġb er
Ġb all
Ġb omb
Ġb aille
Ġb eton
au tique
ro g
ro y
ro cher
ri pper
ol at
si er
Ġpar ait
se ctes
ĠP an
ĠP uis
Ġg landes
ĠÃ© m
at um
at ta
at rice
at ana
Ġcon g
Ġcon v
Ġcon ver
ĠS am
ĠS im
ĠS av
ĠS ainte
ĠE x
ĠE ra
ĠE uronext
ai te
ĠB on
ĠB or
ĠB ern
ĠD o
ĠD eux
Ġpl ans
ag a
ci ens
ĠT ak
ĠT oute
Ġpour rait
ter s
Ġj az
ĠdÃ© ri
Ġre d
Ġre jo
Ġch ant
Ġch ap
Ġch ose
Ġch anger
ĠM as
ĠM out
ac t
Ġou ver
Ġin fÃ©r
Ġin verse
Ġe mo
ot s
di enne
ale m
ui tiers
tÃ© roÃ¯
ĠG od
ĠG lu
ĠG rec
ĠN oun
ab s
ab rÃ©viation
ĠrÃ© un
ĠR ol
ĠR euter
Ġr ue
Ġr ince
Ġpro c
Ġpro cÃ©
Ġpro pose
end ra
Ġh ub
Ġh iver
Ġh yd
ge ance
ĠJ obs
Ġpas sent
ĠV an
oc ie
ĠF er
ĠF our
ĠF orm
ap pe
tu g
Ġ2 6
Ġ2 7
ouv reur
ouv rir
Ã©r ard
ĠO SI
ist ance
mb er
Ġst resse
Ġst ocke
Ġst ronti
Ġca use
mi a
mi tien
Ġvi r
Ġcomp tent
Ġcomp taient
Ġcomp lexe
Ġcomp osition
lis se
Ġpr ise
Ġan ne
Ġco des
Ġco eur
Ġco Ã»
Ãª t
Ãª tes
Ã¨s es
eau x
Ġdis ques
Ġdis pon
ig h
ert s
Ġtr in
Ġtr Ã´ne
Ġsu it
du c
du cteur
Ġapp orte
Ġapp lau
Ġra men
Ġal ler
ay e
ub astis
ĠAn g
Ġdeux iÃ¨me
Ġtra duit
Ġinter prÃ©
th i
Ġso dium
he mis
Ã¢ tre
ob le
sent ation
ad ores
ad ren
erm opolis
Ġutilis er
Ġutilis ation
Ġutilis ateurs
Ã´ me
ec ture
ec lair
Ġ3 2
Ġ3 6
rop tÃ¨res
Ġser veur
Ġmar ch
ten tion
Ġcre e
ĠâĢ ł
ak a
Ġcol ores
tra pe
Ġdire cteur
ari o
ari at
Ġ199 9
Ġpos sib
Ġsac rÃ©
az u
Ġmin i
ĠgÃ©nÃ©ra lis
Ġbas s
Ġbas que
ograph ique
ill ie
Ġbou ge
Ġprincip ales
Ġcl aire
lect ron
ĠRÃ© seau
Ġver tic
Ġver tige
Ġsec rÃ©t
Ġro ses
Ġconnex ions
Ġdiff ic
titu tion
Ã©t end
Ã©t aire
Ġcer nes
Ġob jectif
amp Ã¨re
Ġform er
Ġmus cles
ĠMe me
Ġtrans mis
oute f
ĠCol or
ĠCol omb
mati que
Ġtour s
Ġ197 8
Ġri de
Ġmont s
ĠUn itÃ©
ex c
Ġreg les
Ġreg arde
Ġreg ulier
Ġpermet tent
Ġord is
Ġord res
Ġacc orde
Ġlib res
Ã©n ergie
ĠNe bet
Ġconn aÃ®t
Ġfam illes
Ġag resse
Ġag ripper
Ġ198 6
Ġport ance
Ġlors que
Ġpouv ant
ĠÃ©lect ro
ĠÃ©lect ronique
Ġ17 9
Ġchar gÃ©e
roid it
vÃ© nement
âĶĢâĶĢâĶĢâĶĢ âĶĢâĶĢâĶĢâĶĢ
Ġouv rier
ocra tie
ĠdÃ©velop p
ode ur
Ġgra in
ĠBas se
har a
Ġbar yum
Ġdur cit
Ġloc u
occinel li
Ġban anes
Ġcompos ants
oun t
Ġprof esseur
Ġprote ines
ĠX X
Ġrel atives
ĠspÃ©ci alis
Ġtrois iÃ¨me
Ġtomb ent
Ġ195 6
Ġdiale ctes
Ġconstitu e
Ġfr uitiers
ĠLang uage
lace ment
vers itÃ©
Ġju ger
Ġsau f
Ġvari Ã©tÃ©
Ġnature l
Ġref lexe
Ġref roidit
Ġdistin cts
ĠdÃ©mocra tique
met tre
Ġtoute fois
Ġfais ait
Ġmicro bes
to bre
Ġz o
Ġz one
Ġâ Ħ
Ġis ol
Ġdoc uments
ĠlÃ©g is
ĠlÃ©g umiÃ¨res
ĠPh il
ĠPh ili
Ġbr illent
Ġhum ain
Ġatt ends
Ġatt ribu
Ġassoci Ã©e
Ġfonction ne
Ġfra pper
Ġinform ations
ense ignement
Ġmen age
Ġth Ã¨se
Ġpie ce
inter ieur
Ġnum Ã©ro
Ġnum Ã©ration
Am on
yc Ã©e
tÃ©ra lement
Ġchauff ent
Ġsp or
Ġtes te
Ġvol onte
ĠÃ©le ctions
ĠÃ©le vÃ©
aff aires
aff inage
lot s
Ġpoi ls
Ġsour ces
Ġinst alle
ĠrÃ©alis Ã©
ĠOr din
mar rage
Ã¡ n
Ġlab orat
Ġbour re
Ġgrammati c
Ã©lect ronique
Ġpous s
ĠindÃ© pend
Ġorient ales
Ġblanc s
Ġcli ent
Ġgr ille
ĠDon c
Ġreve il
Ġreve ille
Ġcher che
Ġprot oc
Ġfai ble
Ġgraph iques
Ġrespe ctivement
Ġlarge ment
gle terre
Ġpu cerons
Ġfre ine
ĠBou ches
ĠáĬ ł
Ġmel odie
ult an
Ġcla vier
Ġenti tÃ©s
ĠBan que
atis f
Ġsale e
Ġvo eu
ĠGran de
Ġmole cule
Ġtransp ort
instru ction
lex ion
Ġfab rique
Ġinstru ment
ĠcaractÃ©ris tiques
Or ganisation
Ġciv ilis
ĠSau vage
ĠJam aÃ¯que
ĠBabyl oniens
ĠlittÃ©ra lement
Ġemploy Ã©s
cks tein
Ġher mitien
ĠHor us
ĠÃ©tab lis
Ġrat ta
Ġprofessionn els
gen e
org an
Ġchoc olat
ĠNouv elle
ĠmÃ©th odes
Ġmach ines
Ġautom obile
ech o
Ġfen etres
ĠIm agine
occu p
âĶĢâĶ¬ âĶĢ
ĠexpÃ©ri ment
Ġlig nes
Ġmang ent
ĠLin ux
Ġminist Ã¨re
autom atique
Ġbarbac ane
Ġsynch ro
Ġdor ment
ĠvÃ©r it
Ġnet toie
ĠCent aur
ouss oles
Ġmess age
Ġmilliard s
humi dite
anne es
Ġajout ent
Ġlev ure
Ġvit esse
ĠLond res
ĠAstar tÃ©
ĠTre asure
Ġetern ue
Ġmob ile
Ġral entir
Ġacce lere
Ġfriss ons
rest re
ĠSie ge
ĠSoft ware
Ġauc un
ĠBri an
ĠGir onde
ĠÃīc onomie
Ġrast a
Ġsuiv ante
Ġsouff le
owe Ã¯
Ġsam oura
Ġmas cul
anthrop ologie
Ġbout s
ĠPÃ©ri g
ĠPremi er
ĠDan iel
ĠDic tionnaire
Ġchan teur
Ġphra se
Ġpreu ve
Ġassi mil
ĠprÃ©sidenti elle
Ġdil ate
ĠPoli tique
ĠPublic ations
Ġgonf le
otro phes
ĠNation al
Ġcompor tement
ĠÃ©thi op
ĠimmÃ©di ate
Ġperson ni
Ġrivi Ã¨re
ĠStandard s
Ġdoct orat
Ġglac ons
Ġexclusi vement
artif ice
Ġfli pper
Ġventi lo
Ġjaz z
ĠGlu ckstein
ĠGrec s
Ġhub lots
Ġstronti um
Ġapplau dit
hemis phere
adren aline
ĠOrdin ateur
ĠSauvage ot
" ,
3 7
4 5
A z
A in
A th
A ton
A ug
B M
B eau
D R
E DF
G ame
I C
I X
I SO
L innaeus
N IX
O S
a ie
a dÃ©
a wa
b a
b on
c ent
c cident
d ie
f Ã©
f eu
f ord
f ari
f Ã¨res
f orme
h b
h en
h er
h Ã©r
i ance
i ji
l ui
l anger
l odie
m m
m ol
m ont
m Ã¨tre
n ov
o ol
o od
p is
p les
p tiques
p ents
p olis
r ons
s p
s te
s one
t ys
u ent
u elles
v in
v ard
v ages
w n
x es
y le
¯ Ŀ
Ð °
å į
è ¯Ŀ
Ġ os
Ġ ).
Ġd an
Ġl o
Ġl ent
Ã© si
Ã© tat
Ã© moi
Ã© lection
en f
en veloppe
en registre
on nÃ©es
Ġp el
Ġp ont
Ġp and
Ġc oi
Ġc ras
an i
an alyse
Ġs ab
Ġs ert
Ġs ing
Ġs Ã©c
Ġs Ã¤
Ġs atisf
Ġde mi
ou e
ti an
ti me
ti lle
re w
qu Ã©s
qu ettes
te lle
Ġa ra
Ġa ire
Ġa ler
Ġa cide
in ation
in ateur
le g
le ph
er ic
Ġm urs
Ġm orte
Ġm ass
Ġm Ã¨tres
un esse
Ġla tine
om o
ur aient
Ġt ut
Ġt amb
Ġt Ã©moi
Ġf oule
Ġf erm
Ġf onde
Ġf rot
Ġqu it
Ġqu oti
oi vent
ra ine
Ġdes tin
Ġv ous
Ġv ote
Ġv alent
Ġv Ã©h
il ota
Ġen ce
Ġen fin
Ġen gl
ĠL ien
our d
our ner
Ġn av
el ui
as ion
as tie
ĠC at
ĠC op
ĠC ul
ĠC Ã©s
ĠC ox
ĠC yc
ĠC elui
Ġ( ).
ment aire
Ã¨ dent
ĠA rabie
rÃ© g
Ġb ord
Ġb udget
ro ise
Ġcom it
ol it
ol ie
ol fe
ch est
si ve
se il
ĠP l
ĠP eu
ĠP ort
ĠP endant
Ġg ri
Ġg uit
ĠÃ© mis
Ġcon fort
ĠS ar
ĠS at
ĠS ig
ĠS ite
ĠS ony
Ġau teur
Ġau prÃ¨s
ĠE st
ĠE mpereur
Ġ1 1
Ġ1 2
ĠB ig
ĠB ubastis
ĠD en
Ġpl ay
ci us
ĠT ennis
ĠT rans
Ġj ury
ĠdÃ© tient
Ġre mon
Ġch am
Ġch ron
ĠM ul
ĠM ak
ĠM ys
ĠM ulti
Ġin t
Ġe mpereurs
ot hÃ©
di que
di ction
tÃ© ri
ĠG Ã©nÃ©
ĠG ray
ĠN a
ĠN ot
ĠN ap
ĠN orm
ab a
og es
Ġse ction
ĠR o
ĠR el
ĠR ht
ĠR ich
Ġsur n
Ġsur face
Ġpro ven
ul l
ul u
ul tÃ©
end aire
Ġh a
Ġh yp
am our
am outef
Ġ19 21
ĠH er
ĠH Ã©ro
ens Ã©
ĠF u
ĠF on
ĠF is
ĠF rÃ©d
tu el
Ã©r on
ĠO ne
ati n
and ela
Ġil lus
st ron
che c
Ġst ation
ni vers
mi te
pe ct
ons ou
ĠW e
ĠW ashington
Ġvi ol
Ġvi ve
Ġvi ennent
Ġcomp il
Ġcomp let
ph tys
Ġnom me
Ġo x
Ġex Ã©cutif
Ã©s us
ĠprÃ© h
ĠprÃ© par
ĠprÃ© positions
Ġan ti
ĠCh ac
ĠCh ange
Ġdis sous
ĠLa mpe
mo b
Ġar chÃ©
Ġar rÃª
Ġar tistes
ib re
ĠÃī lect
ĠÃī ditions
Ġcommun ications
par avant
Ġapp ro
Ġav an
ĠAr chitecture
ĠAr mÃ©nie
ĠU tilis
Ġal phab
Ġfait s
ĠAn ne
ĠAn gel
ĠAn toine
Ġtra itÃ©
Ġjus tice
Ġi ci
Ġi den
ing t
Ġconc urrent
Ġph ase
he b
ru p
ru it
od y
enne mi
Ã´ te
Ġfin it
Ġcons Ã©qu
Ġcons onnes
Ġentre tien
Ġentre prises
Ġser pents
ten de
Ġor nement
Ġor igine
ak h
Ġcol onne
Ġcol Ã©optÃ¨res
mÃ© t
ari ens
ram ment
Ġpe inture
Ġpos t
Ġpos ses
all atif
Ġcou ramment
Ġmin istre
ĠgÃ©nÃ©ra tion
roi x
tr ines
onne ur
ĠAm strad
ĠAm set
Ġbou liers
Ġbou illante
Ġbou langer
Ġprincip es
18 9
form es
ven u
Ġver bes
aut or
Ġsou ter
Ġexp os
Ġob s
ĠrÃ©g ime
ĠAu gus
aÃ¯ s
Ã©g yp
Ġat teint
ĠMe m
ĠMe mbre
ĠMe iji
Ġesp agn
Ġesp rits
Ġá Į
entra Ã®
ric k
man n
Ġ197 1
Ġri ches
Ġmont ant
Ġche val
oph iles
oph arm
Ġcal endrier
ouve aux
ĠdÃ©fin ie
Ġacc ord
ĠNe ith
Ġexe mpl
Ġcel lu
Ġper form
Ġenc od
Ġ198 9
ĠamÃ©ric aines
lÃ¨ ge
Ġport or
ĠJapon ais
ĠCar ac
ĠdÃ©m ont
Ġren dement
17 9
ori el
Ġfut ur
ĠCon seil
ĠÃ©lect ron
Ġ17 7
Åĵ il
ĠfÃ© od
ĠQu el
An d
pi ration
Ġdur Ã©e
Ġloc al
Ġrest re
ann on
Ġfer me
Ġrom aine
ĠX I
Ġdou b
Ġdou x
ĠÃ©tu die
Ġrel ations
tern et
gue ur
rÃ©vi ations
Ġai de
Ġclassi ques
Ġamp oules
Ġoc tobre
Ġfr Ã¨re
ĠCan nes
Ġju ge
ĠrÃ¨ g
Ġpass ante
chi a
Ġins crit
Ġdist ribu
Ġaff ir
Ġconf ir
Ġ194 5
Ġdistin guer
Ã©ro gl
Ġvoy elle
Ġz ones
avi d
gl om
Ġcir cul
Ġtot al
Ġfeu illes
Ġassoci Ã©s
Ġfonction n
Ġpra tiqu
Ġinform atiques
Ġprob lÃ¨me
ĠintÃ© rie
Ġdiver tissements
ĠHar vard
ki hab
ĠdÃ©p end
ĠdÃ©p os
Ġ15 0
Ġ193 2
Ġ193 6
Ġcomb us
Ġsupp lÃ©ment
198 8
Ġdoi vent
Ġpoi gn
Ġpub lie
inform atique
Ġtechn ologies
Ġcorrespond ant
ĠcÃ´ te
Ġpi Ã¨ces
Ġno ve
ĠBl ack
tÃ©rie ure
omÃ¨ tres
Ġbac tÃ©ries
ĠprÃ©f ecture
Ġparticip er
ĠáĪ Ĳ
Ġlim ites
oud an
Ġrespe cter
ĠlibÃ©ra les
Ġdev int
Ġagric oles
vision al
lit tÃ©ralement
Ġsuff ixe
Ġtradi tionnelle
Ġ188 4
Ġordin ateur
Ch rist
ctu aire
Ġran g
Ġcla use
Ġmorce aux
Ġven geance
ĠRen Ã©
ĠRen aissance
oss aire
Ġbut ane
Ġdirige ant
Ġdirige ants
Ġtrou bles
Ġarch ite
Ġconser v
Ġmusic al
ĠsÃ©par ation
ĠsupÃ©rie ure
ĠSu Ã¨de
ĠNÃ© erlandais
dess ous
Ġreligie uses
ĠdÃ©b ute
Ġretr ouver
ĠrÃ©c omp
Ġoccident ale
Ġannon cÃ©
ĠÃ® les
ĠLoire t
Ġbl ues
ĠÃ©tab li
Ġtransf orme
Ġaug mente
ĠNouv el
Ġseigne uri
Ġcompar Ã©e
Ġaccompag nÃ©
Ġadministra tive
Ġcri tique
ĠLors que
ĠPat ronyme
ĠThÃ©or ie
Ġcommen cer
ĠEntre prise
Ġmunicip alitÃ©
Ġdeme ure
Ġenv oie
char ge
ĠconÃ§ u
Ġhi Ã©rogl
Ġfortif i
Ġphyt opharm
Ġdessin Ã©e
ĠAN SI
Ġpours uit
ĠabrÃ© gÃ©
ĠMich el
del Ãł
Ġpois sons
Ġvec teurs
ĠCant al
Ġbes oin
ĠGal li
ĠhÃ© ros
Ġhalog Ã¨ne
ĠmÃ©c anique
Ġhor aires
ĠOb jet
Ġtermin aux
Ġfinanci Ã¨re
Ġsouh aite
Ġrestaur ation
ĠGeor ges
Ã©rop ort
Ġpion nier
Ġsan ctuaire
ĠAme met
ĠSk atal
ĠBak ufu
Ġcarb one
ĠfÃ©min in
Hor us
ĠaÃ©ri enne
ĠMoul ins
Ġcompag nie
Ġáĭ Ĳ
Ġfondament ale
Ġlumine use
Ġconsid Ã¨re
Ġeucli dien
ĠtempÃ©ra ture
ĠAK A
ĠBern ard
Ġrejo int
tÃ©roÃ¯ de
Ġtransmis sion
ĠCentaur i
Ġsamoura Ã¯s
ĠPÃ©rig ord
Ġcoi ff
ĠsÃ©c uritÃ©
eric an
ĠtÃ©moi gn
Ġfrot tement
ĠvÃ©h ic
ĠCox sone
Ġremon te
ĠMys tic
ĠRich ard
ĠFrÃ©d Ã©ric
ĠAngel es
Ġiden tique
kihab ara
ĠhiÃ©rogl y
Ġphytopharm ace
ĠSkatal ites
' .
' Â«
. ).
0 3
3 0
3 5
5 4
8 4
A b
A g
A ri
A ube
C E
E T
E st
F abri
I A
I rak
I RE
N R
O T
S e
T A
T he
a j
a o
a ques
a ussi
a jout
b o
b as
b anisme
c l
c tique
d j
d ennes
f a
f ric
g o
g in
g Ã©s
g Ã©nieur
h s
h am
h omme
h abit
h eure
h onneur
i an
j im
j olais
l en
l oi
l ang
l ore
m ou
m enti
n ait
n out
n ow
o ret
o ok
o Ã»
p en
p ou
p or
p our
p ro
p ort
p ons
p ente
t or
t ul
t ous
u elle
u ellement
v Ã©s
w k
y ra
y onn
z er
z ar
z ac
{ "
} "
É Ķ
Ñ Ĥ
Ġ *
Ġ er
Ġ occ
Ġ Åĵu
es ses
Ġd enti
Ġd ange
Ġl ie
Ġl ien
Ġl ycÃ©e
Ã© th
Ã© lie
en viron
en sib
on ique
on Ã©tique
Ġp s
Ġp es
Ġp au
Ġp ond
Ġp oum
Ġp ile
Ġp oll
Ġc um
Ġc Ã¢
Ġc andela
an im
an iques
an cer
Ġs ais
Ġs els
Ġs tudio
Ġde ja
Ġde tend
ou f
ou ff
ti ennes
ti lles
re au
is se
qu Ã©es
qu Ã©rant
te au
Ġa im
in Ã©e
in ves
in dustrie
er i
ent ation
ent end
ar isation
Ġm un
Ġm or
Ġm ous
Ġm Ã¢
Ġm oles
Ġm Ã¨ne
Ġm ises
un ion
or ant
or ganis
Ġla c
Ġla iss
Ġla isse
it t
ur r
ur iel
Ġt s
Ġt end
Ġf it
Ġf ol
Ġf lu
Ġf avor
Ġf oret
Ġqu eu
us tin
Ġun de
Ġun ique
ra te
Ġdes cription
Ġv s
Ġv end
Ġv Ã©nÃ©
Ġv endu
Ġv ingt
il lis
Ġen ch
Ġen tier
Ġen vie
Ġen regist
ĠL og
ĠL ux
ĠL yon
ĠL ouvre
our n
our ne
Ġn Ã©e
Ġn ob
Ġn ÉĻ
al arme
ĠC rÃ©
ĠC os
ĠC iv
ĠC ross
ĠC ount
que mment
ĠA qu
ĠA ux
ĠA pple
ĠA frique
ĠA ker
ĠA SP
ant Ã©
ant an
Ġb ille
Ġb ons
Ġb ras
au g
au tÃ©s
ro se
ri ces
ri mÃ©
ri dae
ce mbre
Ġcom te
Ġcom ment
ol a
ol y
ol lin
ch is
ch lor
ch auff
si te
Ġpar enth
se ud
ĠP ic
ĠP tah
ĠP hara
Ġg ui
Ġg uer
Ġg este
li Ã©e
li Ã©s
li cules
ĠÃ© lu
ĠÃ© rig
ĠÃ© qui
at oire
Ġcon dition
Ġcon duit
Ġcon jec
Ġcon tenant
ĠS I
ĠS p
ĠS ing
ĠE lectron
Ġ1 28
ĠB en
ĠB elle
ĠB ord
ĠB ob
ĠB arbuda
ĠD J
ĠD or
ĠD Ã©m
ĠD avid
Ġpl ate
ag riculture
de mment
ci ter
ci enne
ci mpunctata
ĠT out
ĠT ole
ĠT aÃ¯
ter ie
Ġj uri
ĠdÃ© ch
ĠdÃ© tr
ĠdÃ© cembre
Ġre b
Ġre v
Ġre de
Ġre ine
Ġre pe
Ġre par
Ġre ves
Ġre met
Ġre mar
ĠM es
ĠM os
ĠM organ
ĠI mp
ĠI rlande
ĠI BM
Ġou est
Ġin ten
Ġin tro
Ġin tellig
Ġe v
Ġe te
Ġe xplique
Ġe aux
Ġe leg
ot tes
di c
ĠG as
ĠG au
ĠG Ã©rard
ĠN ic
ĠN Ã©s
ĠN ations
ĠN ote
og ramme
Ġse e
op Ã©ration
ĠrÃ© pÃ©
ĠrÃ© seaux
ĠR et
ĠR Ã©s
ĠR asta
ff e
Ġr oule
Ġr endre
Ġdi ction
Ġdi min
Ġdi pl
Ġdi git
Ġpro vient
Ġpro to
Ġpro cesseur
Ġpro jets
ul g
ul ation
Ġh ab
Ġh uit
Ġh ilber
ge ois
am i
ĠJ Ã©sus
ĠH an
ĠH at
ĠH ong
ĠV oi
ĠV ic
ĠV IC
ens us
ĠO ss
ĠO siris
Ġte lle
Ġte leph
st ration
Ġst age
Ġpo Ã¨te
ort ant
uis se
Ã¨re ment
pe au
ĠW h
ĠW o
ĠW indo
Ġvi ande
Ġvi gueur
Ġcomp Ã©
ph antine
Ġnom mÃ©e
ĠprÃ© nom
Ġsimple ment
lis e
Ġpr Ãª
Ġpr endre
Ġan c
Ġan nivers
um Ã©
ĠCh am
ĠCh ir
ĠCh ron
ĠCh rist
olog ne
olog iques
ig ner
ct ur
Ġmo od
Ġmo des
âĶ ´
âĶ Ĳ
ure au
Ġmon ar
Ġmon arch
Ġmon ument
ĠK oweÃ¯
Ġar tif
Ġar ticles
Ġar mÃ©nien
Ġar bit
Ġcar rÃ©
Ġcar riÃ¨re
Ġcar nivores
Ã©ri te
ĠÃī ty
du its
ĠÃ©t at
ĠÃ©t ym
Ġcommun ales
Ġcommun autÃ©s
Ġav ance
19 16
oule ment
dÃ© c
Ġra c
Ġparti s
ĠAr ts
ĠAr tiste
ĠAr dennes
Ġje unes
lÃ© phantine
Ġne ige
ard in
tin g
ub is
ĠAn gleterre
enti ne
Ġme re
ret agne
Ġac cep
Ġac adÃ©
Ġtra duction
la h
la re
Ġsy llab
th Ã¨se
Ġconc entre
Ġcour se
Ġcour ants
Ġcour be
Ġdon nÃ©e
Ġso ft
he ur
rou ve
ad el
moi res
ĠmÃ© lodie
Ġes ti
tif ication
Ġses sion
rop ole
tis sent
Ġmar i
ten te
Ġor di
Ġy ou
Ġrep os
Ġrep ose
ak ura
tra ction
Ġ199 6
lig ne
Ã©c ran
Ã©c ulaire
Ã©c rire
ici elle
Ġcou ches
Ġmin or
ite urs
Ġbas ket
Ġad or
Ġti r
Ġti re
Ġti ers
Ġti ges
ill y
ill aume
fic tion
Ġprodu ctions
Ġcl asse
Ġcl ash
ĠRÃ© volution
Ġ200 3
Ġ200 8
Ġpens er
Ġsec ret
ĠcrÃ© e
ĠcrÃ© ateur
id Ã©e
Ġro ches
aut oritÃ©
Ġconnex ion
Ġrec ons
Ġdiff usion
Ġab and
Ġab stra
lic ations
ĠRe prÃ©
Ã©tÃ© roptÃ¨res
Ġexp li
Ġimp Ã©ra
Ġpers onnes
Ġform ules
nation al
Ġdiv ision
ĠMe xique
ĠÃ©c ran
ĠÃ©c oles
aiss ant
ĠCol le
ĠCol Ã©op
man e
Ġpres ser
Ġtour nÃ©e
cÃ© der
Ġ197 6
Ġreg le
oph one
Ġpermet tait
enn ui
Ġcal me
ĠdiffÃ©r end
av oir
ĠNe phtys
Ġcontin ues
Ġcert aine
Ġper d
Ġvis uels
Ġvis iteurs
Ġvois in
ass ociation
Ġ198 3
ĠamÃ©ric ains
lÃ¨ te
Ġ4 64
Ġport es
Ġfond Ã©
Ġbi zar
ony mes
Ġtel les
ys is
ĠCar Ã©lie
Ġ196 2
Ġ196 7
ori z
ĠÃ©gypti ens
Ġchar gÃ©
Ġchar pente
In stitut
commun ications
Ġappar ait
Ġappar tenant
Ġop tique
ĠdÃ©velop per
Ġinc ar
An g
An cien
Ġfi le
ali for
ĠTh ot
Ġjou es
qui Ã¨me
rÃ©s il
Ġpersonn elle
Ġ[ -
Ġloc ales
Ġfa me
Ġvie illes
Ġpart age
Ġnation aux
Ġroy al
Ġ" {"
Ġprof onde
200 2
ath er
men se
Ġdou ce
Ġrel ation
ĠSh ou
ĠprÃ©cis ion
Ġta f
Ġec laire
ĠrÃ©p ublique
Ġphysi cien
Ġtomb eau
Ġ195 9
Ġconstitu Ã©
Ġmilli ers
Ġoc cupe
Ġsitu ation
Ġfr om
ks on
Ġju in
Ġju meaux
Ġpass ant
Ġsyn ta
Ġsyn onyme
Ġprog ramme
Ġaff aires
Ġaff luent
Ġ194 0
Ġ194 6
Ġdistin ction
Ġanglais e
Ġrou tine
rondis sements
if or
ĠâĶ Į
Ġple in
Ġple ine
Ġdeven ue
ĠprÃ©sent s
Ġinternational iste
Ġling uiste
Ġinform ation
Ġgrande ur
Ġdiver si
inter diction
Ġmal grÃ©
Ġconcentra tions
Ġ8 0
Ġlit re
Ġsc Ã¨ne
ĠAp ollin
Ġmaj eur
Ġmaj oritÃ©
ĠmathÃ©mati que
ĠmathÃ©mati cien
Ã©v olution
Ġsp ati
Ġsp ort
Ġvol ont
Ġcontra t
ĠGe b
Ġculture l
tel l
minist ration
Ġpub lique
ĠOr ganis
Ġsub st
ĠKh ent
ĠKh onsou
Ġel se
ĠcÃ´ tÃ©s
ĠtÃ©lÃ© vision
ĠtÃ©lÃ© communications
Ġchinois e
Ġscienti fiques
Ġmi ra
ĠPr incip
ĠBe at
ĠBl onde
Ġposs Ã¨dent
Ġsem aine
crip tions
ÉĻ s
Ġconse ille
Ġappr end
Ġorig inaire
ĠreprÃ©s enter
Ġcommerci ales
Ġspe ct
ĠfrÃ© quemment
Ġret rouve
ĠdÃ©fini tions
tiqu itÃ©
Ġchi mi
Ġiniti ales
ĠGu y
rÃª t
rÃª ts
Ġbru it
Ġstru ctures
Ġbat aille
Ġsix iÃ¨me
Ã©qu ivalent
Ġpol ici
Ġcat Ã©g
ĠGo od
Ġalbum s
Ġtyp es
ĠCal vad
ĠPrÃ© sident
Ġgag nes
Ġgag ner
ĠÃ©qu iv
ĠSu per
Ġinstru ments
ĠNÃ© anmoins
Ġrus ses
Ġpronon cÃ©
Ġpronon ciation
Ġtrouv ait
ĠcaractÃ©ris tique
ĠintÃ©g rÃ©
Ġinv ente
Ġ183 9
Ġannon ce
Ġemploy Ã©
Ġlois irs
Ġcuis ine
Ġcuis iner
Ġby z
Ġby te
Ġhong roise
Ġtransf ert
Ġpropri Ã©tÃ©
labor ation
ĠbÃ©nÃ©f ici
En vironnement
Ġaug ment
ĠTop onyme
Ġseigne ur
ĠHau ts
Ġconcer ne
Ġmach ine
Ġautom ne
ĠopÃ©ra tions
ĠÅ Į
ĠDou amoutef
ĠThÃ©or Ã¨me
Ġprim ordi
europÃ© ennes
ess entiel
rag Ã¡n
ĠdÃ©di Ã©
Ġsemb le
ĠidÃ© es
Ġminist res
Ġbarbac anes
Ġsynch ron
Ġshogun s
Ġshogun at
Ġmultip les
cas ts
Ġsout en
Ġdem and
Ġense igne
Ġpours ui
ĠOrig ine
ĠdÃ©cim ales
Ġphilosoph ie
Ġsystem s
don Ã©si
empl oie
system s
ĠdÃ©t ourner
ĠRom ains
Ġcoord onnÃ©es
ĠChÃ¢te au
Ġjourn al
ĠdÃ©sig nÃ©
Ġtraditionn elles
Ġdescend ants
fre d
Ã« l
Ġcit oy
intÃ© rÃªt
olÃ© on
ĠBar ragÃ¡n
Ġinfin ie
ĠGl ossaire
Ġdiz aines
Ġrecon struction
ĠimpÃ©ri al
Ġcallig ramme
ĠmÃ©diÃ©v ale
Ġul tra
Ġdel ta
raire ment
osph Ã¨re
ĠHen ri
ĠVO C
Ġpod casts
ĠUr banisme
Ġmeur t
ĠRed head
ĠdÃ©mon stration
Ġgratu it
ĠrÃ©pand ue
Ġinstitu tions
symb ole
ĠstratÃ© gie
At oum
Au de
not amment
Ġdensit omÃ¨tre
Ġpap ier
Ġsolu tions
ustra lie
ĠLiv re
ĠCont rairement
ĠPal me
ĠDire ction
ĠhÃ©ri tier
ĠHom onymie
ĠcarÃ©li enne
Ġliqui de
Ġsignifi ant
Ġindivi du
Ġprogres sivement
Ġmagas ins
Sp ilota
ĠsÊ¼ Ã¤
Ġfun Ã©ra
ĠCin Ã©ma
ĠClau de
Ġcong rÃ¨s
ĠToute fois
ĠinfÃ©r ieure
abs ence
tug ais
Ġbass in
Ath Ã¨nes
Ġdan ois
Ġpel licules
Ġcras h
ĠCul te
ĠCÃ©s ar
Ġcomit atif
Ġguit are
Ġplay list
ĠMul sant
ĠHÃ©ro dote
ĠFu jim
Ġornement ales
Ġportor icain
ĠQuel ques
Ġrestre int
ĠrÃ¨g les
glom Ã©ration
Ġcombus tible
Ġnove mbre
Ari Ã¨ge
Fabri cius
Ġdenti ste
Ġdange re
Ġpoum ons
Ġpoll en
Ġqueu e
Ġunde cimpunctata
Ġench Ã¨res
Ġnob les
ĠnÉĻ gus
Ġparenth Ã¨ses
ĠPhara on
Ġconjec ture
ĠTole do
Ġeleg ans
ĠOss ie
Ġteleph one
ĠWindo ws
ĠChir on
ĠKoweÃ¯ t
Ġarbit res
ĠÃīty m
ĠColÃ©op tÃ¨re
ĠCalvad os
ĠFujim ori
Â ł
. ),
7 3
8 0
8 7
A GP
E do
E hb
H er
I EC
J oseph
L ou
M L
M M
M ar
N aur
O asis
P M
R A
S on
S ch
S oudan
T P
U R
a ou
a Ã©roport
b Ã©
b is
b in
b ilitÃ©
c in
d d
d om
d uire
d Ã¨che
e us
f r
f as
f ore
f usion
f aces
f ilm
g ra
g al
g entine
h m
h ou
h or
h uit
i di
i fi
j n
j and
k en
l l
l at
l oc
l ux
l ue
m n
m or
m us
m os
n ac
n elle
n oum
o e
o f
o quer
o asis
p et
p us
p ri
p ens
p ture
p endance
p unctata
q et
r in
t ol
u o
u il
u ie
u ch
u mb
v ais
v ous
w en
w ard
x i
y w
y rÃ©
y si
z i
z ni
z ing
Â »
È Ŀ
Ð »
à ®
á Į
ç Ļ
Ġ erre
Ġ orth
ģ ä¸Ģ
Ĵ u
es e
es sif
Ġd ance
Ġd oute
Ġl un
Ġl ut
Ġl Ãł
Ġl ign
Ã© dÃ©
Ã© lier
Ã© lÃ¨ve
Ã© vÃ©nement
en e
en et
on ctu
Ġp ant
Ġp ale
Ġp ig
Ġp oule
Ġp areil
Ġc m
Ġc ab
Ġc ru
Ġc rit
Ġc ris
Ġc Ã©lÃ©
Ġc ath
Ġc ouverture
an o
an itÃ©
an sion
Ġs il
Ġs ch
Ġs ait
Ġs cÃ©
Ġs aint
Ġs cis
Ġs entir
Ġs tim
Ġs ultan
Ġs ensib
Ġde t
ti r
ti les
ti dae
is ions
qu it
qu ets
te ad
te chn
Ġa ir
Ġa iles
Ġa ctes
Ġa jou
Ġa stron
in Ã©
in ures
in atif
in iti
in sectes
le te
le ur
le ts
le vant
le mande
le jand
er ce
ent rÃ©e
ar ine
ar ita
Ġm ou
Ġm ie
Ġm are
or ies
or tÃ©es
om Ã©
om ans
om pe
om atiques
it as
Ġt or
Ġt ac
Ġt rib
Ġt ox
Ġt ardi
Ġt ung
Ġf ic
Ġf leu
Ġf ronti
Ġf leur
us crit
us alem
Ġun ies
ra c
ra ble
ra Ã«l
Ġv an
Ġv el
Ġv ont
Ġv ain
Ġv Ã©ri
Ġv ise
il itÃ©s
il ibre
ĠÃ ¢
Ġen d
Ġen ter
Ġen registre
Ġen zy
ĠL ag
ĠL ot
ĠL im
ĠL une
ĠL ing
Ġn age
Ġn aissent
Ġn ouveaux
al lis
al bum
as ard
ĠC I
ĠC ro
ĠC entre
ĠC ub
ĠC ong
ĠC amb
ĠC amer
Ġ( ),
que ment
me dia
Ã¨ ches
ĠA li
ĠA ton
ĠA mpoule
ĠA ustralie
ĠA lejand
rÃ© al
Ġb ot
Ġb oire
Ġb oit
Ġb rev
Ġb aie
au d
ro ph
ri Ã¨s
ri dge
Ġcom tÃ©
ol ine
ch en
ch Ã©es
si r
si Ã¨re
Ġpar c
Ġpar ois
ne c
res sions
se i
ĠP or
ĠP age
ĠP yth
ĠP lau
ĠP atin
Ġg u
Ġg are
Ġg Ã¨nes
Ġg lisse
li an
ĠÃ© dition
at or
at us
mp his
Ġcon fÃ©rences
Ġcon cep
ĠS c
ĠS ant
ĠS ui
ĠS he
ĠS itu
ĠS ok
ĠS ki
ĠS tudi
ĠS eth
ĠS now
ĠS uisse
ĠE l
ĠE ss
ĠE dis
Ġ1 15
ai le
ai dent
ai mant
ĠB u
ĠB re
ĠB it
ĠB os
ĠB ilb
ĠD od
ĠD urant
ag ent
ag glomÃ©ration
de urs
de puis
ci ence
ĠT om
ĠT ant
ĠT rop
ĠT ouch
ont o
ĠdÃ© li
ĠdÃ© lÃ©
ĠdÃ© rou
ĠdÃ© part
Ġre ti
Ġre vue
Ġch or
Ġch aire
Ġch iens
Ġch air
ĠM en
ĠM or
ĠM il
ĠM ot
ĠM ad
ĠM ah
ĠM oto
ac ti
ac ent
ran te
ĠI r
ĠI ran
Ġou tre
Ġin ven
Ġin ves
Ġin dis
Ġin tit
Ġin donÃ©si
Ġe gyp
ot y
di o
di es
di fier
ale rie
Ġsi m
ĠG r
ĠG DF
ĠG ame
ĠG roup
ĠG olfe
ĠN ik
ĠN ubie
ab ou
op es
op tÃ¨res
ĠrÃ© ception
ĠR os
ĠR od
ĠR ome
ĠR hÃ´ne
ĠR oche
Ġdi te
Ġdi ront
Ġpro sp
ul sion
ul aires
Ġh ertz
Ġh asard
am s
am on
am ar
am ine
os se
ĠJ u
ĠJ Ã©r
ĠJ ules
Ġ19 18
Ġ19 26
Ġ19 24
ĠH yd
ĠH aute
ĠH ouse
ĠV ie
ĠF ond
ĠF ah
ĠF oot
ĠF ilm
ap h
ap ar
ap pr
Ġ2 1
ces site
ouv oir
ouv rage
Ã©r indi
Ġ| }
ĠO S
ĠO s
Ġte am
Ġte tra
Ġcomm ande
ille rait
ang o
ang le
st Ã¨ne
Ġca fÃ©
ous a
uis e
ĠW i
ĠW olf
Ġvi ce
Ġvi gn
Ġvi enn
Ġvi vre
ue z
ue il
ue illi
im ie
Ã§ aient
Ġsa vant
Ġnom mÃ©s
Ġnom inatif
Ġex cep
ĠprÃ© t
ĠprÃ© dÃ©
Ġpr ends
Ġpr onom
Ġpr ennent
Ġan tiques
Ġan alog
ut ation
ut enant
ĠCh ent
ĠCh yp
Ġson ne
Ġdis ait
Ġdis pose
Ġdis quettes
ert on
Ġmo teur
ir ie
Ġsu g
Ġsu ites
mo le
Ġmon ter
ĠK Ã©
ĠK an
ĠK hÃ©
ĠK olo
ĠK azu
Ġar mes
Ġar rose
Ġcar n
Ġcar ton
Ġcar din
Ġcar ottes
ĠÃī dou
ĠÃ©t end
Ġpeu ples
ĠÃ©g ale
Ġra inures
Ġparti ellement
ĠAr t
semb lÃ©e
ĠU s
ĠU NIX
Ġal lemande
Ġje unesse
lÃ© es
lÃ© ans
ĠAl an
ĠAl gÃ¨bre
ĠAl fred
yp so
ard es
ay t
ay ant
ĠfranÃ§ais es
ĠAn ges
enti t
enti ss
Ġfor Ãªt
oy aute
Ġac ces
Ġac tive
Ġtra it
Ġtra its
Ġi P
Ġconc ern
Ã¢ h
ĠIn stitu
ob jectif
ob tenir
ob acte
rit ant
ad j
omm and
omm age
erm a
Ġter res
Ġter rain
Ġter restre
Ã´ s
ts k
fin i
ĠPar mi
ĠmÃ© ta
hÃ© on
hÃ© Ã¢tre
pr is
Ġcons iste
Ġcons onne
Ġcons oles
Ġcons ensus
ore r
ore illes
Ġ18 17
Ġ18 21
Ġpuis sant
Ġquel qu
Ġentre prise
rop ri
Ġim ag
Ġser vent
Ġmar ti
Ġmar ais
Ġk an
Ġk it
Ġk atana
Ġsui vie
Ġprin temps
Ġres semble
Ġres sembl
Ġres pons
ver gne
iss oire
Ã©c ole
Ã©c riv
all Ã©s
Ġcou ps
Ġcou teau
Ġam or
Ġam Ã©rindi
Ġmin Ã©ra
ĠgÃ©nÃ©ra tions
ĠdÃ©c oup
alis me
Ġti rent
Ġti ennent
acc om
acc ro
acc Ã¨s
ĠAm Ã©rique
ĠAm asis
ĠAm erican
ĠÃª tres
18 0
18 22
form ation
Ġcl in
Ġcl air
Ġcas s
ĠDe p
ĠDe vant
ĠcrÃ© Ã©e
ĠcrÃ© ole
Ġro ck
Ġro cks
Ġrec omp
Ġrec ommand
Ġdiff us
Ġcompr endre
Ġcompr ennent
Ġsou tient
Ġsou mis
ĠRe al
ĠRe vel
Ã©t aient
Ã©t aires
Ġfil les
Ġexp rime
Ġexp ressions
Ġimp ose
rib ue
Ġmet tant
Ġmet tent
Ġcap te
ĠrÃ©g u
ĠrÃ©g Ã©nÃ©
amp oule
Ġform at
ĠAu vergne
Ġcul tiv
Ġat omiques
Ġdiv ine
ĠMe dia
ĠMe mphis
Ġesp Ã¨ce
ris sent
Ġma tern
Ġman if
Ġman uscrit
Ġá ī
Ġass ure
Ġpays age
Ġpays ages
ĠCol Ã©optÃ¨res
man ie
man tique
Ġtour ner
Ġ197 2
Ġ197 9
Ġmont rer
Ġmont agnes
Ġreg roup
oph y
Ġcal mer
Ġacc Ã¨s
Ã©n at
av a
assi fication
Ġaut o
Ġpopul aires
Ġpopul aritÃ©
ke h
Ġcel l
Ġconn us
Ġconn aissance
Ġcontin ue
Ġfam ili
tionn els
Ġprop or
Ġper cussi
ass Ã©
Ġ198 2
ĠnÃ© cessite
ĠMar oc
ĠMar tin
ĠY am
ĠCar nivores
aÃ® tr
ĠreprÃ©sent ations
ĠsÃ© mantique
ĠdÃ©m ar
Ġren v
Ġ196 6
ka wa
Ġlong s
kh met
oul Ãªme
ane b
ĠCon c
ĠCon tin
ĠCon quÃ©rant
Ġ17 6
vÃ© ni
vÃ© nements
vis ibles
Ã©m ie
ĠPro visional
exp rime
exp ansion
Ġouv re
ocra te
Ġcapit al
Ġva ches
Uni versitÃ©
Ġang le
ĠdÃ©velop pÃ©
ok s
Ġ5 0
Ġli Ã©
Ġli Ã©s
Ġli Ã©es
Ġmati Ã¨res
Ġgaz eux
ĠTh erm
Ġbar re
Ġgouver ne
Ġoff re
ĠrÃ©gion ale
gu ent
Ġdur Ã©
Ġloc ale
Ġvie illis
Ġblan che
Ġblan ches
ramm aire
Ġfer til
Ġcompos Ã©e
oun d
Ġprof it
200 0
200 3
yl les
ath on
Ġeff ic
Ġparticu les
ĠX V
arch Ã©
Ġlar mes
ĠspÃ©ci aliste
Ġtou cher
ĠSh im
Al pha
ell s
ĠMi ysis
ĠrÃ©p ublic
Ã¤ n
Ġsal le
Ġai ment
Ġmer ci
Ġ195 0
Ġ195 1
lab les
Ġten ant
Ġcoup let
Ġ% )
Ġfr ont
Ġsign alisation
Ġsymb ol
Ġgar anti
Ġju li
landais e
Ġvari ante
ili ter
ili aire
ĠdÃ©f unt
ĠAnd rew
.. .)
Ġcro ise
Ġconf usion
Ġconf ondre
Ġplu me
Ġref rain
ĠprÃ©si de
Ġdistin ct
imp orte
Ġchef s
Ġâ ī
Ġdoc ument
Ġmol Ã©culaire
ĠAb rÃ©viations
ĠdÃ©s in
ĠdÃ©s ert
Ġimport ants
Ar dÃ¨che
Ġent our
Ġent end
Ġent oure
Ġple ure
Ġple ines
Ġcir cons
Ġfac iliter
Ġbr illerait
ĠprÃ©s enter
Ġatt ribut
Ġ7 9
Ġpra tiques
Ġfra g
Ġfort s
ĠAs ie
ĠAs sez
Ġcad mi
con dition
Ġurb ain
Ġmen Ã©s
Ġcont ro
ĠintÃ© rÃªts
ĠHar s
Ġtex tures
Ġess uy
ĠcÃ© rÃ©
Ġmal heur
Ġnum Ã©riques
Am Ã©rique
Am strad
Ġcan didat
ĠEs quis
ĠDes cription
Ġsoun ds
ĠconsidÃ© rÃ©s
ĠconsidÃ© rÃ©e
oll yw
Ġcontra intes
Ġsupp ort
198 2
Ġculture lle
sif s
ĠÃ©p Ã©es
ĠSy mb
Ġinst allÃ©
Ġinst antan
Ġinst allÃ©s
ĠrÃ©alis Ã©e
ĠrÃ©alis Ã©es
ĠOr ganisation
ative ment
Ġmoy ens
ĠKh noum
ĠÃ©gypt ologues
ug awa
inn ois
Ġlab els
prÃ© sident
Ġpor tÃ©e
ĠPr ince
tÃ©rie ures
Ġorient al
Ġorient ale
Ġus uel
Ġsem ences
199 5
ĠPersonn alitÃ©s
Ġgout te
tÃ©ris tiques
Ġmeille ure
Ġsovi Ã©tiques
Ġorig ines
ĠáĪ Ģ
ĠáĪ ł
Ġcalcul atrice
Ġcommerci ale
Ġcommerci alisation
rat oire
Ġanim aux
Ġdev ait
ĠAd j
Ġiniti al
ĠGu illaume
ĠÃ©conom iques
ĠáĬ Ģ
Ġemp r
190 2
Ġ189 5
ĠpÃ©tro liers
Ġbret Ã¨ches
ĠBan ks
ĠMus Ã©e
ĠEsp agne
ĠEsp Ã¨ces
vie w
ĠTok ugawa
Ġtrou peau
Ġarch Ã©es
Ġtransp orter
instru ctions
Ġfab ri
Ġfab ric
Ġvas es
ĠÃ©qu ivalent
Ġapplic ations
194 5
Ġvict oires
Or lÃ©ans
ich age
anci enne
Ġsort ent
ĠLib an
ĠeuropÃ© ens
ĠJam ais
ĠarmÃ©ni ennes
Ġforte resse
exist ent
Ġoccident aux
ĠlittÃ©ra ture
ĠfrÃ©qu ence
ĠrÃ©v olu
ĠrÃ©v olution
ĠrÃ©v Ã¨le
ĠVal se
Ġadop tÃ©
Ġcomprom issoire
Ġpropri Ã©tÃ©s
Ġcr Ã¨me
Ġfoot ball
ĠÃ©ch ang
Ġartis an
Ġautor is
Ġautor itÃ©s
ĠmatÃ©ri el
ĠmatÃ©ri aux
Ġadministra teur
hy t
sy ch
Ġavi on
Ġfig ure
ĠLors qu
occu pe
ades sif
Ġprim aire
Ġáį Ģ
ĠcÃ©lÃ¨ bres
Ġdeme ures
Ġfour nis
Ġve ct
Ġneu f
Ġneu tre
ĠdÃ©di Ã©s
Ġdirig Ã©
Ġore ille
Ġirak iennes
Ġconsac rÃ©
Ġorg anes
Ġexprim er
AS A
emb ourg
Ġdat ation
ĠLi ke
ĠAN D
ĠTur quie
ĠchrÃ© tiens
ĠchrÃ© tienne
Ġcontribu Ã©
ĠcontrÃ´le ur
don Ã©sie
empl oi
ĠthÃ© b
Ġflot te
Ġvec teur
ĠLig ue
ĠSci ences
ĠdÃ©t ruit
ĠdÃ©termin er
Ġris ques
ĠJus qu
ĠdÃ©sig nÃ©es
Ġsucces sion
ĠampÃ¨re mÃ©t
Ġnaturelle ment
Ġmajor itaire
Ġcontraire ment
hum anitÃ©
Ġcrist aux
Ġamb iance
ĠCli ff
ĠdÃ©riv Ã©s
Ġretra ite
Ġinfin i
ĠrÃ©ser vÃ©
Ġdiz aine
Ġstock age
Ġcompare r
Ġdispos ait
Ġimpos sible
oxy de
import ation
ĠcontrÃ´ ler
Ġinflu ence
Ġdyn astie
ĠÃ©vent uellement
aig re
ĠBour bon
Ġexac tes
Ġaltern atif
ĠFrancis co
ĠdÃ©couvert es
Ġtranspar ents
Ġregard er
Ġrelie f
Ap ophis
As ie
Ġoign on
Ġcyc les
Ġsoli de
ĠCou pe
Ġgerm anique
Ġconj oin
ĠMaur ice
ĠHal obacte
Ġcompati ble
Ġattest Ã©
hu a
Ġmand at
Ġfoy er
ĠLit tÃ©ra
ĠdÃ©ri vÃ©
ĠRol ler
Ġvir gu
duc ation
thi opie
ĠsecrÃ©t aires
ĠdÃ©velopp Ã©e
ĠlÃ©gis l
ĠPhili ppe
ĠindÃ©pend ante
Ġprotoc oles
ĠexpÃ©riment ale
ĠvÃ©rit able
Ġmascul in
ĠÃ©thiop ien
ĠimmÃ©diate ment
Az ur
Aug ustin
åį ģä¸Ģ
enregistre ment
Ġpand Ã©mie
Ġara be
Ġaler te
Ġtamb our
Ġdestin Ã©e
Ġnav al
ĠMulti media
ĠNap olÃ©on
ĠFis her
ĠChac un
ĠarrÃª tÃ©
ĠÃīlect ricitÃ©
Ġobs c
ĠáĮ ¸
Ġriches se
Ġperform ances
Ġencod age
ĠCarac tÃ©ristiques
ĠXI V
Ġdistribu teur
ĠsupplÃ©ment aires
ĠvÃ©hic ules
OT AN
menti er
oÃ» t
Ġps ylles
inves tissement
ĠmÃ¢ ch
Ġlaiss er
seud onyme
ĠRasta fari
ĠHong rie
ĠVoi ci
ĠWo zni
Ġmonar ques
Ġartif icielle
Ġrac cour
Ġsyllab e
Ġabstra ite
ĠColle ge
Ġfame ux
Ġfrom age
Ġmira cle
Ġspect ac
Ġcitoy ens
Ġnobles se
ĠÃītym ologie
Lou is
çĻ ¾
Ġerre urs
Ġpant hÃ©on
ĠcÃ©lÃ© b
Ġstim ule
tead y
techn ique
Ġtung stÃ¨ne
Ġenzy mes
ĠAlejand ro
Ġbot aniste
Ġboit es
ĠPlau ger
ĠSui vant
ĠStudi os
ĠEdis on
Ġvign oble
Ġvienn ois
ĠChyp re
ĠÃīdou ard
entiss age
Ġconcern ent
Ġrocks teady
ĠRevel ation
Ġfertil itÃ©
ĠEsquis se
ĠHalobacte ri
ĠWozni ak
av aient
3 1
3 4
3 9
4 1
6 6
7 0
7 5
8 6
; "
A L
A mp
A mpoule
A kihabara
C amp
D en
E x
H ermopolis
I S
I EE
I rlande
I NR
J e
J ac
L es
L uc
M P
N C
N ES
N ubie
N ET
O A
O ff
O ccident
P S
P er
P ierre
P aul
Q L
R e
R DF
S J
T J
T h
T ut
U F
U NES
V AN
W Y
a ve
a ci
a out
a illes
b en
b ou
b el
b al
b ie
b ourg
b oussoles
c y
c rÃ©
c aire
c Ã©s
c ate
c lÃ©
c Ã©es
c od
c ast
c endance
c anisme
c tives
c orn
d t
d y
d ant
d Ã©e
d eux
d onn
d ente
e p
e ment
e mp
e mo
f ou
f ri
f ran
f esseur
g i
g ol
g ine
g ateur
g Ã¨ne
g lace
h it
h el
h al
h os
h od
h all
h istoires
h Å«
i o
i x
i mb
i teur
i ze
i endaire
j on
j ut
k an
k un
l as
l ai
l itÃ©
l ate
l able
l Ãł
l enche
l agement
m ard
m ales
m ise
m enter
m orce
n t
n ou
n aire
n st
o o
o ins
o ing
o ches
o see
o eil
p ais
p odes
p rix
r or
r ure
r ures
r ome
s oit
t ur
t as
t rÃ©
t ob
t ru
t able
t ori
t rice
t ologue
u ant
u Ã©e
u tu
u tique
u illes
v itÃ©
v Ã©es
v ise
v ieux
v aisse
v odie
v rages
w in
w ag
x on
x or
x ic
x ford
y ri
y les
y aux
y gene
z a
| |
¥ áĭ
Ã ¸
Ð ¸
Ñ Ģ
Ñ ĥ
Ñ ĩ
á ¹
Ġ ott
Ġ entraÃ®
ī áĪ
İ le
ķ áĮ
es cla
Ġd ent
Ġd res
Ġd op
Ġd ors
Ġd ore
Ġd ates
Ġl ot
Ġl oyaute
Ã© re
Ã© rÃ©
Ã© rÃ©s
Ã© rer
Ã© tende
en z
en ci
en ac
en nies
en vironnement
en cre
en regist
on se
Ġp Ã©
Ġp en
Ġp il
Ġp iste
Ġp eux
Ġp oire
Ġp ret
Ġp otes
Ġp av
Ġp ier
Ġp anique
Ġp ierre
Ġp ull
Ġp yra
Ġp onctu
Ġp sych
Ġc le
Ġc ale
Ġc og
Ġc op
Ġc esse
Ġc opie
Ġc occinelli
an dement
Ġs te
Ġs ie
Ġs ain
Ġs ois
Ġs ors
Ġs la
Ġs erm
Ġs pr
Ġs cul
Ġs Ã»
Ġs Åĵur
Ġs aisons
Ġs ombre
Ġs ocie
Ġs antÃ©
Ġde te
Ġde lic
Ġde chet
Ġde marrage
ou x
ou ti
ou ter
ou lis
ou ret
ti Ã¨re
ti tres
re d
re cte
re intes
is m
is Ã©e
qu est
te me
te ille
te mis
Ġa qu
Ġa si
Ġa ge
Ġa mi
Ġa th
Ġa ctrice
Ġa Ã©ron
Ġa ligne
in d
in v
in x
in dÃ©
in aires
in verse
in vention
in berg
in visibles
le e
le us
le bre
er a
er ci
er aux
er ing
er ature
er fs
er titude
er tume
er ator
ent a
ent endent
ar ra
ar ab
ar iste
ar ith
ar gent
et es
et re
et ait
et end
et oile
Ġm au
Ġm ille
Ġm ouve
Ġm uc
un ts
un issent
or ation
or ise
or ange
or tÃ©e
or ld
or onto
Ġla chent
Ġla mber
Ġla vages
Ġle ves
om an
om ac
it z
it an
it age
it aient
ur Ã©e
ur ait
Ġt re
Ġt ran
Ġt Ã¢
Ġt rÃ©s
Ġt endre
Ġt estent
Ġt oges
Ġet h
Ġet es
Ġet res
Ġet ale
Ġet ait
Ġet aient
Ġf oi
Ġf el
Ġf aux
Ġf iss
Ġf lo
Ġf oie
Ġf ume
Ġf estival
Ġf lexion
Ġf lux
Ġf arine
Ġf etes
Ġqu ad
Ġqu alitÃ©s
Ġqu art
us tive
oi te
Ġun i
Ġun s
Ġun iques
ra li
ra ins
ra der
ra ines
ra chent
ra irie
Ġdes am
Ġdes hyd
Ġdes tru
Ġv il
Ġv ac
Ġv oul
Ġv ali
Ġv enir
Ġv oies
Ġv este
Ġv arie
il o
ĠÃ İle
Ġen ergie
ĠL Ã©
ĠL et
ĠL yonn
ĠL ancer
est omac
Ġn u
Ġn our
Ġn oires
Ġn aÃ®t
Ġn anisme
Ġn uage
Ġn erfs
el d
el ous
al d
al ise
al ler
al igner
as a
as me
as tre
as tiques
ĠC D
ĠC o
ĠC ri
ĠC itÃ©
ĠC aire
ĠC od
ĠC lo
ĠC entra
ĠC enter
ĠC rist
ĠC ompag
ĠC occinelli
ĠC alifor
ie use
ie ck
me ister
Ã¨ g
Ã¨ des
Ã¨ ze
Ã¨ dre
ĠA z
ĠA ff
ĠA kh
ĠA rab
ĠA VAN
Ġb re
Ġb ra
Ġb il
Ġb ri
Ġb ol
Ġb ang
Ġb ob
Ġb ox
Ġb lin
Ġb alle
Ġb oussoles
Ġb ureau
Ġb leus
Ġb oite
au f
au ge
ro b
ro log
ro chis
ri on
ri che
ri ct
ri ctions
ri fu
ce ans
Ġcom itÃ©s
Ġcom ete
ol aire
ol ue
ch u
ch ers
ch age
ch ue
si le
si que
si pe
Ġpar s
Ġpar oi
Ġpar am
Ġpar ten
Ġpar ents
Ġpar aÃ®t
Ġpar odi
Ġpar allÃ©
Ġpar Ã¨dre
ne dis
res sent
res sement
res sifs
se cte
se ptiques
ĠP H
ĠP o
ĠP in
ĠP il
ĠP ie
ĠP ol
ĠP op
ĠP elle
ĠP ace
ĠP enn
ĠP oin
ĠP OI
ĠP ologne
ĠP UF
Ġg ron
Ġg ru
Ġg ross
Ġg ateau
Ġg outer
ĠÃ© lÃ¨ve
ĠÃ© quipe
ĠÃ© vÃ©nements
at o
at ou
at ch
at tein
at mos
mp or
mp anique
Ġcon qu
Ġcon fÃ©rence
Ġcon tenu
Ġcon gel
Ġcon tiennent
Ġcon ducteur
ais er
ais onne
ĠS w
ĠS Ã©
ĠS il
ĠS ol
ĠS tÃ©
ĠS op
ĠS tres
ĠS aut
ĠS ys
ĠS ka
ĠS pÃ©ci
ĠS wi
ĠS aÃ¯s
ĠS ouff
ĠS Ã©nat
eu fs
ĠE th
ĠE char
ĠE pais
ĠE nedis
Ġ1 33
ĠB ir
ĠB ill
ĠB lais
ĠB ali
ĠB eff
ĠD ab
ĠD am
ĠD ig
ĠD esh
ĠD iff
ĠD iver
ĠD erni
Ġpl ie
Ġpl uriel
ag o
ag Ã©
ag on
ag ar
ag ieux
de ur
ĠT U
ĠT r
ĠT w
ĠT on
ĠT er
ĠT our
ĠT as
ĠT ch
ĠT yp
ĠT ay
ĠT its
ĠT Ã©lÃ©
ĠT iy
ĠT OI
ĠT ool
ĠT oronto
Ġpour rie
ter ne
ter ieur
Ġj ette
Ġj ardin
ĠdÃ© n
ĠdÃ© r
ĠdÃ© esses
Ġre ge
Ġre vis
Ġre tient
Ġre duit
Ġre uss
Ġre jou
Ġre agit
Ġre utiliser
Ġre tenue
Ġre cupe
Ġre charge
Ġre chauff
Ġch ante
Ġch asse
Ġch elous
ĠM y
ĠM is
ĠM ur
ĠM end
ĠM ay
ĠM anger
ĠM oh
ĠM aÃ®tre
ac rÃ©
ac ue
ac Ã©s
ac ts
ac tuel
ran ger
ĠI oun
ĠI men
Ġou rali
Ġin tr
Ġin ser
Ġin off
Ġin telle
Ġe lect
Ġe teint
Ġe quipe
Ġe pis
Ġe chec
di m
di r
di er
di ens
di ques
di cu
ale e
Ġsi ens
Ġsi mil
tÃ© r
tÃ© si
ĠG T
ĠG ra
ĠG ate
ĠG ard
ĠG lace
ĠG rammaire
âĢ ĵ
ĠN i
ĠN o
ĠN et
ĠN it
ĠN at
ĠN av
ĠN ice
ab rÃ©
ab essif
og rammes
Ġse x
Ġse cher
Ġse chage
op le
op ot
op pe
ĠrÃ© ussi
ĠrÃ© duit
ĠR h
ĠR i
ĠR ab
ĠR ond
ĠR oule
ff oir
ff ixe
Ġsur nom
Ġsur prend
Ġsur mont
Ġr it
Ġr um
Ġr entre
Ġr ari
Ġr ites
Ġr endu
Ġr ares
Ġr incer
Ġdi aph
Ġpro cÃ¨s
ul Ã©e
ul ature
ul teurs
end ie
end rait
Ġh y
Ġh ic
Ġh Ã©b
Ġh ume
Ġh eure
Ġh ockey
Ġh oriz
ge ant
ge ons
am ille
am mi
am id
am med
am akura
os Ã©
os an
ĠJ ava
Ġ19 17
Ġpas sion
ĠH T
ĠH i
ĠH y
ĠH ap
ĠH Ã¢
ĠH ak
ĠH ockey
ĠH ermopolis
ĠV e
ĠV er
ĠV ers
oc Ã©
ens es
ĠF R
ĠF e
ĠF re
ĠF ont
ĠF ore
ap res
ap hy
Ġ2 2
ces seurs
ouv ent
ĠLe m
ĠO t
ĠO tt
ist an
ist ants
ist esse
mb idi
Ġcomm iss
Ġcomm andement
ic al
ic oulis
ille e
ille ures
nÃ© ade
nÃ© fer
nÃ© tisme
st re
Ġst agne
Ġst yl
Ġst agn
Ġst ressent
Ġst oppe
ni g
ord an
ord inateur
Ġpo Ã©sie
Ġca us
Ġca ches
Ġca iller
mi g
mi re
mi le
mi ter
mi des
mi tiques
pe cts
ĠW er
ĠW illi
Ġvi es
Ġvi be
Ġvi endrait
Ġcomp ter
Ġcomp lique
Ġcomp orte
Ġcomp ose
Ġcomp lex
Ġcomp osi
Ġcomp lÃ¨te
ph en
ph Ã©m
out ant
Ã§ u
Ġsa vent
Ġnom mÃ©es
Ġo eil
Ġo deurs
Ġo ceans
Ġo eufs
Ġex er
Ġex ten
Ġex tÃ©rieur
Ġex Ã©cu
Ġex citer
ĠprÃ© v
ĠprÃ© al
ĠprÃ© fi
ĠprÃ© tend
ĠprÃ© occup
Ġpr it
Ġpr ouver
Ġpr enant
Ġan nee
Ġco ins
Ġco fond
um er
ĠCh inois
ĠCh auff
Ġdis per
Ġdis posi
Ġdis sipe
Ġce lebre
ig u
ig nes
ĠEn gine
ond it
Ġmo tive
Ġmo tiv
Ġtr ie
Ġtr istesse
ir ent
ir itu
ir landais
ĠK i
ĠK id
ĠK har
ĠK lin
ĠK amakura
Ġar me
Ġar gu
Ġar mÃ©es
Ġar omes
Ġar omatiques
Ġar rachent
iv rant
iv ardi
Ġcar res
Ġcar net
ĠÃī lÃ©ment
ĠÃī crit
ĠÃī thiopie
du le
du ctions
Ġ. .
ĠÃ©t roi
Ġcommun i
Ġcommun autÃ©
Ġfran co
Ġtu ent
Ġtu pper
Ġtu yaux
ĠÃ©g al
Ġapp are
Ġapp roche
Ġapp orter
Ġapp ropri
Ġav ances
19 20
19 28
uti le
uti ques
dÃ© partement
dÃ© tenue
Ġra ter
Ġra rement
ĠAr mÃ©e
ĠAr rondissements
ĠAr temis
semb les
ĠU S
ĠU l
Ġal lo
ĠFran k
ĠFran Ã§ois
ĠAl lo
ĠAl pha
entre fer
Ġton ner
ay a
Ġaux qu
ĠAn ouk
ĠAn cienne
ĠAn ubis
Ġme tier
Ġme ga
Ġme canisme
Ġfor tement
Ġfor cer
oy Ã©
ret ard
Ġac qui
Ġac cident
Ġac ronyme
Ġac ariens
Ġtra in
Ġtra ces
Ġtra jets
Ġinter nes
Ġinter ven
Ġinter vient
Ġinter loc
la Ã§ant
ĠgÃ© ant
ĠgÃ© nies
ĠgÃ© ographique
Ġi dÃ©e
ing h
ing Ã©nieur
th Ã©tiques
use ment
Ġph ares
Ġph onÃ©tique
Ġcour tes
Ġcour ante
Ġcour ses
he d
he im
ĠIn c
ĠIn f
ĠIn ten
ĠIn tel
ĠIn stitut
ĠIn nov
ĠIn ternet
ĠIn donÃ©sie
ĠIn secte
ob an
ob al
ob jets
Ġpre fe
Ġpre pare
Ġpre parer
cip iendaire
ad op
ad jectif
ad ministration
omm Ã©e
od ologie
od oro
cu p
Ã´ m
Ã´ ts
ec rans
ĠPar c
ĠPar mentier
ĠmÃ© tra
ĠmÃ© tal
Ġfin ale
Ġcons ult
Ġcons cience
Ġ18 50
Ġ18 53
Ġpuis se
Ġ3 1
Ġ3 5
Ġ3 50
onn ie
onn erie
tic s
Ġses sions
rop ro
Ġim mense
Ġser ie
Ġser ies
Ġser rures
Ġmar ine
Ġmar Ã©es
Ġmar quÃ©
Ġmar chant
Ġmar athon
Ġk i
Ġk ir
ĠgÃ©nÃ© rique
Ġor ange
Ġor chest
Ġrep ond
Ġrep roche
Ġcol ons
tra tions
tra per
Ġdire cte
ver be
ari an
its u
ise mb
Ġplan Ã¨te
ole e
int ro
int aines
iss ait
oit ou
ici ter
ici ens
all Ã¨
Ġcou l
Ġcou pes
Ġcou per
Ġcou lent
Ġam ertume
Ġmin ute
Ġmin eraux
ite cte
els on
ĠdÃ©c ret
ĠdÃ©c rire
ĠdÃ©c ouvre
ĠdÃ©c ouvreur
ĠdÃ©c lare
ĠdÃ©c isions
ĠdÃ©c ennies
tr Ãªme
alis er
alis Ã©e
po int
Ġad j
Ġad met
Ġad mire
Ġsouv ient
omb ent
omb oniste
ograph e
ill ac
ill ages
acc orde
acc ompag
ĠAm Ã©ric
Ġbou che
Ġbou tiques
Ġbou gent
Ġbou illie
Ġbou teille
Ġmom ies
Ġprodu cteur
ante d
Ġcl ap
Ġcl oche
Ġcas que
Ġcas ses
ĠDe v
ĠDe hors
Ġcoince es
Ġver res
Ġsec s
Ġsec rÃ©taire
Ġsec urite
Ġsec oue
ĠcrÃ© ne
id enti
Ġro bin
Ġmil ieux
Ġrec oit
Ġrec oud
Ġrec ours
Ġrec oivent
oli tion
Ġcompr is
Ġsou pe
Ġsou lagement
ĠRe cher
ĠRe gle
Ã©t ym
Ġcor nes
Ġfil tre
Ġfil antes
Ġexp ose
Ġexp ress
Ġexp ression
Ġexp lore
Ġexp ulsion
Ġimp osee
Ġcer ises
Ġpers o
Ġperm Ã©
Ġmet s
Ġmet taient
stru cture
fi ces
Ġcap taient
Ġnorm ale
Ġnorm alement
Ġnorm alis
amp oing
aÃ¯ d
Ġpri vÃ©
Ġpri vÃ©e
Ġat trape
Ġdiv an
ĠMe illeures
ler ent
Ġma xi
Ġman que
ĠÃ©c rire
ĠÃ©c rite
ĠÃ©c lat
20 13
Ġtrans vers
Ġass urer
Ġass aisonne
Ġass istants
entra iner
Ġpays ans
ĠCol lÃ¨ge
vel u
ĠQ e
Ġtour is
Ġtour nes
Ġri v
Ġri ve
Ġri vier
Ġri dicu
Ġmont es
Ġche min
Ġche velu
ex Ã©cu
ex terieur
Ġsig ne
Ġreg ne
cis se
Ġord onne
ĠdÃ©fin issent
Ġacc us
Ġacc usatif
Ġacc ords
Ġinternation aux
ĠdiffÃ©r ence
ĠdiffÃ©r ences
av ait
Ġder rie
Ġder riÃ¨re
ud o
Ġaut rich
Ġtrav a
ke y
Ġper ds
Ġper fe
Ġper ime
Ã¢te au
Ġag rÃ©
Ġag gra
Ġag itaient
Ġag ressifs
Ġvois ins
Ġenc orb
Ġ198 1
Ġali ment
Ġfond re
Ġfond er
Ġfond ation
Ġbi ologie
Ġbi ographie
ĠMar ine
lu ence
Ã©li ens
ĠCar te
ĠCar aÃ¯
ĠCar Ã©lien
ĠCar oline
Ġsoci ale
Ġsoci aux
Ġsoci aliste
Ġpouv ait
Ġnouv el
Ġchat on
Ġren aissance
Ġ196 1
tiv itÃ©s
ori ale
ori entation
be hs
ser v
ser ver
ane mar
tie re
ĠCon f
ĠCon cept
Ġchar gÃ©s
Ġsuc res
CI I
vis Ã©e
ĠPro fesseur
Ġappar ues
Ġappar tient
Ġappar aissent
Ġouv res
Ġop Ã©ration
Ġop position
Ġinc or
Ġinc rev
Ġinc ertitude
An tiquitÃ©
Ġgra tte
Ġgra ppe
Ġ5 5
Ġdom es
Ġli miter
ĠthÃ©or ique
ĠBas e
Ġsigni fication
Ġsigni fier
Ġas pire
Ġas piration
Ġas tÃ©roÃ¯de
Ġas pects
Ġbar que
Ġbar onnie
Ġgouver nements
Ġpersonn ages
Ã¯ vodie
Ġdur cisse
Ġloc alitÃ©
Ã©nÃ© gal
Ġfa veur
Ġdess ert
Ġdess iner
Ġdess erts
Ġrest rictions
em mental
Ġsol aires
Ġfer a
Ġfer ment
Ġfer ies
Ġfer tilis
aume illant
Ġgen res
Ã©lÃ© ment
Ġban ane
Ġban cs
Ġcompos ent
Ġroy aux
Ġ" (
Ġ" )
Ġ" }"
Ġ" ;"
Ġw eb
Ġw hom
yl ene
Ġiss ue
Ġprote ctions
Ġprote ger
Ġdou che
Ġdou dou
arch itecte
ĠÃ©tu de
Ġrel ance
do ade
Ġlar me
ĠspÃ©ci fication
ĠspÃ©ci fications
ĠspÃ©ci fiques
Ġap aise
Ġconst ance
ĠSh ampoing
cer otte
Ġpat auge
Ġmic ros
Ġtant Åį
ĠMi ridae
Ġec ran
Ġec rit
Ġec rans
Ġec rire
Ġec late
Ġec outant
ĠrÃ©p ert
ox yd
Ġsal ari
Ġmer es
Ġtomb es
iere r
ĠAh o
ĠSt an
Ġ195 3
Ġ195 4
Ġ195 7
Ġ195 8
Ġgrand issant
accord s
eff ic
eff acent
Ġten ir
Ġni pp
Ġindi que
Ġindi ce
Ġconstitu ent
Ġconstitu tion
Ġcoup le
Ġarrive e
Ġfr Ã¨res
ĠLang age
ĠCan didat
Ġsymb olis
ks wag
Ġtable ttes
Ġju illet
ĠrÃ©s olution
ĠrÃ©s istance
ĠrÃ¨ gle
Ġsau cerotte
Ġvais seaux
ili ers
ĠdÃ©f end
ĠdÃ©f ensif
Ġins pi
Ġsecond aires
yd os
Ġdist ances
Ġaff lue
indi ction
Ġconf ond
Ġplu vieux
Ġref lete
ĠsiÃ¨ cles
Ġ194 7
Ġ194 8
imp os
lin aison
Ġcent aine
Ġcent rifu
Ġrou git
Ġz Ã©ro
Ġz ero
Ġis omor
Ġis olee
Ġdoc trines
ĠlÃ©g ende
Ġmol Ã©
ores c
ĠAb el
ĠAb rÃ©viation
ĠAb dal
Ġann uelles
Ġimport ance
avi on
co ol
cri pt
gl ent
gl as
if old
tal ie
Ġent ends
Ġple ut
Ġple urent
Ġple urer
Ġbr Ã»
Ġbr illante
Ġbr unit
ĠprÃ©s entiel
ĠprÃ©sent es
ĠprÃ©sent Ã©es
ow n
Ġ7 0
Ġpublic s
Ġmag ie
Ġfra pp
uss ure
Ġcad ran
Ġcad rans
ĠfaÃ§ ade
Ġth er
Ġth erm
Ġth Ã¨me
Ġtri er
Ġtri fas
Ġcont agieux
ĠSa oud
ĠSa ussure
Ġess uie
ĠdÃ©sign ait
ĠpÃ©ri ph
Ġcin quiÃ¨me
Ġmain tenant
ĠSe khmet
Ġconcentra ient
lam me
Ġcan a
Ġcan ape
Ġcan opes
Ġsc ope
ĠAp res
ĠAp riÃ¨s
ĠTe f
Ġ193 0
Ġchauff es
Ġchauff er
Ġchauff ee
Ġsp asme
Ġsp iritu
Ġcomb in
Ġcomb ats
ĠÃ©le vÃ©e
ĠSi x
ĠSi wa
ĠBel ron
ĠMan que
ĠMan ifold
âĢ¦ ),
âĢ¦ ).
Ġsaou dien
198 0
198 9
Ġcolle ction
Ġnouveau tes
Ġpom odoro
Ġsh annon
Ġbois sons
ĠSy rie
Ġ16 83
Ġchamp agne
ĠMa Ã¢t
ĠMa illard
ĠJoh ann
Ġcote aux
ov a
ry males
Ġsour ire
Ġdeg rÃ©
Ġdeg rader
Ġdeg ivrant
ĠDÃ© partement
ĠDÃ© veloppe
app lique
app roche
Ġdirect s
Ġmetal liques
Ġmani p
ËĪ ÉĽ
áĪ ³
Ġel li
Ġel astique
Ġci ment
Ġlatin s
Ġbour se
Ġbour geois
Ġchinois es
Ġsty lo
Ġsty let
Ġstat ue
Ġcolon ie
Ġcolon nes
Ġcolon isation
Ġpi zz
Ġpi geons
Ġpor ter
Ġno tion
Ġno ter
Ġno tifs
ĠAut or
ĠBe fore
ĠBe mbidi
ĠBl ue
Ġja unit
Ġja unissent
ĠMont ou
ĠOu tre
ĠOu pou
ĠOu vrages
Ġposs Ã©d
Ġdroi tiere
Ġcli m
Ġcli ents
omÃ¨ nes
Ġvic time
Ġbac tÃ©ri
Ġgr illÃ©
Ġgau chers
Ġreve le
199 0
199 4
Ġphot o
Ġphot ons
Ġterrit oriale
ĠmÃ©di ane
ĠmÃ©di atis
II Ie
jou eurs
Ġdec rocher
Ġdec ouvrir
Ġdec lenche
Ġdec alee
ĠComm ission
Ġgout s
Ġgout tes
Ġconse iller
ĠDi rige
ĠdÃ©ci de
ĠprÃ©f Ã¨re
Ġappr ends
Ġparticip Ã©
ĠáĪ °
Ġfinnois e
car nation
Ġspe ed
Ġmur is
Ġmur issent
Ġfai m
Ġfati guent
rat ation
rat chia
ĠLou xor
Ġret ardes
Ġret ombent
Ġ190 3
Ġ190 4
197 3
197 6
Ġress orts
ĠdÃ©fini tivement
din et
din and
Ġpu ce
Ġpu its
tiqu aire
Ġfre re
Ġfre res
Ġfre donn
Ġbon jour
Ġgard es
Ġgard ait
Ġchi ant
ĠáĬ ķáĮ
Ġmel ange
Ġmel anger
Ġmel aton
orat oires
Ġemp Ãª
Ġemp ortant
Ġemp reintes
Ġstru ctur
Ġsuff rage
190 4
Ġ189 4
Ġven usta
Ġenti ers
Ġenti Ã¨rement
sib les
ĠMus icien
196 8
196 9
ĠUni vers
Ġmange ant
Ġmange oire
Ġliber te
Ġliber ent
Ġpol y
Ġsale tÃ©
Ġaur a
inc linaison
Ġtop ologie
Ġtop onymes
Ġvo Ã¯vodie
Ġryth mÃ©
Ġryth mique
Ġmole cules
Ġtrou pes
Ġconser ve
Ġconser ver
Ġtransp ire
Ġpropre ment
ĠsÃ©par Ã©s
eth ylene
Ġtyp ologie
Ġtyp iques
Ġvas e
Ġvas tes
ĠCal ypso
ĠPer sei
ĠPrÃ© nom
ĠPrÃ© sentation
ĠSu p
ĠSte phen
ĠSch ivardi
Ġ100 0
Ġrus er
Ġpronon ce
Ġtrouv ent
Ġactu el
Ġactu elles
Ġactu els
Ġactu ellement
ĠmÃ©de cin
ĠnÃ©erlandais e
Ġcharge e
Ġciv ils
ĠLib rairie
Ġlesqu elles
ĠCert aines
ĠÃ©lÃ©ment aire
ĠÃ©lÃ©ment aires
ĠSau f
ĠSau di
Ġinv ites
Ġrond s
Ġrond es
ĠJac kson
Ġmodi fication
Ġmodi fiÃ©e
Ġforte resses
Ġsys teme
Ġoccident al
ĠlittÃ©ra ire
ĠTechn ologie
ĠfrÃ©qu ente
cks ieck
Ġcuis son
Ġunivers el
Ġunivers itaires
aly tique
ĠCons ole
ĠCons titution
Ġremp lace
Ġchois ir
ĠMÃ© moires
Ġher bes
Ġvide o
Ġrat trape
Ġrat traper
Ġ300 0
Ġ300 00
Ġ300 000
Ġadop tÃ©es
ĠnÃ©cess aires
ĠMarc el
Ġprofessionn el
ha ustive
Ġclig ne
Ġdevi endra
Ġbran ches
Ġblo quent
Ġconte mpor
Ġemb ry
Ġhistor ien
Ġtemp erature
ĠmÃ©th odologie
Ġ187 8
Ġ187 9
Ġcrev aison
Ġaccompag nÃ©e
ĠopÃ©ra tionnel
Ġfix es
Ġgene tique
evap orant
ech appe
rom ag
su ffixe
ĠÅ Ĵu
Ġcui r
Ġfen niques
ĠAc c
Ġbal ance
Ġbal ade
ĠPat rimoine
ĠrÃ©f lexion
Ġcommen cÃ©
mod ation
ĠKe k
ĠexpÃ©ri ences
Ġlumin osi
Ġexclus if
ES A
Is is
Ġpa use
Ġpa quets
Ġmang a
Ġfour rure
rag me
ray ures
ĠdestinÃ© s
ĠCl assification
Ġbo f
Ġbo xe
ĠÃ©n orme
ĠÃ©n ergie
ĠBus ter
ĠMo ins
Ġsemb lables
Ġru che
Ġdirig er
Ġfortif ication
Ġirak ienne
Ġrencont re
Ġrencont rent
Ġphyt osan
ĠÃ©tudi ants
Ġir ritant
Ġdor mir
Ġsout Ã¨nement
ĠLab s
ĠLab oratoires
ĠÃ©vi ter
ĠTur ing
Ġrem uage
Ġrem uent
ĠrÃ©par tit
appar ition
ouss ierer
ĠprÃ©cÃ© dÃ©
ĠprÃ©cÃ© dent
Ġcarre e
Ġcarre es
Ġappli quÃ©es
Ġidenti ques
ĠphÃ©n omÃ¨nes
Ġconsomm ation
Ġconsomm ateurs
Ġcoupe e
ĠabrÃ© gÃ©e
Ġpropos Ã©es
Ġgras se
ĠdÃ©cim ale
Ġorigin aux
ĠĠĠĠĠĠĠĠĠĠĠĠ Ġ
humi difier
Ġpois on
Ġaig re
Ġaig uise
Ġaig uilles
Ġlev ain
Ġflot tant
Ġvoc ales
ĠLig ht
ĠLond on
Ġnavi re
Ġnavi res
Ġnavi gateur
ĠCant on
Ġbes oins
ĠSci ence
ĠBo oks
Ġplac Ã©
Ġetern el
Ġris que
Ġronron ne
Ġronron nent
Ġhalog Ã¨nes
Ã©rant o
Ġpose es
Ġcafe ine
ĠChÃ¢te aumeillant
Ġdispar ition
Ġral entit
Ġacce lerent
186 8
Ġreconn aissance
Ġatti rent
Ġtransform ateur
Ġeffec tu
Ġeffec tivement
Ġfriss on
Ġmajor ite
Ġgele e
Ġstabilis er
Ġstabilis ent
Ġstabilis ateur
ide es
Ġcit oyen
Ġcos y
Ġcrist allis
Ġtom ate
Ġtom ates
ĠCli mat
ĠdÃ©riv Ã©es
Ġretra cte
ĠGÃ© ographie
ĠVol kswag
Ġstock er
Ġdisc ret
Ġ184 3
Ġrepro ches
oxy gene
... ).
Ġcroy ait
Ġcroy ance
import ance
ĠGeor ge
Ġrange ment
Ġinflu en
CO D
á¸ ¥
á¸ «
Ġflam ants
Ġvin aigre
Ġvin yles
ĠnÃ©g atif
ĠPi ke
ĠPlan Ã¨te
ĠTit ulature
ĠrÃ©si dence
amer tume
ĠVi ol
Ġpod cast
Ġexac tement
ĠChris tian
Ġcollabor ation
187 6
Ġatta che
Ġtranspar ent
Ġregard ant
Ġtravaille r
ĠConst antin
Ġgratu its
Ġlocalis es
Ġlocalis er
ilber tien
ĠspÃ©cifique ment
tellig ence
ĠantÃ©rie ures
Ġanthrop ologue
Ġretrouv Ã©
ĠÃ©trang ers
ĠÃ©trang Ã¨re
Ã¼ r
Ġital ien
Ġoign ons
Ġpiv ote
Ġpiv oter
Ġtro ff
ĠCap it
ĠComp te
Ġgam me
Ġgam mes
att ribut
ĠBoy s
ĠBoy z
ĠMel ody
Ġho chent
Ġho quet
Ġhar mon
Ġvib rent
Ġvib ratoire
sembl age
ĠdÃ©clin aisons
Ġfili ale
Ġfili ales
Ġrenouv elle
Ġoppos Ã©
Ġoppos Ã©e
ĠtÃ©lÃ©ph ones
ĠtÃ©lÃ©ph onie
ĠbÃ¢ti ments
Ġdot Ã©
Ġpet rit
Ġpet rissent
Ġpince e
Ġcra tÃ¨re
Ġsent ent
Ġsoi ent
Ġdecis ion
Ġdecis ions
Ġmeu gle
Ġmeu glent
Ġfou illes
Ġfui ent
Ġquin ze
ĠLamb ert
Ġbe bes
Ġbu vait
Ġball on
Ġball ons
Ġbaille r
Ġparait re
ĠPan el
ĠBon apar
ĠTak e
Ġred ressement
Ġchant ant
Ġchap elle
Ġouver te
Ġouver ture
Ġemo tion
Ġemo tions
Ġrince e
ĠprocÃ© dÃ©
Ġhyd rate
ĠFour chue
ĠForm ule
Ġanne es
Ġdispon ibles
Ġtrin que
Ġtrin quant
Ġramen e
Ġramen ee
Ġ36 0
Ġmarch and
Ġpossib ilitÃ©s
Ġclaire ment
Ġvertic al
Ġdiffic ultÃ©
Ġride au
Ġride aux
Ġaccorde ur
ĠNebet Ã¢h
Ġlocu tions
ĠXX e
Ġzo os
Ġzo ologiste
ĠâĦ ĵ
Ġisol ation
Ġlaborat oire
Ġlaborat oires
Ġbourre let
Ġbourre lets
Ġpouss iere
Ġgrille es
Ġcherche urs
Ġcivilis ation
Ġcivilis ations
ĠÃ©tablis sements
Ġratta chent
Ġassimil Ã©
Ġpersonni fication
Ġlo intaines
enf lamme
Ġsing ulier
Ġmass age
Ġtut o
Ġquoti dien
Ġence inte
ĠCyc les
Ġgri ffoir
Ġconfort able
ĠSat amon
ĠGÃ©nÃ© ra
Ġsurn ommÃ©
Ġproven ant
ĠFon ction
Ġox ygene
ĠprÃ©h ilbertien
Ġanti septiques
ĠUtilis ation
Ġconcurrent s
ĠconsÃ©qu ence
Ġboulanger ie
189 7
Ġsouter raines
Ã©gyp tien
Ġexempl aire
Ġcellu les
ĠÃ©lectron iques
Ġferme es
Ġdoub ler
Ġcircul ation
Ġpoign et
Ġconserv ation
ĠrÃ©comp ensÃ©
ĠGalli mard
Ġcoiff Ã©
Ġphytopharmace utiques
IRE N
bo ard
habit ation
Ġlie utenant
Ġpau vre
Ġsais i
Ġaim ants
Ġmous tiquaire
Ġlac rymales
urr ence
Ġts ar
Ġfol le
ĠLux embourg
Ġbras se
chlor ophy
Ġgui de
Ġguer rier
ĠÃ©qui pÃ©
ĠDor mir
ĠDÃ©m ocratie
ĠTaÃ¯ wan
Ġjuri dique
Ġreb ondit
Ġrede marrage
Ġrepe ter
Ġrepar tit
Ġev acue
ĠrÃ©pÃ© tition
ĠRet enir
Ġdipl om
Ġdigit ales
Ġhab itu
Ġhilber tienne
ĠVic tori
Ġanc etres
Ġannivers aires
ĠChron ologie
dÃ©c ouvreur
Ġcourbe e
Ġminor itaire
Ġador Ã©e
Ġrecons titu
ĠReprÃ© sentation
ĠimpÃ©ra trice
ennui es
Ġbizar res
Ġprofonde ur
ather ine
Ġdouce ment
ifor mia
Ġdiversi fication
ĠApollin aire
ĠOrganis me
ĠcatÃ©g ories
ĠÃ©quiv aut
ĠÅĮ ga
Ġprimordi al
Ġsouten ue
Ġdemand ait
Ġpoursui vre
UR SS
Ġlign ine
Ġpale tte
Ġpig ments
Ġcab ine
Ġcrit Ã¨res
Ġcris pent
Ġsil ence
ĠscÃ© n
Ġscis sion
Ġdet estent
Ġmou illee
Ġmare es
Ġtor sion
Ġtac tile
Ġtrib un
Ġtox ique
Ġfic tion
Ġfleu ve
Ġfronti Ã¨re
Ġvel o
Ġnage oires
ĠCamer oun
ĠPatin age
ĠSitu ation
Ġchor Ã©g
acti ver
Ġinven teur
Ġindis pens
Ġegyp tiennes
ĠJÃ©r usalem
ĠFah d
ĠFoot ball
ĠFilm ographie
Ġtetra podes
ĠprÃ©dÃ© cesseur
Ġsug g
mole cules
ĠInstitu te
Ã´s is
tsk iste
Ġressembl ait
Ã©criv ain
Ġamor tissent
ĠdÃ©coup age
accom modation
accro chent
ĠDep oussierer
Ġrecomp ense
ĠrÃ©gu liÃ¨re
Ġmanif est
Ġcell ulaire
Ġvieillis sant
Ġeffic ace
ĠXV IIIe
Ġsymbol ise
Ġâī ¡
ĠdÃ©sin ence
Ġcontro lee
Ġessuy ee
ollyw ood
ĠAdj arian
Ġfabri quent
Ġvect oriel
ĠampÃ¨remÃ©t rique
ĠCliff ord
Ġconjoin tement
ĠLittÃ©ra ture
ĠlÃ©gisl atives
Ġobsc urite
ĠmÃ¢ch icoulis
Ġviennois erie
Camp tob
IEE E
INR IA
Tut tle
UNES CO
emo tion
hit hÃ©Ã¢tre
jut su
morce aux
vaisse aux
Ġdres ser
Ġdop amine
Ġlot us
enregist rer
Ġpier res
Ġpyra mides
Ġcog nait
Ġcesse z
Ġcoccinelli dÃ©s
Ġste ak
Ġsie cles
Ġserm onner
Ġspr int
Ġsocie te
Ġdete cte
Ġdelic ieuse
ĠaÃ©ron autique
indÃ© pendance
arra che
Ġmau vais
Ġmouve ments
Ġmuc us
Ġlamber tiste
Ġfel iciter
Ġfiss uraient
Ġflo w
Ġfume e
Ġdesam orce
Ġdeshyd ratation
ĠClo cher
ĠCompag nie
ĠCoccinelli dae
ĠAVAN T
ĠPenn y
ĠPoin tilles
Ġgron de
Ġgru meaux
atmos phere
Ġcongel ation
ĠStres s
ĠSwi ft
ĠSouff ler
ĠEchar pe
ĠBlais e
ĠDab keh
ĠDesh ima
ĠTits ingh
ĠTiy i
Ġrege le
Ġrevis er
Ġreuss ites
Ġrejou e
Ġrecupe re
Ġrechauff er
ĠMoh ammed
Ġintr us
Ġinser tion
Ġinoff ensif
Ġintelle ctu
Ġelect rons
Ġepis odes
Ġsimil aires
ĠRoule r
Ġrum ine
Ġrari fie
Ġdiaph ragme
Ġhume ur
ammi fÃ¨res
amid on
ĠFore z
ĠOtt omans
Ġstyl os
Ġstagn ante
ĠChauff ee
Ġdisper se
Ġdisposi tif
Ġcelebre r
Ġmotiv ation
ĠKlin cksieck
ĠÃīcrit ure
Ġtupper ware
Ġtonner re
ĠAnouk is
Ġinterloc u
ĠInten tions
ĠInnov ation
Ġprefe re
accompag nement
Ġrobin et
Ã©tym ologie
Ġrivier es
Ġridicu lement
Ġderrie re
Ġautrich ien
Ġperfe ction
Ġaggra vent
Ġencorb ellement
anemar k
Ġincrev ables
Ġpatauge oire
Ġsaucerotte i
Ġcentrifu ge
ĠAbdal lah
Ġtrifas ci
Ġpizz as
ĠBembidi on
Ġdeclenche urs
ĠDirige ants
Ġfredonn ons
ĠáĬķáĮ īáĪ
Ġmelaton ine
ĠPersei des
Ġluminosi te
Ġcristallis er
ĠVolkswag en
ĠConstantin ople
ĠBonapar te
chlorophy lle
ĠVictori a
Camptob rochis
ĠĠĠĠĠĠĠĠ Ġ
Ġ% ,
ĠĠĠĠĠĠĠĠĠĠĠĠ ĠĠ
ĠĠĠĠĠĠĠĠĠĠĠĠ ĠĠĠ
' t
) ).
/ -
3 2
3 8
3 53
4 0
4 7
5 9
5 26
7 2
8 1
9 8
A R
A mi
A SI
A khenaton
A TA
A quit
B e
B onn
B lan
B retagne
C L
C R
C ar
C al
C at
C ic
C yr
C Ã´te
D on
D ou
D RE
E P
E r
E s
F innois
G I
G u
G ar
H e
H en
H aut
H athor
H Ã©tÃ©roptÃ¨res
I l
I w
I rish
L T
L a
L e
L oire
L erma
M A
M in
M arie
O C
O s
P I
P h
P OI
S D
S E
S CII
S cript
T S
T ouch
U C
U E
V allÃ©e
W e
Y T
Y SE
Z Ã©
Z eus
a un
a ter
a ac
a di
a os
a der
a chi
a uss
a venir
b ur
b ad
b ox
b ourne
c ou
c ie
c tÃ©
c um
c ad
c ore
c ane
c Ã¨de
c ross
c opie
c roix
d ra
d ences
d its
d iss
d Ã¨rent
d ats
d dim
e k
e mpire
f ert
f ire
f roi
f actif
f ood
g s
g ag
g ate
g Ã©m
g arde
g oure
g orie
h ard
i ve
i ter
i ers
i Ã©s
i tis
i pel
j en
j is
j or
k le
k al
k ate
k ins
k raine
k ulu
l op
l ait
l os
l age
l Ã©s
l ations
l ass
m y
m un
m ur
m as
m out
m ing
m ak
m ocra
m Ãªmes
m Ã´sis
n y
n el
n ai
n ique
n aires
o a
o tique
o ver
o quÃ©
o Ã«
p in
p oi
p se
p oul
p endu
p Ã¨des
q q
r ar
r ine
r uire
r ington
s ol
s ch
s ans
s ter
s ine
s auf
s ouvent
t our
t ot
t os
t rois
t ries
t ribut
u Ã©
u mp
u di
u tÃ©
u ff
u vi
u ler
u Ã©tude
v us
v il
v ain
v ic
v ang
v ong
v rier
x is
x ville
y g
y Ã©
y st
y enne
y cle
z ation
z ay
z erain
z gin
z hou
· ŀ
Ä į
Ä Ŀ
Å ĭ
Å ĳ
É ª
Ê ¾
Î ±
Î ½
Ï ģ
× ĳ
× Ķ
à §
å ·ŀ
Ġ #
Ġ >
Ġ Î
Ġ ot
Ġ ois
Ġ uti
Ġ ä¸Ģ
Ġ ÉĻs
ĥ áĪ
ķ áī
es ti
Ġd en
Ġd Ã»
Ġd unes
Ġl u
Ġl ou
Ġl is
Ġl us
Ġl ine
Ġl ux
Ã© en
Ã© le
Ã© ne
Ã© di
Ã© ni
Ã© min
Ã© ros
Ã© rÃ©es
Ã© laboration
en v
en tin
on ais
on nÃ©
on ji
Ġp in
Ġp Ã¨
Ġp ure
Ġp Ã¢
Ġp all
Ġp are
Ġp uri
Ġp seudonyme
Ġc ot
Ġc ouv
Ġc ub
Ġc ible
an z
an um
an tique
an nÃ©es
Ġs ti
Ġs ph
Ġs omm
Ġs able
Ġs ophis
Ġs atur
Ġs Ã¥
ou i
ou z
ou li
ou illac
ti nes
ti Ã¨me
ti nÃ©es
ti cien
re f
re l
is c
is ant
is Ã©es
qu ait
qu ad
qu ateur
te e
te pet
Ġa z
Ġa che
Ġa mÃ©
Ġa Ã©rop
Ġa jus
Ġa chet
Ġa fric
Ġa oÃ»t
in de
in dre
in rich
in fini
in telligence
le ctions
le dge
er ne
er se
er vi
er ies
ent aine
ent Ã´t
ar o
ar r
ar in
ar ous
ar ad
ar ah
ar rondissement
ar acte
et t
et Ã©
Ġm ul
Ġm ors
Ġm Ã¨res
Ġm oul
Ġm Ã¥
Ġm aÃ®tr
Ġm yri
Ġm ammifÃ¨res
un s
or on
or is
or ien
or ail
or hod
Ġle ver
om on
om at
om ologiste
om tous
om achi
it ra
it anie
it tee
ur c
ur able
ur seur
Ġt ent
Ġt est
Ġt au
Ġt ribu
Ġt Ã´t
Ġt atou
Ġt urc
Ġf al
Ġf as
Ġf ant
Ġf os
Ġf lor
Ġf Ãªtes
us h
us cule
oi ent
ra tique
ra tions
ra kawa
Ġdes ign
Ġdes tinÃ©es
Ġv ou
Ġv ins
Ġv entra
Ġv oud
Ġv ulg
il it
Ġen vi
Ġen sembles
ĠL u
ĠL or
ĠL au
ĠL ac
ĠL ouv
ĠL Ãł
ĠL ud
ĠL over
ĠL arous
our ce
Ġn ain
Ġn ig
Ġn uc
Ġn ordi
el k
el ais
al an
al ie
al li
al ors
al th
al let
as p
as te
as ions
as semblage
ĠC P
ĠC ond
ĠC Ã´
ĠC ole
ĠC onne
ĠC ote
ĠC rÃ©s
ĠC oura
ĠC yr
ĠC Ã´te
ĠC atherine
ie uses
ie ber
me ub
me yer
ment o
ment y
Ã¨ ques
ĠA B
ĠA T
ĠA ra
ĠA mp
ĠA mb
ĠA pe
ĠA ir
ĠA vent
ĠA be
ĠA vis
ĠA mÃ©n
ĠA kihabara
ĠA nec
ĠA MP
ĠA ix
ĠA SCII
Ġdu e
Ġdu o
rÃ© hen
Ġb en
Ġb les
Ġb ab
Ġb ap
Ġb ir
Ġb rou
Ġb elles
Ġb ateau
Ġb rÃ©sil
Ġb Ã©lier
au mes
au teurs
au gu
ro c
ro te
ro its
ro car
ri k
ri en
ri de
ri ps
ri mÃ©e
ol k
ol as
ch t
ch ain
si ves
Ġpar u
Ġpar lement
Ġpar cs
Ġpar lÃ©e
Ġpar cour
ne cter
se pt
ans le
ĠP J
ĠP oi
ĠP au
ĠP ens
ĠP sion
ĠP ress
ĠP alais
ĠP riv
ĠP resses
ĠP owe
ĠP ouvoir
ĠP oitou
Ġg al
Ġg ens
Ġg Ã¨re
Ġg all
li a
li ance
li gn
li ade
li zz
ĠÃ© l
ĠÃ© po
ĠÃ© vÃ©nement
ĠÃ© mettre
ĠÃ© phÃ©m
at z
at re
at traction
mp li
Ġest onien
Ġcon ven
Ġcon vention
Ġcon tenir
Ġcon dam
Ġcon necter
ĠS in
ĠS or
ĠS eu
ĠS ai
ĠS ot
ĠS ul
ĠS um
ĠS par
ĠS tat
ĠS cip
ĠS id
ĠS Ã©g
ĠS yl
ĠS atis
ĠS orb
ĠS ovi
ĠS obe
ĠS tudio
ĠS Ã©nÃ©gal
Ġau gus
Ġau paravant
eu mann
ĠE m
ĠE ure
ĠE gyp
ĠE ug
Ġ1 20
Ġ1 17
Ġ1 12
ai gn
ĠB M
ĠB y
ĠB Ã©
ĠB ron
ĠB lan
ĠB all
ĠB ah
ĠB erg
ĠB ros
ĠB rad
ĠB CE
ĠB ulg
ĠB retagne
ĠB rÃ©sil
ĠB rÃ©al
ĠB lizz
ĠD L
ĠD h
ĠD ie
ĠD ieux
ĠD oun
ĠD roit
ĠD IREN
ĠD anemark
Ġpl age
Ġpl um
Ġpl astiques
ag ran
ag Ã©e
ag ir
ag ore
ag ner
ag oniste
de o
de p
de venu
ci lement
ĠT H
ĠT J
ĠT au
ĠT ri
ĠT at
ĠT ous
ĠT im
ĠT able
ĠT Ã¡
ĠT ime
ĠT rav
ĠT oshi
Ġpour raient
ter restre
Ġj et
Ġ? ).
ĠdÃ© duit
ĠdÃ© nom
ĠdÃ© pl
Ġre dÃ©
Ġre prise
Ġre prises
Ġre levant
Ġre pris
Ġch ance
Ġch ien
Ġch aÃ®
Ġch anti
Ġch lor
Ġch aos
ĠM ag
ĠM ain
ĠM ir
ĠM od
ĠM ong
ĠM id
ĠM alais
ĠM ats
ĠM aison
ĠM itt
ĠM Ã©rite
ac er
ac itÃ©s
ac tive
ac ulaire
ac quis
ac tÃ©ries
ran d
ran ce
ran ch
ran ge
ĠI V
ĠI ne
ĠI denti
ĠI II
ĠI RA
ĠI ousa
ĠI talie
Ġin duit
Ġin sectes
Ġin nov
Ġin gÃ©nieur
Ġe mpire
Ġdans es
ot Ã©lÃ©
ot to
di le
Ġsi re
Ġsi mples
Ġsi mpli
tÃ© rix
tÃ© matique
ĠG U
ĠG X
ĠG i
ĠG rou
ĠG ule
ĠG rim
ĠG usta
ĠG alerie
itÃ© e
itÃ© es
ĠN R
ĠN y
ĠN or
ĠN au
ĠN am
ĠN ome
ĠN orin
ĠN atum
ĠN arita
ĠN elson
ĠN eumann
ab li
og a
og h
og Ã©
og le
og Ã©e
og ut
og Ã©nÃ©
og ly
Ġse ize
op ak
op Ã©ra
op sine
op rote
ĠrÃ© di
ĠrÃ© cip
ĠrÃ© alitÃ©
ĠrÃ© vÃ©
ĠrÃ© alisation
ĠrÃ© uss
ĠrÃ© actif
ĠrÃ© actions
ĠrÃ© tention
ĠrÃ© alise
ĠR oi
ĠR Ã¨
ĠR ic
ĠR out
ĠR ies
ĠR ug
ĠR ock
ĠR oug
ĠR SS
ĠR ouge
ait Åį
ff er
Ġsur ve
Ġsur venu
Ġr ur
Ġr Ãª
Ġr ural
Ġdi alog
Ġpro duis
ul is
ul tats
ul tÃ©s
Ġh on
Ġh al
Ġh Ã©r
Ġh im
Ġh ard
Ġh Ã¢
Ġh Ã´
Ġh ier
Ġh ourd
Ġh Ã©tÃ©roptÃ¨res
Ġque m
ge h
am u
am ique
am Ã©ric
am Ã©n
am usant
am kulu
am ming
os itÃ©
os tique
os co
ĠJ an
ĠJ ay
ĠJ ourn
ĠJ erse
Ġ19 23
Ġ19 13
Ġ19 15
Ġ19 11
Ġ19 29
ĠH ol
ĠH ons
ĠH ors
ĠH yp
ĠH erm
ĠH istor
ĠH ann
ĠH ach
ĠH aye
ĠH ratchia
ĠV en
ĠV end
ĠV ous
ĠV iv
ĠV ari
ĠV oix
ĠV II
ĠV ars
ĠV inc
oc ycle
ĠF F
ĠF el
ĠF ut
ĠF Ã©li
ĠF orce
ĠF ira
ĠF uk
ap s
ap in
ap hes
ap prend
Ġ2 4
ces sion
ouv Ã©
Ã©r itÃ©
Ã©r ieurs
ĠLe zgin
ĠO c
ĠO ct
ĠO use
ĠO ccident
ati e
ist Ã¨re
ic ago
st ab
che v
che ur
che cs
vi d
vi ennent
Ġst ars
age d
ni en
ni Ã¨re
ni Ã¨res
pp opot
Ġpo che
Ġpo terne
ort a
ous es
mi es
mi au
mi tique
ĠW il
ĠW est
ĠW al
ĠW ord
ĠW ak
ĠW agner
ĠW amkulu
Ġvi v
Ġcomp li
ph ique
ph onie
ph ica
out h
Ã§ a
Ã§ ons
Ã§ onnerie
Ġsa Ã¯
nes s
oir s
ĠIl lus
Ġex am
Ġex tÃ©rieures
Ġex haustive
Ġ20 22
ĠprÃ© fe
ĠprÃ© pond
ĠprÃ© vue
ĠprÃ© venir
ĠprÃ© parer
lis Ã©e
Ġpr ises
Ġan ge
Ġco hÃ©r
Ġco chen
Ġco dÃ©couvreur
Ġco vid
ut on
ut ane
um ique
Ãª que
Ãª che
ĠCh e
ĠCh ou
ĠCh im
ĠCh ev
ĠCh iy
ĠCh icago
Ġson des
Ġson ores
Ġdis s
Ġdis quette
ĠLa os
Ġce inture
ig es
ig an
ig er
ig ion
ct ural
ĠEn viron
ond ation
Ġmo ine
Ġmo let
Ġmo indre
Ġtr entaine
ir t
ir its
Ġsu pr
Ġsu jets
Ġsu zerain
Ġmon Ã©taire
Ġmon gol
Ġmon orail
ĠK on
ĠK ai
ĠK ale
ĠK ap
ĠK he
ĠK are
ĠK lit
ĠK ick
ĠK atz
Ġar mÃ©e
Ġar tiste
iv itÃ©
Ġcar ib
Ġcar rÃ©s
Ġcar rÃ©e
Ġcar tÃ©si
ib et
Ã©ri el
ĠÃī cri
ĠÃī tienne
ĠÃī volution
ĠÃī lÃ©phantine
du ites
Ġ. ..
ĠÃ©t h
ĠÃ©t endu
Ġtu be
ance ment
ĠÃ©g ales
Ġapp elle
Ġapp areil
Ġapp ortÃ©es
19 2
19 58
19 22
19 50
19 14
fÃ©r ant
uti n
Ġra p
Ġra s
Ġra ce
Ġra cine
Ġra yon
tes te
ĠTu telle
Ġparti elle
Ġparti tif
ĠAr ent
ĠAr th
ĠAr ticle
ĠU ch
Ġal pha
Ġal phabet
Ġal liÃ©s
ĠFran z
ĠAl ph
ĠAl bert
âĶĢ âĶĲ
entre prise
entre prises
ay er
ay oshi
tin t
tin ger
ins titu
Ġaux iliaire
ub liques
ĠAn ti
ĠAn cien
ĠAn arch
bre u
ron ome
enti tÃ©s
enti fique
Ġfor cÃ©
oy a
oy e
oy er
Ġac te
Ġac teurs
Ġac cess
Ġac tives
Ġtra jet
Ġinter faces
ĠgÃ© min
ĠgÃ© rer
tat a
Ġi tinÃ©
Ġsy mp
Ġconc ours
Ġconc erts
Ġcour bes
Ġcour tines
tement s
Ġdon nant
he mati
he tepet
Ã¢ me
ĠIn s
ĠIn vent
ĠIn gÃ©nieur
ob tention
ob utane
od ge
od ore
cu ler
Ġutilis aient
Ġter ror
Ġter rains
âĶĢâĶĢ âĶĢâĶ¬
ĠPar k
ĠPar ts
ĠPar lement
ĠPar ry
ĠPar va
hÃ© gÃ©m
pr ing
Ġcons ole
Ġcons oli
Ġes cla
raph ies
Ġ18 25
lle r
vant s
Ġ3 7
Ġ3 25
onn Ã©e
onn iste
onn ing
Ġquel con
tic ulture
Ġim age
Ġim mob
Ġser ve
Ġser aient
tis Ã©
Ġmar ques
Ġmar ches
ten ait
Ġsui vre
ĠgÃ©nÃ© tique
ĠgÃ©nÃ© riques
Ġor aculaire
ak e
ak ers
Ġcol lÃ¨
Ġcol line
Ġcol lÃ¨ge
ae ffer
nis on
tra le
Ġdire ctif
mÃ© dia
ver sion
ari um
Ã©ra le
Ã©ra lisme
Ã©c lai
Ġpos ent
Ġpos it
ici al
Ġsac rÃ©s
all Ã¨le
az on
az iz
Ġam en
Ġam is
Ġmin oritÃ©
ĠgÃ©nÃ©ra les
ĠgÃ©nÃ©ra ux
ĠgÃ©nÃ©ra teur
ĠdÃ©c oule
tr y
Ãī lÃ©phantine
Ãī ducation
alis Ã©es
ong Ã©e
iff rement
po ints
ta ouy
onne ment
Ġti tul
omb e
ill s
acc ou
acc ent
acc omp
ĠAm Ã©riques
Ġbou gie
Ġbou illon
fic ateur
Ġprodu ites
18 94
ĠDe b
ĠDe mi
Ġver te
Ġsec teurs
Ġsec ours
ĠcrÃ© Ã©s
id o
Ġmil it
Ġrec ueil
oli ques
Ġab ou
Ġab ri
Ġab latif
Ġab aques
lic ation
Ġsou stra
lement ation
Ã©t ale
Ã©t ranger
Ġcor rup
Ġcor recte
Ġexp rimÃ©
Ġimp lique
Ġimp lant
Ġcer cle
anis ation
anis mes
esse urs
fi ce
Ġcap able
Ġnorm and
amp hithÃ©Ã¢tre
ĠAu tre
ĠAu paravant
aÃ¯ a
Ã©g orie
Ġmus Ã©es
Ġmus icien
Ġmus iciens
ĠDis tin
Ġpri me
Ġat out
Ġat tra
Ġat omes
ĠMe z
ĠMe di
ĠMe dal
Ġman qu
Ġman oir
ĠÃ©c ole
ĠÃ©c ologique
aiss ances
20 19
ah n
Ġtrans actions
Ġavant age
Ġass urÃ©
Ġass ume
Ġass ervi
entra tion
Ġvers ant
mati ques
Ġtour isme
Ġnot Ã©
Ġnot Ã©e
Ġnot ations
Ġnot ori
elon itis
Ġ197 4
Ġri ddim
Ġri goure
Ġche v
ĠUn itÃ©s
ex iste
ex ception
Ġmes urable
Ġsig nes
Ġreg rou
oph ones
enn ie
enn itÃ©
Ġcal mes
Ġcal if
Ġcal quÃ©e
Ġcal culer
cis sement
ĠdÃ©fin issant
Ġacc ol
Ġacc ueilli
Ã©n ie
Ã©n ouf
ĠdiffÃ©r ente
av ie
av Ã¨nement
assi f
Ġ6 9
ke ley
Ġconn aÃ®tre
Ġconn aissances
Ġcontin ent
but s
tionn aires
Ġper se
Ġvis ion
ass in
ass Ã©s
Ġ198 4
lÃ¨ ne
Ġ4 00
Ġport ables
Ġpoli ce
Ġpoli tic
Ġali mentation
Ġali mentaire
Ġfond s
ĠnÃ© anmoins
Ġbi ais
Ġbi osphÃ¨re
Ġbi entÃ´t
Ġbi ogÃ©
ĠMar ie
ĠMar che
ĠY u
ĠY as
ĠY ang
ĠY Ã©m
ĠY aga
ĠCar riÃ¨re
ĠCar niv
occ asion
Ġsoci ales
Ġsoci alistes
ĠreprÃ©sent ation
ĠreprÃ©sent Ã©s
ĠreprÃ©sent Ã©es
ĠreprÃ©sent ants
Ġpouv aient
ĠsÃ© pare
Ġchat te
Ġren ou
Ġren for
Ġ196 3
Ġ196 4
Ġ196 8
17 0
ka ou
uit y
kh bet
ines s
ros age
Ġappel Ã©es
Ġappel lation
ĠCon fÃ©rence
ĠCon vention
ĠÃ©lect r
ĠÃ©lect or
Ġ17 94
Ġchar te
Ġchar ges
yth m
rig uez
Ġsuc cesseur
Ġsuc cÃ¨de
CI PM
In de
In carnation
Ã©m at
ĠPro che
Ġappar u
Ġappar us
Ġappar ten
âĶĢâĶĢâĶĢâĶĢ âĶĢâĶĢâĶĢâĶĢâĶĢâĶĢ
exp Ã©ri
exp osition
Ġarri ver
Ġarri vÃ©
Ġarri vÃ©e
Ġop tiques
Uni x
Ġang lo
ĠfÃ© l
ĠfÃ© vrier
ĠdÃ©velop pent
Ġinc l
Ġinc ont
Ġinc omp
Ġinc endie
An ge
hi rakawa
Ġdom in
Ġli mite
ĠthÃ©or ies
Ġfi ches
Ġfi chi
ĠBas t
Ġsigni fic
Ġsigni fications
har ic
pi ce
Ġgaz elle
Ġjou Ã©
Ġjou ent
Ġjou ant
ĠrÃ©gion al
gu Ã©es
Ġdur able
Ġloc aux
Ġloc atif
Ġloc alisation
Ġfa usse
Ġfa cilement
Ġvie ille
Ġblan chi
Ġrest a
Ġlog e
Ġlog arith
ann ons
Ã³ bal
Ã©lÃ© ments
Ġroy ales
ĠĠĠĠĠĠĠĠ ĠĠĠĠĠĠĠĠ
Åį s
Ġw ak
Ġw ho
Ġw anted
Ġsuivant s
200 5
200 6
oum ois
Ġeff orts
Ġprote cteur
Ġparticu le
Ġparticu liers
ĠX ML
arch ipel
Ġrel ativement
ĠSh ow
ĠSh ogun
ĠvidÃ© os
ĠprÃ©cis Ã©ment
Ã® tre
Ġpat ronyme
Ġpat aphy
ell ente
ĠMi G
Ġec clÃ©
ĠrÃ©p onse
ĠrÃ©p ubliques
Ġphysi ques
Ġsal ons
lem me
Ġmer c
ĠAh a
ĠAh med
ĠSt ar
ĠSt ru
ĠSt yle
Ġ195 2
Ġrapp el
Ġrapp roche
pl Ã©e
Ġsor tis
Ġsor oban
Ġamp li
Ġindi ces
Ġindi quer
Ġdiale ct
Ġsuper vise
Ġconstitu Ã©e
Ġoc tet
Ġoc tro
Ġsign ale
Ġsign ature
vers ation
Ġgar nison
Ġsyn dic
Ġsyn thÃ¨se
Ġgouvernement ale
Ġvari ation
ili zation
Ġnature lles
chi miques
ĠdÃ©f endre
Ġins criptions
ĠAnd j
Ġdist rict
Ġcro co
Ġaff ec
indi que
ĠCom ment
Ġconf lit
Ġconstru its
Ġconstru cteurs
ĠsiÃ¨ gent
Ġ194 1
Ġ194 9
16 0
imp act
Ġvoy ait
Ġvoy ages
ĠIs raÃ«l
ĠIs aac
Ġcommence ment
Ġis om
Ġis ra
esp Ã¨ces
ĠlÃ©g aux
ĠlÃ©g endaire
Ġmol aires
ĠAb ou
ĠAb del
ĠAb ydos
ĠPh yl
ĠPh ysi
ĠdÃ©s uÃ©tude
Ġann uel
Ġann ulÃ©
Ġimport antes
Ar t
Ar mÃ©e
Ar chitecture
Ar mÃ©nie
avi en
avi er
avi ation
Ġtot ale
Ġtot alement
Ġfac ture
Ġfac to
Ġhum aines
ĠprÃ©sent Ã©
Ġassoci ations
Ġfonction nant
Ġ7 5
cep tre
dire ction
Ġprob able
Ġprob abilitÃ©
ĠdÃ©veloppe urs
ĠfaÃ§ ons
con vÃ©ni
voir s
Ġurb ains
Ġmen tion
Ġth rips
ĠSa ou
ĠintÃ© ress
Ġtex ture
Ġtex tile
Ġorganis Ã©
Ġorganis me
Ġorganis ation
ĠdÃ©sign ant
ĠdÃ©sign ation
ĠpÃ©ri odes
inter pr
inter mÃ©di
Ġmal Ã©
Ġmain tient
Ġmain tenir
ĠÃ©v olution
ĠÃ©v oque
ĠÃ©v Ãªque
ĠdÃ©p lacement
Åĵu f
Ġremplac Ã©e
Ġremplac Ã©es
Am ant
lam ation
Ġcan di
Ġsc ore
ĠDes ert
Ġ193 1
Ġ193 3
Ġ193 8
Ã©v al
Ġporte feu
Ġtes ter
Ġvol umique
oll on
ĠÃ©le ction
Ġcontra ction
Ġsupp os
Ġsupp ose
Ġsupp ression
198 5
lau g
Ġsh annons
Ġ16 6
ĠMa x
ĠfÃ©dÃ© rÃ©s
aff ichage
ov ine
Ġpub liÃ©e
Ġmulti joueurs
Ġmulti mÃ©dia
Ġbul g
ĠPers es
Ġautre fois
ĠDÃ© buts
ĠHe inrich
app ro
ĠOr chest
Ġsub s
Ġsub di
ĠKh or
GP M
Ã¡ l
áĪ µ
Ġmis sions
ĠtÃ©lÃ© charge
Ġbour ses
Ġbour sier
Ġstat ues
prÃ© tation
Ã©lect ron
Ġpi ano
Ġpor tugais
alog ie
ĠAt tribut
rim er
rim erie
Ġchac al
ĠMont re
ĠMont pel
ĠOu as
Ġcli p
Ġcli mat
Ġbeau jolais
ĠSec ret
Ġsem ence
Ġprov o
Ġprov in
ĠKar l
Ġphot ograph
Ġphot ographie
ĠmÃ©di as
ĠabrÃ©vi atifs
ĠPersonn age
ĠPersonn ages
yn amique
ÉĻ z
Ġveu ve
ĠComm erce
ĠDi rac
ĠdÃ©ci dÃ¨rent
ĠreÃ§ oivent
Ġcher cher
Ġcher chent
ĠprÃ©f et
ĠprÃ©f ig
Ġprom u
Ġprom esse
Ġphara ons
Ġcommerci al
ĠJohn ny
Ġ190 1
Ġ190 2
Ġ190 9
ign y
197 2
197 4
197 5
ĠlibÃ©ra lisme
ach el
ach at
Ġiniti alement
ĠGu mb
ĠÃ©glis e
Ġagric ulteurs
DA TA
lit t
Ġquanti t
Ġquanti tÃ©s
Ġgl oire
Ġgl obal
190 1
190 7
ĠAnth rop
Ġtradi tions
Ġ188 2
Ġ188 7
Ġ189 1
Ġ189 7
Ġ189 8
Ġcircu le
Ch elonitis
mil la
Ġ9 1
Ġeu t
ĠpÃ©tro lier
Ġven u
Ġenti tÃ©
Ġbat tu
agn a
agn ol
ĠMus ique
Ġempl oie
ĠHistorique ment
196 5
196 6
Ġradi os
Ġliber tÃ©
ĠEsp ace
ĠEsp rits
ed et
Ã©d ie
Ġpol arisation
Ġpol onais
Ġcat aracte
Ġcat cheur
Ġaur ont
Ġaur aient
Ġtop iques
Ġvo Ã»
Ġarch itecture
193 0
Ġconser vÃ©
Ġmusic ales
50 2
instru mental
Ġvas te
ĠPer ry
Ġgag nant
Ġgag nÃ©s
ĠÃ©qu ations
ĠBur meister
Ġcamp agnes
194 1
194 8
Ġactu elle
ĠInter national
ĠintÃ©g rÃ©s
Ġvict or
Or dre
intes tin
ĠLib er
ĠCert ain
ĠeuropÃ© ennes
Ġmodi fie
Ġmodi fications
Ġ183 5
posi teurs
ĠÃ©crit s
ĠÃ©crit ures
ĠfrÃ©qu ences
Ġemploy Ã©e
ho z
log ramme
Ġunivers itaire
ĠCons umer
Ġbl oc
Ġbl ue
ĠSer ge
ĠSer vi
ĠSer ket
ĠSoci ety
ĠDoc teur
Ġremp lacement
Ġremp laÃ§ant
Ġchois ie
Ġchois issent
ĠMÃ© tier
ĠMÃ© dinet
ĠVal orise
Ġrais ons
Ġadop te
Ġadop tÃ©e
Ġpropri Ã©taire
Ġpropri Ã©taires
ĠMarc us
Ġprofessionn elles
gen tin
iz ashi
yon idae
Ã¶ r
Ġcr ue
ĠExp o
ĠExp ression
termin aux
Ġchim ie
ĠMin istÃ¨re
ĠGar age
ĠGar onne
Ġseigne urs
Ġtemp or
Ġstab ilitÃ©
ĠmÃ©th ode
ĠmatÃ©ri elle
Ġfix Ã©
Ġfix Ã©es
Ġjoue urs
avant age
ef ore
ĠÅ ł
ĠÐ ¯
ĠÐ ½
Ġcri tiques
Ġmassi que
Ġfen Ãªtre
ĠPat rick
ĠSal mane
Ġ14 9
ĠBat aille
ĠDou ble
ĠrÃ©f ug
ĠEntre prises
Is Ã¨re
europÃ© ens
odi versitÃ©
sÃ© mitique
Ġlig nÃ©es
Ġpa ci
Ġfour ni
oign ant
rag on
Ġve ille
Ġenv ah
ĠCO M
Ġbo Ã®
ĠconÃ§ us
ĠconÃ§ ue
ĠBus iness
ĠMo z
Ġru ines
Ġvivant s
ĠprÃ©c ise
ĠprÃ©c urseur
ĠÃ©tran ger
Ġirak ien
Ġconsac re
Ġconsac rÃ©e
Ġorg anique
Ġorg aniques
Ġrencont rÃ©es
Ġphyt ogÃ©nÃ©
ĠÃ©tudi er
Ġconstr uis
AD N
AS P
by e
och imie
Ġir landaise
ini Ã¨re
ĠvÃ©r itÃ©
ĠLab el
ĠCour ant
ĠCour se
ĠbÃ¢ tis
ĠÃ©d itÃ©
ĠÃ©vi te
ĠÃ©vi demment
ĠBer keley
Ġrem ont
ĠchrÃ© tien
ĠMal grÃ©
ĠrÃ©par ation
ĠJoseph son
appar tiennent
ĠOrig ines
Ġappli quÃ©e
Ġappli quÃ©s
Ġmess ages
Ġcontribu ant
Ġcontribu tions
Ġorigin al
Ġorigin ale
ĠlimitÃ© e
Ġphilosoph es
Ġphilosoph ique
Ġpot entiel
ancien nes
inf luence
Ġvoc ale
ĠAstar te
ĠPe tit
Ġplac ent
ĠTa xon
ĠMat Ã©riel
ĠrÃ©d uite
ĠrÃ©d action
ĠRom vong
Ġcoord onner
Ġdispar aissent
Ġfranc ophone
ĠmÃ©c anismes
ĠmÃ©t ab
186 6
Ġ178 1
Ġsucces sives
Ġouvert s
ĠampÃ¨re mÃ¨tre
Ġpromo tionnel
Ġtraditionn els
Ġtraditionn ellement
Ġsepte mpunctata
ĠalgÃ©b rique
cre am
com positeurs
Ġlion ne
Ã©ch al
Ġsus pendu
Ġamb igu
ĠSm ith
ĠSm ash
ĠSm ells
Ġauc une
ĠEr nst
ĠDom aine
ĠDom ini
ĠDel phes
ĠTV H
ĠdÃ©ta il
ĠdÃ©ta chÃ©es
oth Ã¨se
ĠGÃ© ologie
ĠrÃ©ser ves
Ġhor log
Ġdispos ent
Ġdispos ant
Ġrast as
Ġdonner a
Ġ184 5
Ġquelque fois
Ġkil omÃ¨tre
Ġkil ogramme
Ġprinces se
Ġrepro duit
184 8
Ġsouh ait
ĠimpÃ©ri ale
Ġcallig rammes
ĠcontrÃ´ lÃ©e
lar ation
uli en
Ġdyn am
ĠAme deo
ĠPC US
ĠPlan ck
ĠSab re
ĠSab ar
ĠTit o
ĠRa dio
ĠVi Ãªt
ĠFor ces
ĠFor tification
ĠWeb er
ĠConst antes
ĠantÃ©rie ur
ĠantÃ©rie ure
Ġanthrop omor
Ġretrouv ent
symb oles
je ct
jus qu
ÃŃ a
Ġ} )
Ġital ienne
Ġdensit omÃ¨tres
Ġsoli des
Ġsolu tÃ©
Ġeng end
ĠPal m
ĠEd ward
ĠMac ler
ĠMaur itanie
ĠrÃ©gn a
Ġposi tionnelle
Ġcompati bilitÃ©
Ġexist ence
Ġextra dition
ĠcarÃ©li ens
Ġ180 5
Ġ186 8
Ġclass Ã©s
Ġabs olu
Ġrenouv ellement
Ġliqui des
Ġindivi dus
Ġattest Ã©e
Ġmagas in
ĠÃ©volu Ã©e
Ġphotos yn
ĠbÃ¢ti ment
Ġindustri el
Ġindustri els
Ġpan ier
ĠpÃ©r uvi
ĠpÃ©r ennitÃ©
inst all
inst alle
incer titude
Ġfui r
Ġfoy ers
Ġenne mis
ĠApp lications
Ġber froi
rog ation
atta que
Ġconver tis
ĠSim on
ĠSim one
ĠSav oie
ĠBor laug
ĠGod s
ĠrÃ©un ie
ĠRol and
Ġproc lam
ĠFer dinand
Ġanne au
ĠcoÃ» ts
Ġdispon ible
igh ts
ĠAng oulÃªme
ĠinterprÃ© tÃ©
Ġmarch Ã©s
Ġpossib ilitÃ©
ĠsecrÃ©t ariat
Ġdiffic ultÃ©s
ĠColomb ie
exc lamation
ĠNebet hetepet
ĠÃ©lectro technique
Ġlocu teurs
ĠXX Ie
Ġisol Ã©e
ĠPhil Ã¦
Ġattribu Ã©
Ġspor tif
Ġspor tive
Ġpouss Ã©e
Ġclient Ã¨le
ultan Ã©ment
Ġratta chÃ©e
occup ation
Ġmascul ins
ĠÃ©thiop iennes
Ġpersonni fie
Beau fort
Beau jolais
mol aire
Ġsatisf ait
Ġmorte l
omo tive
Ġtut oriel
Ġquit ter
Ġquoti dienne
Ġence intes
Ġengl ob
Ġengl obe
ĠCop tos
rÃ©g ation
ĠPl ongÃ©e
ĠÃ©mis sions
ĠSig le
ĠDen is
Ġchron ologie
Ġchron ologique
ĠMak ino
ĠGÃ©nÃ© alogie
ĠNorm an
ĠNorm and
ĠRo jo
ĠRel igion
Ġproven ance
Ġhyp othÃ©
ĠFon ctions
ĠWe ise
ĠWe inberg
Ġox yd
ĠprÃ©par Ã©e
Ġavan cÃ©
Ġalphab Ã©tique
Ġalphab ets
tende d
akh ty
Ġpost position
Ġposses sion
autor oute
autor isation
Ġexpos Ã©e
ĠAugus t
Ã©gyp tologue
Ġespagn ol
Ġespagn ole
Ġexempl aires
Ġcellu le
ĠdÃ©mont re
Ġ177 9
ĠfÃ©od ale
Ġjuge ment
Ġconfir me
Ġfonctionn aires
Ġpratiqu Ã©e
ĠintÃ©rie ur
Ġarchite ctural
Ġseigneuri aux
Ġfortifi Ã©e
ĠhiÃ©rogly phes
Ġphytopharmace utique
Ag riculture
cl asse
Ġpes Ã©e
Ġpond Ã©ration
ĠcÃ¢ b
organis mes
Ġflu oresc
Ġvend us
ĠvÃ©nÃ© rÃ©e
ĠCrÃ© ature
ĠCos ta
ĠCiv ilization
ĠSp irits
ĠElectron ics
ĠBelle ville
ĠdÃ©ch iffrement
ĠdÃ©tr uire
Ġrev Ãª
Ġremar qu
ĠMes ure
ĠMos cou
Ġintro duit
ĠGau le
ĠWh ite
ĠcompÃ© tition
ĠprÃª tres
âĶ´ âĶĢâĶĢâĶĢâĶĢâĶĢâĶĢ
Ġmonarch ie
Ġaccep tÃ©e
ĠacadÃ© miques
Ġmari age
Ġrepos ent
Ġsynta xe
Ġspati al
Ġspati ale
Ġvolont aire
Ġsubst ance
Ġsubst ances
ĠKhent y
ĠPrincip es
ĠPrincip aux
Ġchimi otrophes
Ġpolici er
Ġpolici Ã¨re
Ġbyz antin
Ġaugment Ã©e
Ġindividu els
ĠfunÃ©ra ire
ĠfunÃ©ra ires
Ġdangere ux
Her rich
MM YT
Sch aeffer
fr Ã¨re
pus tul
tol Ã©m
umb a
yrÃ© nÃ©es
Ġdance hall
Ġlun aire
Ã©dÃ© ration
Ġcath olique
Ġsch Ã©ma
Ġsensib ilitÃ©
initi ative
omÃ© trie
Ġend roit
Ġenter rÃ©
ĠLim oges
ĠLing uistique
ĠCub a
ĠCong o
Ġbrev et
Ġparois se
ĠPor tugais
ĠPyth agore
ĠSant a
ĠSok aris
ĠEss ai
ĠBilb ao
ĠDod d
ĠdÃ©rou lant
ĠMil itaire
Ġintit ulÃ©
ĠindonÃ©si enne
oty mpanique
Ġsim ultanÃ©ment
ĠGr DF
ĠRod riguez
Ġprosp Ã¨re
appr entissage
ĠChent ayt
ĠKÃ© behs
Ġcarn assi
Ġcardin al
ĠÃ©tend ues
Ġacces sibles
ĠiP ad
Ġimag inaire
Ġmarti ni
Ġkan jis
Ġrespons able
Ġcass ette
ĠrÃ©gÃ©nÃ© ration
Ġcultiv ar
Ġmanuscrit s
Ġpropor tionnelle
ĠConc entration
ĠContin uity
Ġ176 1
ĠTherm oprote
Ġgouverne ur
ĠrÃ©public aine
Ġgaranti t
Ġcircons criptions
Ġcadmi um
Ġfabric ation
ĠrÃ©volu tionnaire
Ġautoris Ã©s
Ġfournis sant
ĠthÃ©b aine
Ġmajoritaire ment
Ġvirgu le
Ġspectac le
ĠHalobacteri ales
Jac ques
Luc as
OA CI
Off icial
cate gorie
fran Ã§ais
Ġott oman
Ġpil ote
Ġsain ts
Ġscul pture
ĠtrÃ©s or
Ġquart z
Ġdestru ction
Ġvali de
ĠLyonn ais
ĠCod rington
Ã¨g re
ĠArab ia
Ġbre tes
Ġblin dÃ©s
Ġparten ariat
ĠparallÃ© logramme
ĠPH P
ĠPo Ã©sie
ĠPin ni
ĠÃ©quipe ments
ĠBeff roi
ĠDam aged
ĠDig ital
ĠDiff Ã©r
ĠDerni er
ĠTay lor
ĠTool s
ĠdÃ©r oule
ĠMur omachi
Ġourali ennes
ĠNat ation
abrÃ© ger
Ġhoriz ont
ĠHT TP
ĠHÃ¢ pi
ocÃ© an
ĠFont aine
ĠLem ons
Ġcommiss aire
Ġcomposi teur
Ġexten sions
ĠprÃ©al able
ĠprÃ©fi xe
ĠprÃ©occup ations
Ġcofond ateur
ĠEngine ering
ĠKhar geh
Ġargu ment
Ġcommuni quer
Ġappare ils
Ġacqui ert
adop tion
intro duction
allÃ¨ lement
Ġcoul omb
ĠAmÃ©ric a
ĠDev Ã¨ze
ĠcrÃ©ne aux
ĠpermÃ© abilitÃ©
Ġtransvers ogut
exÃ©cu tion
Ġincor por
Ġ"( "
Ġ") "
Ġmicros copie
oxyd ation
Ġsalari Ã©s
ĠmolÃ© cules
ĠpÃ©riph Ã©riques
Ġcana dien
ĠTef nout
Ġcombin aisons
ĠDÃ©veloppe ment
áĪ³ áī
Ġelli ptiques
ĠAutor oute
ĠOupou aout
ĠUnivers ity
Ġembry ologiste
Ġphytosan itaires
Ġhabitu ellement
ĠscÃ©n ario
ĠchorÃ©g raphies
Ġindispens able
ĠrÃ©guliÃ¨re ment
Ġmanifest ation
Ġinterlocu teurs
Ġtrifasci ata
Aquit aine
Cic Ã©ron
Gar onne
Haut poul
Iw ate
ZÃ© lande
box ing
fert oum
poi ds
qq arah
rar ouge
ster dam
tot alitÃ©
zhou hua
×ĳ ×
å·ŀ è¯Ŀ
ĠpÃ¨ ler
Ġpall ens
Ġpuri fication
Ġsph inx
ĠamÃ© li
ĠaÃ©rop orts
Ġajus tÃ©
infini tif
ĠmÃ¥ ne
orhod opsine
Ġventra lis
ĠLud w
ĠLarous se
Ġnuc lÃ©
ĠConne ctique
ĠCote aux
ĠCrÃ©s us
ĠAmp Ã¨re
ĠAmÃ©n ophis
ĠAMP L
ĠPens Ã©es
ĠPowe red
Ġgall o
ĠÃ©po ques
ĠÃ©phÃ©m Ã¨re
ĠSpar kle
ĠScip ion
ĠSÃ©g a
ĠSorb onne
ĠSobe k
ĠEug Ã¨ne
ĠBron xville
Ġplum es
agran dis
ĠMong olie
ĠMitt ani
acquis ition
ĠIousa as
ogly phica
opÃ©ra teur
ĠrÃ©uss it
ĠRic o
ĠRout ledge
ĠRies z
ĠRug by
ĠrÃª ve
Ġhier oglyphica
amÃ©ric aine
ĠJerse y
ĠHons hÅ«
ĠHistor y
ĠHann ah
ĠHach ette
ĠVari antes
ĠVinc ent
ĠFira xis
ĠLezgin ka
ĠOct avien
ĠOuse ret
ppopot ame
ĠsaÃ¯ te
ĠIllus trations
Ġcochen illes
ĠChiy oda
Ġsupr Ãªme
ĠKare lian
ĠKlit zing
ĠÃīcri vain
ĠArth ur
institu t
ĠforcÃ© ment
ĠInvent aire
Ġterror isme
hÃ©gÃ©m onie
Ġquelcon que
ĠcollÃ¨ gue
Ġcorrup tion
ĠYÃ©m en
Ġfichi ers
Ġlogarith me
ĠecclÃ© si
Ġcroco dile
ĠAbdel aziz
intermÃ©di aire
ĠOrchest ra
ĠMontpel lier
ĠphytogÃ©nÃ© tiques
ĠWeinberg er
ĠKÃ©behs Ã©nouf
Ġtransversogut tata
âĢ Ķ
ĠĠĠĠ Ġ
ĠĠĠĠĠĠĠĠ ĠĠĠ
" .
" ).
" }"
' )
' -
' ).
) )
) ;
) âĢ¦
+ )
+ +
- ,
0 1
3 23
3 94
4 3
4 4
4 10
4 000
4 31
4 98
5 2
5 10
8 2
8 5
8 8
8 9
8 26
9 0
9 7
> "}"
A B
A E
A T
A V
A X
A k
A un
A me
A ut
A ss
A val
A ker
A ES
A tt
A mÃ©n
A hm
A sir
B E
B al
B arb
B efore
C C
C D
C on
C ol
C ont
C la
C CI
C SI
C lau
C ES
C SP
C ook
C alifor
C GPM
D D
D K
D S
D i
D es
D ar
D ire
D anse
D ordogne
D yer
D oron
E A
E D
E X
E d
E mpl
E lectron
F i
F er
F UL
F allÃ©
G M
G eb
H Ã©ra
H omme
H istoire
H agar
H amming
I R
I r
I v
I liade
J er
J am
J ulien
K h
K aou
K nig
L A
L y
L in
L AC
M er
M ont
M Ã©d
M ich
M Ã©ne
N A
N U
N X
N e
N y
N ap
N PS
O J
O h
O de
O cÃ©
O xford
P T
P V
P r
P ar
P elle
P all
P DA
P lex
P omÃ©
P uton
R C
R T
R ht
R euter
R ouge
S M
S a
S m
S er
S au
S ab
S ay
S ud
S ok
S Ã©v
S QL
S quad
T T
T an
T ur
T our
T ro
T ef
T hom
T IS
U W
U z
U ss
U tilis
U NIX
V al
W K
W eil
W ashington
X O
a w
a el
a ments
a Ã©ro
b n
b u
b an
b au
b ro
b li
b ale
b ait
b lÃ©
b tis
b lement
b ass
b Ã¤
b ras
b alle
b ase
b astis
b old
b eaux
b ridge
b aÃ¯d
b ride
c or
c el
c at
c ation
c tre
c onn
c Ã¨res
c atif
c onne
c ographie
c omp
c tÃ©s
c oun
c yc
c Ãªtre
c orÃ©
c tivitÃ©
c ÃŃa
c Cook
d et
d ine
d age
d ins
d otes
d ob
d der
d ad
d ures
d are
d ler
d ateur
d uite
d Ã¨t
d rome
d urÃ©e
e o
e ad
e oche
f on
f el
f ais
f end
f rou
f are
f ane
f ox
f ils
f oot
f ana
f ly
f amille
g is
g ale
g am
g ens
g nes
g ir
g ard
g Ã©es
g ations
g od
g az
g roupe
g aÃ¯
g iques
g Ã©rie
g ach
g ren
g gae
g raphie
g ocie
g arita
g doade
g lementation
h in
h our
h ro
h ans
h ist
h Ã¨re
h yp
h ay
h ite
h aÃ¯
h istor
h ren
h mer
h ini
h ters
h ommage
h ilo
h ythm
i p
i Ã©e
i che
i dÃ©
i ales
i ode
i ki
i idae
j er
j eu
j men
k in
k ai
k ine
k im
k ir
k ke
k ok
k va
k aga
k heb
k kun
k ido
l ag
l iste
l ara
l amb
l ast
l ablement
l vic
m u
m ait
m ine
m ois
m itÃ©s
m yth
m ulti
m art
m ach
m aison
m ical
n d
n p
n an
n ge
n iste
n ord
n ing
n aine
n aines
n kh
n ologue
n astique
n Ã¶
n Ã¡l
o Ã¯
o Ã¯s
o jn
p y
p an
p re
p as
p res
p ot
p ir
p rop
p Ã©ra
p id
p ateurs
p ital
q a
r s
r us
r yp
r iss
r lig
r omp
r Ã¨te
r iller
r ina
r utin
s w
s pe
s ore
s elon
s ud
s ka
s antes
s tern
t n
t us
t ois
t ante
t ateur
t ologiste
t Åį
t Ã¶
t arc
t ario
t aneb
t abli
u z
u on
u ter
u itÃ©
u che
u ette
u enne
u des
u istes
u tÃ©s
u ettes
v o
v et
v it
v ol
v ation
v ance
v rit
v ince
v Ã¡
v ala
v Ã¨ge
v allÃ©e
w o
w y
w or
w ork
w asa
x t
x in
y e
y u
y re
y as
y de
y otes
y Åį
y ama
y lÃ¨ne
z an
z oi
z ig
z Ã©g
z ier
z ango
¡ n
¥ áĪ³áī
§ a
« l
± Ð¸
² Ðµ
´ Î
´ Ð¾Ð
· Ð°
¸ ¥
¸ Ð
¼ Ī
½ ®
¿ Ï
Â °
Â ·
Ã ±
Ã ¾
Ã Ĭ
Ä ī
Ä ĵ
Å ¾
Ê ¿
Ë ģ
Ì ¯
Î µ
Î ¸
Î ¿Ï
Ð º
Ð ¿
Ñ ı
Õ ¡
Ö Ģ
× ª
à ¯
â Ħ
â ĭ
ã Ģ
æ ½®
é Ľ
Ġ it
Ġ ol
Ġ og
Ġ ion
Ġ ub
Ġ entra
Ġ erg
Ġ ÉĻ
Ġ ä¸
Ġ ero
Ġ uch
Ġ à®
Ġ ÑĢ
Ġ Ïģ
Ġ ×Ķ
Ī re
Į áī
İ áī
Ĳ áĭ
ķ ĳ
ĺ áĪ
Ļ áĬ
Ļ ×ª
es ar
es ter
es ite
es ef
es tionnaire
es mou
Ġd ra
Ġd ie
Ġd os
Ġd its
Ġd ente
Ġd ites
Ġd ose
Ġd jou
Ġd Ã¤n
Ġl ues
Ġl iens
Ġl uc
Ġl Ã©op
Ġl ouche
Ġl ister
Ġl yonn
Ã© it
Ã© os
Ã© enne
Ã© tudi
Ã© lar
Ã© chec
Ã© atoire
Ã© cipiendaire
en tion
en di
en os
en ons
en tique
en aires
en land
en Ãªtre
en idae
en sive
en Åĳ
on el
on as
on ge
on ologie
on ciation
on cent
on vÃ©ni
Ġp p
Ġp is
Ġp un
Ġp ans
Ġp ag
Ġp end
Ġp ique
Ġp ati
Ġp aire
Ġp ic
Ġp air
Ġp ah
Ġp aille
Ġp oix
Ġp iles
Ġp ense
Ġp Ã´le
Ġp tolÃ©m
Ġc au
Ġc oc
Ġc ens
Ġc age
Ġc lÃ©
Ġc itÃ©s
Ġc apon
Ġc ouver
Ġc yl
Ġc uite
Ġc rain
Ġc ouvre
Ġc antine
Ġc ensÃ©
Ġc roix
an y
an ent
an at
an ter
an ote
an istes
an arch
an niques
an ia
an fare
Ġs l
Ġs un
Ġs it
Ġs ne
Ġs he
Ġs co
Ġs ki
Ġs ÉĻ
Ġs istre
Ġs aison
Ġs arc
Ġs nac
Ġs kate
Ġs ceptre
Ġs mart
Ġde par
Ġde co
Ġde cide
Ġde tte
Ġde voirs
Ġde fend
ou en
ou tre
ou ni
ou pe
ou per
ou cher
ou rage
ou ze
ou ket
ou ya
ou manie
ti mes
ti mis
ti tivitÃ©
re i
re u
re tÃ©
re ction
re ennes
is tÃ©
is ques
is lam
is matique
is tÃ©ri
qu a
qu il
qu age
qu Ã©ri
qu ences
qu ins
qu oy
qu enn
te d
te f
te ch
te mati
te enth
Ġa mple
Ġa jour
Ġa mpl
Ġa ient
Ġa rab
Ġa ustra
in k
in al
in ique
in ations
in ae
in ages
in ner
in star
in ary
in ondation
in convÃ©ni
le b
le ure
le ments
le cteur
le ville
le ik
er al
er ge
er ens
ent y
ent endu
ent ley
ent rion
ar h
ar n
ar u
ar ist
ar dÃ©
ar tier
ar ienne
ar riv
ar riÃ¨re
ar tille
ar rosage
et tre
et aton
Ġm m
Ġm ent
Ġm our
Ġm ac
Ġm ers
Ġm ine
Ġm aires
Ġm ys
Ġm ori
Ġm Ã¨tre
Ġm Ã¢t
Ġm utu
Ġm uon
un is
un te
un et
un st
un if
un berg
or y
or im
or nes
or ig
or nis
or gÃ©
or gie
Ġla me
Ġla mes
Ġla ches
Ġla ps
Ġla trines
Ġla gs
Ġle vÃ©e
Ġle xic
Ġle ader
om iste
om ique
om phe
om ho
om itant
it o
it ations
it ken
ur f
ur n
ur o
ur t
ur ai
ur ies
ur gie
ur asi
ur oda
ur ling
ur ism
ur iges
Ġt am
Ġt ang
Ġt ue
Ġt oit
Ġt ah
Ġt Ã©n
Ġt enter
Ġt hÃ©mati
Ġt ome
Ġt su
Ġt endent
Ġt Ãªtes
Ġf au
Ġf ard
Ġf ins
Ġf lan
Ġf Ã©c
Ġf all
Ġf ric
Ġf enn
Ġf av
Ġf lÃ¨
Ġf uit
Ġf ox
Ġf asse
Ġf oss
Ġf atal
Ġf ibre
Ġf ruit
Ġf irent
Ġf lemme
Ġf anfare
Ġqu elle
Ġqu ali
Ġqu Ã©b
Ġqu antique
us te
us er
us ations
us one
us oft
us cules
ra l
ra mi
ra ction
ra tif
ra stru
ra isemb
ra mento
Ġdes ert
Ġdes ser
Ġv og
Ġv Ãª
Ġv otes
Ġv ues
Ġv endre
Ġv entes
Ġv esti
il h
il ien
il la
il ier
il isme
ĠÃ ¤
ĠÃ §a
Ġen vis
Ġen nÃ©ade
ĠL is
ĠL er
ĠL oi
ĠL ie
ĠL eu
ĠL oc
ĠL Ã©g
ĠL ane
ĠL yd
ĠL yn
ĠL ulu
ĠL erma
ĠL Ã¤n
ĠL CR
ĠL ED
est Ã©
est onien
our t
our is
Ġn a
Ġn ait
Ġn oc
Ġn ap
Ġn ine
Ġn Ã©s
Ġn ut
Ġn oire
Ġn ette
Ġn ub
Ġn Ã©c
Ġn aines
Ġn ager
Ġn appe
el Ã©
el se
el and
el ang
el Ã©s
el ins
el ing
el ton
el ani
al k
al o
al it
al ot
al ib
al der
al onn
al lier
al ier
al lemand
al phab
al pha
al titude
al cool
as par
as ton
as pect
as tÃ©roÃ¯de
ĠC E
ĠC V
ĠC y
ĠC Ã©
ĠC au
ĠC ord
ĠC uis
ĠC um
ĠC ir
ĠC ib
ĠC omb
ĠC are
ĠC lu
ĠC CI
ĠC ours
ĠC ult
ĠC liÃ©
ĠC urrent
ĠC ovi
ĠC AC
ĠC ook
ĠC lare
ĠC yrÃ©
ĠC GI
ĠC ryp
Ġ( '
Ġ( ,
Ġ( ...)
ie me
me tiÃ¨re
ment aires
Ã¨ que
Ã¨ ve
Ã¨ les
Ã¨ bres
Ã¨ gent
ĠA D
ĠA L
ĠA k
ĠA in
ĠA ar
ĠA ch
ĠA ran
ĠA ap
ĠA ph
ĠA im
ĠA yant
ĠA Ã©ro
ĠA ctu
ĠA lex
ĠA ctrice
ĠA ape
ĠA ires
ĠA stron
ĠA zer
ĠA ward
ĠA UC
ĠA FUL
ĠA WK
ĠA itken
rÃ© atique
rÃ© aliste
rÃ© gion
rÃ© chet
ant ation
ant Ã´me
ant hro
Ġb ant
Ġb ro
Ġb os
Ġb elle
Ġb ig
Ġb ib
Ġb ak
Ġb int
Ġb az
Ġb ris
Ġb eur
Ġb Ãªte
Ġb illet
Ġb Ã«
Ġb inaires
Ġb agar
Ġb ÉĻz
Ġb achel
Ġb inary
Ġb ornes
au le
au tions
au jourd
ro ites
ro ws
ro quement
ro enland
ri ci
ri am
ri ers
ri cts
ce voir
Ġcom Ã©
Ġcom itÃ©
Ġcom ite
ol te
ol ant
ol ic
ol ing
ol aires
ol ith
ol den
ol aris
ch a
ch it
ch ni
ch im
ch ard
ch ange
ch oty
si x
si ers
si dium
si vitÃ©
Ġpar v
Ġpar ue
Ġpar vient
Ġpar odie
Ġpar lent
Ġpar venir
Ġpar allÃ¨lement
ne y
res p
res pe
res sible
res sivement
se ction
se ignement
ĠP I
ĠP Ã©
ĠP ent
ĠP el
ĠP ri
ĠP ont
ĠP ot
ĠP ors
ĠP ut
ĠP ub
ĠP all
ĠP ong
ĠP lace
ĠP ith
ĠP ed
ĠP AS
ĠP ira
ĠP uy
ĠP rad
ĠP olit
ĠP ull
ĠP assÃ©
ĠP seudonyme
ĠP rion
ĠP iliers
ĠP yrÃ©nÃ©es
Ġg o
Ġg et
Ġg as
Ġg lis
Ġg ig
Ġg ib
Ġg lot
Ġg han
Ġg ast
Ġg olf
Ġg oda
Ġg olfe
Ġg alerie
Ġg oÃ»t
Ġg Ã¢teau
Ġg orgÃ©
li en
li re
li age
li ct
li min
li fique
li quer
li quant
li fÃ¨res
ĠÃ© s
ĠÃ© tern
ĠÃ© lab
ĠÃ© tein
ĠÃ© dit
ĠÃ© lar
ĠÃ© duc
at u
at ti
at ri
at op
at esh
at ales
at ures
at urÃ©
at ologue
at tend
at omiques
at olie
at chev
at omiste
Ġcon ti
Ġcon ces
Ġcon vec
Ġcon form
Ġcon vient
Ġcon quis
Ġcon ditions
Ġcon duis
Ġcon duits
Ġcon tente
Ġcon nec
Ġcon duite
ĠS G
ĠS en
ĠS qu
ĠS ac
ĠS ens
ĠS ap
ĠS tu
ĠS ouv
ĠS tre
ĠS ir
ĠS iv
ĠS esh
ĠS ub
ĠS oy
ĠS la
ĠS ob
ĠS cu
ĠS tra
ĠS Ã©ra
ĠS ouver
ĠS onde
ĠS cul
ĠS har
ĠS avi
ĠS uc
ĠS oud
ĠS log
ĠS Ã©p
ĠS umm
ĠS ystem
ĠS ouk
ĠS wan
ĠS aig
ĠS oudan
ĠS elk
ĠS pring
ĠS hirakawa
ĠS milla
ĠS CSI
Ġau f
Ġau di
Ġau quel
Ġau dio
eu m
ĠE P
ĠE iff
ĠE mpl
ĠE urop
ĠE do
ĠE uropÃ©
ĠE mil
ĠE ls
ĠE iki
ĠE lements
Ġ1 3
Ġ1 10
Ġ1 26
Ġ1 2000
Ġ1 192
ai c
ai ve
ai ter
ai tement
ai der
ai ler
ĠB C
ĠB I
ĠB es
ĠB oi
ĠB ol
ĠB ag
ĠB ran
ĠB and
ĠB ille
ĠB ois
ĠB out
ĠB ut
ĠB Ã¢
ĠB az
ĠB omb
ĠB lus
ĠB Ã©n
ĠB ass
ĠB rie
ĠB oot
ĠB udget
ĠB rass
ĠB Ã©rard
ĠB aug
ĠB ureau
ĠB Ã©lier
ĠB aneb
ĠB ASI
ĠB Åįs
ĠB OJ
ĠB entley
ĠD a
ĠD end
ĠD Ã©r
ĠD Ã¨s
ĠD ivers
ĠD ensitÃ©
ĠD erae
ĠD ata
ĠD Ã©v
ĠD Ã©tro
ĠD own
ĠD roits
ĠD AX
Ġpl a
Ġpl ateau
Ġpl aques
ag i
ag in
ag eux
ag ons
ag ence
ag Ã¨res
ag issait
ag amu
ĠÂ §
ĠÂ ±
de au
de ments
ci le
ci ent
ci tement
ci otto
ĠT A
ĠT G
ĠT M
ĠT y
ĠT es
ĠT Ã©
ĠT al
ĠT eu
ĠT ai
ĠT ag
ĠT ir
ĠT omm
ĠT hÃ©
ĠT ae
ĠT ver
ĠT yl
ĠT oum
ĠT aur
ĠT chÃ©
ĠT rain
ĠT ourn
ĠT ango
ĠT Ã¼r
ĠT LT
ĠT jen
ĠT aitÅį
ĠT ibet
ĠT DK
ĠT elang
Ġpour rit
Ġpour tant
Ġpour tour
Ġpour pre
ter fly
Ġj um
Ġj ob
Ġj ets
ĠdÃ© g
ĠdÃ© fi
ĠdÃ© cident
ĠdÃ© tenu
ĠdÃ© tenue
ĠdÃ© formation
Ġre j
Ġre le
Ġre mi
Ġre ct
Ġre lais
Ġre qui
Ġre tenu
Ġre liÃ©
Ġre lÃ¨ve
Ġre tiennent
Ġre prend
Ġre van
Ġre lise
Ġre quest
Ġch ang
Ġch ut
Ġch th
Ġch ari
Ġch utes
ĠM O
ĠM b
ĠM u
ĠM et
ĠM ati
ĠM and
ĠM ille
ĠM nÃ©
ĠM ons
ĠM ore
ĠM Ã©ra
ĠM az
ĠM Ãªme
ĠM Ã©t
ĠM oute
ĠM oles
ĠM onde
ĠM Ã©m
ĠM ali
ĠM ade
ĠM ouvement
ĠM Ã©d
ĠM eth
ĠM obile
ĠM iser
ĠM aig
ĠM alem
ĠM ario
ĠM OS
ĠM erton
ĠM ansle
ĠM assif
ĠM agna
ĠM cCook
ĠM god
ac a
ac ine
ac Ã©es
ac teur
ac cess
ac ronyme
ac ception
ac tivitÃ©
ac ariens
ac tivitÃ©s
ran e
ran ie
ran ges
ĠI D
ĠI P
ĠI ci
ĠI ni
ĠI rak
ĠI EC
ĠI TIS
Ġou b
Ġin tent
Ġin tera
Ġin rat
Ġin Ã©d
Ġin vention
Ġin hum
Ġin no
Ġin time
Ġin aug
Ġin citer
Ġin effic
Ġin diss
Ġin attend
Ġe ds
Ġe checs
ot re
ot Ã©e
di x
di us
di ci
di ale
di ct
di ennes
di fication
di ctif
di mir
di otÃ©lÃ©
ale ctes
ain c
ain tes
ui ent
ui fs
tÃ© lÃ©
tÃ© ration
ĠG il
ĠG our
ĠG ab
ĠG ap
ĠG ord
ĠG raph
ĠG ains
ĠG ros
ĠG han
ĠG rÃ¨
ĠG rav
ĠG ym
ĠG orb
ĠG old
ĠG abri
ĠG rass
ĠG PS
ĠG onji
ĠG aÃ¯a
ĠG olden
ĠG atesh
ĠN E
ĠN ous
ĠN out
ĠN um
ĠN ay
ĠN ole
ĠN ex
ĠN aur
ĠN ouveaux
ĠN adj
ĠN ASA
ĠN YSE
ĠN iger
ĠN zango
ab ad
ab ulaire
ab lit
ab eth
ab rÃ©viations
og on
og Ã¨ne
og oun
og doade
og lass
og Ã©nie
og eoche
Ġse ver
Ġse ctes
op i
op is
op oles
op position
op pose
op timis
ĠrÃ© cu
ĠrÃ© els
ĠrÃ© form
ĠrÃ© uni
ĠrÃ© act
ĠrÃ© organis
ĠrÃ© duites
ĠrÃ© appro
ĠR S
ĠR ang
ĠR ois
ĠR ub
ĠR ivers
ĠR ica
ĠR ick
ĠR Ã¢t
ĠR atta
ĠR ese
ĠR ouillac
ĠR umba
ff ice
Ġsur faces
Ġsur rÃ©aliste
Ġr uis
Ġr ub
Ġr ues
Ġr ends
Ġr oum
Ġr ume
Ġr endent
Ġr hum
Ġdi g
Ġdi ch
Ġdi able
Ġdi agn
Ġdi asp
Ġpro position
Ġpro jec
Ġpro car
Ġpro je
Ġpro visional
Ġpro duire
Ġpro chain
Ġpro lifique
ul a
ul d
ul z
ul us
ul ant
ul ations
end a
end es
Ġh ol
Ġh at
Ġh aine
Ġh are
Ġh Ã©n
Ġh app
Ġh Ã¡
Ġh Ã¥
Ġh ommage
Ġh esite
Ġque chu
ge a
ge ait
am or
am ond
am enti
am Ã©li
am oun
am oto
am inateur
os h
os t
os es
os us
os ter
os ses
os yst
ĠJ i
ĠJ ar
ĠJ et
ĠJ ab
ĠJ ud
ĠJ uni
ĠJ ack
ĠJ ardin
ĠJ oe
ĠJ avier
ĠJ tn
ĠJ uifs
Ġ19 20
Ġ19 16
Ġ19 12
Ġ19 25
Ġpas tor
ĠH A
ĠH D
ĠH it
ĠH el
ĠH end
ĠH ig
ĠH ard
ĠH ub
ĠH omm
ĠH aut
ĠH aÃ¯
ĠH av
ĠH em
ĠH ide
ĠH igh
ĠH aka
ĠH abou
ĠH ollywood
ĠH onning
ĠH ills
ers tein
Ġ- ,
ĠV Z
ĠV in
ĠV ar
ĠV au
ĠV ir
ĠV aux
ĠV oy
ĠV la
ĠV ign
ĠV ich
ĠV ita
oc a
oc li
oc ci
oc ence
oc aps
ens nou
ĠF M
ĠF O
ĠF Ã©
ĠF un
ĠF it
ĠF ra
ĠF ille
ĠF ace
ĠF id
ĠF ox
ĠF orme
ĠF ils
ĠF ern
ĠF oto
ĠF ige
ĠF avor
ĠF innois
ĠF ieber
ĠF olk
ĠF ake
ĠF Ã©dÃ©ration
ĠF enÃªtre
ĠF alder
ĠF rÃ©chet
ap our
ap ez
ap ogÃ©e
tu er
tu elle
âĢĻ Â«
ouv res
Ã©r is
Ã©r in
Ã©r arch
Ã©r isme
ĠLe e
ĠLe g
ĠLe on
ĠLe cture
ĠLe yde
ĠO un
ĠO ur
ĠO ce
ĠO st
ĠO cte
ĠO ld
ĠO xford
ĠO pÃ©ra
ĠO ffice
ati ence
ati vus
and a
and y
and on
and ina
ist ent
ist ra
ist air
ist ote
Ġte e
Ġte ct
xp ressible
ine en
mb rane
Ġcomm on
Ġcomm ises
Ġcomm ission
Ġcomm utation
Ġcomm odore
ic on
ic us
ic yonidae
nÃ© l
nÃ© table
ang s
ang u
ang age
ang ulaire
ois e
ois i
ois santes
st a
st res
st roph
che ologues
vi k
vi te
vi endra
Ġst or
Ġst ric
Ġst atis
Ġst ricts
ni a
ni ers
ni fic
ord res
Ġpo Ã¨me
Ġpo Ã©tique
Ġpo Ã¨tes
Ġpo wi
ort ent
Ġca che
Ġca mps
ous ser
uis erie
mi er
mi rent
mi dite
mi dt
mi otique
pe re
pe cteur
ons o
ĠW ils
ĠW oll
ĠW ho
ĠW hy
ĠW illie
ĠW orld
ĠW ailer
Ġvi vent
Ġvi vait
Ġcomp lÃ©
Ġcomp Ã©t
Ġcomp lais
Ġcomp tait
Ġcomp ortant
Ġcomp rÃ©hen
ph is
ph ie
ph ones
ph Ã¨te
ph ren
Ġon ze
out s
out res
out able
out taneb
im mob
im mig
im meub
ĠĠ ĠčĊ
ĠĠ ĠĠčĊ
Ã§ on
Ã§ ants
Ġsa x
Ġsa fe
Ġsa illie
Ġsa tell
orm es
Ġnom e
Ġex os
Ġex cÃ©
Ġex ige
Ġex tÃ©rieure
Ġex cÃ©der
Ġex trÃ©
Ġex trÃªme
Ã©s er
Ġ20 8
ĠprÃ© di
ĠprÃ© fÃ©rence
ĠprÃ© con
ĠprÃ© dit
ĠprÃ© Ã©min
ĠprÃ© fÃ©rant
lis h
lis ation
lis abeth
Ġpr oie
Ġan nex
Ġan arch
Ġan tiqu
Ġan ime
Ġan alyse
Ġan alytique
Ġan atomiste
Ġco in
Ġco der
Ġco ok
Ġco auteur
Ġco reennes
ors es
ut h
ut ention
um a
um Ã©e
ĠCh ant
ĠCh at
ĠCh ai
ĠCh ap
ĠCh Å«
ĠCh imie
ĠCh imb
ĠCh oisi
Ġson ore
Ġson nant
ĠLa f
ĠLa wn
ĠLa dy
Ġce ci
Ġce int
olog uÃ©e
ig ie
ig nant
ig ht
ig atana
ct or
ct rices
ĠEn f
ĠEn suite
ĠEn vironnement
ond itÃ©
ert y
Ġmo dule
ĠLes lau
Ġtr ente
Ġtr ompe
Ġtr omboniste
ir is
ir rig
Ġsu Ã©d
mo re
mo yenne
Ġmon o
Ġmon na
Ġmon iteur
Ġmon nai
Ġmon opoles
Ġmon stres
ĠK V
ĠK u
ĠK y
ĠK in
ĠK ret
ĠK Ã´
ĠK az
ĠK ong
ĠK ane
ĠK em
ĠK Åį
ĠK ail
ĠK aiser
ĠK uroda
Ġar g
Ġar ist
Ġar ith
Ġar ticle
Ġar rondissements
Ġar range
Ġar gentin
iv ore
iv arienne
Ġcar i
Ġcar oti
Ġcar otte
aux iliaire
ib is
ib aut
ib Åį
ib rÃ©e
ib ilitÃ©
ib elani
Ã©ri ens
Ã©ri vÃ©
Ã©ri anthro
ĠÃī v
ĠÃī ch
ĠÃī di
ĠÃī dition
ĠÃī lÃ©ments
ĠÃī char
ĠÃī lÃ¨ve
ĠÃī mile
ĠÃī quateur
ĠÃī lections
du cteurs
ĠÃ©t ats
ĠÃ©t oiles
ĠÃ©t ape
ĠÃ©t roites
Ġcommun Ã©ment
par Ãª
ence inte
Ġtu Ã©s
Ġtu bes
Ġpeu plÃ©e
ion ales
Ġapp lis
ĠPour tant
19 13
19 10
19 26
19 53
oule t
dÃ© es
dÃ© mocra
Ġra b
Ġra re
Ġra le
Ġra me
Ġra ff
Ġra tes
Ġra id
Ġra ger
Ġra jou
ĠAr ends
ĠAr chi
ĠAr ctique
ĠAr gentine
ĠAr nt
ĠAr ensnou
ĠAr cheologues
ĠU ru
ĠU sur
ĠU mm
ĠU bis
ĠU kraine
Ġal g
Ġal lÃ©
Ġal la
Ġal lus
Ġal lu
Ġal latif
Ġal gÃ¨bre
Ġal lant
Ġal fa
Ġal Ã©atoire
ĠFran c
lÃ© naire
Ġne mor
Ġne gocie
ĠAl s
ĠAl len
ĠAl cane
ard ie
ard Ã©e
ard enac
ay o
ay ri
ay ak
ĠJe unesse
ĠJe dd
Ġfait es
ins on
ins pir
utilis ateur
ub a
ĠAn s
ĠAn at
ĠAn ty
ĠAn ciens
ĠAn tilles
ĠAn tiquitÃ©
ĠAn qet
ĠAn tarc
ĠAn ouket
bre ux
bre ren
bre cht
ron ter
ron Ã©sie
ron omie
enti elle
enti lÃ©
enti els
Ġme xic
Ġme mbrane
oy Ã©es
Ġmais ons
Ġdeux ieme
ret s
Ġac Ã©t
Ġac quis
Ġac cÃ©der
Ġtra itÃ©s
Ġtra cÃ©
Ġtra itant
Ġtra ductions
Ġinter dite
Ġinter ieur
Ġinter vention
Ġinter net
Ġinter rog
Ġinter view
Ġinter dits
la us
la zac
ĠgÃ© n
ĠgÃ© ographie
Ġjus tif
Ġi ce
Ġi ons
Ġi kkun
Ġsy lvic
ing hi
ing Ã©ni
th Ã©
th ume
Ġconc omitant
Ġph osph
Ġph rÃ©atique
Ġcour ts
Ġcour tine
Ġcour bÃ©
Ġdon n
Ġdon nent
Ġdon jon
Ġso in
Ġso vie
he pa
gn on
ĠIn des
ĠIn form
ĠIn tro
ĠIn dustrie
ĠIn azu
ob ales
ob Ã©nÃ©
ob Åį
ob server
ob actÃ©ries
ob last
ob ilisme
Ġpre te
Ġpre fer
der ot
ru teurs
rit a
rit z
rou x
rou illes
rou illy
rou zier
aÃ «l
cip ation
ad os
ad ap
ad aire
ad esh
ad jet
ad resses
omm oir
od on
od or
od isc
erm an
erm arch
cu te
Ġutilis ait
Ġutilis ables
Ġter ti
Ġter rib
ec tuer
fin ie
ĠPar ois
ĠPar ad
ĠPar tis
ĠPar fois
ĠPar allÃ¨le
ĠPar agons
ĠmÃ© n
ĠmÃ© lo
ĠmÃ© tier
ĠmÃ© tro
ĠmÃ© moires
hÃ© tique
hÃ© dra
hÃ© breu
pr en
pr incip
Ġfin is
Ġfin ie
Ġfin ales
Ġfin landais
Ġfin ancement
ore use
Ġ18 20
Ġ18 15
Ġ18 58
Ġ18 11
Ġ18 55
Ġ18 56
Ġ18 54
lle ment
Ġpuis sent
onn et
onn ant
onn aire
ĠOn tario
ĠOn ouris
Ġentre r
Ġentre pren
rop olit
Ġim ages
Ġser as
Ġser Äī
Ġmar qu
Ġmar oc
Ġmar iti
Ġmar quer
Ġmar quent
Ġmar Ã©chal
ĠĠĠĠ ĠĠĠ
Ġk a
Ġk ar
Ġk Ã¦
Ġk oweÃ¯
Ġk ato
Ġk hmer
Ġk leb
ten us
ten ues
Ġsui vis
ĠgÃ©nÃ© rÃ©
ĠgÃ©nÃ© tiques
ĠgÃ©nÃ© ticien
Ġor ale
Ġres titu
Ġres pire
Ġres eaux
Ġres ultats
Ġcre ve
lan et
lan ter
Ġrep til
Ġrep ondre
Ġrep ousser
ak s
ak u
ak er
ak ht
Ġcol l
Ġcol s
Ġcol or
Ġcol oc
Ġcol lÃ©
Ġcol lier
Ġcol lab
Ġcol osses
ae a
ae mus
des ses
nis ation
tra tion
tra cteurs
Ġdire ctive
mÃ© tique
mÃ© tiques
ver sement
ari es
ari tion
ise i
Ġplan Ã©taire
apon e
ole v
int on
Ã©ra h
Ã©ra k
Ã©ra ble
iss ar
iss ue
Ġgran di
ente in
Ġpe ine
Ġpe intes
lig atif
lig raphie
Ã©c ois
Ã©c oulement
Ġpos tes
Ġpos tÃ©rieure
Ġpos thume
ici le
ici el
ici els
Ġsac re
Ġsac ri
az ine
Ġcou lis
Ġam ar
Ġam our
Ġam ateur
Ġam ateurs
Ġam ule
Ġmin ul
Ġmin istÃ©ri
ĠdÃ©c er
ĠdÃ©c or
ĠdÃ©c ouv
ĠdÃ©c ane
ĠdÃ©c ision
ĠdÃ©c line
ĠdÃ©c ouvrir
ĠdÃ©c ennie
ĠdÃ©c lara
ĠdÃ©c oncent
Ãī tats
Ãī laboration
Ãī vang
Ãī dification
alis ateur
Ġbas Ã©
Ġbas ent
Ġbas Ã©s
Ġbas tille
iff roy
ta wa
onne urs
Ġad ver
Ġad oles
Ġad mis
Ġad ress
Ġad hÃ¨re
Ġad dictif
Ġti ss
Ġti midite
omb res
omb olo
ill o
ill us
ill Ã©e
ill ait
ill ons
ill Ã©s
acc usations
uer Ã©t
ĠAm er
ĠAm mon
ĠAm haric
ĠAm sterdam
Ġbou cle
Ġbou ffe
Ġmom i
Ġmom ifi
18 5
18 23
18 21
18 13
18 27
18 83
18 57
18 35
18 84
form at
form ance
Ġcl os
Ġcl Ã©s
Ġcl och
Ġcl oches
ĠRÃ© fÃ©rence
ĠRÃ© union
ĠRÃ© cipiendaire
ĠRÃ© glementation
ĠRÃ© alisateur
Ġcas h
Ġcas trale
ĠDe d
ĠDe me
ĠDe ir
Ġconcret s
ven iste
Ġpens ent
Ġver se
Ġver nac
Ġver bale
Ġver dict
ĠcrÃ© a
ĠcrÃ© Ã©es
ĠcrÃ© ateurs
id Ã©s
Ġro che
Ġmil lÃ©naire
aut ant
Ġrec os
Ġrec ense
Ġrec urrent
Ġrec ueilli
Ġrec ruteurs
oli o
ches ter
Ġab us
Ġab ond
Ġab aque
Ġab rite
Ġsou p
Ġsou ha
Ġsou fre
Ġsou mettre
Ġsou lign
ĠRe f
ĠRe el
ĠRe dÃ©
ĠRe mar
ĠRe fer
ĠRe venir
ĠRe quest
ĠRe ggae
ĠdÃ©partement ale
Ã©t y
Ã©t ant
Ã©t rique
Ã©t alonn
Ã©t ablit
Ã©tÃ© ro
Ġcor rig
Ġcor beaux
Ġcor Ã©cipiendaire
Ġfil aments
Ġexp lor
Ġexp loit
Ġexp rimÃ©e
Ġimp li
Ġimp ortÃ©e
Ġimp Ã´ts
rib e
rib is
rib uer
Ġpers os
Ġperm it
Ġperm anent
stru it
Ġob lique
Ġob tenir
Ġob tenue
Ġob serv
Ġob tint
fi ent
fi Ã©s
fi Ã©es
fi eld
Ġcap teur
Ġcap acitÃ©s
Ġnorm Ã©es
ĠrÃ©g ence
ĠrÃ©g ents
ĠrÃ©g issant
Ġmot ocycle
Ġform el
Ġform ats
Ġform ulation
min ant
ĠAu de
ĠAu di
ĠAu ge
aÃ¯ l
aÃ¯ t
aÃ¯ lande
Ã©g i
Ã©g alitÃ©
Ã©g ide
Ã©g lise
Ġmus cul
Ġmus cle
ĠDis cographie
Ġpri or
Ġpri ori
Ġpri vil
Ġcul minant
Ġat tein
Ġdiv ises
Ġdiv isÃ©
Ġdiv isÃ©e
ĠMe kh
ĠMe ier
ĠMe mbres
ĠMe hen
Ġesp Ã©ranto
Ġma il
Ġma Ã§onnerie
Ġman ette
Ġman ier
Ġman ettes
Ġman uel
Ġman quant
Ġman uels
Ġman utention
Ġ10 87
ĠÃ©c riv
ĠÃ©c oss
ĠÃ©c laire
ĠÃ©c ologiques
ĠÃ©c osyst
20 16
20 23
20 10
20 14
dent aire
Ġá ¸¥
Ġá ¼Ī
Ġtrans position
Ġtrans cription
Ġtrans mise
Ġavant ages
Ġavant ageux
oute t
oute illages
Ġass is
Ġass iste
Ġass urant
Ġass urÃ©e
lus ques
lus ivitÃ©
ric tive
olu ent
ocor idae
vel ot
itu de
oci ent
oci able
oci dae
pÃ© rer
pÃ© dia
ĠQ ui
ĠQ ue
ĠQ Ã©b
ĠQ adesh
ĠQ uerÃ©t
Ġpres sions
Ġpres sant
Ġpres sÃ©
Ġtour iste
Ġtour nant
aille ries
Ġri che
Ġri val
Ġmont rÃ©
Ġmont age
Ġmont ure
Ġmont rouzier
ex tra
ex traction
ex erce
ex erci
ex aminateur
Ġmes urÃ©
Ġmes urent
Ġsig les
Ġsig nÃ©
Ġsig lais
Ġreg ionales
oph age
enn uy
Ġces sÃ©
Ġcal end
Ġcal ifor
Ġcal caire
Ġcal ibrÃ©e
ĠCe d
ĠCe ci
Ġacc Ã¨de
Ġacc oster
Ã©n en
Ã©n as
Ã©n ager
mpe te
ĠBab aÃ¯
ĠdiffÃ©r ent
ĠdiffÃ©r entiel
ĠdiffÃ©r enci
av an
av Ã¨rent
Ġ6 1
Ġ6 502
Ġ6 510
Ġaut ocra
Ġaut onomie
Ġaut och
Ġaut ocrate
ĠNe he
ĠNe khen
ĠNe heb
ĠNe khbet
ĠNe dder
ĠNe kheb
ature lle
Ġconn ues
Ġconn aÃ®tr
but ane
Ġtrop ic
tionn iste
tionn elles
Ġprop ane
Ġper les
Ġper Ã§
Ġper dus
Ġper Ã§u
Ġper mirent
Ġvis ant
Ġvis ites
Ġvis uelle
Ġvis iteur
Ġvis cÃ¨res
one y
one ige
Ġag ran
Ġag gl
Ġag ronome
Ġenc ourage
ass a
ass er
ass ant
ass ades
ass urer
ass assin
ass ocient
Ġroi deur
Ġ198 7
Ġport a
Ġport s
erg Ã©
erg ues
Ġali ments
Ġali menter
Ġfond Ã©es
Ġbi punctata
Ġbi omat
ĠMar s
ĠMar que
ĠMar ta
ĠMar ko
ĠMar ino
ĠMar kun
rie d
ony a
lu mb
ĠY ves
ĠY outh
ĠY orim
Ã©li te
ĠCar Ã©liens
ĠCar apez
occ urrence
Ġsoci al
Ġsoci atif
Ġsoci ety
Ġsoci oling
ĠreprÃ©sent ait
ĠreprÃ©sent aient
ĠreprÃ©sent ative
ĠreprÃ©sent atives
ĠsÃ© di
ĠsÃ© jour
ĠsÃ© jours
ĠsÃ© parer
ĠsÃ© mitiques
ĠsÃ© miotique
Ġren on
Ġren omm
Ġren vers
Ġren aÃ®tre
Ġren fer
Ġren ommÃ©
Ġren ommÃ©e
Ġren dements
17 03
17 84
Ġlong ues
tiv ision
Ġmat hs
ori Ã©
ori els
be at
kh os
kh ety
kh aÃ¯l
Ġfut urs
Ġappel lations
ĠÃ©gypti ennes
ser rat
ĠCon struction
ĠCon versation
ĠÃ©lect romag
Ġ17 59
Ġchar s
Ġchar tes
Ġchar ismatique
cul a
Ġsuc cÃ©der
In ternet
commun alitÃ©s
ner ville
ner heim
Ã©m ission
Ã©m ettre
ĠPro jet
ĠPro cÃ©
ĠPro vence
ĠPro duits
Ġappar t
Ġappar aÃ®tre
exp lor
exp Ã©dition
exp lication
Ġouv riÃ¨re
Ġouv rant
Ġarri vant
Ġarri vait
Ġcourant es
Ġcapit alisation
Åĵ urs
Ġop en
Ġop us
Ġop tionnels
Ġtoi les
Ġang l
Ġang les
Ġang oissantes
ĠfÃ© lin
Ġfon ce
Ġinc ert
Ġinc lus
Ġinc onvÃ©ni
ĠQu ad
ĠQu atre
An ton
An gel
An toine
An gleterre
An atolie
ose iidae
Ġgra de
Ġgra ines
Ġgra vÃ©
Ġgra vÃ©e
Ġbase ball
cal ade
hi ko
hi polis
hi ppopotame
hi kaga
ok oro
pt Ã¨res
Ġ5 6
Ġ5 00
Ġdom inÃ©e
Ġli ve
Ġli ons
Ġli aisons
ali mentation
ĠBas es
ĠBas ic
ĠBas ta
har ign
pi ons
Ġas pect
Ġas semblÃ©e
ĠBib le
ĠTh at
ĠTh unberg
ĠTh aÃ¯lande
Ġreste ra
Ġbar be
Ġbar oque
Ġoff rant
Ġpersonn alitÃ©s
eur in
gu Ã©e
gu ay
Ã¯ n
Ã¯ que
Ã¯ tÃ©
Ã¯ avie
Ġvie illard
Ġpart ant
Ġpart agent
Ġpart agÃ©
Ġrest o
Ġrest es
Ġrest ant
Ġrest Ã©e
Ġrest ait
Ġrest rictive
Ġsol s
Ġsol des
Ġsol dat
Ġfer ont
Ġfer mes
Ġfer tile
Ġfer mier
Ġgen ev
mÃ©ni de
Ã³ r
Ġdro le
anti nes
anti ll
dition ne
Ġcompos ant
Ġcompos Ã©es
ĠParis ienne
Ġroy aumes
Åį sa
Åį bu
Ġw ant
Ġw ith
Ġw ifi
Ġw allet
oun et
Ġprof s
Ġprof ond
Ġprof its
Ġprof ane
Ġprof esseurs
ĠChar ly
ĠAmon et
200 8
yl onien
Ġiss ues
ath Ã©riens
ĠThe odor
Ġeff igie
Ġrom ans
Ġrom ance
Ġrom aines
Ġrom ains
Ġprote ge
ĠX ibelani
Ġdou ze
Ġliv rÃ©e
arch Ã©es
olais e
Ġrel ati
Ġrel atif
Ġrel atifs
ĠspÃ©ci aux
Ġtou re
Ġtou che
Ġconst ate
ĠSh out
ĠSh ama
ĠSh annon
ĠSh aw
ĠSh alit
ĠSon ic
ĠprÃ©cis es
ĠprÃ©cis Ã©
ĠprÃ©cis er
ĠprÃ©cis Ã©e
Al bert
Al liance
Ġpat ch
Ġpat ron
Ġmic ropro
Ġta illes
Ġta xin
ell ation
ĠMi a
ĠMi y
ĠMi khaÃ¯l
ĠrÃ©p ondre
ĠrÃ©p utation
ĠrÃ©p utÃ©
ologique ment
Ġphysi co
SI G
SI WY
ile y
ile us
ile ith
Ġsal aires
Ġsal sa
Ġsal tas
Ġai dÃ©
Ġai der
Ġmer lon
ĠAh mÃ´sis
ĠSt orm
ĠSt one
ĠSt choty
Ġrapp ro
Ġrapp orter
eff et
eff ectuer
pl ay
Ġsor tit
Ġten ues
Ġten nis
Ġni hilo
Ġindi en
Ġindi quÃ©
Ġindi quant
Ġindi quÃ©e
Ġindi gÃ¨ne
Ġsuper f
Ġsuper vision
Ġconstitu Ã©s
Ġconstitu tions
Ġconstitu ants
Ġconstitu tionnelle
Ġconstitu tionnelles
Ġmilli on
Ġ% .
Ġoc cup
Ġlet ton
Ġsitu Ã©es
ĠCan iformia
ĠCan oÃ«
Ġsign aux
lace ments
Ġsymb olique
Ġoffici elles
rab lement
Ġgar an
Ġgar ni
Ġgar dien
Ġju dici
ĠrÃ©s ur
Ġpass Ã©es
Ġcommer ces
Ġcommer Ã§ants
Ġsyn onymie
Ġsyn thÃ©tiques
landais es
Ġgouvernement aux
Ġsau te
Ġsau vage
Ġsau vages
Ġvais seau
Ġvari able
Ġvari antes
Ġvari ables
ili ppe
Ġnature ls
ĠdÃ©f endant
ĠdÃ©f unts
ĠdÃ©f enses
ĠdÃ©f ensive
Ġins pect
Ġprog rÃ¨s
Ġprog ression
Ġprog resses
Ġprog rammes
lÃ©ment ation
ĠAnd rome
Ġdist raire
Ġcro iss
Ġcro Ã®tre
Ġaff e
Ġaff aire
urb anisation
Ġvra ies
Ġvra isemb
ĠCom tÃ©
ĠCom position
Ġconf is
Ġconf orme
Ġconf Ã¨rent
Ġcontre poids
Ġref aire
Ġref erm
Ġref usant
ĠsiÃ¨ ges
Ġ194 2
Ġ194 3
Ġ194 4
ĠprÃ©si dence
16 03
16 97
iti Ã©
imp r
imp erator
imp atience
Ġcent res
let tres
Ġvoy ous
Ġvoy elles
Ġvoy ez
Ġgrec s
ĠIs et
ĠIs ab
ĠIs ht
Ġrou x
Ġrou ges
Ġrou tier
amb ie
amb iance
hÃ©mati cien
Ġis a
Ġis lam
esp aces
esp Ã¨ce
ĠlÃ©g Ã¨rement
ĠlÃ©g endes
Ġmol lusques
ĠPh ot
ĠPh one
ĠPh yt
ĠPh onÃ©tique
Ġann ule
Ar ch
Ar gent
Ar gentine
cri me
gl ass
Ġent endu
Ġent lang
Ġent omologiste
Ġent otympanique
Ġdebut s
Ġfac es
Ġfac teur
Ġfac ultÃ©
Ġfac ilit
Ġbr ome
Ġbr Äģ
Ġrempl ie
ĠprÃ©sent a
ĠprÃ©sent ant
ĠprÃ©sent Ã©e
ĠprÃ©sent oir
Ġatt end
Ġatt ribue
Ġassoci atif
Ġfonction nement
Ġfonction nent
ow ling
Ġ7 498
Ġ7 185
Ġling uistes
Ġpublic itÃ©
Ġmag nÃ©tisme
Ġmag istra
Ġmag nific
Ġmag azine
Ġfra ction
Ġfra ctions
Ġfra Ã®
Ġfra udes
ĠAs si
ĠAs tÃ©rix
ĠAs hikaga
cep tible
Ġinform ati
Ġcad ast
ĠdÃ©veloppe ur
Ġmen en
Ġmen Ã©e
Ġmen eur
Ġmen uiserie
Ġth at
Ġth riller
Ġth Ã©rianthro
Ġtri o
Ġtri p
Ġtri omphe
Ġnou e
Ġcont our
Ġcont act
Ġcont ribue
Ġcont acts
ĠSa qqarah
Ġdiver tir
ĠHar akh
ĠHar parÃª
Ġess entiel
Ġess aye
Ġorganis er
Ġorganis Ã©e
ĠdÃ©sign Ã©e
ki pÃ©dia
Ġpie ges
Ġcin quant
Ġcin Ã©mat
inter face
inter national
inter prÃ©tation
inter rogation
Ġmal ade
Ġmal fais
Ġmain tien
Ġmain tenu
Ġmain tenus
Ġnum Ã©ros
ĠÃ©v o
ĠÃ©v al
ĠÃ©v Ã¨nement
ĠÃ©v oquer
ĠSe y
ĠSe at
ĠSe ine
ĠSe pt
ĠdÃ©p asse
ĠdÃ©p endance
Ġpasse port
Åĵu fs
Åĵu vres
Ġremplac ent
Ġremplac Ã©s
Am erican
yc lus
Ġ8 2
Ġ8 00
ĠZ eus
Ġcan on
Ġcan ope
Ġsc Ã¨nes
Ġsc rutin
Ġsc andina
Ġsc outs
Ġsc ribe
ĠAp is
Ġ15 6
ĠTe mpete
Ġ193 5
Ġ193 7
Ġmaj eure
Ġmaj eurs
Ġmaj uscule
ĠmathÃ©mati ciens
ĠconsidÃ© ration
ĠconsidÃ© rÃ©es
ĠconsidÃ© rable
ĠconsidÃ© rablement
oin te
Ġporte rait
Ġcentra lisÃ©e
Ġvol t
Ġcomb iner
ĠÃ©le ver
ĠÃ©le vÃ©s
ĠÃ©le vÃ©es
Ġcontra ts
ĠDÃ©c athlon
ĠDÃ©c laration
ĠMan che
ĠMan oire
ĠMan rique
ĠMan uel
ĠMan chester
ĠMan nerheim
Ġsaou diennes
ĠChamp ion
Ġsupp orts
Ġsupp rimÃ©
198 1
198 3
198 4
198 7
Ġcolle ctions
Ġculture lles
ĠPas illo
Ġpom pes
Ġsh ort
Ġsh uff
Ġsoir s
tel s
ĠÃ©p ique
ĠÃ©p ith
ĠÃ©p ousa
ĠÃ©p ouses
ĠSy n
Ġ16 34
Ġ16 41
Ġ16 75
ĠBi ologie
ĠBi odiversitÃ©
ĠBi ogeoche
ĠMa uss
ĠMa ast
ĠfÃ©dÃ© rÃ©
ov o
ov ie
ov ation
ov od
Ġpub liÃ©s
Ġsour is
Ġmulti mÃ¨tre
Ġmulti point
Ġmulti points
Ġbul le
Ġinst a
Ġinst ruire
ĠrÃ©alis er
ĠrÃ©alis ations
ĠrÃ©alis era
ĠHe h
ĠHe y
ĠHe het
ĠHe dj
ĠHe ights
app el
app areil
app rocher
app lications
app uient
Ġsub it
Ġsub jec
Ġsub stitu
Ġdirect rices
Ġcorrespond ent
Ġcorrespond ance
mar ine
ug yÅį
Ã¡ g
ËĪ b
ËĪ d
ËĪ t
ËĪ v
áĪ İáī
áĪ Ĳáĭ
áĪ ĺáĪ
Ġel nÃ¶
Ġci ter
Ġci metiÃ¨re
inn erton
ĠtÃ©lÃ© film
ĠtÃ©lÃ© visÃ©e
ilis Ã©
ĠÃĤ mm
ĠCor ps
ĠCor respond
ĠCor quoy
Ġbour g
Ġbour siÃ¨re
Ġbrit anniques
Ġgrou p
Ġsty les
Ġstat s
Ġcolon el
Ġcolon ies
Ã©lect ro
Ã©lect rom
Ġpi Ã¨ce
Ġpous siÃ¨re
Ġmi xte
Ġmyth es
Ġmyth ique
Ġno tions
ĠAt las
ĠAut om
ĠAut riche
ĠAut omotive
ĠAut oglass
ĠPr in
ĠPr usse
ĠBl ues
ĠBl ock
ĠBl omho
ĠMont pen
ĠMont rÃ©al
ĠMont aign
ĠMont sore
ĠMont serrat
ĠOu adj
Ġmondi alement
Ġorient ation
Ġorient aux
Ġorient ations
Ġant h
Ġant agoniste
Ġcli matique
Ġty tÃ¶
Ġvic times
Ġenf antÃ©
Ġbeau x
ĠDon nÃ©es
ĠDon bass
Ġprov oquer
ĠKar j
199 1
199 2
199 6
199 8
199 9
Ġterrit oires
Ġterrit orial
ĠmÃ©di ca
ĠabrÃ©vi atif
han ou
enir s
Ġdec or
Ġdec ode
Ġdec ouper
Ġdec ouvres
Ġveu lent
ĠComm and
ĠComm une
ĠComm ittee
ĠBr un
ĠBr ut
ĠBr antÃ´me
ĠDi dier
ĠDi alectes
ĠdÃ©ci dÃ©
Ġcher chant
Ġprot Ã¨gent
ĠprÃ©f ace
ĠprÃ©f Ã©rer
Ġprom ul
Ġprom ouvoir
Ġsup Ã©rieurs
Ġappr entissage
Ġappr ouvÃ©
Ġparticip ent
Ġmeille urs
Ġdivers itÃ©
ĠáĪ ĥáĪ
Ġlogici elle
Ġcommerci aux
Ġcommerci aliser
Ġspe ctre
Ġmur aille
uri ers
Ġfai bles
ras se
rat rice
Ġgraph ie
Ġgraph ics
ĠÃ©di fices
Ġsept entrion
Ġ190 5
Ġ190 6
Ġ190 7
Ġanim es
197 0
197 8
197 9
Ġrapi des
Ġress ens
Ġrespe ct
Ġrespe ctive
ĠdÃ©fini tif
ĠjamaÃ¯c aines
ĠjamaÃ¯c ains
15 9
15 14
15 73
dis cussi
ht ocaps
Ġdev aient
Ġdev ise
Ġdev rait
Ġenviron nant
ĠAd dis
ĠAd ministration
ĠAd vance
ĠBou siris
ĠBou bastis
ĠBou lazac
ĠMic ro
ĠMic ropro
ĠMic ronÃ©sie
Ġiniti ation
Ġiniti ale
ĠGu adel
Ġadminist re
Ġadminist rÃ©e
Ġadminist ration
ĠÃ©conom ie
ĠáĬ ¸
ĠáĬ ¥áĪ³áī
Ġeffet s
ĠâĨ Ķ
ern et
Ġbru te
Ġbru yant
Ġgl aive
Ġemp ires
Ġemp lacement
ult z
ouvert es
Ġexc lam
Ġexc ellente
190 5
190 8
ĠAnth ocoridae
Ġ188 0
Ġ188 3
Ġ188 5
Ġ189 0
Ġcircu its
Ġpratique ment
Ġpharaon iques
Ch er
Ch amond
ck er
latif s
mon ie
Ġ9 0
Ġ9 3
Ġ9 4
Ġ9 7
Ġran gÃ©e
ĠpÃ©tro liÃ¨re
Ġcla que
Ġquar ante
Ġquar tiers
Ġven ue
Ġven deur
ĠÃ¨ k
ĠÃ¨ tt
Ġenti Ã¨re
Ġnoir s
Ġbat teur
Ġbat tant
Ġbat tle
Ġbat terie
Ġbeff roy
sib ilitÃ©
ĠBan de
ĠBan co
ĠBan ach
ĠMus Ã©es
ĠMus ashi
ĠRen en
Ġhom Ã©riques
Ġhom ologuÃ©e
196 3
196 4
Ġradi c
ĠUni on
Ãīc ologie
ĠEsp agnol
ca use
dit ation
uel a
Ã©qu ations
Ã©qu ilibre
Ġcy tologiste
Ġcat hÃ©dra
Ġsin ogrammes
inc itation
Ġvo ja
ĠbÃ©nÃ© ficie
ĠGo a
ĠGo ogle
ĠRoy al
Ġtrou e
âĶ¬ âĶĢâĶĢâĶĢâĶĢâĶĢâĶĢ
Ġarch aÃ¯que
193 1
193 2
193 4
193 5
193 6
193 7
193 8
Ġtransp orts
ĠsÃ©par ent
ĠsupÃ©rie ures
ez uela
xim ativement
instru ment
Ġtyp ographie
Ġtyp iquement
ĠCal cul
ĠCal endrier
ĠCal tech
ĠCal ligraphie
ĠPer formance
ĠÃ©qu im
ĠÃ©qu ilibre
ĠSch ock
ĠSch ool
ĠII S
Ġinstru ction
Ġinstru mental
ĠNÃ© el
ĠNÃ© fertoum
Ġcamp us
Ġtrouv Ã©
Ġtrouv Ã©s
194 0
194 7
194 9
ĠInter p
ĠInter face
ĠInter view
ĠInter communalitÃ©s
ĠcaractÃ©ris Ã©e
ĠintÃ©g rÃ©e
ĠintÃ©g rait
ĠintÃ©g rer
ĠintÃ©g rable
Or ne
UL LAC
rÃ¨ tes
Ġciv il
Ġciv iles
Ġsort es
ital ien
ĠLib res
ĠLib Ã©ralisme
ĠdÃ©b ar
ĠdÃ©b ranch
ĠdÃ©b utÃ©s
ĠdÃ©b oucher
Ġinf os
Ġinf rastru
Ġinv raisemb
ĠrÃ©c it
ĠrÃ©c lam
ĠJac ob
ĠJam es
Ġmod elÃ©s
Ġmodi fiÃ©
ĠarmÃ©ni ens
Ġ183 2
Ġ183 4
Ġ183 8
ĠÃ©crit ure
Ġtravers ant
Ġoccident ales
ĠTechn ologies
ĠfrÃ©qu entes
ĠfrÃ©qu entation
ho of
ik o
lant a
log ique
val ise
Ġfrig id
Ġfusion ne
Ġfusion nÃ©
Ġfusion nÃ©es
Ġunivers elle
Ġunivers ellement
Ġbl as
Ġbl Ã©s
Ġboy s
Ġgramm aires
ĠSer bie
ĠSoci al
ĠTro arn
Ġremp arts
Ġremp orta
Ġchois i
Ġchois is
Ġchois it
ĠMÃ© lis
ĠGen Ã¨se
ĠGen eral
ĠGam ay
ĠrÃ©v olte
Ġvide os
ĠÃ©tab lie
Ġadop ter
Ġtransf Ã©rÃ©es
ĠnÃ©cess itÃ©
ĠnÃ©cess itant
Ġprofessionn elle
Ġsorti r
Ġsorti ra
ĠindÃ©pendant es
En cyc
Ou tre
Ã¶ z
Ã©p Ã©e
Ã©p ouse
Ã©p oux
Ã©p reu
Ã©p aule
Ġcr yp
Ġcr Ã¢
Ġcr iniÃ¨re
org hini
Ġfoot balle
rich t
Ġparf um
Ġparf aitement
ĠÃ©ch ap
ĠÃ©ch ange
ĠÃ©ch antill
Ġaug mentation
ĠTop onymie
Ġchoc s
ĠMon te
ĠMon et
ĠMon od
ĠMon uments
ĠMon ica
Ġemb rouilles
Ġemb outeillages
ĠGar dien
ĠGar vey
ĠGar diens
ĠGar cÃŃa
Ġcompar able
Ġcompar ables
Ġcompar ative
Ġcompar aison
ĠChrysop idae
Ġ187 0
Ġ187 1
Ġautor ise
Ġautor oute
ĠProg ressivement
ĠopÃ©ra teur
ĠopÃ©ra teurs
Ġfix er
Ġfix Ã©e
Ġjoue use
Ġadministra tif
Ġadministra tives
PC US
su jet
tri Ã¨res
ĠÅ ¡n
ĠÐ ²
ĠÐ ´Ð¾Ð
ĠÐ ¸Ð
arde ments
Ġfig ur
Ġfig Ã©es
Ġfig ures
ĠCa chÃ©
ĠAc ade
ĠAc tivitÃ©s
ĠAc tivision
Ġbal con
ĠSan nerville
ĠSal t
ĠSal vad
ĠSal omon
Ġ14 6
ĠDou glas
ĠrÃ©f orme
ĠrÃ©f lecteur
ĠprotÃ© gÃ©
occu per
Ġcommen Ã§aient
mod ynamique
ĠKe ket
ĠKe isei
âĶĢâĶ¬ âĶĢâĶĢâĶĢâĶĢ
Ġpuiss ante
Ġpuiss ances
Ġprim atologue
Ġmunicip al
Ġmunicip aux
Ġmunicip ales
Ġmunicip alitÃ©s
11 1
Is raÃ«l
den ou
europÃ© en
europÃ© enne
odi que
ess ai
Ġpa ie
Ġdeme urent
Ġto o
Ġve iller
Ġenv oyÃ©es
ĠLin nÃ©
Ġneu tra
ĠCO DATA
ĠCl aire
ĠCl ay
ĠCl ub
ĠAvant ages
ĠSur nom
ĠBa al
ĠBa ie
ĠBa fana
ĠBus h
ĠMo ore
Ġsep tiÃ¨me
Ġru iner
Ġdirig ent
Ġdirig Ã©s
Ġhi pp
Ġhi Ã©rarch
ĠprÃ©c autions
Ġfortif ications
ĠidÃ© al
ĠidÃ© ologie
ĠidÃ© ogramme
Ġirak iens
eck el
Ġconsac rer
Ġadul te
autom ne
autom obile
autom obilisme
Ġmaxim ale
Ġmaxim um
ĠThom as
ĠÃ©tudi Ã©
ĠÃ©tudi ant
Ġconstr uite
Ġmultip olaris
AD ULLAC
emb ouch
iy ama
ira do
och im
Ġdat ent
Ġdat ant
eng ager
eng agent
Ġsout enir
Ġdem le
Ġdem ain
Ġdem andes
Ġmai d
ĠvÃ©r itÃ©s
Ġense ignement
Ġense ignes
ĠLi mite
ĠCent res
ĠBer ne
ĠBer ry
ĠBer hanou
ĠDun c
ĠTur k
ĠTur dine
ĠMal oya
ĠrÃ©par ti
ĠrÃ©par tis
ĠrÃ©par tition
Ġstandard s
ĠprÃ©cÃ© dant
ĠprÃ©cÃ© dente
Ġappli quer
Ġall ait
utiliser a
Ġidenti tÃ©s
Ġidenti fier
Ġidenti fiÃ©
Ġconsomm Ã©e
Ġmess ager
Ġpropos Ã©
Ġpropos Ã©e
ĠMich igan
ĠMich ael
Ġancienne ment
ĠdÃ©cim aux
Ġorigin ellement
ĠcontrÃ´le urs
EE DD
Ġdoll ar
Ã©h out
Ġpot s
Ġpot entiellement
Ġpot ager
Ġajout s
Ġajout ant
inf os
inf lation
inf rarouge
arc ation
ĠthÃ© ologie
ĠthÃ© Ã¢tre
Ġflot tante
Ġvit rage
Ġvoc abulaire
ĠLig niÃ¨res
ĠPe k
ĠSci entifique
ĠBo ole
ĠDj e
ĠDj ogoun
ĠDj Ã©ser
Ġplac Ã©e
Ġplac Ã©s
agas car
ĠTa du
ĠTa ouret
ĠdÃ©termin Ã©e
ĠdÃ©termin atif
ĠMat hemati
ĠNom s
ĠNom breux
ĠrÃ©d uis
ĠrÃ©d uire
ĠJus t
ĠJus que
ĠJus tin
Ġpris on
Ġcoord onne
ĠChÃ¢te aux
Ġdispar u
Ġmob iles
Ġtruc s
Ġfranc ais
Ġfranc ophones
ĠmÃ©c anisme
ĠmÃ©t ropole
Ġjourn aliste
Ġjourn alistes
Ġadore r
186 7
186 9
Ġreconn ue
Ġreconn aÃ®tre
Ġtransform er
Ġtransform ation
Ġtransform ations
Ġregroupe ment
Ġ178 4
Ġ178 8
Ġ178 9
Ġsucces sivement
Ġouvert es
Ġeffec tive
Ġcombat tu
ĠlinÃ© aires
Ġreligieuse ment
US DA
rest res
Ġdanse urs
Ã©ch elle
Ã©ch ange
Ġcos mique
Ġcrist all
Ġsus ceptible
tim ate
intÃ© g
intÃ© resse
Ġtom es
ĠSie bold
ĠEr ment
ĠBar ry
ĠDom inique
ĠDel ta
Ġplut ot
ĠdÃ©v oi
Ġretra ce
Ġindus tries
oth Ã¨ques
ĠGl ass
ĠGl obe
ĠGÃ© orgie
ĠVol tige
Ġdisc ours
Ġdisc othÃ¨ques
ĠÃīc osse
Ġtrai ter
Ġtradition alistes
obs c
Ġfinanci er
Ġfinanci ers
Ġ184 4
Ġkil o
Ġkil omÃ¨tres
Ġsuiv ront
Ġrepro chÃ©
184 2
Ġrecon struit
Ġrecon ditionne
Ġsouff ert
Ġimpos ent
ĠimpÃ©ri aux
Ġcallig raphie
quipe ment
Ġrestaur Ã©s
oxy gÃ¨ne
Ġcroy ances
import antes
ĠmÃ©diÃ©v al
ĠmÃ©diÃ©v aux
Ġinflu ences
ä¸Ģ åįģä¸Ģ
Ġparfait es
cit anie
fond ateurs
hom mes
off ici
uk u
uk ata
yr us
á¸ ı
Ġcrois Ã©
Ġcrois Ã©s
Ġsan itaire
Ġtres or
Ġflam mes
Ġflam ande
illÃ© es
ĠnÃ©g ation
anthrop ologue
ĠPÃ©ri ode
ĠPremi ers
ĠÃ©vent uel
ĠSab rina
ĠBour se
Ġchan ter
ĠrÃ©si dences
ĠRa du
ĠRa diotÃ©lÃ©
ĠHa wk
ĠHa eckel
ĠHen outtaneb
ĠFor est
Ġ28 0
Ġcommand Ã©
Ġcommand ent
Ġcommand Ã©e
Ġcommand ait
ĠChris tine
ĠKen jutsu
Ġcarb ones
Ġaltern ative
Ġmeur tre
Ġmeur triÃ¨res
Ġphra ses
Ġpreu ves
Ġcollabor Ã©
Ġcollabor ateurs
187 7
ĠConst ante
Ġlocalis Ã©
Ġsauve garde
Ġmix tes
ĠÃ©trang Ã¨res
ĠstratÃ© gique
36 3
Ap ollon
As semblÃ©e
Hor akhty
col onel
je k
not Ã©e
Ðµ ÑĤ
Ðµ Ð»
áĬ ĳ
áĬ ķáī
Ġpap yrus
orÃ© duction
Ġtro tskiste
Ġeng endre
Ġeng agÃ©
ĠCou Ã¯avie
ĠAth Ã¨nes
ĠAth Äĵ
ĠAth ribis
Ġgerm ination
Ġgerm aniques
att ribution
Ġconj on
ĠBro th
ĠBro wn
ĠDire ct
ĠTra de
ĠTra itÃ©
ĠMel bourne
ĠMel odisc
ĠMoul der
ĠrÃ©gn er
ĠrÃ©gn ait
Ġhar an
Ġposi tions
Ġposi tif
orth ographe
Ġcompag nies
ĠcomplÃ©ment aire
Ġexist ent
Ġexist ait
Ġ180 7
Ġ180 8
Ġ186 1
Ġ186 6
Ġminim al
Ġminim um
Ġminim iser
ĠdÃ©clin aison
Ġadap tÃ©e
Ġadap tation
Ġadap tateur
Ġsouverain etÃ©
Ġclass es
Ġclass Ã©
Ġabs olue
177 4
177 6
Ġlumine uses
Ġsignifi ait
Ġconsid Ã¨rent
ĠÃ©volu tionniste
ĠCommon we
ĠnÃ©cessaire ment
ĠtempÃ©ra tures
ĠbÃ¢ti r
Ð¾Ð ²Ðµ
Ġindustri elles
56 7
57 0
AC M
Char les
Char ente
Char entes
cons acrÃ©
sh irt
up et
van omÃ¨tre
Ã¦ us
Äģ n
ÉĽ l
Ã©l oc
Ġpal Ã©
Ġpal iss
Ġpal atales
ĠpÃ©r il
Ġcra int
Ġcouvert s
Ġquin quenn
Ġquasi ment
Ġval able
Ġval id
Ġenne mi
Ġenne mie
ĠLamb orghini
ĠCin quiÃ¨me
ĠClau dius
ĠAg bad
Ġbe at
Ġbe iffroy
Ġbomb ardi
Ġbomb ardÃ©
Ġbomb ardements
ĠPan ama
ĠÃ©m ulÃ©
ĠÃ©m ergÃ©
Ġcong olaise
Ġconv osco
Ġconv ainc
Ġconver sion
Ġconver tir
ĠSav oir
ĠSav oye
ĠEx ten
ĠEx tended
ĠBor is
ĠDo eff
ĠdÃ©ri ve
Ġred outable
Ġchap eau
ĠMas ayoshi
ĠinfÃ©r ieur
ĠGod desses
ĠrÃ©un is
Ġproc rÃ©
Ġproc Ã¨de
ĠprocÃ© dÃ©s
ĠprocÃ© dures
Ġhyd rocar
ĠFer mig
ĠcoÃ» t
Ġaller gies
ĠAng lais
ĠgÃ©nÃ©ralis Ã©
Ġbass iste
Ġvertic ale
Ã©tend ue
Ġobjectif s
exc lusivitÃ©
ĠÃ©lectro ly
Ġ179 0
Ġ179 1
Ġ179 3
âĶĢâĶĢâĶĢâĶĢâĶĢâĶĢâĶĢâĶĢ âĶĢâĶĢâĶĢâĶĢ
âĶĢâĶĢâĶĢâĶĢâĶĢâĶĢâĶĢâĶĢ âĶĢâĶĲ
ĠdÃ©velopp Ã©s
ĠspÃ©cialis Ã©
ĠspÃ©cialis Ã©e
ĠspÃ©cialis Ã©es
ĠâĦ Ĥ
ĠâĦ Ŀ
ĠPhil adel
ĠPhili pp
ĠnumÃ©ro tation
Ġspor tifs
Ġgrammatic aux
Ġgrammatic alement
Ġgrammatic alisation
ĠindÃ©pend amment
Ġprotoc ole
ĠáĬł áĪ
Ġinstrument ales
ĠÃ©tablis sement
ĠexpÃ©riment ales
ĠvÃ©rit ablement
Ġrasta fari
Ġassimil ation
Ġassimil Ã©e
Az ergues
hÃ©r itage
åį ĥ
Ġlo ve
enf ant
enregistre ments
Ġpand a
Ġsab re
Ġsab oter
Ġsing le
Ġara bes
Ġmass ac
Ġtamb ours
Ġferm Ã©
Ġquit tent
ĠCat Ã©gorie
ĠCop ley
Ġbord elais
ĠPeu tinger
ĠPort land
Ġgri ffe
ĠSar at
ĠSar roux
ĠSig les
ĠEst ados
ĠTrans cription
ĠTrans cendance
Ġcham bre
Ġcham ito
Ġcham ailleries
Ġint Ã¨gre
othÃ© isme
ĠNa unet
ĠNot amment
ĠNap ata
ĠRel ation
Ġsurn omme
ĠHer bert
Ġviol ence
Ġviol ents
Ġcompil ation
Ġcompil ateurs
ĠprÃ©h istorique
ĠprÃ©par ation
ĠChac une
ĠChange ment
ĠarchÃ© ologique
ĠarchÃ© ologue
ĠarchÃ© ologues
Ġappro vision
Ġappro fon
Ġavan cÃ©e
Ġavan cÃ©es
ĠUtilis ations
heb dom
ĠconsÃ©qu ent
Ġposses sive
189 5
Ġsouter raine
Ġexpos ants
Ġobs ol
ĠAugus te
ĠMem orial
ĠMem oirs
entraÃ® nement
Ġencod ages
ĠCarac tÃ¨res
ĠdÃ©mont rÃ©
179 5
ĠfÃ©od al
And rÃ©
And erson
Ġinscrit s
Ġaffir me
Ġaffir mant
Ġpratiqu ant
ĠintÃ©rie ure
ĠintÃ©rie ures
ĠdÃ©pos ent
ĠsupplÃ©ment aire
Ġpoign ardÃ©e
ĠáĪĲ áĪĺáĪ
Ġarchite ctur
Ġconserv Ã©es
ĠrÃ©comp ens
ĠÃ©tabli r
Ġseigneuri ale
Ġfortifi Ã©
ĠGalli en
Ġcoiff eur
ĠtÃ©moign er
ĠtÃ©moign ent
Ġfrottement s
ĠMystic s
ĠhiÃ©rogly phe
ĠhiÃ©rogly phique
30 826
Ab olition
Ag ence
Se ine
aj oute
ajout ent
bo xe
dj edet
fric ain
habit ants
heure usement
lang ue
mou ia
pen di
pro vince
yra ud
zac ais
ÉĶ m
ÑĤ Ñ
Ġocc asion
ĠÅĵu fs
ĠÅĵu vres
Ã©th ologie
Ġpau vres
Ġpond Ã©rale
Ġcum ul
Ġcum ule
ĠcÃ¢ bles
anim aux
eri um
Ġmun ie
Ġmor ale
Ġmous tiques
Ġflu vi
ĠvÃ©nÃ© rÃ©
Ġenregist rÃ©
ĠLog ement
ĠLog iciels
ĠCrÃ© ation
ĠCiv itas
ĠCross fire
Ġbille ts
Ġcomment aires
ĠPic ciotto
ĠÃ©rig Ã©e
ĠSing apour
ĠElectron ic
ĠBen ben
ĠBen veniste
ĠBelle vue
ĠBord es
ĠDÃ©m ographie
Ġjuri diques
Ġrepe teur
Ġrepar ation
ĠImp rimerie
Ġinten tions
Ġintellig ent
Ġev oluent
ĠGas ton
ĠGau les
ĠNic Ã©e
ĠNic ole
ĠNic olas
ĠrÃ©pÃ© ter
ĠRet urn
ĠRÃ©s umÃ©
Ġroule r
Ġdiction naires
Ġdimin utif
Ġdipl Ã´me
Ġhilber tiennes
ĠHat ti
ĠVic tor
ĠWh at
ĠcompÃ© titivitÃ©
Ġanc Ãªtre
Ġannivers aire
ĠCham bre
ĠChrist ophe
Ġmonarch ies
ĠÃ©tym ologie
ĠÃ©tym ologies
Ġpartis ans
ĠacadÃ© mique
Ġesti ment
Ġesti mÃ©
Ġesti mÃ©e
Ġmari Ã©
Ġrepos ant
Ġminor itaires
Ġrecons titution
Ġaband onnÃ©
ĠReprÃ© sent
Ġexpli quer
Ġexpli citement
ĠimpÃ©ra tif
Ġbizar re
Ġincar ne
Ang oulÃªme
Ang oumois
Ġpartage ait
Ġprofonde urs
Ġsynta xique
ĠâĶĮ âĶĢâĶĢâĶĢâĶĢâĶĢâĶĢâĶĢâĶĢâĶĢâĶĢ
Ġpleine ment
ĠApollin opolis
Ġvolont aires
tell um
ĠKhent amenti
Ġchimi o
ĠGuy ane
ĠcatÃ©g orie
ĠGood bye
ĠÃ©quiv al
Ġbyz antine
ĠbÃ©nÃ©fici aire
Ġaugment ant
Ġsynchron isation
Ġsouten u
Ġmeurt riÃ¨re
ĠsÊ¼Ã¤ lot
ĠsÊ¼Ã¤ hay
Ġcrash ers
Ġdangere uses
ĠnÉĻgus u
Her zÃ©g
Mar tin
Son ara
Son ora
hor reur
mus ique
tol aemus
uo ka
ÈĿ st
Ð» ÐµÑĤ
à® Ł
Ġorth ograph
Ġorth ogon
Ġlut te
Ġlut tant
Ġcath oliques
Ġsultan at
Ġsensib lement
Ġajou tÃ©
Ġastron omiques
Ġtardi f
Ġvain cre
ĠvÃ©ri fie
ĠÃ¢ gÃ©
Ġenregistre ments
ĠLag arde
ĠLag uenne
ĠLing uiste
ĠCI E
ĠCI MMYT
ĠCro cod
ĠCamb ridge
ĠCamb odge
ĠAli en
Ġparois ses
ĠSc rib
ĠSc ott
ĠSok ar
ĠSnow s
ĠEl lis
Ġ115 5
Ġ115 8
ĠBu enos
ĠBre ker
ĠBit uriges
ĠBos nie
ĠdÃ©li v
ĠdÃ©lÃ© gations
Ġreti rÃ©s
ĠMor se
ĠMot oneige
ĠMad ame
ĠMad agascar
ĠMah food
Ġinves tissements
Ġintit ulÃ©e
ĠindonÃ©si en
Ġsim ilis
ĠGr Ã¢ce
ĠNik ola
abou tissement
ĠRos et
ĠRoche fort
Ġprosp Ã©ritÃ©
ams Ã¨s
ĠHyd ronyme
ĠFond ation
appr endre
Ġcommande ur
ĠWi kipÃ©dia
ĠprÃ©t endre
Ġpronom s
Ġanalog ues
ĠKhÃ© pri
ĠKhÃ© phren
Ġacces sible
Ġkan ji
ĠamÃ©rindi enne
ĠamÃ©rindi ennes
ĠminÃ©ra l
ĠminÃ©ra ux
Ġcass ettes
Ġrecommand ation
Ġrecommand Ã©es
Ġdiffus Ã©
Ġdiffus ent
Ġcultiv Ã©e
Ġmatern itÃ©
Ġmatern elle
Ġáī ¥áĭ
Ġregroup Ã©s
Ġregroup Ã©es
Ġfamili al
Ġfamili ale
Ġpercussi ons
Ġpercussi onniste
ĠMartin ique
ĠdÃ©mar che
Ġrenv oie
Ġ176 7
ĠTherm oc
Ġgouverne urs
archÃ© ologie
archÃ© ologue
ĠShim ura
ĠShim Åįsa
ĠrÃ©public ain
Ġgaranti r
Ġjuli ens
Ġjuli ett
Ġcroise ur
Ġcroise ment
Ġentour ent
Ġentour Ã©e
Ġcircons cription
Ġattribut s
Ġ79 9
Ġfrag ile
Ġcadmi age
ĠHars omtous
ĠHars aphes
ĠcÃ©rÃ© ales
Ġsupport es
ĠSymb olique
Ġinstantan Ã©
Ġinstantan Ã©ment
Ġempr unt
Ġempr unts
ĠÃ©chang es
Ġartisan ale
ĠáįĢ áĪĲáĭ
Ġfournis seur
ĠthÃ©b ains
Ġmandat Ã©
Ġvirgu les
Ġnaval s
ĠáĮ¸ áĪİáī
Ġraccour ci
Ġraccour cissement
çĻ¾ åįģä¸Ģ
çĻ¾ ä¸Ģåįģä¸Ģ
ĠcÃ©lÃ©b ration
ĠHalobacteri a
Amp hipolis
Den is
Ex trÃªme
Je an
Re gion
Th ibaut
ave z
aci Ã³n
crÃ© ature
emp Ãª
fri dare
fri Ã¾
tur ne
tas ie
¥áĭ ķ
Ñĩ ÐµÐ»
á¹ Ń
escla vage
Ġdent ure
Ġdent ales
Ã©re ction
ĠpÃ© jor
Ġpen co
Ġpoire au
Ġpav Ã©
Ġpav illon
Ġpsych ologie
Ġcop ain
Ġcop ine
Ġsla ve
Ġsla ves
ĠsÃ» r
ĠsÃ» retÃ©
Ġaqu atiques
Ġasi atique
Ġasi atiques
Ġath lÃ¨te
ind rique
arab e
Ġtre z
Ġtre mb
ĠtÃ¢ che
ĠtÃ¢ ches
Ġeth nique
Ġflexion nelle
Ġquad ri
Ġuni formes
Ġvil la
Ġvil jan
Ġvac ances
Ġvac uitÃ©
Ġvoul oir
ĠLÃ© on
Ġnu its
ĠCri tique
ĠCentra l
ĠCrist Ã³bal
ĠCalifor nie
ĠCalifor nia
ĠAff aires
Ġbil an
Ġbol ivarienne
Ġbob inage
chu an
Ġparam Ã¨tres
Ġparodi Ã©
ĠPie ce
ĠPOI D
Ġgross esse
atch ok
attein dre
Ġconqu Ãªte
Ġconqu Ãªtes
ĠSw innerton
ĠSop dou
ĠSys tÃ©matique
ĠSys temati
ĠSpÃ©ci alitÃ©
ĠEth ernet
Ġ133 3
ĠBir ch
ĠDiver tissement
agon istes
ĠTr omboniste
ĠTw ist
ĠTyp ographie
ĠTÃ©lÃ© vision
ĠTÃ©lÃ© com
Ġchante use
ĠMend Ã¨s
ĠMay im
ĠIoun yt
tÃ©r itÃ©
ĠGra ves
ĠGate way
ĠNav y
ĠRh ins
ĠRi ordan
Ġsurmont Ã©
ĠhÃ©b erg
ĠHap ou
ĠHak ko
ĠVers ailles
ĠOt tawa
stre et
nig hters
ĠWilli am
ĠWilli ams
Ġcomplex es
Ġexer cÃ©e
ĠprÃ©v oit
ĠprÃ©tend ait
ĠKid s
ĠÃ©troi te
ĠÃ©troi tement
Ġappropri Ã©
ĠUS B
ĠUl timate
ĠFrank lin
Ġauxqu elles
Ġauxqu els
Ġinterven tions
ĠParc oul
ĠParc ours
ĠmÃ©tra ge
ĠmÃ©tra ges
ĠmÃ©tal angage
Ġconsult atif
Ġconsult ative
Ġkir k
identi tÃ©
ĠRecher che
Ġnormalis antes
Ġtouris tique
Ġtouris tiques
Ġaccus Ã©
ĠagrÃ© ment
ĠCaraÃ¯ be
ĠCaraÃ¯ bes
serv atoire
ĠConf lict
Ġdomes tique
Ġdomes tiques
ĠrÃ©pert oriÃ©
ĠStan ford
effic acitÃ©
Ġnipp ons
Ġsymbolis aient
Ġinspi rÃ©es
Ġconfond us
impos er
Ġisomor phe
ĠbrÃ» l
Ġther modynamique
Ġtherm ophiles
Ġspiritu els
ĠDÃ©partement s
Ġmanip ul
Ġbourgeois ie
ĠpossÃ©d ant
ĠpossÃ©d Ã©e
ĠbactÃ©ri orhodopsine
ĠmÃ©diatis Ã©
ĠempÃª cher
romag nÃ©tisme
ĠÅĴu vre
ĠÅĴu vres
ĠAcc ueil
ĠKek ou
ĠViol enta
ĠCapit ale
ĠBoyz one
Ġmarchand s
ĠGÃ©nÃ©ra lement
ĠFonction nement
Ġpauvre tÃ©
Ġdiplom atique
Ġdiplom atie
Ġtribun al
Ġtribun aux
Ġsugg Ã¨re
Ġintellectu elle
ĠáĬķáĮīáĪ ¡
ĠáĬķáĮīáĪ ¥
Ami ga
Bonn ieure
Blan zacais
CL OC
DRE AL
Gu Ã©rin
Hen ri
Ph ilippe
We ise
cie mment
gag nant
lop Ã©die
zay i
ÄĿ os
Î± Î
Î½ Î±Î
Ġois eaux
Ã©le ver
env oyer
Ġpure ment
Ġcot Ã©es
Ġcouv rant
Ġcible es
Ġsophis tiqu
Ġsatur Ã©s
ref rain
Ġachet es
arr Ãªte
Ġmoul in
Ġmyri ades
Ġtau reau
Ġtatou age
Ġfant astique
Ġfos sile
Ġvoud rait
Ġvulg aire
Ġenvi rons
ĠLor enz
ĠLau rel
ĠLouv ain
Ġnordi que
alli ances
ĠCÃ´ lon
ĠCoura miau
ĠCyr Ã¨ne
ĠAra ki
ĠAvent ures
ĠAbe be
ĠAnec dotes
Ġbles s
Ġbab ylonien
Ġbap tisÃ©
ĠbrÃ©sil iennes
augu ette
Ġparcour ue
ĠPoi tiers
ĠPriv ate
ĠÃ©l oign
Ġconven tionnel
ĠSot obÅį
ĠSul pice
ĠStat es
ĠSovi et
ĠEgyp t
Ġ112 9
ĠBrad ley
ĠBulg arie
ĠBlizz ard
ĠDie ter
ĠTat Ã©nen
ĠTÃ¡ rs
ĠTrav aille
Ġjet Ã©es
ĠdÃ©nom ination
Ġchance ux
ĠchaÃ® nes
Ġchanti ers
ĠMag y
ĠMir zayi
ĠMod Ã¨le
ĠMalais ie
ĠMats ukata
ĠIne xpressible
ĠIdenti ty
Ġinnov ations
ĠGrim al
ĠGusta ve
ĠNR Z
ĠrÃ©di gÃ©
ĠRÃ¨ gne
Ġrur ale
Ġdialog ue
Ġhal obactÃ©ries
ĠhÃ©r itÃ©s
Ġhard core
ĠhÃ¢ li
amÃ©n agement
ĠJourn al
ĠVen ezuela
ĠVend ry
ĠViv isques
ĠVars ovi
ĠFF II
ĠFel iformia
ĠFut urism
ĠFuk uoka
ĠOc citanie
ĠWil kins
ĠWal ter
Ġcompli quÃ©e
ĠprÃ©fe ctor
ĠprÃ©pond Ã©
ĠcohÃ©r ence
ĠChim Ã¨re
ĠChev alier
Ġdiss ociation
ĠEnviron ment
Ġmolet tes
ĠKale vala
ĠcartÃ©si ennes
Ġras semble
ĠUch ibÅį
ĠAlph onso
ĠAnarch y
ĠitinÃ© rante
Ġsymp a
âĶĢâĶĢâĶĢâĶ¬ âĶĢâĶĢ
Ġconsoli de
Ġescla ves
Ã©clai rage
Ġposit ron
Ġamen er
Ġtitul ature
accou chement
accomp lisse
ĠDeb ka
Ġmilit ants
Ġsoustra ctions
ĠDistin ctions
ĠMedi active
Ġavantage use
Ġnotori Ã©tÃ©
Ġriddim s
Ġrigoure use
Ġchev eux
Ġregrou pent
Ġcalif at
Ġpolitic al
ĠCarniv ora
170 7
ĠÃ©lectr omÃ¨tres
ĠÃ©lector ales
Ġapparten aient
expÃ©ri ence
ĠfÃ©l ins
Ġdomin icain
Ġsignific ative
Ġblanchi ment
Ġwak izashi
Ġpataphy sique
Ġmerc enaires
ĠStar gate
ĠStru cture
Ġoctro yÃ©
Ġsignale r
Ġisom Ã¨res
Ġisra Ã©lien
ĠPhyl ogÃ©nie
ĠPhysi cien
ĠSaou dite
ĠintÃ©ress Ã©s
interpr Ã¨tes
Ġcandi dats
Ġportefeu ille
Ġbulg are
ĠKhor ovod
ĠtÃ©lÃ©charge ment
ĠAttribut s
ĠMontre uil
ĠOuas et
Ġprovin ci
ĠGumb e
Ġquantit ative
ĠvoÃ» tes
Ġvictor ieux
ĠServi ces
Ã¶r tÃ©
Ġtempor aires
ĠÐ½ Ð°
ĠrÃ©fug ie
Ġpaci fique
ĠboÃ® tier
ĠMoz amb
Ġremont ent
Ġplacent aires
ĠmÃ©tab olique
Ġhorlog e
Ġdynam iques
Ġanthropomor phe
Ġengend rÃ©
Ġphotosyn thÃ©tiques
install Ã¨rent
Ġenglob Ã©e
ĠNormand ie
ĠhypothÃ© tique
ĠcÃ¢b lÃ©es
Ġfluoresc entes
Ġremarqu able
ĠWhite head
ĠKhenty khety
pustul atus
ĠThermoprote i
ĠPinni pÃ¨des
ĠDiffÃ©r entes
ĠdÃ©roule ra
Ġhorizont ale
×ĳ× Ļ×ª
ĠpÃ¨ler inage
ĠLudw ig
agrandis seur
ĠecclÃ©si astique
'- '
Ame met
Aut riche
Aval ouze
AES C
AmÃ©n agement
Bal amoun
Clau de
CSP LA
Califor nie
Dar uma
Dire ction
Ed fou
Empl oi
Electron ic
FallÃ© n
Ir ty
Iv oire
Jam aÃ¯que
Kh ali
Knig htocaps
Ly kke
MÃ©d ard
MÃ©ne ville
Ny onya
Nap oca
Ode brecht
OcÃ© an
Pall u
Plex aris
PomÃ© ranie
Sm ells
Sok ar
SÃ©v Ã¨re
Tan iyama
Tur key
Tef nout
Thom as
UW I
Uz Ã¨s
Uss el
bÃ¤ r
baÃ¯d jan
coun try
gren iers
hyp othÃ¨se
histor ien
hren gard
mois elle
mach ine
rlig hed
romp ues
vet age
wor ks
±Ð¸ Ð»ÐµÑĤ
ÃĬ tre
âĭ ħ
éĽ ¶
Ġub i
Ġero breren
Ġuch igatana
ĠÑĢ Ð¾Ð
Ġ×Ķ ×ĳ×Ļ×ª
Įáī ³
Ġluc ratif
ĠlÃ©op ard
Ã©os tasie
Ã©tudi er
Ġpag inÃ©e
ĠptolÃ©m aÃ¯que
Ġcapon niÃ¨re
Ġcouver cle
Ġcyl indrique
anat omie
anote chn
Ġsne akers
Ġsco oter
ĠsÉĻ nt
Ġsnac ks
Ġsmart phones
Ġdepar ts
quÃ©ri r
Ġample ur
Ġajour Ã©
Ġarab ique
inconvÃ©ni ent
leure ments
arist ocratie
arriv Ã©e
artille rie
Ġmys tique
Ġmori o
unif ÉĶm
urasi athÃ©riens
Ġtam oul
ĠtÃ©n Ã¨bres
ĠthÃ©mati que
Ġtsu ka
Ġflan quement
ĠfÃ©c onditÃ©
Ġfric ative
Ġfenn ique
Ġfav ori
ĠflÃ¨ ches
ĠquÃ©b Ã©cois
Ġvesti mentaire
ĠLyd ie
ĠLÃ¤n dler
Ġnoc turne
Ġnut ri
Ġnette ment
alphab Ã¨tes
ĠCuis ine
ĠComb at
ĠClu j
ĠCovi d
ĠCryp tolaemus
ĠAran na
ĠAap ef
ĠActu ellement
ĠAlex and
ĠAape p
ĠAzer baÃ¯djan
Ġbos ser
Ġbib li
Ġbeur re
ĠbÃ« r
Ġbagar res
ĠbÉĻz u
Ġbachel or
rows ki
respe ctivement
ĠPors che
ĠPall as
ĠPith Ã´m
ĠPira tes
ĠPrad esh
ĠPull man
ĠPassÃ© ism
ĠPrion odon
Ġghan Ã©en
ĠÃ©lar gie
Ġconces sions
Ġconvec tion
Ġconform Ã©ment
ĠSac ramento
ĠSap ins
ĠSouv enirs
ĠStre et
ĠSoy ouz
ĠSob olev
ĠSouver ains
ĠShar p
ĠSoud ayri
ĠSlog an
ĠSÃ©p ulture
ĠSumm it
ĠSouk ous
Ġaudi tive
ĠEiff el
ĠEmpl oyÃ©
ĠEuropÃ© enne
ĠEiki chi
ĠBout o
ĠBut terfly
ĠBaz oches
ĠBlus sÃ©
ĠBaug y
ĠBaneb djedet
ĠBASI C
ĠBÅįs Åį
ĠDend Ã©rah
ĠDÃ©r oulement
ĠDerae ocor
ĠDÃ©tro it
agamu wa
ĠTomm y
ĠTyl or
ĠTchÃ© quie
ĠTourn ai
ĠTelang ana
Ġremi xes
Ġrect angulaire
Ġrevan che
Ġchari a
ĠMnÃ© vis
ĠMons ieur
ĠMÃ©t ropole
ĠMoute mouia
ĠMoles kine
ĠMÃ©m oire
ĠMade moiselle
ĠMiser y
ĠMaig ret
ĠMalem ort
ĠMgod ro
access oires
ĠIni ti
Ġintent Ã©
Ġinrat able
ĠinÃ©d its
Ġinhum Ã©e
Ġinciter ont
Ġineffic aces
Ġindiss ociable
tÃ©lÃ© film
ĠGains bourg
ĠGhan a
ĠGrÃ¨ ce
ĠGym nastique
ĠGorb atchev
ĠGabri el
ĠGonji ro
ĠGatesh ead
ĠNum Ã©ration
ĠNay ef
Ġsever es
optimis ation
ĠrÃ©cu pÃ©rer
ĠrÃ©form ateur
ĠrÃ©act ants
ĠrÃ©appro vision
ĠRÃ¢t taouy
ĠRese arch
Ġruis seau
Ġrume urs
Ġdiagn ostique
Ġdiasp ora
Ġprojec tiles
Ġprocar yotes
Ġhare m
ĠhÃ¡ z
ĠhÃ¥ b
amÃ©li oration
ĠJuni or
ĠJack ie
ĠHomm ages
ĠHaÃ¯ ti
ĠVla dimir
ĠVign oble
ĠVich y
ĠFige ac
ĠFavor ite
ĠFalder mann
ĠOst rowski
Ġtect onique
Ġstric tement
Ġstatis tique
Ġpowi at
ĠWils on
ĠWoll aston
ĠWailer s
ĠcomplÃ© tÃ©
ĠcomprÃ©hen sion
immeub le
Ġsatell ites
ĠexcÃ© dentaire
ĠextrÃ© mitÃ©s
ĠextrÃªme ment
ĠprÃ©Ã©min ence
Ġanarch iste
Ġcook ies
ĠChÅ« Åį
ĠChimb ote
irrig ation
ĠsuÃ©d ois
Ġmonna ie
Ġmonnai es
ĠKret zoi
ĠKÃ´ mir
ĠKaz atchok
ĠKem our
ĠKail ao
Ġcaroti de
ĠÃīchar meaux
Ġraid s
ĠArchi ve
ĠArnt z
ĠArensnou phis
ĠUru guay
ĠUsur pateurs
ĠUbis oft
Ġallus ion
Ġallu vi
ĠJedd ah
inspir ant
ĠAntarc tique
Ġmexic aines
ĠacÃ©t ate
ingÃ©ni erie
Ġsovie tique
ĠIntro duction
ĠInazu ka
obÃ©nÃ© factif
Ġprefer es
ermarch Ã©s
ĠserÄī as
ĠkÃ¦ rlighed
Ġreptil arium
ĠdÃ©concent rÃ©s
Ãīvang ile
Ġadoles cence
Ġmomifi Ã©s
Ġcloch ers
Ġrecurrent s
Ġrecueilli r
Ġsouha itÃ©
ĠRefer ence
Ã©talonn age
Ġmotocycle tte
Ġprivil Ã©gi
ĠÃ©cosyst Ã¨mes
Ġá¼Ī Î¸
ĠQÃ©b Ã©hout
ĠQuerÃ©t aro
Ġmontrouzier i
exerci ce
Ġsiglais on
ennuy er
Ġcalifor nien
Ġautocra ties
ĠNedder meyer
ĠconnaÃ®tr ont
assassin at
ĠCarapez za
Ġsocioling uistique
Ġrenvers er
Ġrenfer me
ĠÃ©lectromag nÃ©tique
explor ation
ĠinconvÃ©ni ents
harign a
Ġgenev ois
Albert o
Ġmicropro cesseurs
SIWY G
Ġvraisemb lablement
ĠIsht ar
ĠPhyt oseiidae
Argent at
Ġcadast rÃ©es
ĠthÃ©rianthro pe
Ġcinquant aine
Ġmalfais ants
Ġscandina ves
Ġshuff le
ĠÃ©pith Ã¨tes
ĠBiogeoche mical
ĠMaast richt
ĠÃĤmm out
Ã©lectrom Ã©nager
ĠBlomho ff
ĠMontpen sier
ĠMontaign ac
ĠMontsore au
ĠOuadj it
ĠtytÃ¶ lle
ĠmÃ©dica ments
ĠáĪĥáĪ Įáī³
discussi ons
ĠAdvance d
ĠMicropro cesseur
ĠGuadel oupe
ĠcathÃ©dra le
Ġvoja ÄĿos
ĠdÃ©branch ables
Ġinfrastru ctures
Encyc lopÃ©die
Ġfootballe ur
ĠÃ©chantill ons
ĠÐ´Ð¾Ð ¼
ĠSalvad or
Ġmultipolaris Ã©es
ADULLAC T
embouch ure
EEDD M
ĠDjogoun s
ĠRadiotÃ©lÃ© phonie
ĠCommonwe alth
Ð¾Ð²Ðµ Ðº
ĠAgbad ja
Ġhydrocar b
ĠFermig ier
ĠPhiladel phie
hebdom adaire
ĠKhentamenti ou
HerzÃ©g ovine
Ġáī¥áĭ ĻáĬ
ÑĩÐµÐ» Ð¾Ð²ÐµÐº
ĠpÃ©jor atif
ĠSystemati c
CLOC K
Knightocaps us
ĠĠĠĠ ĠĠ
ĠĠĠĠĠĠĠĠ ĠĠĠĠĠĠĠĠĠĠĠĠĠĠĠ
! ,
# -
% .
' d
' m
' ',
) -
) :
* ).
+ ,
. "
. ''
. ",
/ ).
0 5
0 6
0 10
1 18
1 20
1 17
1 23
1 000
1 192
3 00
3 22
3 84
4 6
4 8
4 25
4 14
4 86
5 1
5 00
5 25
5 45
6 3
6 9
6 00
6 56
6 75
6 72
6 01
7 1
7 4
7 9
7 11
7 70
8 00
8 000
8 45
9 1
9 9
> ,
> .
@ .
A A
A I
A M
A O
A P
A Y
A Z
A c
A d
A v
A y
A li
A mb
A gn
A kh
A vis
A men
A rab
A Ã©ro
A con
A jou
A stra
A EC
A ctu
A gen
A ym
A pa
A ÃŃ
A mber
A Ã©roport
A ustralie
A MM
A ix
A PI
A tef
A usone
A fricain
B A
B B
B F
B I
B S
B l
B o
B on
B er
B ar
B ur
B el
B ie
B ap
B ang
B ois
B ort
B ir
B oy
B ret
B la
B rit
B az
B ass
B erg
B asse
B AN
B ack
B ign
B eck
B rev
B ubastis
B CE
B ook
B uch
B á¸¥
B Script
B ardenac
B ÈĿst
C A
C F
C P
C S
C i
C l
C o
C s
C re
C er
C ent
C or
C om
C ur
C ap
C Ã©s
C omm
C omb
C iel
C rist
C AN
C EE
C itation
C CE
C oly
C atherine
C AR
C GI
D G
D P
D U
D j
D n
D o
D u
D Ã©
D is
D el
D oc
D Ã©ri
D ieu
D em
D uc
D ame
D EG
D ed
D UL
D iz
D Ã´me
D DR
D akh
D own
D Ã¼r
D IREN
D anemark
D ragon
E R
E u
E as
E ul
E xp
E ric
E gypte
E PC
E rev
E uronext
E OS
E sp
E RDF
E NA
E ileith
E hrengard
F K
F S
F is
F in
F ar
F or
F it
F ont
F orm
F ut
F ay
F lau
F lor
F aul
F ronti
F RE
F amille
F arad
F ieber
F ulz
F ultz
G D
G L
G e
G i
G n
G on
G er
G ra
G erm
G az
G aines
G ouver
G roupe
G onde
G yl
G uerre
G estion
G UL
G hu
G RDF
G lass
G uns
G rand
G aspar
G roenland
G BAN
G EOS
H A
H I
H T
H i
H z
H il
H ong
H em
H iver
H Ã©ro
H ed
H Ã¼
H arm
H ary
H aj
H Ã©re
H asa
H ratchia
H ollywood
H ett
H onning
H ahn
H ibis
H issar
H irado
H Dn
I P
I T
I V
I m
I le
I ran
I ES
I SP
I talie
I DS
I bn
J i
J et
J ap
J apon
J oh
J SP
J SS
J wn
J ordan
J itsu
J CR
K ar
K et
K or
K au
K im
K ins
K iss
K ara
K aly
K ernighan
K olo
K ick
K obal
K ahn
K BE
L B
L D
L L
L M
L O
L P
L R
L U
L i
L o
L Ã©
L un
L or
L ine
L ux
L oir
L ib
L Ã©g
L Ã©n
L CI
L aur
L amb
L oup
L Ã©d
L ez
L yon
L ignes
L ive
L onge
L angu
L CAN
M E
M e
M i
M o
M r
M es
M en
M il
M as
M Ã©r
M ic
M out
M Ã¢
M aur
M arc
M atch
M TS
M ouz
M assif
M agna
M RC
M alo
M ayo
M EEDDM
N G
N S
N V
N Z
N i
N et
N or
N om
N ation
N ouv
N ine
N out
N im
N ations
N em
N ee
N AS
N intendo
N orth
N ava
N ova
N á¸«
N YSE
N ight
N LL
O M
O R
O b
O l
O li
O man
O cte
O CI
O hi
O ton
O ign
O EC
O SS
O ld
O hm
O pet
O NU
O gdoade
O BS
P A
P G
P R
P e
P l
P u
P re
P our
P rÃ©
P au
P ont
P ond
P ad
P ak
P ong
P ays
P ah
P lo
P CI
P DF
P lau
P ef
P onte
P ologne
P oitou
P iliers
P AR
P apin
P yrÃ©nÃ©es
P lanet
Q u
Q ui
Q uer
Q ef
R D
R G
R H
R a
R en
R os
R and
R ig
R ub
R oy
R ing
R ec
R Ã©m
R amb
R oche
R AF
R ussie
R usse
R PV
R yu
R oumanie
R iley
R amsÃ¨s
R FRE
R PG
S A
S K
S L
S c
S u
S w
S an
S us
S el
S op
S ic
S ig
S ec
S tic
S ten
S tra
S all
S tr
S onne
S SI
S tal
S GP
S DA
S Ã©b
S atis
S ed
S eth
S ime
S aÃ´ne
S hen
S UR
S uez
S acrÃ©
S Ã©nÃ©gal
S ource
S hirakawa
S milla
S aintes
S eurin
S Åįbu
T G
T H
T l
T y
T ri
T ard
T hÃ©
T ite
T ah
T rie
T AN
T uli
T wo
T alk
U U
U n
U ch
U CI
U da
U tah
U MP
U kraine
U IT
V B
V O
V Ã
V es
V an
V el
V ic
V ert
V ir
V if
V illon
V Ie
V IC
V ep
V idÃ©
W S
W V
W ar
W est
W ace
W rite
W orld
W ÈĿst
X Q
Y ce
Y onne
Y em
Y NC
Y SIWYG
Z ay
] ,
] .
a x
a Ã©
a qu
a or
a our
a at
a che
a mple
a ous
a Ã©ri
a vent
a tern
a dig
a aki
a jus
a illant
a xes
a ustin
a á¹
a á¸¥
a Åĭ
a fel
a illons
a velot
a ounet
a fricain
a friÃ¾
a Write
b d
b h
b j
b s
b ar
b or
b us
b our
b Ã¨
b si
b ot
b am
b aire
b ic
b ang
b Ã¨re
b ir
b uti
b ay
b Ã¢
b ob
b ec
b onn
b Ã¨res
b ole
b Ã©ra
b onne
b Ã©t
b rent
b assi
b rÃ©s
b ule
b jours
b Ã¡
b ome
b ast
b illet
b iz
b org
b by
b ares
b ury
b ouy
b aba
b ilitÃ©s
b ayt
b los
b iger
b Ã©ralisme
b ral
b erstein
b ivore
b inghi
b rouilly
b aker
b ugyÅį
b á¸ı
c us
c oi
c ra
c il
c ro
c itÃ©
c op
c end
c os
c ens
c une
c ond
c ert
c ure
c oule
c ing
c Ã´
c able
c ise
c ente
c are
c amp
c lo
c onde
c ode
c ade
c ils
c rer
c inn
c anes
c tÃ©e
c odes
c ash
c aul
c ades
c ape
c laire
c ott
c ube
c tisme
c roy
c Ã´me
c roise
c Ã´te
c ophy
c roc
c yonidae
c vrit
c apone
d B
d n
d r
d w
d le
d ol
d res
d ale
d itÃ©
d os
d iste
d orm
d um
d Ã¨s
d ate
d oy
d aient
d rop
d atif
d ong
d jour
d ages
d ature
d ites
d ines
d ali
d onyme
d anse
d jou
d ome
d ones
d jo
d roit
d aka
d ford
d omo
d ophiles
d ÉĻs
d oga
d ynamique
d Ã©rivÃ©
d ombolo
d okoro
e g
e h
e j
e ti
e ret
e ures
e ler
e man
e gyp
e tern
e uss
e ars
e mpereurs
f is
f us
f our
f rÃ©
f ro
f ol
f li
f ter
f elle
f ut
f ien
f ret
f erm
f ec
f tis
f ud
f kh
f rig
f em
f ow
f ense
f oud
f ast
f ats
f eth
f essionn
f ecture
f olie
f ÉĶ
f ting
f ather
f osse
f Ã¸
f eld
f olk
f acer
f det
f olio
f ried
g y
g an
g om
g il
g as
g nÃ©
g ang
g ni
g out
g ence
g ance
g ences
g ing
g ales
g erm
g raph
g ram
g onne
g nement
g Ã©n
g ents
g uit
g Ã©nÃ©
g ara
g ile
g alais
g mar
g ÉĻ
g uri
g ats
g ame
g ala
g ma
g mente
g ian
g lise
g rammaire
g ulis
g haÃ¯
g ranges
g lish
g ivore
h l
h n
h r
h ra
h ol
h ne
h at
h ai
h op
h ique
h out
h Ã©s
h ib
h Ã©ri
h erm
h Ã´
h aine
h ieu
h ak
h ong
h one
h ony
h Ã©rie
h ok
h Ã¤
h pl
h isme
h alog
h alle
h atiques
h Ã¨t
h ague
h da
h Ã¼
h att
h ockey
h onique
h oriz
h asa
h meyer
h icyonidae
h Ã¶z
i i
i j
i Ã©
i ment
i ert
i der
i ante
i ches
i mpl
i cher
i fication
i Ã³n
i pa
i quet
i mia
i ographique
i xes
i mite
i formes
i antan
i Å¾
i pustulatus
i hmeyer
j d
j p
j ar
j ne
j at
j ac
j ot
j ab
j eux
j ang
j ub
j ak
j aÃ¯
j ee
j ume
j eaux
j Ã©sus
j itsu
j á¸¥
j ump
j uku
j unifÉĶm
k t
k w
k y
k ar
k or
k us
k ant
k op
k os
k ers
k ap
k st
k ette
k ub
k ing
k th
k rit
k iss
k ta
k ner
k ton
k Åį
k Ã¡
k lor
k Ã¶
k eng
k ama
k ina
k oda
k up
k lian
k ilo
k istan
k heim
k ova
k ombe
k aÃ¯a
k kim
k ning
k uz
k ayak
l f
l m
l our
l ap
l ati
l ons
l une
l um
l oy
l la
l aient
l aires
l itÃ©s
l its
l ants
l onne
l uer
l ds
l one
l Ã»
l ieur
l yn
l itaires
l ars
l berg
l Ã¼
l ycÃ©e
l astie
l dique
l acÃ©s
l oresc
l Script
l acer
m r
m t
m it
m ans
m ais
m ation
m ai
m ac
m ot
m ain
m itÃ©
m og
m iste
m and
m ic
m ni
m Ã¨s
m ond
m ure
m ins
m ad
m erm
m ari
m assi
m Ã®
m lin
m ty
m asse
m ilis
m ala
m Ã¨nes
m iquement
m org
m itant
m olÃ©
m ica
m itation
m Ã¨tres
m osph
m aye
m outef
m osphÃ¨re
m enses
m ayo
m nisation
m inton
n b
n c
n g
n n
n u
n en
n on
n or
n est
n itÃ©
n os
n ic
n ois
n age
n ous
n um
n otes
n ations
n ologie
n az
n omb
n ante
n oph
n av
n ennes
n pi
n istes
n ergie
n ty
n Åĵu
n asse
n alle
n Ã¨te
n ork
n oss
n dia
n aÃ¯que
n old
n ommÃ©
n her
n á¹
n ariste
n sw
n ulations
n ocence
n uth
o j
o er
o et
o or
o ve
o ques
o dÃ©
o ard
o int
o cher
o ji
o Ã©th
o quÃ©es
o Äį
o chimiques
o Ã©ris
o archÃ©es
p u
p un
p ation
p op
p ap
p ille
p age
p ut
p tique
p Ã¨s
p ig
p Ã©es
p teur
p ince
p lan
p ak
p veau
p ays
p lus
p orte
p rÃ©s
p Ã¤
p Ãªtre
p ression
p Ã©tro
p ute
p ennis
p dit
p ierre
p roche
p endent
p olo
p remi
p ulÃ©
p tah
p tivitÃ©
p oly
p lÃ©es
p assÃ©
p ocrate
p olaire
p Ã´ts
p assÃ©s
p illÃ©s
q n
q en
q at
q ata
q ef
q Ã¨t
q dam
r n
r w
r z
r itÃ©
r end
r ille
r uis
r itÃ©s
r ise
r ants
r land
r yth
r gu
r uite
r iles
r Ã´le
r issant
r Ã¨ge
r omÃ¨tre
r ary
r usse
r ÉĶ
r Ã¸
r hythm
r Ëģ
r hique
s z
s in
s un
s al
s ie
s me
s Ã¨
s ci
s ait
s age
s out
s um
s ance
s enti
s la
s aient
s able
s ace
s ong
s amp
s min
s itu
s oci
s onde
s hi
s pÃ©ci
s ances
s ki
s uc
s ome
s avant
s mn
s enet
s ound
s aya
s aphes
s vÃ¡
t p
t v
t ou
t ar
t ai
t ag
t ale
t ui
t ap
t and
t aire
t oir
t yp
t ard
t tin
t ations
t ari
t roi
t air
t ographie
t aÃ¯
t one
t ony
t atique
t rÃ©e
t ulaire
t Ã¨che
t endance
t ape
t Ã¼
t ÃŃ
t Äģ
t apar
t Ã¨ques
t rance
t ogh
t orses
u a
u Å
u en
u et
u or
u tion
u que
u at
u ation
u de
u eux
u ine
u pp
u um
u aires
u alitÃ©
u ds
u chement
u ka
u cle
u har
u cteur
u alisation
u iles
u vier
u tÃ©e
u ple
u iller
u wan
u demment
u za
u vants
u guÃ©es
u hiko
u á¹Ń
u hpl
v u
v Ã
v or
v ra
v est
v ans
v eu
v ale
v ens
v iste
v ique
v Ã¨re
v Ã¨s
v ure
v aux
v ette
v enne
v ues
v aient
v ente
v ah
v aleur
v Ã¤
v ili
v ances
v oix
v iles
v rait
v Ã¨rent
v itch
v ach
v atis
v inc
v oto
v anne
v roptÃ¨res
v ingt
v arad
v Ã©nie
v otre
v ost
v ineen
w r
w t
w is
w et
w ie
w ol
w ne
w at
w ab
w he
w ari
w aÃ¯
w ann
w ara
w ell
w ile
w art
w ala
w eb
w ik
w ana
w off
w akura
w gi
w ald
w atch
w Éª
w inson
w aks
w drop
x a
x Ã©
x an
x it
x ations
x elles
x iques
x icain
x iko
x tÃ©ritÃ©
y i
y y
y z
y es
y an
y our
y se
y mp
y ens
y aient
y ants
y ke
y ys
y ton
y ork
y ren
y elge
y lisme
y oshi
y zy
y orn
y ba
y Str
y fis
z o
z Ã©
z on
z ti
z in
z et
z il
z ie
z at
z ter
z Ã¨re
z ance
z ub
z aine
z oph
z one
z na
z antin
z awa
z ani
z ulu
z mou
z bÃ©
z bourg
z enac
z hans
z tus
z ouni
z feld
z hda
z svÃ¡
} }
¡ ÉĶ
¡ Ñĩ
¢ Õ¡
£ o
£ ģ
£ áĪ
¥ .
§ Ã¤
© å·ŀè¯Ŀ
ª áĭ
« áĭ
« áī
® Î½Î±Î
¯ rw
° æ
° à¦
° áĬķáī
° smin
± ķ
± ola
² e
² »
³ a
³ ÖĢ
´ tant
´ Ñĥ
µ ·
µ ro
µ áĪµ
µ áĬķáī
¶ Îµ
· ı
· Ñĥ
· ãĢ
¸ ©å·ŀè¯Ŀ
¹ ¾
¹ ¿
º n
º Ð
º Į
º Ñĥ
º Î±
» Î¿Ï
¼ Į
¼ ie
¼ ber
¼ Ðµ
¼ ´Î
¼ Ð¿
½ Ñı
¿ t
¿ Ĩ
¿ Ð¾Ð
Â ©
Ã Īre
Ã ²e
Ã ºn
Ä ±
Ä Į
Ä °smin
Ä ¼ie
Å ±
Å Į
Å Ŀ
Å Ń
Å Ĵu
Ç §Ã¤
É ¡ÉĶ
Ê ĥ
Ê ĭ
Ê Ĵ
Î ĳ
Î ®Î½Î±Î
Î ³a
Î ºÎ±
Ð ĺ
Ð ±Ð¸Ð»ÐµÑĤ
Ð ¡Ñĩ
Ð ¼Ð¿
Ñ ħ
Ñ İ
Ñ ĳ
Ô ³ÖĢ
Õ ¢Õ¡
× Ĳ
á į
á ¼´Î
á ¿Ĩ
â ķĳ
ã ģ
ä ºĮ
å ı
å ¹¿
æ ĺ
æ Ŀ
æ Ń
æ ±ķ
æ ²»
æ µ·
æ ¸©å·ŀè¯Ŀ
ç ·ı
è £ģ
ï ¼Į
Ġ ^
Ġ q
Ġ u
Ġ ~
Ġ om
Ġ ur
Ġ tion
Ġ ut
Ġ um
Ġ iv
Ġ use
Ġ its
Ġ rib
Ġ uit
Ġ oie
Ġ ell
Ġ ulti
Ġ ËĪ
Ġ ome
Ġ ign
Ġ ours
Ġ oss
Ġ 000
Ġ uk
Ġ à¦
Ġ Åĵil
Ġ oly
Ġ åįģä¸Ģ
Ġ umer
Ġ utÃ©
Ġ tint
Ġ Ê¿
Ġ ãĢ
Ġ åįĥ
Ġ çĻ¾åįģä¸Ģ
Ġ éĽ¶
Ġ ÑĩÐµÐ»Ð¾Ð²ÐµÐº
Ġ @.
Ġ ÄĮ
Ġ Ñħ
Ġ Ô³ÖĢ
Ġ ×Ĳ
Ġ ãģ
Ģ áĬĳ
ĥ áĬ
Ħ nge
ħ Ïģ
ħ nge
Ĩ à¦
Ī Â·
ī çĻ¾
ī à®Ł
Ĭ æµ·
Į áį
į áĭ
į áĪµ
İ æ²»
ĵ gl
ĵ à®Ł
Ķ Î½
ķ áĭ
ľ è¯Ŀ
Ŀ áĪµ
ł áĪ
Ń å·ŀè¯Ŀ
Ń áĬĳ
Ń ÎºÎ±
es en
es is
es me
es at
es out
es per
es tier
es met
es car
es tim
es rin
es tionnaires
es kim
es calade
es pions
Ġd L
Ġd as
Ġd og
Ġd ens
Ġd ang
Ġd ram
Ġd asy
Ġd ouve
Ġd ote
Ġd oul
Ġd aur
Ġd ata
Ġd ense
Ġd resse
Ġd alle
Ġd ame
Ġd olÃ©
Ġd avid
Ġd ater
Ġd aitÅį
Ġd avantage
Ġd ragon
Ġd ativus
Ġd mr
Ġd oor
Ġl ique
Ġl and
Ġl ins
Ġl enti
Ġl its
Ġl ente
Ġl Ã©t
Ġl itu
Ġl Ã©n
Ġl ori
Ġl oup
Ġl ima
Ġl Ã©p
Ġl utes
Ġl prend
Ġl ourd
Ġl Ã©tale
Ġl Official
Ġl yre
Ġl onge
Ġl outres
Ġl uku
Ã© te
Ã© ens
Ã© pe
Ã© der
Ã© tis
Ã© nis
Ã© tra
Ã© ta
Ã© man
Ã© puis
Ã© anti
Ã© do
Ã© tern
Ã© lab
Ã© rÃ©e
Ã© ienne
Ã© lor
Ã© tit
Ã© tein
Ã© trie
Ã© mir
Ã© levant
Ã© ducation
Ã© factif
Ã© aste
Ã© kir
Ã© geait
Ã© quipement
en a
en on
en us
en al
en ch
en si
en ati
en aire
en ni
en Ã¨re
en cÃ©
en kh
en ger
en ade
en cer
en gue
en sible
en fu
en Ã¨t
en lÃ¨ve
en ciation
en ouf
en of
en enet
en aud
en cy
en cod
en nÃ©ade
en nÃ©fer
en jutsu
en core
en lop
en hour
en ovo
en hague
en ptah
on a
on et
on al
on ce
on ale
on ic
on orm
on um
on ard
on ob
on ae
on cle
on ologique
on ienne
on quÃ©
on iquement
on tiers
on nÃ©s
on orÃ©
on struction
on polis
on cÃ©es
on ald
on geant
on antique
on gnon
Ġp ur
Ġp ais
Ġp ac
Ġp ul
Ġp ert
Ġp ence
Ġp ay
Ġp aires
Ġp ire
Ġp ente
Ġp az
Ġp uer
Ġp ouve
Ġp aque
Ġp omp
Ġp ali
Ġp Ã©nÃ©
Ġp aume
Ġp istes
Ġp ath
Ġp urent
Ġp ack
Ġp ock
Ġp Ã©d
Ġp illage
Ġp unct
Ġp anne
Ġp ape
Ġp ick
Ġp so
Ġp liÃ©e
Ġp yg
Ġp uton
Ġp ayer
Ġp outres
Ġp illÃ©e
Ġp itiÃ©
Ġc d
Ġc un
Ġc ur
Ġc am
Ġc ine
Ġc ort
Ġc enti
Ġc ire
Ġc roi
Ġc Ã©t
Ġc ler
Ġc rique
Ġc rie
Ġc ann
Ġc Ã¨de
Ġc ouss
Ġc ibles
Ġc ube
Ġc ouvrir
Ġc acti
Ġc amar
Ġc uiller
an u
an us
an que
an ais
an ien
an ob
an teur
an tic
an ise
an ite
an iens
an amp
an oph
an ke
an ka
an ile
an Ã¡
an aute
an ime
an Ã©ment
an oura
an dig
an hyd
an ouy
an nivers
an dic
an ubis
an optÃ¨res
an crÃ©
an oui
an cÃªtre
an pan
an Ã©enne
an Ã§on
an crer
an king
an pÃ¤
Ġs ap
Ġs tu
Ġs Ã©r
Ġs ati
Ġs ist
Ġs tre
Ġs age
Ġs ons
Ġs um
Ġs ure
Ġs par
Ġs oule
Ġs cu
Ġs aut
Ġs Ã©g
Ġs hi
Ġs har
Ġs pi
Ġs oie
Ġs pl
Ġs chi
Ġs lam
Ġs lot
Ġs mar
Ġs Ã¨che
Ġs ult
Ġs illage
Ġs aisir
Ġs ainte
Ġs aga
Ġs zer
Ġs omatiques
Ġs Ã©nat
Ġs terne
Ġs cript
Ġs apin
Ġs Åįs
Ġs aturÃ©
Ġs Åĵurs
Ġs zub
Ġs ensible
Ġde o
Ġde ce
Ġde velop
Ġde ath
Ġde uil
Ġde zi
Ġde ep
Ġde ej
Ġde xtÃ©ritÃ©
ou an
ou ou
ou me
ou Ã©e
ou tu
ou st
ou ak
ou ches
ou ka
ou reur
ou Ã©lÃ©
ou rer
ou tien
ou tit
ou ed
ou bles
ou til
ou illÃ©
ou stes
ou esses
ou illy
ou á¸«
ou bli
ou Ã©ris
ou Jwn
ti b
ti te
ti as
ti ch
ti se
ti ci
ti tÃ©
ti ces
ti ate
ti tes
ti tions
ti ss
ti Ã¨res
ti lus
ti rent
ti ty
ti Ã¨mes
ti gie
ti ls
ti och
ti cienne
ti mento
ti aca
ti sta
re z
re at
re am
re ib
re lig
re kh
re uses
re ries
re ign
re pos
re ed
re ls
re vention
re vue
re lation
re tef
re Ã¯n
re latifs
re hÃ¨t
re kova
re mlin
is a
is ent
is ar
is om
is tique
is mes
is cu
is tic
is tis
is ante
is ches
is tiques
is ela
is tim
is seurs
is ting
is ato
is obutane
is olant
is iÃ³n
qu in
qu or
qu us
qu at
qu itÃ©
qu am
qu ence
qu els
qu ante
qu istes
qu Ãªte
qu Ã¨rent
qu illage
qu itation
qu Ãªtes
qu ilibre
qu artier
te c
te li
te mp
te aux
te rop
te pes
te uses
te cteur
te rait
te lles
te liers
te cum
te vol
te borg
Ġa h
Ġa o
Ġa le
Ġa que
Ġa ch
Ġa ci
Ġa dÃ©
Ġa gn
Ġa des
Ġa id
Ġa kh
Ġa qui
Ġa Ã®
Ġa chÃ©
Ġa Ã©ro
Ġa yn
Ġa estiv
Ġa isÃ©
Ġa mÃ©n
Ġa way
Ġa xes
Ġa leph
Ġa wk
Ġa xi
Ġa quit
Ġa kan
Ġa isÃ©es
Ġa meub
Ġa dep
Ġa stroph
Ġa egyp
Ġa fter
Ġa kos
Ġa xÃ©
Ġa teliers
in is
in et
in ant
in ch
in ag
in iste
in elle
in tre
in aux
in ion
in ences
in Ã©es
in itÃ©s
in alitÃ©
in ds
in ateurs
in ions
in tera
in dus
in car
in duction
in ik
in val
in dou
in aise
in atifs
in ternet
in carnation
in ness
in hop
in juku
le c
le o
le ri
le ad
le ta
le id
le vis
le ton
le iz
le com
le igh
le ffe
le vÃ©es
le voix
er k
er te
er us
er tion
er ra
er me
er ve
er ont
er ac
er ale
er os
er ang
er ate
er ret
er tif
er ains
er ents
er reur
er ata
er tiste
er oche
er ina
er Ã§ant
er terie
er geant
er cross
er hard
er vation
er hoof
er Ge
er cise
er lead
ent or
ent ore
ent rique
ent ours
ent atives
ent rant
ent ly
ent ayt
ent omologiste
ent osus
ent akht
ent aÃ¯t
ent uriers
ent zat
ar le
ar un
ar ri
ar ol
ar tÃ©
ar op
ar Ã´
ar tic
ar ise
ar are
ar one
ar Ã¨ne
ar tant
ar rÃ©e
ar bres
ar isme
ar yn
ar dement
ar rÃª
ar mer
ar endt
ar ina
ar na
ar oque
ar rick
ar rÃªts
ar amine
ar win
ar ouli
ar range
ar ratrice
ar agamuwa
et a
et c
et le
et se
et at
et Ã©e
et ure
et ric
et man
et rie
et hes
et oot
et ket
et rich
et Bá¸¥
Ġm ait
Ġm nÃ©
Ġm Ãª
Ġm ig
Ġm ir
Ġm Ã©ri
Ġm enti
Ġm use
Ġm ad
Ġm air
Ġm aÃ¯
Ġm aÃ®
Ġm ali
Ġm ule
Ġm alais
Ġm ry
Ġm app
Ġm ast
Ġm oules
Ġm aÃ¯s
Ġm ouff
Ġm itt
Ġm utation
Ġm utile
Ġm yst
Ġm ogh
Ġm Åĵurs
Ġm dr
un a
un d
un om
un di
un tÃ©
un istes
un ach
un gle
un ji
un iquement
un ott
un atum
un ami
or re
or ent
or it
or tion
or que
or ment
or tÃ©
or op
or iste
or Ã©s
or alis
or alitÃ©
or ps
or be
or ger
or istes
or tÃ©s
or yl
or gue
or ze
or ables
or ith
or ball
or ositÃ©
or pions
or lds
or ptivitÃ©
or rland
Ġla ves
Ġla tÃ©ra
Ġla cs
Ġla tÃ©ralement
Ġla pin
Ġla udi
Ġla inages
Ġla Ã¯que
Ġla urasiathÃ©riens
Ġle ad
Ġle ven
Ġle vÃ©
Ġle ft
Ġle ug
Ġle vier
Ġle dit
Ġle hÃ¼
om i
om en
om te
om et
om Ã¨re
om olog
om ote
om atique
om Ã¡
om pose
om oto
om astis
om alie
om akers
om Ã©trique
om erang
it re
it ent
it us
it ale
it ait
it che
it Ã¨re
it able
it rop
it ologiste
it chi
it Ã¡
it ablement
it ronique
it omo
it ogramme
it fire
it rine
ur d
ur m
ur us
ur as
ur ie
ur de
ur ge
ur os
ur ate
ur ance
ur ay
ur alis
ur ong
ur pÃ©
ur be
ur yth
ur ier
ur ger
ur ances
ur Ã»
ur isme
ur idae
ur ity
ur ody
ur aya
ur Ã¦us
ur kheim
ur pation
Ġt m
Ġt ar
Ġt al
Ġt as
Ġt Ã¨
Ġt rÃ©
Ġt ch
Ġt og
Ġt ap
Ġt ort
Ġt ay
Ġt ari
Ġt ente
Ġt ric
Ġt ress
Ġt alent
Ġt olÃ©
Ġt abou
Ġt ango
Ġt assÃ©
Ġt enta
Ġt agon
Ġt ogh
Ġt unis
Ġt Ã¶rtÃ©
Ġf u
Ġf ur
Ġf us
Ġf ul
Ġf um
Ġf ib
Ġf la
Ġf ru
Ġf ire
Ġf ente
Ġf roi
Ġf id
Ġf lic
Ġf ah
Ġf Ã©m
Ġf ell
Ġf alais
Ġf action
Ġf ast
Ġf aute
Ġf lex
Ġf estiv
Ġf uy
Ġf oules
Ġf lui
Ġf osse
Ġf Ã¼r
Ġf isc
Ġf Ã¶r
Ġf lÃ»
Ġf aramine
Ġqu od
Ġqu Ãªte
Ġqu ota
Ġqu atern
us ar
us us
us ter
us tu
us ine
us are
us hi
us ht
us eri
us lah
us urpation
oi de
oi des
oi rien
oi gnement
Ġun g
Ġun es
Ġun is
Ġun it
Ġun ter
Ġun ic
Ġun iv
tion nement
tion alitÃ©
tion ary
ra is
ra il
ra el
ra ce
ra se
ra di
ra itÃ©
ra ces
ra vi
ra ux
ra mes
ra th
ra lement
ra ke
ra do
ra gÃ©
ra ult
ra tionnelle
ra tionnel
ra ide
ra uli
ra ham
ra lise
ra elson
ra structure
ra Ã©liens
ra iges
Ġdes crip
Ġdes titution
Ġdes igner
Ġdes dits
Ġdes quels
Ġv or
Ġv Ã¨
Ġv ai
Ġv ince
Ġv ak
Ġv ole
Ġv int
Ġv acc
Ġv Ã©g
Ġv ass
Ġv ites
Ġv oie
Ġv oiles
Ġv ital
Ġv endent
Ġv Ã©si
Ġv illages
Ġv agin
Ġv otre
Ġv Ã©loc
il a
il d
il ie
il og
il ique
il ic
il ib
il ise
il ite
il are
il opolis
il itaires
il dre
il den
il no
il ÃŃ
il ity
il ouli
il tration
il uridae
ĠÃ ĩ
ĠÃ Ĺ
ĠÃ Īre
ĠÃ ´tant
ĠÃ ¼ber
ĠÃ Ħnge
ĠÃ ħnge
ĠÃ ĵgl
Ġen fi
Ġen ser
Ġen lace
Ġen tertainment
Ġen rÃ©g
Ġen jeu
Ġen jeux
Ġen quÃªte
ĠL al
ĠL as
ĠL at
ĠL ais
ĠL op
ĠL ap
ĠL Ã©r
ĠL ati
ĠL ois
ĠL ord
ĠL uis
ĠL ut
ĠL ion
ĠL ub
ĠL ieu
ĠL ong
ĠL ieux
ĠL ines
ĠL oun
ĠL iver
ĠL ili
ĠL ow
ĠL uc
ĠL yc
ĠL ima
ĠL uri
ĠL ast
ĠL ones
ĠL orin
ĠL umiÃ¨res
ĠL ycÃ©e
ĠL atin
ĠL ham
ĠL ook
ĠL amar
ĠL enz
ĠL Irish
ĠL UC
ĠL atre
ĠL odge
ĠL Official
ĠL ula
ĠL AZ
ĠL ISP
ĠL loy
ĠL woff
ĠL enovo
ĠL ongnon
ĠL anka
est re
est able
est ants
est aur
est Ã¤
est ament
est yle
est ompe
est hÃ©tique
our i
our ou
our in
our rou
our ds
our oun
our isme
our Ã¨t
our geois
our of
our vues
Ġn v
Ġn in
Ġn ie
Ġn au
Ġn at
Ġn ui
Ġn uis
Ġn ue
Ġn oy
Ġn otes
Ġn ations
Ġn aine
Ġn atif
Ġn id
Ġn ains
Ġn ah
Ġn ov
Ġn ats
Ġn ach
Ġn iner
Ġn autique
Ġn aga
Ġn aissant
Ġn oyaute
Ġn auf
Ġn anotechn
Ġn ymp
Ġn arratrice
el y
el us
el Ã©e
el age
el lis
el ion
el ae
el ds
el ables
el oft
el ket
el idae
el osi
el berg
el vin
el umb
el pas
el esen
el urus
al s
al on
al si
al Ã©e
al ique
al and
al tique
al Ã¨s
al tes
al ay
al la
al aine
al lan
al iennes
al ity
al fa
al ysis
al mus
al ind
al tÃ©ration
al inag
as o
as in
as ch
as ter
as ig
as ien
as ing
as tic
as ak
as sement
as see
as tÃ¨res
as ty
as tal
as tien
as tÃ©e
as tiers
as iy
as arts
as ters
as tÃ©roÃ¯
as piration
as ting
as cendance
as ticien
as trale
as bro
as Ã¡g
as itologiste
ĠC A
ĠC i
ĠC ab
ĠC am
ĠC ux
ĠC ort
ĠC ut
ĠC ru
ĠC ec
ĠC elles
ĠC onn
ĠC lan
ĠC all
ĠC aut
ĠC lement
ĠC amp
ĠC ler
ĠC ric
ĠC av
ĠC occ
ĠC ros
ĠC ali
ĠC ade
ĠC oun
ĠC ath
ĠC oh
ĠC yn
ĠC ast
ĠC ock
ĠC ach
ĠC rav
ĠC ES
ĠC Åĵur
ĠC AF
ĠC och
ĠC rot
ĠC ope
ĠC up
ĠC ity
ĠC rass
ĠC BM
ĠC roix
ĠC rick
ĠC NR
ĠC ologne
ĠC umb
ĠC aÃ¯d
ĠC EP
ĠC itra
ĠC GPM
ĠC RT
ĠC urling
ĠC rami
ĠC apone
ĠC Ã³r
ĠC owling
ĠC LD
ĠC NLL
ĠC noss
ĠC uvier
ĠC reed
ĠC ertif
ĠC itronique
ĠC ilic
Ġ( +
Ġ( /
Ġ( ;
Ġ( =
Ġ( >
Ġ( [
Ġ( {
Ġ( +)
Ġ( *).
ie f
ie ge
ie bam
que ur
que fois
que unt
que punctata
me on
me ment
me mbre
me mber
me hyt
me cum
me work
ment ateur
ment Ã¨t
Ã¨ k
Ã¨ o
Ã¨ u
Ã¨ tis
Ã¨ lÃ¨
Ã¨ cle
Ã¨ ges
Ã¨ tent
Ã¨ vement
Ã¨ vres
Ã¨ thÃ©
ĠA R
ĠA ment
ĠA si
ĠA ul
ĠA Ã©r
ĠA che
ĠA vi
ĠA ction
ĠA ussi
ĠA ig
ĠA mes
ĠA ub
ĠA he
ĠA gn
ĠA ts
ĠA fin
ĠA ire
ĠA ram
ĠA per
ĠA pi
ĠA Ã¯
ĠA Ã®
ĠA viron
ĠA SI
ĠA ctive
ĠA ki
ĠA part
ĠA ras
ĠA DA
ĠA ck
ĠA gus
ĠA irs
ĠA cadÃ©mie
ĠA grÃ©
ĠA veyron
ĠA isne
ĠA ube
ĠA Ã©roport
ĠA fric
ĠA wk
ĠA TP
ĠA ken
ĠA sir
ĠA OC
ĠA PI
ĠA menty
ĠA AV
ĠA EX
ĠA RT
ĠA erens
ĠA usone
ĠA rets
ĠA AA
ĠA Ci
ĠA fro
ĠA wgi
ĠA ouÃ©lÃ©
ĠA erents
ĠA usar
ĠA iluridae
ĠA elurus
Ġdu ode
rÃ© o
rÃ© si
rÃ© ter
rÃ© enne
rÃ© ateur
rÃ© nie
rÃ© dite
rÃ© lation
rÃ© impr
rÃ© ditation
rÃ© biz
rÃ© mitÃ©
rÃ© venne
ant a
ant au
ant Ã©es
ant enne
ant aine
ant agoniste
Ġb n
Ġb el
Ġb ai
Ġb ag
Ġb ain
Ġb ati
Ġb ond
Ġb ure
Ġb ron
Ġb ore
Ġb iens
Ġb aÃ¯
Ġb aiss
Ġb rig
Ġb amb
Ġb ords
Ġb oss
Ġb udg
Ġb orÃ©
Ġb rad
Ġb rass
Ġb aba
Ġb ÈĿ
Ġb aign
Ġb Åĵuf
Ġb ovine
Ġb efore
Ġb icus
Ġb onnet
Ġb ugyÅį
Ġb iscu
Ġb urd
Ġb Ã¨k
au ti
au re
au er
au ve
au les
au che
au ph
au des
au cour
au mÃ©s
au paravant
au mur
au cune
ro l
ro li
ro ff
ro st
ro tes
ro th
ro ali
ro ger
ro gÃ©
ro phe
ro dit
ro itant
ri ens
ri pp
ri Ã¨res
ri pes
ri cule
ri dÃ©s
ri ya
ri ott
ri quÃ©s
ri anamp
ri als
ce a
ce d
ce o
ce au
ce vant
ce vra
Ġcom ig
Ġcom ics
Ġcom Ã©taires
Ġcom Ã©die
ol m
ol le
ol ont
ol ff
ol oc
ol ens
ol um
ol ir
ol ib
ol Ã¢
ol ues
ol uer
ol ites
ol iquement
ol utif
ol ina
ol anum
ol lections
ol enati
ol unatum
ch o
ch te
ch al
ch ment
ch at
ch ter
ch eux
ch ang
ch ous
ch mi
ch ir
ch elles
ch able
ch air
ch ines
ch Ã¨ne
ch vre
ch to
ch ises
ch ow
ch inois
ch ets
ch aul
ch andis
ch ko
ch ott
ch Å«
ch Ã¢teau
ch auss
ch bau
ch anter
ch inae
ch alot
ch aea
ch anteur
ch Ã¨tent
si c
si en
si ques
si mple
si dÃ©
si tif
si fication
si denti
si dae
si rak
si mil
si ciens
si ËĪÉĽ
si pÃ¨des
si cor
si gnes
si gni
si esis
si Ã¨cle
Ġpar a
Ġpar Ã©
Ġpar ent
Ġpar les
Ġpar ap
Ġpar ut
Ġpar ole
Ġpar ven
Ġpar ade
Ġpar aÃ®tre
Ġpar rain
Ġpar venu
Ġpar lÃ©s
Ġpar allÃ¨le
Ġpar haine
Ġpar asitologiste
ne au
ne um
ne iss
ne lem
ne ck
ne quin
ne lec
ne olum
res pons
se d
se ti
se ux
se pe
se ger
se uil
se kva
se bsi
se conde
ans on
ans cription
ans oura
ans ko
ans sa
ans fÃ©
ĠP L
ĠP T
ĠP ag
ĠP ale
ĠP end
ĠP oc
ĠP ang
ĠP oire
ĠP ay
ĠP ron
ĠP ing
ĠP ales
ĠP ad
ĠP ince
ĠP hÃ©
ĠP ak
ĠP ole
ĠP air
ĠP ieux
ĠP Ã©t
ĠP Ã©ric
ĠP ages
ĠP aint
ĠP Ã©n
ĠP av
ĠP orte
ĠP lu
ĠP har
ĠP ow
ĠP ata
ĠP AN
ĠP rim
ĠP ach
ĠP ern
ĠP rony
ĠP ete
ĠP Ã©d
ĠP rav
ĠP lant
ĠP oche
ĠP ech
ĠP lon
ĠP rimo
ĠP osition
ĠP olo
ĠP osi
ĠP anas
ĠP yr
ĠP AC
ĠP line
ĠP OS
ĠP oly
ĠP seud
ĠP adel
ĠP oe
ĠP onctu
ĠP rac
ĠP ropri
ĠP aneb
ĠP sych
ĠP nou
ĠP utu
ĠP PI
ĠP ump
ĠP ratique
ĠP Ãªche
ĠP Ã¡l
ĠP tolÃ©m
ĠP PDA
ĠP ritz
ĠP DG
ĠP aillons
ĠP ouilly
ĠP revention
ĠP etrie
Ġg rÃ©
Ġg ale
Ġg end
Ġg Ã©r
Ġg ang
Ġg la
Ġg Ã¢
Ġg ob
Ġg ong
Ġg ali
Ġg nom
Ġg rond
Ġg rim
Ġg lor
Ġg ÉĻ
Ġg oth
Ġg het
Ġg rÃ©g
Ġg oÃ»
Ġg ouff
Ġg uise
Ġg ave
Ġg otique
Ġg anz
Ġg asp
Ġg estionnaire
Ġg entilÃ©
Ġg aÃ©
Ġg yren
Ġg estionnaires
Ġg reat
Ġg urÃ»
Ġg ourou
Ġg elesen
Ġg rotes
Ġg neiss
li te
li us
li tion
li as
li Ã©es
li Ã¨res
li ane
li ennes
li fe
li ze
li ma
li ola
li geant
li pse
li bÃ©ralisme
li mation
ĠÃ© ve
ĠÃ© che
ĠÃ© mo
ĠÃ© par
ĠÃ© lÃ©
ĠÃ© pr
ĠÃ© lus
ĠÃ© man
ĠÃ© per
ĠÃ© pi
ĠÃ© chÃ©
ĠÃ© jec
ĠÃ© tiqu
ĠÃ© labor
ĠÃ© chec
ĠÃ© rup
ĠÃ© ducation
ĠÃ© bau
ĠÃ© bras
ĠÃ© lire
ĠÃ© tirent
at y
at Ã©
at te
at ar
at ra
at ant
at ter
at Ã©ri
at rib
at har
at tent
at omes
at tente
at las
at ake
at Ã©rale
at For
at mosphÃ¨re
mp i
mp o
mp tion
mp se
mp ac
mp ique
mp st
mp fer
mp arts
mp oline
mp lacements
mp hony
Ġest amp
Ġest omp
Ġest hÃ©tique
Ġest uaires
Ġcon ve
Ġcon ique
Ġcon vi
Ġcon ni
Ġcon tes
Ġcon teur
Ġcon fi
Ġcon if
Ġcon jo
Ġcon fier
Ġcon tenue
Ġcon ception
Ġcon venir
Ġcon fiÃ©
Ġcon formes
Ġcon glom
Ġcon fÃ©rant
Ġcon teste
Ġcon tenait
Ġcon versation
Ġcon cevoir
Ġcon cile
Ġcon nÃ©table
Ġcon ducteurs
ais es
ais Ã©
ais ance
ais ante
ais hi
ais seur
ais iennes
ĠS A
ĠS L
ĠS S
ĠS et
ĠS it
ĠS ri
ĠS end
ĠS elle
ĠS ang
ĠS ons
ĠS out
ĠS mo
ĠS ate
ĠS Ã©ri
ĠS ard
ĠS ay
ĠS Ã´
ĠS tr
ĠS ong
ĠS ta
ĠS lic
ĠS omme
ĠS amp
ĠS ah
ĠS lo
ĠS pÃ©
ĠS cÃ©
ĠS oph
ĠS ke
ĠS orte
ĠS ites
ĠS occ
ĠS ier
ĠS pi
ĠS anti
ĠS ath
ĠS men
ĠS uite
ĠS ara
ĠS tern
ĠS pl
ĠS yd
ĠS imp
ĠS amb
ĠS ata
ĠS ense
ĠS Ã©v
ĠS oup
ĠS inn
ĠS Ã©b
ĠS ouse
ĠS odi
ĠS cre
ĠS Ã©ch
ĠS oth
ĠS ensit
ĠS Ã©l
ĠS tille
ĠS mite
ĠS akura
ĠS gra
ĠS of
ĠS uez
ĠS ardes
ĠS ound
ĠS NC
ĠS QL
ĠS eld
ĠS acrÃ©
ĠS ouvent
ĠS AR
ĠS SD
ĠS oa
ĠS ouillac
ĠS omtous
ĠS ource
ĠS oga
ĠS outh
ĠS Ã©mat
ĠS ceptre
ĠS lamb
ĠS rei
ĠS lumb
ĠS eurin
ĠS Åįbu
ĠS HI
ĠS PAR
ĠS RPV
ĠS VO
ĠS bome
ĠS nork
ĠS ove
ĠS vens
ĠS outien
ĠS omalie
ĠS elket
Ġau th
ation niste
eu t
eu ve
eu th
eu lle
eu wen
eu ilh
ĠE E
ĠE T
ĠE ni
ĠE aux
ĠE ub
ĠE cu
ĠE tats
ĠE lect
ĠE id
ĠE lement
ĠE dition
ĠE con
ĠE uc
ĠE lie
ĠE ast
ĠE Ã¶
ĠE rich
ĠE volution
ĠE dge
ĠE ury
ĠE ero
ĠE mpereurs
ĠE ino
ĠE igh
ĠE thi
ĠE hb
ĠE mm
ĠE loi
ĠE IS
ĠE RDF
ĠE vang
ĠE lia
ĠE liade
ĠE XO
ĠE lisabeth
ĠE ileith
ĠE yraud
ĠE hrengard
ĠE GD
ĠE ME
ĠE cophy
ĠE kombe
ĠE uple
ĠE vans
ĠE yz
ĠE quus
ĠE arle
ĠE uryth
ĠE asting
ĠE lias
ĠE mplacements
ve m
ve il
ve aux
ve illon
ve illante
ve zac
Ġ1 18
Ġ1 199
Ġ1 13
Ġ1 11
Ġ1 184
Ġ1 24
Ġ1 36
Ġ1 30
Ġ1 39
Ġ1 353
Ġ1 160
ai mÃ©
ai ca
ai rien
ai bli
ĠB D
ĠB E
ĠB P
ĠB p
ĠB ac
ĠB ot
ĠB op
ĠB ul
ĠB ert
ĠB oule
ĠB ay
ĠB ret
ĠB ad
ĠB od
ĠB ec
ĠB its
ĠB ole
ĠB int
ĠB ante
ĠB esse
ĠB ud
ĠB lu
ĠB ok
ĠB oun
ĠB ox
ĠB oh
ĠB rab
ĠB avi
ĠB ata
ĠB art
ĠB rist
ĠB ry
ĠB ug
ĠB resse
ĠB uri
ĠB ras
ĠB ala
ĠB Ã©h
ĠB olo
ĠB ourg
ĠB obs
ĠB enth
ĠB ateau
ĠB Ã¢t
ĠB illard
ĠB ots
ĠB ull
ĠB ody
ĠB MM
ĠB erton
ĠB ound
ĠB udo
ĠB ollywood
ĠB SD
ĠB TS
ĠB alan
ĠB achel
ĠB GM
ĠB alk
ĠB erstein
ĠB occi
ĠB ardenac
ĠB rouilly
ĠB onnet
ĠB owling
ĠB HDn
ĠB hout
ĠB jar
ĠB ethes
ĠB ilden
ĠB altique
ĠB Ã¨lÃ¨
ĠB rÃ©venne
ĠD B
ĠD l
ĠD as
ĠD ag
ĠD Ã©s
ĠD ut
ĠD ure
ĠD ance
ĠD ion
ĠD ard
ĠD ub
ĠD ob
ĠD ram
ĠD iss
ĠD id
ĠD amp
ĠD ah
ĠD erg
ĠD Ã©li
ĠD ose
ĠD ox
ĠD ress
ĠD ow
ĠD uc
ĠD oll
ĠD jou
ĠD yn
ĠD ame
ĠD eck
ĠD illon
ĠD roÃ¯
ĠD DR
ĠD rew
ĠD umÃ©
ĠD aou
ĠD aun
ĠD ragon
ĠD NA
ĠD inner
ĠD alib
ĠD andy
ĠD Ã©rivÃ©
ĠD IES
ĠD RAF
ĠD SK
ĠD VB
ĠD yke
ĠD ream
ĠD arwin
ĠD urkheim
ĠD auph
ĠD rost
ĠD ripp
Ġpl ag
Ġpl ui
Ġpl ants
Ġpl omb
Ġpl ages
Ġpl uri
Ġpl ats
Ġpl Ã©b
Ġpl ura
Ġpl Ã¢tre
Ġpl atin
Ġpl aident
Ġpl antation
Ġpl aintes
Ġpl nÃ¨te
Ġpl ongeant
Ġpl astic
Ġpl antÃ©es
Ġpl aisance
ag h
ag ui
ag ences
ag Ã©es
ag ric
ag ents
ag ata
ag han
ag uire
ag ha
ag ym
ag ira
ag ora
ag rammes
ag raphie
ag matique
ag ination
ag oya
ag rÃ©gation
ag enda
ag uen
ag roali
ĠÂ ·ãĢ
de z
de che
de ker
de red
de mak
de dÃ¨t
de baker
de xations
de tite
ci o
ci on
ci te
ci el
ci que
ci ment
ci ers
ci ous
ci Ã¨re
ci mo
ci Ã¨res
ci cul
ci bles
ci dence
ci dente
ci entifique
ci viles
ĠT F
ĠT ran
ĠT og
ĠT and
ĠT ate
ĠT ron
ĠT oy
ĠT ob
ĠT aÃ
ĠT ales
ĠT od
ĠT ong
ĠT are
ĠT anis
ĠT ah
ĠT rois
ĠT ex
ĠT cher
ĠT ony
ĠT Ã©m
ĠT rÃ©s
ĠT oun
ĠT rab
ĠT amb
ĠT if
ĠT ables
ĠT rist
ĠT rat
ĠT ours
ĠT ren
ĠT jo
ĠT ia
ĠT su
ĠT oura
ĠT outes
ĠT ung
ĠT rick
ĠT hÃ©Ã¢tre
ĠT imb
ĠT ouret
ĠT inberg
ĠT atou
ĠT own
ĠT anz
ĠT arr
ĠT ush
ĠT aps
ĠT ombe
ĠT ouya
ĠT enty
ĠT arh
ĠT unis
ĠT jek
ĠT Ã¶rtÃ©
ĠT EPC
ĠT LCAN
ĠT iantan
ĠT jaÃ¯
ĠT sun
ĠT enenet
ĠT anoura
ĠT inik
ĠT entatives
ĠT arare
ĠT etric
ĠT estament
ĠT rÃ©biz
ĠT sekva
Ġpour suite
Ġpour vu
ter ran
ter nÃ©
ter rit
ter nÃ©e
ter del
ter national
ter restres
Ġj og
Ġj ad
Ġj ong
Ġj Åį
Ġj ovi
Ġj Å«
Ġj ive
Ġj oignant
Ġj avan
Ġj OBS
Ġj ungle
Ġ? ,
ont re
ont oum
ont opolis
ont ologue
ont his
ont ocratie
ĠdÃ© ni
ĠdÃ© mi
ĠdÃ© cu
ĠdÃ© fic
ĠdÃ© form
ĠdÃ© ser
ĠdÃ© verse
ĠdÃ© latif
ĠdÃ© gus
ĠdÃ© tro
ĠdÃ© pose
ĠdÃ© fier
ĠdÃ© char
ĠdÃ© mob
ĠdÃ© duire
ĠdÃ© gag
ĠdÃ© stab
ĠdÃ© teste
ĠdÃ© tenait
ĠdÃ© tenues
ĠdÃ© tracteurs
ĠdÃ© tecteur
Ġre z
Ġre mb
Ġre du
Ġre fin
Ġre ver
Ġre form
Ġre lo
Ġre lÃ¨
Ġre mis
Ġre vers
Ġre cess
Ġre ign
Ġre ha
Ġre dou
Ġre quis
Ġre tenir
Ġre liques
Ġre mettre
Ġre quÃ©rant
Ġre liÃ©e
Ġre liÃ©s
Ġre dÃ©c
Ġre manie
Ġre direction
Ġre quins
Ġre lire
Ġre viendra
Ġre quÃªtes
Ġre cevra
Ġch un
Ġch and
Ġch Ã¨re
Ġch ir
Ġch aux
Ġch ib
Ġch Ã©ri
Ġch Ã¢
Ġch all
Ġch ah
Ġch ances
Ġch Ã¡
Ġch ronique
Ġch rysop
Ġch Ã©ch
Ġch ao
Ġch ham
Ġch lore
Ġch oquÃ©
Ġch assÃ©s
Ġch oses
Ġch Ã©nas
Ġch asser
ĠM N
ĠM P
ĠM t
ĠM me
ĠM og
ĠM op
ĠM Ã©r
ĠM ort
ĠM ut
ĠM ig
ĠM ert
ĠM ate
ĠM ien
ĠM Ã¢
ĠM ec
ĠM aires
ĠM onn
ĠM aine
ĠM ari
ĠM its
ĠM ise
ĠM ole
ĠM ill
ĠM are
ĠM agne
ĠM enn
ĠM yth
ĠM ode
ĠM oun
ĠM ath
ĠM Ã©ro
ĠM ores
ĠM uss
ĠM itch
ĠM ock
ĠM ala
ĠM illet
ĠM orin
ĠM iller
ĠM org
ĠM orts
ĠM ess
ĠM otom
ĠM aki
ĠM ouk
ĠM illi
ĠM old
ĠM Ã¼
ĠM ÃŃ
ĠM omie
ĠM otte
ĠM igh
ĠM aye
ĠM andela
ĠM uriel
ĠM entit
ĠM aigre
ĠM utu
ĠM win
ĠM itz
ĠM itan
ĠM ammifÃ¨res
ĠM LT
ĠM MA
ĠM ills
ĠM GM
ĠM unte
ĠM Ã³r
ĠM EEDDM
ĠM CA
ĠM ER
ĠM Hz
ĠM entor
ĠM undi
ĠM ansoura
ac us
ac ul
ac ces
ac tes
ac omb
ac uer
ac ke
ac ologiste
ac tant
ac tÃ¨res
ac cident
ac Ã¡
ac ern
ac rony
ac tionnelle
ac tionnaire
ac adÃ©
ac omo
ac uch
ac ieuses
ac cession
ac yclus
ac quÃ©rir
ac ritÃ©s
les e
les ic
ran che
ran des
ran iens
ran chement
ran nie
ran da
ĠI F
ĠI X
ĠI t
ĠI at
ĠI ron
ĠI ss
ĠI aÃ¯
ĠI ah
ĠI kh
ĠI hi
ĠI em
ĠI SI
ĠI chi
ĠI tem
ĠI ry
ĠI wa
ĠI hy
ĠI EE
ĠI het
ĠI ET
ĠI pou
ĠI ouf
ĠI zi
ĠI Ã¢h
ĠI bou
ĠI ATA
ĠI menty
ĠI RC
ĠI bn
ĠI gaÃ¯
ĠI py
ĠI tÅį
ĠI chim
ĠI CS
ĠI GL
ĠI NG
ĠI SA
ĠI baba
ĠI eman
ĠI hn
ĠI kuz
ĠI vach
ĠI wakura
ĠI xelles
ĠI ouri
ĠI mentÃ¨t
ĠI chir
Ġou i
Ġou che
Ġou lÃ©
Ġou iss
Ġou by
Ġou tt
Ġou til
Ġou pou
Ġou adi
Ġou trance
Ġou tils
Ġin du
Ġin uti
Ġin tra
Ġin ver
Ġin vent
Ġin onde
Ġin vis
Ġin ton
Ġin gÃ©
Ġin Ã©v
Ġin teractive
Ġin actif
Ġin org
Ġin hab
Ġin jus
Ġin duis
Ġin tention
Ġin hÃ©r
Ġin anim
Ġin duire
Ġin utile
Ġin dep
Ġin vite
Ġin gÃ©n
Ġin nomb
Ġin terop
Ġin erte
Ġin chang
Ġin signes
Ġin dexations
Ġin acces
Ġe en
Ġe ct
Ġe gypte
Ġe urent
Ġe dn
Ġe qn
Ġe asing
Ġe cho
Ġdans er
ot Ã©
ot ant
ot age
ot ard
ot ations
ot rop
ot ta
ot hes
ot Ã©rique
ot aka
ot opes
ot Ã©risme
ot races
di u
di v
di an
di ent
di ce
di ff
di ments
di Ã¨res
di cal
di ger
di rec
di quÃ©
di fiÃ©e
di bilitÃ©
di aste
di bule
di onale
di terran
ale use
ain er
ain si
ain aut
ui tion
ui tiste
ui tiÃ¨me
ui tiÃ¨mes
Ġsi r
Ġsi res
Ġsi Ã©geait
Ġsi erra
tÃ© rop
tÃ© mis
tÃ© laire
tÃ© rot
tÃ© roph
tÃ© brÃ©s
ĠG us
ĠG os
ĠG ang
ĠG orm
ĠG ay
ĠG erm
ĠG lan
ĠG ill
ĠG oli
ĠG Ã©n
ĠG erg
ĠG oul
ĠG ali
ĠG rab
ĠG ilbert
ĠG ug
ĠG reg
ĠG alle
ĠG lit
ĠG estion
ĠG ates
ĠG Ã©op
ĠG ren
ĠG Ã¶
ĠG olf
ĠG lisse
ĠG rew
ĠG ET
ĠG OT
ĠG RDF
ĠG ize
ĠG opak
ĠG NU
ĠG SM
ĠG wo
ĠG estionnaire
ĠG roenland
ĠG andon
ĠG entilÃ©
ĠG aÃ«l
ĠG ambie
ĠG rasse
ĠG DDR
ĠG LO
ĠG PR
ĠG yorn
ĠG rekova
ĠG isela
ĠG leiz
ĠG erhard
ĠG orgue
ĠG euth
ĠN P
ĠN X
ĠN Z
ĠN ab
ĠN os
ĠN and
ĠN ine
ĠN ux
ĠN ue
ĠN oir
ĠN ut
ĠN ub
ĠN oy
ĠN ari
ĠN oli
ĠN Ã©g
ĠN orte
ĠN uit
ĠN Ã©m
ĠN iel
ĠN ok
ĠN ade
ĠN Ã®
ĠN orme
ĠN avi
ĠN ow
ĠN Ã©v
ĠN arb
ĠN ich
ĠN ja
ĠN ini
ĠN ora
ĠN ext
ĠN ya
ĠN ick
ĠN orth
ĠN ommÃ©
ĠN oro
ĠN aba
ĠN akh
ĠN go
ĠN IS
ĠN OA
ĠN ommÃ©e
ĠN gach
ĠN ombres
ĠN aturelle
ĠN anotechn
ĠN dombolo
ĠN ucle
ĠN wab
ĠN esout
ĠN onob
ĠN ouak
ĠN armer
ĠN elumb
ĠN agoya
ĠN dian
ab re
ab in
ab us
ab and
ab its
ab oli
ab lo
ab ara
ab Ã®
ab ry
ab stra
ab sur
ab rÃ¨
ab ik
ab we
ab rÃ©g
ab bÃ©
ab ritant
ab olition
ab rogation
ab inghi
ab idÃ©s
ab rÃ¨ge
ab olir
ab agh
og er
og el
og ie
og he
og ad
og iciel
og ging
og rames
Ġse ct
Ġse xe
Ġse dis
op a
op Ã©e
op Ã¨re
op Ã©ri
op pes
op tÃ¨re
op pos
op ira
op old
op olit
op lastie
op inion
op lesic
ĠrÃ© ces
ĠrÃ© fÃ©r
ĠrÃ© elles
ĠrÃ© tic
ĠrÃ© ver
ĠrÃ© ellement
ĠrÃ© cep
ĠrÃ© vision
ĠrÃ© agit
ĠrÃ© duction
ĠrÃ© Ã©dition
ĠrÃ© sident
ĠrÃ© ussie
ĠrÃ© organisation
ĠrÃ© unit
ĠrÃ© chauff
ĠrÃ© duits
ĠrÃ© bel
ĠrÃ© cup
ĠrÃ© visÃ©e
ĠrÃ© mun
ĠrÃ© agir
ĠrÃ© cession
ĠrÃ© tabli
ĠrÃ© acteur
ĠrÃ© impr
ĠrÃ© itÃ¨re
ĠrÃ© veil
ĠR N
ĠR am
ĠR ap
ĠR age
ĠR im
ĠR esh
ĠR yp
ĠR ay
ĠR ing
ĠR Ã¢
ĠR ad
ĠR omm
ĠR ace
ĠR all
ĠR id
ĠR ah
ĠR oute
ĠR enn
ĠR av
ĠR ud
ĠR onde
ĠR yth
ĠR amb
ĠR uss
ĠR ata
ĠR oot
ĠR ail
ĠR ame
ĠR oss
ĠR ouse
ĠR ocke
ĠR PC
ĠR ess
ĠR iy
ĠR ares
ĠR ide
ĠR oth
ĠR ÃŃ
ĠR ural
ĠR up
ĠR usse
ĠR yle
ĠR bou
ĠR oux
ĠR Ã¨g
ĠR ush
ĠR ibet
ĠR ights
ĠR AE
ĠR EX
ĠR uche
ĠR yu
ĠR oumanie
ĠR ink
ĠR acine
ĠR amsÃ¨s
ĠR AI
ĠR OM
ĠR onald
ĠR anking
ĠR estaur
ĠR astal
ĠR atFor
ĠR oger
ff on
ff ont
ff ert
ff ret
ff ite
ff iti
Ġsur vi
Ġsur vient
Ġsur vie
Ġsur cons
Ġsur cl
Ġsur cad
Ġsur viennent
Ġsur cro
Ġsur plus
Ġr n
Ġr ouv
Ġr uti
Ġr ente
Ġr onde
Ġr omp
Ġr ho
Ġr hod
Ġr hythm
Ġr entrant
Ġr anta
Ġdi r
Ġdi es
Ġdi ra
Ġdi vi
Ġdi oph
Ġdi ode
Ġdi ges
Ġdi mor
Ġdi oxyde
Ġdi agon
Ġdi lemme
Ġdi atop
Ġdi ptÃ¨res
Ġdi oxygÃ¨ne
Ġdi oji
Ġdi atrib
Ġdi agrammes
Ġdi acritÃ©s
Ġpro st
Ġpro vi
Ġpro lÃ©
Ġpro lo
Ġpro vis
Ġpro xim
Ġpro lon
Ġpro positions
Ġpro thÃ¨se
Ġpro cesseurs
Ġpro verbe
Ġpro cession
Ġpro viennent
Ġpro spe
Ġpro stern
ul at
ul les
ul teur
ul tra
ul ser
ul tant
ul entes
ul ata
ul aÃ¯que
ul aritÃ©
ul mane
ul atus
ul corÃ©
ul lition
end oc
end um
end ront
end uro
end urance
Ġh l
Ġh am
Ġh os
Ġh oc
Ġh ist
Ġh ang
Ġh une
Ġh orm
Ġh ib
Ġh erm
Ġh its
Ġh Ã©ra
Ġh all
Ġh Ãī
Ġh aÃ¯
Ġh ex
Ġh ote
Ġh Ã©li
Ġh eur
Ġh Ã©ro
Ġh umi
Ġh inter
Ġh ack
Ġh alle
Ġh ev
Ġh ouse
Ġh Ã©p
Ġh irs
Ġh amer
Ġh Äģ
Ġh aka
Ġh onneur
Ġh ollyw
Ġh jer
Ġh onneurs
Ġh Ã©tÃ©ro
Ġh uiles
Ġh andic
Ġh indou
Ġh ilare
Ġh ourds
Ġh elpas
Ġh acke
Ġh uitiÃ¨me
Ġque le
Ġque bec
ge m
ge ac
ge ball
am t
am es
am ie
am ant
am ation
am ing
am illes
am ateur
am ori
am ateurs
am oud
am ia
am ira
am mer
am Å¡
am atta
am itiÃ©
am harigna
os en
os er
os que
os ant
os Ã©e
os um
os tis
os oph
os to
os tro
os hen
os polis
os pital
os ovo
ĠJ n
ĠJ r
ĠJ eux
ĠJ ord
ĠJ um
ĠJ ig
ĠJ ob
ĠJ ak
ĠJ esse
ĠJ ane
ĠJ Ã³
ĠJ Åį
ĠJ ell
ĠJ Ã¤
ĠJ amb
ĠJ oin
ĠJ ones
ĠJ uda
ĠJ ura
ĠJ outes
ĠJ uli
ĠJ ung
ĠJ ourne
ĠJ enet
ĠJ ordan
ĠJ udo
ĠJ Script
ĠJ aun
ĠJ ulien
ĠJ AV
ĠJ enÅĳ
ĠJ onas
ĠJ alib
ĠJ FK
ĠJ JSS
ĠJ avelot
ĠJ oint
ĠJ enni
ĠJ orop
Ġ19 2
Ġ19 19
Ġ19 00
Ġ19 22
Ġ19 28
Ġ19 14
Ġpas teur
Ġpas sif
ĠH ou
ĠH et
ĠH ans
ĠH and
ĠH urs
ĠH out
ĠH orm
ĠH Ã©s
ĠH um
ĠH ond
ĠH ay
ĠH ore
ĠH omb
ĠH air
ĠH ane
ĠH ok
ĠH ath
ĠH aur
ĠH ara
ĠH ail
ĠH ome
ĠH ack
ĠH oss
ĠH ess
ĠH eure
ĠH otep
ĠH uy
ĠH osi
ĠH irs
ĠH unt
ĠH Ã©liopolis
ĠH yt
ĠH ung
ĠH ope
ĠH ity
ĠH ourd
ĠH adel
ĠH oriz
ĠH ommage
ĠH Ã¤n
ĠH oo
ĠH Ã¸
ĠH SD
ĠH ump
ĠH esti
ĠH opak
ĠH amming
ĠH IR
ĠH urling
ĠH opi
ĠH ula
ĠH ibis
ĠH Ã©rak
ĠH onneurs
ĠH Ã©tÃ©ro
ĠH oney
ĠH assa
ĠH irado
ĠH Cl
ĠH uds
ĠH esat
ĠH onorÃ©
ĠH isato
ĠH inds
ĠH ildre
ĠH ouroun
ĠH asbro
ĠH aguen
ĠH otta
ĠH ainaut
ĠH uitiÃ¨mes
ĠH amÅ¡
ĠH ospital
ers en
ers titions
ĠÂ» :
Ġ- (
ĠV at
ĠV Ã©s
ĠV ig
ĠV illes
ĠV oul
ĠV Ã©nÃ©
ĠV oie
ĠV iver
ĠV endre
ĠV Ã¤
ĠV entes
ĠV esp
ĠV if
ĠV alle
ĠV ice
ĠV ern
ĠV illage
ĠV oile
ĠV aleurs
ĠV iz
ĠV oies
ĠV ision
ĠV ague
ĠV arie
ĠV orÃ©
ĠV ignes
ĠV illages
ĠV ater
ĠV itra
ĠV Ã©ritÃ©
ĠV TT
ĠV issar
ĠV Ã©loc
ĠV BScript
ĠV IP
ĠV LB
ĠV euve
ĠV ogel
oc es
oc us
oc ris
oc kh
oc omp
oc ks
oc cident
oc tobre
oc era
oc troi
ens is
ens ation
ens uit
ens tern
ens tein
ens uelle
ens bur
ens tÃ¼
ĠF ais
ĠF ord
ĠF ort
ĠF ig
ĠF ru
ĠF ire
ĠF all
ĠF ris
ĠF lo
ĠF lus
ĠF illes
ĠF land
ĠF rig
ĠF iel
ĠF em
ĠF Ãªte
ĠF ili
ĠF action
ĠF aces
ĠF erre
ĠF ug
ĠF itch
ĠF lor
ĠF uri
ĠF oss
ĠF rom
ĠF ly
ĠF ront
ĠF onte
ĠF act
ĠF DR
ĠF olie
ĠF rick
ĠF IA
ĠF TP
ĠF osse
ĠF ound
ĠF oo
ĠF itz
ĠF amille
ĠF aun
ĠF ive
ĠF Ã©min
ĠF uns
ĠF allet
ĠF iche
ĠF lag
ĠF ulz
ĠF oulet
ĠF ritz
ĠF ried
ĠF AO
ĠF austin
ĠF iquet
ĠF lyn
ĠF ourer
ĠF arina
ĠF etket
ĠF aso
ĠF abre
ĠF amilles
ĠF ocus
ap es
ap is
ap er
ap est
ap ente
ap itu
ap hi
ap ables
ap omor
ap aiser
ap point
ap iter
ap tisÃ©
tu e
tu li
tu mes
tu mÃ©e
tu ple
tu dom
tu ailles
Ġ2 20
Ġ2 10
iste d
ces co
ouv i
ouv ant
ouv Ã©s
ouv rant
Ã©r ieux
Ã©r isation
Ã©r omÃ¨tre
Ã©r enci
Ã©r yba
Ã©r Ã¨tis
ĠLe urs
ĠLe gu
ĠLe cteur
ĠLe Ã³n
ĠLe xique
ĠLe mm
ĠLe go
ĠLe gal
ĠLe ader
ĠLe ip
ĠLe iris
ĠLe ftis
ĠLe euwen
ĠLe opold
Ġ| (
Ġ| +
Ġ| .
Ġ| <
vec ins
ĠO f
ĠO il
ĠO ui
ĠO mb
ĠO pp
ĠO ph
ĠO ut
ĠO bre
ĠO ver
ĠO ric
ĠO man
ĠO cÃ©
ĠO ud
ĠO pper
ĠO ug
ĠO asis
ĠO rient
ĠO pel
ĠO SS
ĠO pen
ĠO pet
ĠO uns
ĠO EA
ĠO XO
ĠO dob
ĠO gdoade
ĠO TAN
ĠO donyme
ĠO guri
ĠO mni
ĠO leffe
ĠO sirak
ati a
ati des
ati ble
ati alisme
and art
ist ait
ist aient
ist ae
ist antes
ist ry
ist hor
Ġte intes
Ġte oche
Ġte chni
aire ment
xp loitation
ine a
ine e
ine ment
mb a
mb o
mb el
mb ol
mb ley
mb ling
mb atus
mb lable
mb uza
mb riquÃ©s
Ġcomm is
Ġcomm ut
Ġcomm ode
Ġcomm odi
Ġil lÃ©
Ġil man
elle y
ic y
ic tion
ic ant
ic at
ic les
ic ale
ic tions
ic aine
ic ologie
ic ulaire
ic ross
ic aturÃ©
ille met
nÃ© o
nÃ© ens
nÃ© galais
ang es
ang ou
ang haÃ¯
ang dong
ois eau
st ent
st ant
st ation
st ance
st able
st all
st anti
st atique
st Ã¤
st rait
st ables
st ars
st antin
st ruire
st atu
che w
che vi
che dÃ©
che ret
che mar
che mise
vi a
vi es
vi ce
vi ers
vi aux
vi du
vi Ã¨me
vi ole
vi gne
vi rant
vi demment
vi za
vi pennis
vi rgu
vi roli
Ġst ar
Ġst ore
Ġst able
Ġst ature
Ġst Åĵ
Ġst ade
Ġst Ã»
Ġst Ã¨le
Ġst ades
Ġst oa
Ġst rophe
Ġst ocks
age au
age ments
ni k
ni Ã©
ni te
ni op
ni um
ni enne
ni ki
ni erie
ord Ã©s
ord ance
ord inaire
ord ination
ord inateurs
pp on
pp ling
pp oly
ux xe
ux ell
Ġpo inte
Ġpo itrine
ort ateur
ort keh
Ġca ve
Ġca ver
Ġca veau
Ġca ke
Ġca cher
Ġca hi
Ġca usatif
Ġca uri
Ġca chÃ©e
Ġca usant
Ġca esar
Ġca deau
Ġca chalot
ous h
ous Ã©
ous in
ous hite
uis ant
uis tiques
mi as
mi cien
mi ler
mi ah
mi ote
mi ennes
mi chi
mi ga
mi tivement
mi tifs
mi ocratie
mi aud
mi ptÃ¨res
pe ction
pe ret
pe dia
pe ctÃ©
pe ctisme
ons titution
ons ciemment
ĠW ang
ĠW ir
ĠW ay
ĠW ing
ĠW ire
ĠW all
ĠW id
ĠW are
ĠW ies
ĠW ell
ĠW ats
ĠW arme
ĠW itt
ĠW illis
ĠW ene
ĠW allis
ĠW adj
ĠW ave
ĠW ind
ĠW oman
ĠW anted
ĠW ater
ĠW urt
ĠW adjet
ĠW iley
ĠW CAR
ĠW YSIWYG
ĠW upp
ĠW esrin
ĠW arrick
ĠW orlds
ĠW omen
ĠW olff
Ġvi k
Ġvi di
Ġvi ens
Ġvi tic
Ġvi ver
Ġvi rent
Ġvi atique
Ġvi andes
Ġvi endra
Ġvi rolog
Ġvi ticulture
Ġvi erge
ue ille
ue uses
Ġcomp agne
Ġcomp lÃ¨
Ġcomp tant
Ġcomp ense
Ġcomp ression
Ġcomp agn
Ġcomp tine
Ġcomp lÃ©ments
Ġcomp tÃ©es
Ġcomp ensÃ©
Ġcomp table
Ġcomp orta
Ġcomp ortent
Ġcomp toir
Ġcomp ensation
ph on
ph in
ph ale
ph Ã©e
ph age
ph Ã¨re
ph ales
ph Ã¨me
ph ologie
ph ies
ph iques
ph ane
ph yl
ph iti
ph isme
ph oto
ph ase
ph oniste
ph ysi
ph anum
ph elins
ph icus
Ġon e
Ġon des
Ġon cle
Ġon aniste
Ġon omastis
out a
out y
out tement
out hes
out mÃ´sis
out nik
im agine
im mense
im erina
im und
im agination
ction nÃ©es
Ã§ ante
Ã§ ables
Ã§ onner
Ã§ onnÃ©
Ġsa tel
Ġsa ya
Ġsa illant
Ġsa vais
Ġsa urait
Ġsa kok
Ġsa dÉĻs
orm Ã©ment
Ġnom ades
Ġnom mer
Ġnom mant
Ġnom ogrammes
nes nÃ©fer
Ġo de
Ġo sier
Ġo hm
Ġo vo
Ġo hne
Ġo vale
ĠIl lig
ĠIl itch
ĠIl yas
ĠIl libÃ©ralisme
Ġex il
Ġex ig
Ġex tr
Ġex erg
Ġex istant
Ġex acte
Ġex ister
Ġex tÃ©r
Ġex istÃ©
Ġex ample
Ġex imia
Ġex tatique
Ġex istim
Ã©s is
ĠprÃ© Ã©t
ĠprÃ© ser
ĠprÃ© voir
ĠprÃ© exist
ĠprÃ© dat
ĠprÃ© mat
ĠprÃ© diction
ĠprÃ© dic
ĠprÃ© levant
ĠprÃ© occupe
ĠprÃ© server
ĠprÃ© mun
ĠprÃ© molaire
ĠprÃ© limin
ĠprÃ© levÃ©es
lis s
lis Ã©es
lis sement
lis ateurs
Ġpr ouve
Ġpr ud
Ġpr Ãªtre
Ġpr ouvÃ©
Ġpr enons
Ġpr udemment
Ġpr ouesses
Ġpr ouvant
Ġan ec
Ġan aly
Ġan nexes
Ġan aÃ©ro
Ġan alphabÃ¨tes
Ġan Ã©anti
Ġan tevol
Ġco q
Ġco dÃ©
Ġco ex
Ġco eff
Ġco Ã©crit
Ġco atis
Ġco dÃ©s
Ġco hab
Ġco existent
Ġco dage
Ġco quil
Ġco Ã¯n
Ġco quillage
Ġco elosi
Ġco difiÃ©e
Ġco ffret
ors kning
ut y
ut alement
ut ta
ut sÃ¨
ut arÃ´
um age
um Ã¨re
um ulÃ©e
um foot
um Ã©risme
um anus
Ãª ne
Ãª ter
Ãª ts
ĠCh a
ĠCh in
ĠCh ub
ĠCh ore
ĠCh all
ĠCh iff
ĠCh lo
ĠCh ines
ĠCh em
ĠCh ili
ĠCh amb
ĠCh ed
ĠCh eng
ĠCh auss
ĠCh assÃ©s
ĠCh edet
ĠCh esmou
ĠCh esmet
ĠCh enhour
ĠCh andig
ĠCh uray
ĠCh Ã¨o
ĠCh auve
ĠCh anson
ĠCh abry
ĠCh ordÃ©s
ĠCh Ãªne
Ġson de
Ġson nÃ©es
Ġson ner
Ġson oritÃ©
Ġson dages
Ġson ghaÃ¯
Ġdis cri
Ġdis con
Ġdis position
Ġdis su
Ġdis sÃ©
Ġdis til
Ġdis cute
Ġdis pute
ĠLa x
ĠLa ver
ĠLa urent
ĠLa mpes
ĠLa zz
ĠLa kal
ĠLa urasiathÃ©riens
ĠLa doga
ĠLa ffont
olog ien
olog iens
olog istes
ussi ons
ig nÃ©es
ig ramme
ig olf
ct ait
ct ae
ct Ã¨rent
ct olit
ĠEn on
ĠEn semble
ĠEn tier
ĠEn gie
ĠEn gel
ĠEn tente
ĠEn nÃ©ade
ĠEn sembles
ĠEn seignement
ĠEn daka
ĠEn torses
ĠEn titÃ©
ĠEn omoto
ond a
ond o
ond ra
ond ances
ert al
ert aire
ert herm
Ġmo que
Ġmo du
Ġmo tif
Ġmo quer
Ġmo vit
ĠLes lie
Ġtr iste
Ġtr Ã´
Ġtr uchement
Ġtr onquÃ©
Ġtr istis
ir si
ir ling
ir mait
ir rationnel
Ġsu an
Ġsu as
Ġsu prÃ©
mo v
mo der
mo dent
mo chi
mo reau
mo aci
mo dule
mo ineen
Ġmon stre
Ġmon othÃ©isme
Ġmon astÃ¨res
Ġmon olÃ¢
Ġmon chÅ«
ĠK o
ĠK ant
ĠK ab
ĠK im
ĠK ron
ĠK ob
ĠK enne
ĠK ae
ĠK aÃ¯
ĠK enn
ĠK ud
ĠK ites
ĠK ok
ĠK ov
ĠK ash
ĠK ult
ĠK rav
ĠK ik
ĠK uda
ĠK iz
ĠK iy
ĠK endo
ĠK ouch
ĠK irs
ĠK ung
ĠK obe
ĠK asta
ĠK atana
ĠK awa
ĠK ool
ĠK amoutef
ĠK amar
ĠK Ã´m
ĠK Åĳ
ĠK ahn
ĠK wasa
ĠK unst
ĠK elton
ĠK aspar
ĠK olant
ĠK abad
ĠK andy
ĠK ayak
ĠK laus
ĠK aor
ĠK nuth
ĠK rÃ¸
ĠK remlin
ĠK isar
ĠK omÃ¡
ĠK usht
ĠK alinag
ĠK roth
ĠK aghan
ĠK osovo
ĠK oush
ate formes
ate board
ate mala
Ġar t
Ġar mÃ©
Ġar chi
Ġar cs
Ġar gent
Ġar quÃ©e
Ġar gentine
Ġar bel
Ġar tÃ©si
Ġar rosage
Ġar cula
Ġar cades
iv es
iv ie
iv ace
iv ari
iv iller
iv Å±
Ġcar pe
Ġcar iens
Ġcar ros
Ġcar do
Ġcar rÃ©es
Ġcar dia
Ġcar niv
Ġcar ross
Ġcar til
Ġcar illons
Ġcar riÃ¨res
Ġcar abidÃ©s
Ġcar icaturÃ©
Ġnon es
ib e
ib rÃª
ib outi
Ã©ri ale
Ã©ri ff
Ã©ri enne
Ã©ri oritÃ©
Ã©ri mentateur
ĠÃī d
ĠÃī ric
ĠÃī poque
ĠÃī lection
ĠÃī quipe
ĠÃī laboration
ĠÃī vÃ©nements
ĠÃī checs
ĠÃī tabli
ĠÃī ryth
ĠÃī quitation
ĠÃī liane
ĠÃī videmment
du Ã©
du ctif
du gala
ĠÃ©t ables
ĠÃ©t oile
ĠÃ©t roit
ĠÃ©t angs
ĠÃ©t alon
ĠÃ©t apes
Ġcommun s
Ġcommun al
Ġcommun ale
Ġcommun istes
par d
par ation
par mi
par oli
par fois
par allÃ¨
par nasse
Ġfran chi
Ġfran cs
Ġfran chis
Ġfran chit
Ġfran chises
Ġfran cique
Ġtu Ã©
Ġtu ant
Ġtu li
Ġtu baire
Ġtu tÃ©laire
Ġpeu plÃ©es
sion omie
esh ige
ĠÃ©g aux
ĠÃ©g ard
ĠÃ©g orger
ion ov
ion isation
ion nage
Ġapp uis
Ġapp enti
Ġapp els
Ġapp rocher
Ġapp ortÃ©e
Ġapp osÃ©
Ġapp ortent
Ġapp arition
Ġapp eler
Ġapp Ã©tit
Ġapp ortÃ©s
Ġav ale
Ġav arie
Ġav enturiers
Ġav atar
19 5
19 19
19 00
19 18
19 17
19 23
19 12
19 15
19 25
19 27
19 24
19 29
19 56
19 54
19 52
fÃ©r ieure
uti ves
uti nation
uti dae
uti sme
dÃ© ration
dÃ© ca
dÃ© hy
dÃ© lisme
dÃ© menti
dÃ© lisÃ©e
dÃ© num
Ġra h
Ġra te
Ġra ge
Ġra vis
Ġra tÃ©e
Ġra vage
Ġra pa
Ġra tionalitÃ©
Ġra chÃ¨tent
ien tem
ien nent
tes se
ĠTu de
ĠTu way
ĠTu key
ĠTu bby
ĠTu zie
ĠTu mbling
Ġparti el
Ġparti aire
Ġparti elles
Ġparti cul
Ġparti tionnement
oire ment
ĠAr ents
ĠAr mÃ©ni
ĠAr ara
ĠAr chÃ©
ĠAr to
ĠAr rondissement
ĠAr mÃ©nien
ĠAr ray
ĠAr mÃ©n
ĠAr chÃ©e
ĠAr tistes
ĠAr med
ĠAr kan
ĠAr enz
ĠAr gentin
ĠAr nd
ĠAr istote
ĠAr hok
ĠAr nold
ĠAr saphes
ĠAr istic
ĠAr itomo
ĠAr iege
ĠAr chaea
ĠAr deche
ĠAr tÃ©mis
semb lan
semb lant
semb lÃ©es
mes on
ĠU X
ĠU der
ĠU lor
ĠU ed
ĠU RE
ĠU tile
ĠU we
ĠU CL
ĠU CF
ĠU DP
ĠU LM
ĠU MTS
ĠU RG
ĠU bay
ĠU kus
Ġal lÃ¨
Ġal ger
Ġal Ã¤
Ġal Ã©v
Ġal lÃ©e
Ġal sa
Ġal phasyllabaire
Ġal so
Ġal inÃ©
Ġal cool
Ġal cane
Ġal pin
Ġal liance
Ġal ban
Ġal biger
Ġal canes
Ġal dol
Ġal entours
Ġal ternÃ©e
Ġal phanum
Ġal dÃ©hy
Ġje ter
ĠFran co
ĠFran cine
ĠFran cs
ĠFran cesco
lÃ© rÃ©
lÃ© ologie
lÃ© pi
lÃ© ki
lÃ© opolis
lÃ© tisme
lÃ© nique
lÃ© gis
lÃ© pid
lÃ© chit
lÃ© anais
lÃ© nium
Ġne w
Ġne uron
Ġne ben
Ġne veu
Ġne uros
Ġne queunt
ĠAl l
ĠAl lier
ĠAl ton
ĠAl tern
ĠAl bum
ĠAl lemand
ĠAl liÃ©
ĠAl phabet
ĠAl ber
ĠAl phasyllabaire
ĠAl ba
ĠAl vin
ĠAl gol
ĠAl pin
ĠAl lia
ĠAl gÃ©rie
ĠAl liage
ĠAl istair
ĠAl capone
ĠAl tar
ĠAl varad
âĶĢ âĶ´âĶĢâĶĢâĶĢâĶĢâĶĢâĶĢ
entre r
entre ment
entre pÃ´ts
ard s
ard al
ard ant
ard anes
ard ercross
Ġton ique
Ġton nes
ay in
ay as
ay ens
ĠJe maye
tin s
tin ence
tin ues
tin rent
tin ctement
ins pire
ins piration
ins pecteur
ins kaÃ¯a
ins ertion
ins pection
ub le
ub ine
ub lÃ©
ub ler
ub liÃ©e
ub stanti
ĠAn se
ĠAn ta
ĠAn nÃ©e
ĠAn ton
ĠAn oup
ĠAn jou
ĠAn tigu
ĠAn ket
ĠAn ita
ĠAn no
ĠAn hor
ĠAn cÃªtre
ĠAn hour
ĠAn nan
ĠAn zan
ĠAn cient
ĠAn upet
ĠAn nulations
ĠAn zti
ĠAn alysis
ĠGui di
ĠGui gue
ĠGui chard
bre tÃ¨che
bre tesse
ron te
ron Ã©e
ron isation
ron tements
ron omique
enti ve
enti elles
enti Ã¨res
enti fic
enti fiques
enti vitÃ©
Ġme xicain
Ġfor um
Ġfor tin
Ġfor cÃ©e
Ġfor gea
Ġfor estier
Ġfor Ãªts
oy ait
oy eur
oy Ã¨des
ret ation
ret rans
ret raitÃ©
Ġac teur
Ġac tif
Ġac cÃ©
Ġac Ã©tique
Ġac cept
Ġac ception
Ġac tivement
Ġac tifs
Ġac roph
Ġac cidente
Ġtra d
Ġtra ce
Ġtra ire
Ġtra ite
Ġtra fic
Ġtra gique
Ġtra duis
Ġtra duits
Ġtra duire
Ġtra cÃ©s
Ġtra ject
Ġtra giques
Ġtra cker
Ġtra Ã§ante
Ġinter est
Ġinter nÃ©
Ġinter pr
Ġinter lu
Ġinter pos
Ġinter dit
Ġinter face
Ġinter rup
Ġinter viennent
Ġinter conne
Ġinter change
Ġinter rompues
Ġinter dites
la ke
la Ã§a
ĠgÃ© rÃ©
ĠgÃ© ograph
ĠgÃ© ologique
ĠgÃ© rÃ©es
ĠgÃ© omor
ĠgÃ© osphÃ¨re
ĠgÃ© omÃ©trie
ĠgÃ© ocli
ĠgÃ© odÃ©
ĠgÃ© omÃ©trique
ĠgÃ© oloc
Ġjus que
Ġjus tes
Ġjus tification
Ġi ra
Ġi ras
Ġi OS
Ġi raniens
Ġi mbriquÃ©s
Ġsy mÃ©
Ġsy mÃ©t
ing en
ing er
ing ues
th us
th at
th ieu
th ong
th ode
th ographe
th alli
th spe
th almus
Ġconc urr
Ġconc Ã©dÃ©
Ġconc urrence
Ġconc rÃ¨te
Ġconc ordance
Ġconc ubine
Ġph ob
Ġph able
Ġph are
Ġph onologie
Ġph oques
Ġph onologique
Ġph aryn
Ġcour re
Ġcour tis
he f
he i
he z
he mÃ©
he man
he by
he mia
he hyt
he pse
he mpi
he detite
he ctolit
Ã¢ l
Ã¢ ti
Ã¢ ts
Ã¢ ouy
Ã¢ nkh
Ã¢ Ëģ
Ã¢ bouy
gn ent
gn ac
ĠIn ch
ĠIn do
ĠIn tern
ĠIn tera
ĠIn dus
ĠIn volution
ĠIn oue
ĠIn donÃ©si
ĠIn dies
ĠIn formation
ĠIn telligence
ĠIn convÃ©ni
ĠIn versement
ĠIn dones
ĠIn nelec
ĠIn dice
ĠIn stall
ob es
ob it
ob ud
ob iles
ob ashi
ob Ã©it
ob ligatif
ob servatoire
ob iographique
der ie
der mes
der land
der ick
der abad
der aciÃ³n
der nitÃ©
ru che
rit ent
rou h
rou es
rou te
rou stru
rou cht
aÃ ±ola
cip ants
cip roquement
00 27
ad o
ad or
ad age
ad jour
ad oles
ad minist
ad mettre
ad oration
ad verbe
ad onnant
ad zin
ad anob
ad ensis
omm ation
od obashi
erm otard
cu al
cu lier
cu pent
cu liers
Ġutilis able
Ġutilis ateur
Ġter ra
Ġter ras
Ġter mn
Ġter mine
Ġter restres
âĶĢâĶĢ âĶ¬
ince ps
Ã´ ture
Ã´ nis
Ã´ mÃ©
Ã´ lier
Ã´ lar
ec cable
ts el
ts field
ts uka
fin ir
fin ales
fin anci
ĠPar ce
ĠPar ach
ĠPar odi
ĠPar sons
ĠPar allÃ¨lement
ĠPar adig
ĠPar apente
ĠmÃ© lan
ĠmÃ© cont
ĠmÃ© tiers
ĠmÃ© lang
ĠmÃ© pris
ĠmÃ© ditation
hÃ© tÃ©rot
pr inceps
Ġfin i
Ġfin ance
Ġfin ies
Ġfin ances
Ġfin ancer
Ġfin landaise
Ġcons ort
Ġcons enti
Ġcons Ã©c
Ġcons omme
Ġcons tel
Ġcons istant
Ġcons ister
Ġcons Ã©cutif
Ġcons tell
Ġcons cient
Ġcons ciemment
Ġcons uet
Ġcons onantique
Ġcons isting
Ġcons ternÃ©
Ġcons ultant
Ġcons ensuelle
Ġcons istait
Ġcons ubstanti
Ġes tis
Ġes car
Ġes tim
Ġes time
Ġes crime
ss is
ss Ã©e
Ġ18 1
Ġ18 19
Ġ18 22
Ġ18 64
Ġ18 14
Ġ18 29
Ġ18 57
Ġ18 52
lle ri
lle tÄģ
Ġ3 8
Ġ3 17
Ġ3 16
Ġ3 15
Ġ3 26
Ġ3 64
Ġ3 33
Ġ3 94
Ġ3 36
Ġ3 83
Ġ3 87
Ġ3 86
Ġ3 81
Ġ3 46
onn a
onn ance
onn ette
onn aient
onn able
onn istes
tif ications
tif iÃ©s
Ġquel s
ĠOn noph
Ġentre ra
Ġentre tient
Ġentre voir
Ġentre tiens
Ġentre vue
Ġentre tiennent
Ġentre prend
Ġentre pris
Ġentre tenait
Ġentre lacÃ©s
tic um
tic ence
tic ast
Ġses quil
rop re
rop Ã©ra
rop oles
rop ov
rop orositÃ©
Ġim itÃ©s
Ġim min
Ġim ager
Ġim mat
Ġim itation
Ġim mun
Ġim mu
Ġim menses
Ġser re
Ġser ver
Ġser be
Ġser vis
Ġser vaient
Ġser enus
tis h
tis ation
tis ca
tis seurs
tis siÃ¨re
Ġmar is
Ġmar in
Ġmar ge
Ġmar ins
Ġmar bre
Ġmar tres
Ġmar ke
Ġmar su
Ġmar quÃ©e
Ġmar gin
Ġmar teau
Ġmar quait
Ġmar coi
Ġk o
Ġk Ã©
Ġk all
Ġk ays
Ġk art
Ġk han
Ġk bit
Ġk now
Ġk ep
Ġk hos
Ġk wasa
Ġk onas
Ġk unst
Ġk ory
Ġk uwan
Ġk enjutsu
Ġk urde
Ġk elvin
Ġk olenati
Ġk anssa
Ġk ostis
Ġk oushite
Ġk ardal
Ġk hemÃ©
ten ez
ten ba
ten sile
Ġsui f
Ġsui vent
Ġsui cide
Ġprin ciÃ¨re
ire ann
ĠgÃ©nÃ© alog
ĠgÃ©nÃ© ticienne
Ġor ne
Ġor nÃ©
Ġor nements
Ġor dered
Ġor phelins
Ġres tis
Ġres pon
Ġres semblan
Ġcre user
Ġy en
Ġy ens
Ġy ang
Ġy ouk
Ġy ardie
Ġy ears
Ġy anke
Ġy stÃ¤
lan e
lan tique
lan ations
Ġrep Ã¨re
Ġrep lier
Ġrep orter
Ġrep tiles
Ġrep anda
Ġrep lacer
Ġrep ubliÃ©e
ak es
ak us
ak har
Ġcol d
Ġcol it
Ġcol Ã¨res
Ġcol omb
Ġcol Ã³n
Ġcol lin
Ġcol oss
Ġcol lÃ©e
Ġcol orÃ©
Ġcol oration
ae f
ae ota
nis ut
nis seurs
tra in
tra itÃ©
tra teur
tra duit
mÃ© rac
mÃ© hyt
ver gence
ari ablement
ari idae
ari fier
ari ya
its ch
Ġplan te
Ġplan Ã©t
Ġplan cher
Ġplan eur
Ġplan Ã©taires
Ġplan ification
int a
int y
int ures
int Ã¨gre
int osh
int uition
ram s
asy ants
Ã©ra it
Ã©ra les
Ã©ra con
Ã©ra bles
iss ante
iss ariat
iss inger
Ġgran it
Ġgran ite
ente t
ente kth
Ġpe i
Ġpe ints
Ġpe intre
Ġpe intures
lig Ã©
lig nÃ©
lig nes
lig ences
lig rammes
Ġnombre use
Ã©c oule
Ã©c ologie
Ã©c ables
Ã©c art
Ã©c lipse
Ġpos a
Ġpos Ã©
Ġpos Ã©e
Ġpos tÃ©rieures
Ġpos tÃ©ritÃ©
ici pe
ici um
ici enne
ici elles
ici ents
Ġsac s
Ġsac rÃ©e
Ġsac rÃ©es
Ġsac ralise
all age
all ure
all onne
all urgie
all aiter
all agmatique
nex ion
az i
az ie
az ote
az aishi
Ġcou reur
Ġcou lant
Ġcou lÃ©e
Ġcou chant
Ġcou chÃ©e
Ġcou tume
Ġcou raient
Ġcou rami
Ġcou teaux
Ġcou tumes
Ġam as
Ġam ie
Ġam ont
Ġam oure
Ġam usant
Ġam ical
Ġam yg
Ġam haric
Ġam harigna
Ġam icale
Ġmin es
Ġmin us
Ġmin uscule
Ġmin nan
Ġmin uscules
roi ds
ĠdÃ©c ors
ĠdÃ©c Ã¨s
ĠdÃ©c oul
ĠdÃ©c Ã©d
ĠdÃ©c lar
ĠdÃ©c roit
ĠdÃ©c rite
ĠdÃ©c len
ĠdÃ©c orant
ĠdÃ©c Ã©dÃ©
ĠdÃ©c ilit
ĠdÃ©c laration
ĠdÃ©c anter
ĠdÃ©c ompose
ĠdÃ©c rÃ©ter
ĠdÃ©c apiter
tr ent
tr ant
tr ont
tr ina
tr ompe
tr ansfÃ©
Ãī tudes
Ãī thiopie
Ãī mile
Ãī quateur
Ãī lisabeth
Ãī quipement
Ãī glise
Ãī nergie
Ãī quilibre
Ãł r
alis ant
alis tiques
Ġbas Ã©e
Ġbas ses
Ġbas ileus
Ġbas kette
Ġbas ilique
Ġbas altes
ong us
ta w
ta xe
ta ili
ta Åĭ
ta oÃ¯s
ta chment
Ġ+ +
Ġad vient
Ġad ali
Ġad vers
Ġad position
Ġad resse
Ġad orat
Ġad oss
Ġad jectif
Ġad resses
Ġad ditions
Ġad viendra
Ġti o
Ġti un
Ġti mbre
Ġti mber
Ġti rets
Ġti bÃ©t
Ġti tulaire
Ġsouv erains
Ġsouv iennent
omb a
omb ris
omb rable
ograph y
ograph ic
ill iste
ill ance
ill oire
ill ing
ill ustra
ill ots
acc Ã©lÃ©
acc roit
acc Ã©l
acc rÃ©ditation
ĠAm our
ĠAm am
ĠAm and
ĠAm ada
ĠAm mout
ĠAm azon
ĠAm aounet
ĠAm mit
ĠAm arna
ĠAm entet
Ġbou eux
Ġbou ches
Ġbou quet
Ġbou dd
Ġbou illoire
fic itÃ©
Ġprincip at
Ġsans krit
Ġprodu ctive
Ġprodu ctif
Ġprodu ctives
Ġprodu ctivitÃ©
18 00
18 20
18 12
18 10
18 58
18 50
18 64
18 25
18 33
18 11
18 28
18 55
18 37
18 30
18 34
18 86
18 32
18 38
18 81
18 82
form Ã©
form atique
Ġcl ans
Ġcl ins
Ġcl ub
Ġcl one
Ġcl oud
Ġcl ocher
Ġcl artÃ©
Ġcl assement
Ġcl Ã´ture
Ġcl arifier
ĠRÃ© mi
ĠRÃ© uni
ĠRÃ© forme
ĠRÃ© chauff
ĠRÃ© gate
ĠRÃ© my
ĠRÃ© frig
ĠRÃ© aumur
ĠRÃ© veillon
ĠRÃ© ciproquement
ĠRÃ© ticence
Ġcas uelle
Ġcas erne
Ġcas tellum
Ġcas cade
Ġbien heure
Ġbien veillante
ĠDe an
ĠDe ler
ĠDe voir
ĠDe part
ĠDe wa
ĠDe arb
ĠDe we
ĠDe mocra
ĠDe bye
ĠDe maison
ĠDe main
ĠDe wdrop
[...]
