{
  "version": "1.0",
  "truncation": null,
  "padding": null,
  "added_tokens": [
    {
      "id": 0,
      "content": "<pad>",
      "single_word": false,
      "lstrip": false,
      "rstrip": false,
      "normalized": false,
      "special": true
    },
    {
      "id": 1,
      "content": "<s>",
      "single_word": false,
      "lstrip": false,
      "rstrip": false,
      "normalized": false,
      "special": true
    },
    {
      "id": 2,
      "content": "</s>",
      "single_word": false,
      "lstrip": false,
      "rstrip": false,
      "normalized": false,
      "special": true
    },
    {
      "id": 3,
      "content": "<unk>",
      "single_word": false,
      "lstrip": false,
      "rstrip": false,
      "normalized": false,
      "special": true
    },
    {
      "id": 4,
      "content": "<mask>",
      "single_word": false,
      "lstrip": false,
      "rstrip": false,
      "normalized": false,
      "special": true
    },
    {
      "id": 5,
      "content": "<user>",
      "single_word": false,
      "lstrip": false,
      "rstrip": false,
      "normalized": false,
      "special": true
    },
    {
      "id": 6,
      "content": "<guizmo>",
      "single_word": false,
      "lstrip": false,
      "rstrip": false,
      "normalized": false,
      "special": true
    },
    {
      "id": 7,
      "content": "<search>",
      "single_word": false,
      "lstrip": false,
      "rstrip": false,
      "normalized": false,
      "special": true
    },
    {
      "id": 8,
      "content": "</search>",
      "single_word": false,
      "lstrip": false,
      "rstrip": false,
      "normalized": false,
      "special": true
    },
    {
      "id": 9,
      "content": "<result>",
      "single_word": false,
      "lstrip": false,
      "rstrip": false,
      "normalized": false,
      "special": true
    },
    {
      "id": 10,
      "content": "</result>",
      "single_word": false,
      "lstrip": false,
      "rstrip": false,
      "normalized": false,
      "special": true
    }
  ],
  "normalizer": null,
  "pre_tokenizer": {
    "type": "ByteLevel",
    "add_prefix_space": true,
    "trim_offsets": true,
    "use_regex": true
  },
  "post_processor": {
    "type": "ByteLevel",
    "add_prefix_space": true,
    "trim_offsets": false,
    "use_regex": true
  },
  "decoder": {
    "type": "ByteLevel",
    "add_prefix_space": true,
    "trim_offsets": true,
    "use_regex": true
  },
  "model": {
    "type": "BPE",
    "dropout": null,
    "unk_token": null,
    "continuing_subword_prefix": null,
    "end_of_word_suffix": null,
    "fuse_unk": false,
    "byte_fallback": false,
    "ignore_merges": false,
    "vocab": {
      "<pad>": 0,
      "<s>": 1,
      "</s>": 2,
      "<unk>": 3,
      "<mask>": 4,
      "<user>": 5,
      "<guizmo>": 6,
      "<search>": 7,
      "</search>": 8,
      "<result>": 9,
      "</result>": 10,
      "!": 11,
      "\"": 12,
      "#": 13,
      "$": 14,
      "%": 15,
      "&": 16,
      "'": 17,
      "(": 18,
      ")": 19,
      "*": 20,
      "+": 21,
      ",": 22,
      "-": 23,
      ".": 24,
      "/": 25,
      "0": 26,
      "1": 27,
      "2": 28,
      "3": 29,
      "4": 30,
      "5": 31,
      "6": 32,
      "7": 33,
      "8": 34,
      "9": 35,
      ":": 36,
      ";": 37,
      "<": 38,
      "=": 39,
      ">": 40,
      "?": 41,
      "@": 42,
      "A": 43,
      "B": 44,
      "C": 45,
      "D": 46,
      "E": 47,
      "F": 48,
      "G": 49,
      "H": 50,
      "I": 51,
      "J": 52,
      "K": 53,
      "L": 54,
      "M": 55,
      "N": 56,
      "O": 57,
      "P": 58,
      "Q": 59,
      "R": 60,
      "S": 61,
      "T": 62,
      "U": 63,
      "V": 64,
      "W": 65,
      "X": 66,
      "Y": 67,
      "Z": 68,
      "[": 69,
      "\\": 70,
      "]": 71,
      "^": 72,
      "_": 73,
      "`": 74,
      "a": 75,
      "b": 76,
      "c": 77,
      "d": 78,
      "e": 79,
      "f": 80,
      "g": 81,
      "h": 82,
      "i": 83,
      "j": 84,
      "k": 85,
      "l": 86,
      "m": 87,
      "n": 88,
      "o": 89,
      "p": 90,
      "q": 91,
      "r": 92,
      "s": 93,
      "t": 94,
      "u": 95,
      "v": 96,
      "w": 97,
      "x": 98,
      "y": 99,
      "z": 100,
      "{": 101,
      "|": 102,
      "}": 103,
      "~": 104,
      "¡": 105,
      "¢": 106,
      "£": 107,
      "¤": 108,
      "¥": 109,
      "¦": 110,
      "§": 111,
      "¨": 112,
      "©": 113,
      "ª": 114,
      "«": 115,
      "¬": 116,
      "®": 117,
      "¯": 118,
      "°": 119,
      "±": 120,
      "²": 121,
      "³": 122,
      "´": 123,
      "µ": 124,
      "¶": 125,
      "·": 126,
      "¸": 127,
      "¹": 128,
      "º": 129,
      "»": 130,
      "¼": 131,
      "½": 132,
      "¾": 133,
      "¿": 134,
      "À": 135,
      "Á": 136,
      "Â": 137,
      "Ã": 138,
      "Ä": 139,
      "Å": 140,
      "Æ": 141,
      "Ç": 142,
      "È": 143,
      "É": 144,
      "Ê": 145,
      "Ë": 146,
      "Ì": 147,
      "Í": 148,
      "Î": 149,
      "Ï": 150,
      "Ð": 151,
      "Ñ": 152,
      "Ò": 153,
      "Ó": 154,
      "Ô": 155,
      "Õ": 156,
      "Ö": 157,
      "×": 158,
      "Ø": 159,
      "Ù": 160,
      "Ú": 161,
      "Û": 162,
      "Ü": 163,
      "Ý": 164,
      "Þ": 165,
      "ß": 166,
      "à": 167,
      "á": 168,
      "â": 169,
      "ã": 170,
      "ä": 171,
      "å": 172,
      "æ": 173,
      "ç": 174,
      "è": 175,
      "é": 176,
      "ê": 177,
      "ë": 178,
      "ì": 179,
      "í": 180,
      "î": 181,
      "ï": 182,
      "ð": 183,
      "ñ": 184,
      "ò": 185,
      "ó": 186,
      "ô": 187,
      "õ": 188,
      "ö": 189,
      "÷": 190,
      "ø": 191,
      "ù": 192,
      "ú": 193,
      "û": 194,
      "ü": 195,
      "ý": 196,
      "þ": 197,
      "ÿ": 198,
      "Ā": 199,
      "ā": 200,
      "Ă": 201,
      "ă": 202,
      "Ą": 203,
      "ą": 204,
      "Ć": 205,
      "ć": 206,
      "Ĉ": 207,
      "ĉ": 208,
      "Ċ": 209,
      "ċ": 210,
      "Č": 211,
      "č": 212,
      "Ď": 213,
      "ď": 214,
      "Đ": 215,
      "đ": 216,
      "Ē": 217,
      "ē": 218,
      "Ĕ": 219,
      "ĕ": 220,
      "Ė": 221,
      "ė": 222,
      "Ę": 223,
      "ę": 224,
      "Ě": 225,
      "ě": 226,
      "Ĝ": 227,
      "ĝ": 228,
      "Ğ": 229,
      "ğ": 230,
      "Ġ": 231,
      "ġ": 232,
      "Ģ": 233,
      "ģ": 234,
      "Ĥ": 235,
      "ĥ": 236,
      "Ħ": 237,
      "ħ": 238,
      "Ĩ": 239,
      "ĩ": 240,
      "Ī": 241,
      "ī": 242,
      "Ĭ": 243,
      "ĭ": 244,
      "Į": 245,
      "į": 246,
      "İ": 247,
      "ı": 248,
      "Ĳ": 249,
      "ĳ": 250,
      "Ĵ": 251,
      "ĵ": 252,
      "Ķ": 253,
      "ķ": 254,
      "ĸ": 255,
      "Ĺ": 256,
      "ĺ": 257,
      "Ļ": 258,
      "ļ": 259,
      "Ľ": 260,
      "ľ": 261,
      "Ŀ": 262,
      "ŀ": 263,
      "Ł": 264,
      "ł": 265,
      "Ń": 266,
      "es": 267,
      "Ġd": 268,
      "Ġl": 269,
      "en": 270,
      "on": 271,
      "Ã©": 272,
      "čĊ": 273,
      "Ġp": 274,
      "Ġc": 275,
      "Ġs": 276,
      "an": 277,
      "ou": 278,
      "qu": 279,
      "re": 280,
      "is": 281,
      "te": 282,
      "Ġa": 283,
      "Ġde": 284,
      "ti": 285,
      "le": 286,
      "in": 287,
      "er": 288,
      "Ġm": 289,
      "ent": 290,
      "un": 291,
      "ĠčĊ": 292,
      "et": 293,
      "ar": 294,
      "oi": 295,
      "Ġle": 296,
      "or": 297,
      "Ġla": 298,
      "om": 299,
      "Ġt": 300,
      "Ġqu": 301,
      "ur": 302,
      "Ġf": 303,
      "it": 304,
      "Ġv": 305,
      "Ġet": 306,
      "us": 307,
      "Ġun": 308,
      "our": 309,
      "est": 310,
      "as": 311,
      "Ġles": 312,
      "il": 313,
      "Ġen": 314,
      "Ġdes": 315,
      "Ġn": 316,
      "Ġ:": 317,
      "tion": 318,
      "ra": 319,
      "me": 320,
      "el": 321,
      "ĠL": 322,
      "al": 323,
      "que": 324,
      "ĠÃ": 325,
      "Ġb": 326,
      "ie": 327,
      "au": 328,
      "ĠC": 329,
      "Ġcom": 330,
      "ment": 331,
      "Ġ?": 332,
      "Ġr": 333,
      "ĠA": 334,
      "ant": 335,
      "Ġ(": 336,
      "ce": 337,
      "Ġdu": 338,
      "ch": 339,
      "li": 340,
      "se": 341,
      "Ã¨": 342,
      "eu": 343,
      "mp": 344,
      "ro": 345,
      "ĠÃł": 346,
      "Ġg": 347,
      "ans": 348,
      "Ġpl": 349,
      "ri": 350,
      "ne": 351,
      "ĠP": 352,
      "Ġpar": 353,
      "ĠE": 354,
      "Ġj": 355,
      "res": 356,
      "si": 357,
      "ve": 358,
      "Ġqui": 359,
      "ol": 360,
      "ais": 361,
      "Ġpour": 362,
      "ĠT": 363,
      "Ġcon": 364,
      "at": 365,
      "ag": 366,
      "Ġau": 367,
      "ai": 368,
      "Ġest": 369,
      "ĠD": 370,
      "ĠÃ©": 371,
      "Ġre": 372,
      "ĠS": 373,
      "de": 374,
      "Ġ1": 375,
      "Ġch": 376,
      "ation": 377,
      "Ġsi": 378,
      "ac": 379,
      "ont": 380,
      "Ġpo": 381,
      "ĠB": 382,
      "ter": 383,
      "ĠÂ": 384,
      "ci": 385,
      "Ġplus": 386,
      "rÃ©": 387,
      "les": 388,
      "Ġou": 389,
      "ui": 390,
      "ĠdÃ©": 391,
      "Ġe": 392,
      "Ġune": 393,
      "ĠG": 394,
      "ĠM": 395,
      "eux": 396,
      "Ġcomme": 397,
      "Ġca": 398,
      "Ġse": 399,
      "ran": 400,
      "Ġdans": 401,
      "Ġpas": 402,
      "ĠI": 403,
      "quoi": 404,
      "Ġin": 405,
      "ait": 406,
      "ine": 407,
      "ale": 408,
      "ot": 409,
      "xp": 410,
      "di": 411,
      "mple": 412,
      "ble": 413,
      "end": 414,
      "Ġst": 415,
      "ff": 416,
      "ĠV": 417,
      "ge": 418,
      "Ġte": 419,
      "ĠĠ": 420,
      "ĠJ": 421,
      "ĠO": 422,
      "tÃ©": 423,
      "Ġh": 424,
      "Ġque": 425,
      "pp": 426,
      "Ġsur": 427,
      "âĢ": 428,
      "ens": 429,
      "Ġdi": 430,
      "che": 431,
      "og": 432,
      "ĠN": 433,
      "Ã©e": 434,
      "itÃ©": 435,
      "Ġsimple": 436,
      "ĠR": 437,
      "Ġon": 438,
      "am": 439,
      "ain": 440,
      "ul": 441,
      "ĠrÃ©": 442,
      "Ġpro": 443,
      "ers": 444,
      "lique": 445,
      "Ġveux": 446,
      "and": 447,
      "Ġvi": 448,
      "ĠW": 449,
      "Ġ2": 450,
      "mo": 451,
      "vec": 452,
      "Ġpote": 453,
      "ois": 454,
      "uis": 455,
      "Ġil": 456,
      "ĠH": 457,
      "tu": 458,
      "ab": 459,
      "ĠF": 460,
      "Ġdis": 461,
      "xplique": 462,
      "ouv": 463,
      "iste": 464,
      "Ġ19": 465,
      "ous": 466,
      "ang": 467,
      "im": 468,
      "Ġavec": 469,
      "ĠLe": 470,
      "Ġco": 471,
      "Ġmoi": 472,
      "age": 473,
      "ĠÂ»": 474,
      "Ġ-": 475,
      "ati": 476,
      "oc": 477,
      "ord": 478,
      "ille": 479,
      "ique": 480,
      "Ġ;": 481,
      "tes": 482,
      "ons": 483,
      "ces": 484,
      "pe": 485,
      "urs": 486,
      "Ġsa": 487,
      "ph": 488,
      "Ġtu": 489,
      "âĢĻ": 490,
      "Ã©r": 491,
      "aire": 492,
      "tre": 493,
      "vi": 494,
      "Ġcomp": 495,
      "ĠÂ«": 496,
      "elle": 497,
      "Ġcomm": 498,
      "Ġ|": 499,
      "ques": 500,
      "Ġnon": 501,
      "esh": 502,
      "ux": 503,
      "ort": 504,
      "os": 505,
      "ĠWesh": 506,
      "ĠTu": 507,
      "ors": 508,
      "um": 509,
      "nÃ©": 510,
      "ĠPour": 511,
      "Ġo": 512,
      "ic": 513,
      "),": 514,
      "out": 515,
      "Ġmon": 516,
      "ni": 517,
      "Ġton": 518,
      "ue": 519,
      "Ġje": 520,
      "eau": 521,
      "st": 522,
      "Ġquoi": 523,
      "sem": 524,
      "Ġce": 525,
      "orm": 526,
      "Ġpourquoi": 527,
      "oir": 528,
      "oule": 529,
      "ĠGui": 530,
      "zmo": 531,
      "une": 532,
      "ĠExplique": 533,
      "Ġstp": 534,
      "ĠVas": 535,
      "ĠPourquoi": 536,
      "ĠGuizmo": 537,
      "Ã¨re": 538,
      "ist": 539,
      "nes": 540,
      "semble": 541,
      "Ġsont": 542,
      "Ġtr": 543,
      "ĠJe": 544,
      "Ġmo": 545,
      "ĠIl": 546,
      "Ġleur": 547,
      "ction": 548,
      "ir": 549,
      "Ġ20": 550,
      "ert": 551,
      "lis": 552,
      "Ġson": 553,
      "Ġensemble": 554,
      "iv": 555,
      "moi": 556,
      "ig": 557,
      "Ġan": 558,
      "Ġpr": 559,
      "Ã§": 560,
      "ussi": 561,
      "ut": 562,
      "Ġnom": 563,
      "ond": 564,
      "Ġex": 565,
      "tique": 566,
      "ĠLa": 567,
      "ĠCh": 568,
      "ĠAl": 569,
      "Ã©s": 570,
      "Ġar": 571,
      "ret": 572,
      "ate": 573,
      "Ġme": 574,
      "ap": 575,
      "ĠprÃ©": 576,
      "Ġcar": 577,
      "uit": 578,
      "Ġaussi": 579,
      "ĠLes": 580,
      "der": 581,
      "ct": 582,
      "mi": 583,
      "Ġav": 584,
      "Ġjus": 585,
      ").": 586,
      "aux": 587,
      "ure": 588,
      "Ãª": 589,
      "Ã¨s": 590,
      "Ġfait": 591,
      "olog": 592,
      "use": 593,
      "ĠEn": 594,
      "Ġconc": 595,
      "Ġsu": 596,
      "ien": 597,
      "Ġra": 598,
      "Ġne": 599,
      "ance": 600,
      "bre": 601,
      "ĠĠĠĠ": 602,
      "Ġapp": 603,
      "âĶ": 604,
      "ence": 605,
      "ince": 606,
      "ĠK": 607,
      "Ġfran": 608,
      "Ġcre": 609,
      "oy": 610,
      "ins": 611,
      "roi": 612,
      "Ġpeu": 613,
      "tin": 614,
      "sion": 615,
      "mes": 616,
      "Ã©ri": 617,
      "par": 618,
      "ĠÃī": 619,
      "ĠFran": 620,
      "entre": 621,
      "ĠOk": 622,
      "Ġim": 623,
      "Ġ.": 624,
      "ĠÃ©t": 625,
      "Ġcommun": 626,
      "op": 627,
      "ion": 628,
      "Ġjuste": 629,
      "Ġ,": 630,
      "enti": 631,
      "uti": 632,
      "Ġquel": 633,
      "asy": 634,
      "Ġmais": 635,
      "ard": 636,
      "ĠÃ©g": 637,
      "agine": 638,
      "19": 639,
      "fÃ©r": 640,
      "ĠU": 641,
      "ences": 642,
      "Ġal": 643,
      "Ġplan": 644,
      "onne": 645,
      "Ġfor": 646,
      "ĠAr": 647,
      "dÃ©": 648,
      "Ġcour": 649,
      "ts": 650,
      "ĠEasy": 651,
      "ĠAlors": 652,
      "ay": 653,
      "ĠOn": 654,
      "lÃ©": 655,
      "iss": 656,
      "Ġ+": 657,
      "Ġso": 658,
      "Ġsac": 659,
      "oire": 660,
      "Ġparti": 661,
      "la": 662,
      "yp": 663,
      "Ã§ais": 664,
      "Ġcreuse": 665,
      "Ġimagine": 666,
      "Ġac": 667,
      "Ġdeux": 668,
      "gn": 669,
      "Ġk": 670,
      "âĶĢ": 671,
      "00": 672,
      "Ġpre": 673,
      "Ġaux": 674,
      "utilis": 675,
      "ib": 676,
      "Ġ3": 677,
      "Ġcoince": 678,
      "ette": 679,
      "Ġtra": 680,
      "Ġconcret": 681,
      "Ã©es": 682,
      "ĠfranÃ§ais": 683,
      "rop": 684,
      "od": 685,
      "Ġlang": 686,
      "Ġpens": 687,
      "veau": 688,
      "ats": 689,
      "ub": 690,
      "Ġy": 691,
      "Ġvider": 692,
      "ture": 693,
      "ore": 694,
      "Ġpuis": 695,
      "Ġquand": 696,
      "Ġres": 697,
      "Ġjour": 698,
      "Ġ||": 699,
      "ron": 700,
      "Ġsy": 701,
      "ĠAn": 702,
      "Ġsaoule": 703,
      "Ġmom": 704,
      "Ġi": 705,
      "tement": 706,
      "Ġinter": 707,
      "Ġpe": 708,
      "Ġph": 709,
      "th": 710,
      "rend": 711,
      "ĠToi": 712,
      "aient": 713,
      "Ġpenses": 714,
      "rit": 715,
      "ing": 716,
      "ĠgÃ©": 717,
      "air": 718,
      "Ġmoment": 719,
      "Ġ=": 720,
      "Ġper": 721,
      "ad": 722,
      "Ġsous": 723,
      "Ġmin": 724,
      "fÃ©rences": 725,
      "aÃ": 726,
      "tres": 727,
      "Ġcer": 728,
      "ales": 729,
      "onn": 730,
      "ob": 731,
      "Ġdire": 732,
      "he": 733,
      "elles": 734,
      "ĠIn": 735,
      "alement": 736,
      "ec": 737,
      "ire": 738,
      "Ġmar": 739,
      "Ã¢": 740,
      "teur": 741,
      "ĠListe": 742,
      "oit": 743,
      "ĠDis": 744,
      "Ġcommunes": 745,
      "ss": 746,
      "Ġes": 747,
      "ations": 748,
      "otes": 749,
      "rou": 750,
      "Ġter": 751,
      "Ġcou": 752,
      "cu": 753,
      "tif": 754,
      "cip": 755,
      "Ġser": 756,
      "Ġtout": 757,
      "Ġpremi": 758,
      "iff": 759,
      "vant": 760,
      "ite": 761,
      "Ġutilis": 762,
      "omm": 763,
      "tra": 764,
      "Ġentre": 765,
      "ĠPar": 766,
      "ĠNotes": 767,
      "lan": 768,
      "ues": 769,
      "Ġont": 770,
      "Ġcol": 771,
      "tions": 772,
      "lle": 773,
      "ru": 774,
      "enne": 775,
      "Ġbou": 776,
      "aires": 777,
      "acc": 778,
      "âĶĢâĶĢ": 779,
      "mb": 780,
      "fin": 781,
      "Ġsans": 782,
      "Ġsuis": 783,
      "Ġfin": 784,
      "Ġrep": 785,
      "Ã´": 786,
      "sent": 787,
      "lo": 788,
      "Ġses": 789,
      "Ġmet": 790,
      "Ġcons": 791,
      "az": 792,
      "uer": 793,
      "ĠmÃ©": 794,
      "ace": 795,
      "hÃ©": 796,
      "ise": 797,
      "able": 798,
      "Ġtou": 799,
      "ures": 800,
      "raph": 801,
      "Ġmoins": 802,
      "Ġ18": 803,
      "ĠFrance": 804,
      "Ġcerveau": 805,
      "ange": 806,
      "Ġseu": 807,
      "ieu": 808,
      "Ġor": 809,
      "aine": 810,
      "lig": 811,
      "Ã¨me": 812,
      "Ġ10": 813,
      "int": 814,
      "Ġsouv": 815,
      "tic": 816,
      "Ġpeut": 817,
      "mÃ©": 818,
      "Ġbas": 819,
      "Ġsec": 820,
      "explique": 821,
      "Ġsui": 822,
      "omb": 823,
      "Ġprin": 824,
      "Ġmeme": 825,
      "ten": 826,
      "endant": 827,
      "tr": 828,
      "ari": 829,
      "omme": 830,
      "Ġbien": 831,
      "ches": 832,
      "ak": 833,
      "ĠgÃ©nÃ©": 834,
      "des": 835,
      "onc": 836,
      "ments": 837,
      "Ġnorm": 838,
      "Ġcomprend": 839,
      "duit": 840,
      "ole": 841,
      "Ġap": 842,
      "Ġgran": 843,
      "ĠÃ©tÃ©": 844,
      "itÃ©s": 845,
      "ĠâĢ": 846,
      "ente": 847,
      "Ġvois": 848,
      "alis": 849,
      "aut": 850,
      "are": 851,
      "du": 852,
      "Ġad": 853,
      "aines": 854,
      "ĠrÃ©fÃ©rences": 855,
      "xe": 856,
      "ae": 857,
      "Ġti": 858,
      "Ġcas": 859,
      "Ġtrop": 860,
      "els": 861,
      "Ã¨res": 862,
      "Ġpeti": 863,
      "ah": 864,
      "nis": 865,
      "Ġver": 866,
      "ill": 867,
      "ieux": 868,
      "ante": 869,
      "Ġam": 870,
      "ants": 871,
      "atif": 872,
      "nÃ©es": 873,
      "Ġnombre": 874,
      "ologie": 875,
      "illes": 876,
      "Ġrec": 877,
      "ver": 878,
      "Ġcl": 879,
      "Ġcor": 880,
      "Ġexp": 881,
      "Ġ199": 882,
      "apon": 883,
      "iens": 884,
      "Ã©ra": 885,
      "all": 886,
      "met": 887,
      "Ã©c": 888,
      "Ġmil": 889,
      "ouver": 890,
      "rÃ¨s": 891,
      "ong": 892,
      "nex": 893,
      "po": 894,
      "Ġelle": 895,
      "Ġmont": 896,
      "Ġcontin": 897,
      "Ġreg": 898,
      "chement": 899,
      "roid": 900,
      "ta": 901,
      "ram": 902,
      "ĠDans": 903,
      "Ġcha": 904,
      "ĠÃīt": 905,
      "ĠgÃ©nÃ©ra": 906,
      "ici": 907,
      "iques": 908,
      "man": 909,
      "Ġpres": 910,
      "but": 911,
      "ĠDe": 912,
      "ĠdÃ©c": 913,
      "Ãªme": 914,
      "Ġcomprends": 915,
      "Ãī": 916,
      "Ãł": 917,
      "Ġsou": 918,
      "Ġva": 919,
      "agne": 920,
      "Ġdiv": 921,
      "Ġlum": 922,
      "ains": 923,
      "Ġavant": 924,
      "insi": 925,
      "Ġat": 926,
      "ograph": 927,
      "ris": 928,
      "Ġab": 929,
      "ĠAm": 930,
      "ays": 931,
      "form": 932,
      "Ġtrans": 933,
      "fic": 934,
      "ps": 935,
      "lect": 936,
      "Ġmus": 937,
      "Ġvers": 938,
      "Ġprincip": 939,
      "id": 940,
      "jour": 941,
      "Ġtoi": 942,
      "ĠÃ©galement": 943,
      "Ġimp": 944,
      "ven": 945,
      "isse": 946,
      "Ġtour": 947,
      "Ġfil": 948,
      "ĠÃª": 949,
      "18": 950,
      "ies": 951,
      "lus": 952,
      "Ġdont": 953,
      "lic": 954,
      "Ġdit": 955,
      "ler": 956,
      "Ġdiff": 957,
      "ĠRÃ©": 958,
      "Ġ200": 959,
      "partement": 960,
      "Ã©t": 961,
      "Ġconnex": 962,
      "ĠQ": 963,
      "Ġpers": 964,
      "vent": 965,
      "ĠcrÃ©": 966,
      "Ġma": 967,
      "ĠRe": 968,
      "ĠÃªtre": 969,
      "anis": 970,
      "titu": 971,
      "mps": 972,
      "ĠBeau": 973,
      "Ġlui": 974,
      "Ġsel": 975,
      "Ġfroid": 976,
      "itu": 977,
      "Ġcap": 978,
      "Ġkiff": 979,
      "Ġsouvent": 980,
      "ĠâĢĶ": 981,
      "ĠÃītats": 982,
      "ĠVoir": 983,
      "tri": 984,
      "tiques": 985,
      "lement": 986,
      "ĠAu": 987,
      "vient": 988,
      "aÃ¯": 989,
      "iel": 990,
      "Ġmot": 991,
      "ĠdÃ©partement": 992,
      "Ġob": 993,
      "Ġexter": 994,
      "roupe": 995,
      "enn": 996,
      "Ã©tÃ©": 997,
      "jet": 998,
      "Ġche": 999,
      "cien": 1000,
      "ĠMe": 1001,
      "Ġils": 1002,
      "ĠĠĠĠĠĠĠĠ": 1003,
      "con": 1004,
      "Ġ6": 1005,
      "Ġcal": 1006,
      "Ġag": 1007,
      "Ġrou": 1008,
      "ages": 1009,
      "ĠÃ©tait": 1010,
      "Ġforme": 1011,
      "ds": 1012,
      "ves": 1013,
      "Ġord": 1014,
      "esse": 1015,
      "Ġdroi": 1016,
      "erg": 1017,
      "Ġble": 1018,
      "aiss": 1019,
      "Ġconst": 1020,
      "Ġchau": 1021,
      "Ġseul": 1022,
      "20": 1023,
      "ide": 1024,
      "min": 1025,
      "tive": 1026,
      "iere": 1027,
      "Ġpop": 1028,
      "aleur": 1029,
      "ĠrÃ©g": 1030,
      "ommun": 1031,
      "ticles": 1032,
      "ographie": 1033,
      "ere": 1034,
      "entra": 1035,
      "Ġform": 1036,
      "lier": 1037,
      "Ġpays": 1038,
      "Ġcoule": 1039,
      "Ġta": 1040,
      "istoire": 1041,
      "Ġ201": 1042,
      "Ġyeux": 1043,
      "bu": 1044,
      "rent": 1045,
      "Ã©g": 1046,
      "Ġsp": 1047,
      "Ġsol": 1048,
      "Ġass": 1049,
      "Ġvis": 1050,
      "nement": 1051,
      "ature": 1052,
      "Ġarri": 1053,
      "dent": 1054,
      "vel": 1055,
      "Ġpri": 1056,
      "Ġcul": 1057,
      "Ġsens": 1058,
      "Ġainsi": 1059,
      "Ġleurs": 1060,
      "ctions": 1061,
      "ateur": 1062,
      "ĠÃ©gyp": 1063,
      "Ġcontinuer": 1064,
      "nation": 1065,
      "Ġans": 1066,
      "Ġliste": 1067,
      "Ġesp": 1068,
      "ĠreprÃ©": 1069,
      "Unis": 1070,
      "ex": 1071,
      "ote": 1072,
      "opp": 1073,
      "Ġdess": 1074,
      "Ġgaz": 1075,
      "Ġvite": 1076,
      "ĠArticles": 1077,
      "Ġacc": 1078,
      "Ġreste": 1079,
      "Ġconnexes": 1080,
      "cul": 1081,
      "Ġcette": 1082,
      "oles": 1083,
      "Ġbleu": 1084,
      "cte": 1085,
      "pes": 1086,
      "Ġá": 1087,
      "ene": 1088,
      "Ġces": 1089,
      "ouve": 1090,
      "ĠLiens": 1091,
      "ĠÂ».": 1092,
      "Ġexternes": 1093,
      "fi": 1094,
      "per": 1095,
      "Ã¹": 1096,
      "Ġdonc": 1097,
      "Ġmati": 1098,
      "alitÃ©": 1099,
      "ĠElle": 1100,
      "Ġenc": 1101,
      "ĠCol": 1102,
      "rois": 1103,
      "ĠÂ»,": 1104,
      "Ã©ric": 1105,
      "accord": 1106,
      "leil": 1107,
      "Ġfois": 1108,
      "ress": 1109,
      "Ġtel": 1110,
      "ocor": 1111,
      "iver": 1112,
      "entir": 1113,
      "ĠUn": 1114,
      "Ġsoleil": 1115,
      "Ġnormal": 1116,
      "Ġmes": 1117,
      "assi": 1118,
      "Ġaut": 1119,
      "ĠBab": 1120,
      "aissance": 1121,
      "mati": 1122,
      "oci": 1123,
      "Ġfi": 1124,
      "Ġnot": 1125,
      "mpl": 1126,
      "icro": 1127,
      "ass": 1128,
      "ĠCe": 1129,
      "cher": 1130,
      "Ġsig": 1131,
      "abord": 1132,
      "Ġ197": 1133,
      "Ġpetit": 1134,
      "aille": 1135,
      "ke": 1136,
      "Ã©n": 1137,
      "Ġsuc": 1138,
      "ĠQu": 1139,
      "puis": 1140,
      "Ġfer": 1141,
      "Ġmonde": 1142,
      "Ġkiffe": 1143,
      "Ġdou": 1144,
      "Ġder": 1145,
      "ents": 1146,
      "orte": 1147,
      "Ġbr": 1148,
      "Ġpermet": 1149,
      "av": 1150,
      "cis": 1151,
      "ĠmÃªme": 1152,
      "Ġfam": 1153,
      "Ġfond": 1154,
      "ieurs": 1155,
      "Ġgar": 1156,
      "aint": 1157,
      "Ġproduit": 1158,
      "anger": 1159,
      "Ġtrav": 1160,
      "Ġchaque": 1161,
      "nÃ©e": 1162,
      "Ġ4": 1163,
      "Ġcel": 1164,
      "erre": 1165,
      "Ġville": 1166,
      "ĠdÃ©fin": 1167,
      "Ġlangues": 1168,
      "Ġinternation": 1169,
      "Ġarrive": 1170,
      "enter": 1171,
      "one": 1172,
      "Ġblan": 1173,
      "ieur": 1174,
      "Ġcode": 1175,
      "Ġsyst": 1176,
      "ĠdiffÃ©r": 1177,
      "Ġport": 1178,
      "ines": 1179,
      "ĠCette": 1180,
      "ĠannÃ©es": 1181,
      "Ġcorps": 1182,
      "be": 1183,
      "cl": 1184,
      "gyp": 1185,
      "ose": 1186,
      "onde": 1187,
      "Ġvais": 1188,
      "Ġbi": 1189,
      "Ġroi": 1190,
      "ĠAh": 1191,
      "rig": 1192,
      "Ġrelig": 1193,
      "Ġpoli": 1194,
      "ĠNe": 1195,
      "Ġprop": 1196,
      "ĠoÃ¹": 1197,
      "Ġexe": 1198,
      "Ġpopul": 1199,
      "yth": 1200,
      "Ġmat": 1201,
      "rique": 1202,
      "Ġconn": 1203,
      "velopp": 1204,
      "fort": 1205,
      "land": 1206,
      "oph": 1207,
      "tis": 1208,
      "Ġcert": 1209,
      "Ġdebut": 1210,
      "Ġvoit": 1211,
      "tionn": 1212,
      "Ġjou": 1213,
      "ĠFranchement": 1214,
      "Ġlumiere": 1215,
      "ganis": 1216,
      "Ġ5": 1217,
      "ense": 1218,
      "Ġappel": 1219,
      "Ã¢te": 1220,
      "Ġcoup": 1221,
      "Ġpremier": 1222,
      "lais": 1223,
      "mis": 1224,
      "ste": 1225,
      "Ġdonne": 1226,
      "Ġlong": 1227,
      "Ġpat": 1228,
      "Ġas": 1229,
      "Ġren": 1230,
      "Ġ198": 1231,
      "Ġsoci": 1232,
      "hÃ©or": 1233,
      "ĠamÃ©ric": 1234,
      "lÃ¨": 1235,
      "vis": 1236,
      "Ġpendant": 1237,
      "Ġman": 1238,
      "omp": 1239,
      "ĠJapon": 1240,
      "ergie": 1241,
      "=\"": 1242,
      "Ġali": 1243,
      "oires": 1244,
      "Ġtous": 1245,
      "Ġtomb": 1246,
      "Ġfont": 1247,
      "Ġvie": 1248,
      "ĠnÃ©": 1249,
      "Ġgroupe": 1250,
      "ric": 1251,
      "Ġsign": 1252,
      "ĠMar": 1253,
      "ellement": 1254,
      "Ġbase": 1255,
      "Ġapres": 1256,
      "amp": 1257,
      "app": 1258,
      "cer": 1259,
      "lu": 1260,
      "Ġli": 1261,
      "ony": 1262,
      "Ġrest": 1263,
      "Ġgra": 1264,
      "Ġjam": 1265,
      "Ġchaleur": 1266,
      "Ġof": 1267,
      "ivers": 1268,
      "Ġlangue": 1269,
      "Ġmatin": 1270,
      "ger": 1271,
      "gne": 1272,
      "ud": 1273,
      "ĠY": 1274,
      "Ġdur": 1275,
      "Ġlors": 1276,
      "Ġlib": 1277,
      "Ã©li": 1278,
      "ane": 1279,
      "tiv": 1280,
      "Ġban": 1281,
      "ĠCar": 1282,
      "antes": 1283,
      "ĠPlus": 1284,
      "olu": 1285,
      "Ġchar": 1286,
      "ĠdÃ©si": 1287,
      "Ġprote": 1288,
      "Ġcommence": 1289,
      "Ġappar": 1290,
      "ublic": 1291,
      "aÃ®": 1292,
      "aha": 1293,
      "ĠreprÃ©sent": 1294,
      "ode": 1295,
      "ser": 1296,
      "vre": 1297,
      "yl": 1298,
      "Ġlieu": 1299,
      "Ġpouv": 1300,
      "ĠsÃ©": 1301,
      "tien": 1302,
      "oie": 1303,
      "Ġvra": 1304,
      "Ġnouv": 1305,
      "Ġ196": 1306,
      "Ġprend": 1307,
      "ateurs": 1308,
      "issement": 1309,
      "Ġderni": 1310,
      "Ġfamille": 1311,
      "17": 1312,
      "bes": 1313,
      "gue": 1314,
      "hes": 1315,
      "hiver": 1316,
      "ka": 1317,
      "tient": 1318,
      "Ġmer": 1319,
      "Ġmicro": 1320,
      "Ġbar": 1321,
      "Ġgr": 1322,
      "agn": 1323,
      "amment": 1324,
      "ĠHaha": 1325,
      "Ġcompte": 1326,
      "Ġang": 1327,
      "teurs": 1328,
      "Ġfut": 1329,
      "ĠÃĢ": 1330,
      "Ġ|-": 1331,
      "Ġalors": 1332,
      "Ġencore": 1333,
      "eur": 1334,
      "fois": 1335,
      "kh": 1336,
      "oul": 1337,
      "Ġfais": 1338,
      "asse": 1339,
      "Ġpart": 1340,
      "ĠÃ©lect": 1341,
      "Ġ17": 1342,
      "Ġcommune": 1343,
      "istor": 1344,
      "lace": 1345,
      "ĠfranÃ§aise": 1346,
      "cÃ©": 1347,
      "vÃ©": 1348,
      "Ġliv": 1349,
      "Ġcant": 1350,
      "Ġtes": 1351,
      "Ġref": 1352,
      "ĠSaint": 1353,
      "Ġplusieurs": 1354,
      "CI": 1355,
      "In": 1356,
      "cin": 1357,
      "commun": 1358,
      "hui": 1359,
      "ox": 1360,
      "Ġloc": 1361,
      "Ġple": 1362,
      "Ġmentir": 1363,
      "Ġlache": 1364,
      "Ġfr": 1365,
      "Ġfeu": 1366,
      "ites": 1367,
      "ĠPro": 1368,
      "Ġouais": 1369,
      "Ġtete": 1370,
      "Ġphy": 1371,
      "âĶĢâĶĢâĶĢâĶĢ": 1372,
      "Ġsuite": 1373,
      "Ġchauff": 1374,
      "cle": 1375,
      "exp": 1376,
      "ient": 1377,
      "Ġfon": 1378,
      "Ġvoi": 1379,
      "chn": 1380,
      "ĠÃ©c": 1381,
      "Ġchats": 1382,
      "Ġtemps": 1383,
      "Ġpartie": 1384,
      "Ġmilli": 1385,
      "Ġcapit": 1386,
      "cs": 1387,
      "ft": 1388,
      "Åĵ": 1389,
      "Ġlar": 1390,
      "Ġpi": 1391,
      "tie": 1392,
      "Ġtot": 1393,
      "Ġfe": 1394,
      "ĠfÃ©": 1395,
      "Ġnuit": 1396,
      "sition": 1397,
      "Ġautres": 1398,
      "tern": 1399,
      "Ġavis": 1400,
      "ocoris": 1401,
      "Uni": 1402,
      "fe": 1403,
      "gu": 1404,
      "ton": 1405,
      "tat": 1406,
      "Ġpie": 1407,
      "Ġdevient": 1408,
      "Ġdepuis": 1409,
      "see": 1410,
      "Ġparce": 1411,
      "Ġju": 1412,
      "ĠdÃ©velopp": 1413,
      "pper": 1414,
      "Ġcourant": 1415,
      "Ġmetal": 1416,
      "ennent": 1417,
      "Ġexemple": 1418,
      "An": 1419,
      "ade": 1420,
      "Ġlog": 1421,
      "Ġpom": 1422,
      "Ġcent": 1423,
      "Ġsau": 1424,
      "Ġsoir": 1425,
      "Ġjapon": 1426,
      "Ġouv": 1427,
      "Ġjusqu": 1428,
      "ĠParis": 1429,
      "hesite": 1430,
      "cal": 1431,
      "ges": 1432,
      "ions": 1433,
      "ok": 1434,
      "pt": 1435,
      "vers": 1436,
      "Ġelles": 1437,
      "Ġdom": 1438,
      "Ġcro": 1439,
      "ann": 1440,
      "Ġai": 1441,
      "Ġmort": 1442,
      "ĠthÃ©or": 1443,
      "its": 1444,
      "ali": 1445,
      "ros": 1446,
      "Ġchiff": 1447,
      "ĠchÃ¢te": 1448,
      "uite": 1449,
      "Ġoff": 1450,
      "ĠtrÃ¨s": 1451,
      "ologiste": 1452,
      "ĠUne": 1453,
      "conom": 1454,
      "Ġsigni": 1455,
      "Ġjaponais": 1456,
      "har": 1457,
      "pendant": 1458,
      "Ġlig": 1459,
      "tier": 1460,
      "tienne": 1461,
      "art": 1462,
      "Ã¨ne": 1463,
      "ĠTh": 1464,
      "Ġinst": 1465,
      "Ġhau": 1466,
      "Ġcote": 1467,
      "atique": 1468,
      "Ġancien": 1469,
      "ibli": 1470,
      "Ġterme": 1471,
      "Ġgrand": 1472,
      "ĠBaba": 1473,
      "ĠQuand": 1474,
      "Ġsignal": 1475,
      "cture": 1476,
      "center": 1477,
      "fie": 1478,
      "ible": 1479,
      "Ġw": 1480,
      "Ã©ci": 1481,
      "Ġdeg": 1482,
      "ores": 1483,
      "Ġfa": 1484,
      "Ġbul": 1485,
      "Ġgouver": 1486,
      "rÃ©s": 1487,
      "Ġtoutes": 1488,
      "ĠaprÃ¨s": 1489,
      "Ġpression": 1490,
      "jours": 1491,
      "Ġpersonn": 1492,
      "ĠBeaufort": 1493,
      "ĠrÃ©gion": 1494,
      "Ġprix": 1495,
      "Ġalign": 1496,
      "hi": 1497,
      "ry": 1498,
      "Ġ[": 1499,
      "Ġdoi": 1500,
      "Ã©nÃ©": 1501,
      "Ã©lÃ©": 1502,
      "Ġsci": 1503,
      "initÃ©": 1504,
      "ori": 1505,
      "Ġvoy": 1506,
      "Ġrom": 1507,
      "Ġreve": 1508,
      "ĠBibli": 1509,
      "dition": 1510,
      "oyen": 1511,
      "Ġsecond": 1512,
      "Ġclassi": 1513,
      "ramm": 1514,
      "cinel": 1515,
      "cra": 1516,
      "qui": 1517,
      "Ġfra": 1518,
      "aume": 1519,
      "ĠAs": 1520,
      "mpire": 1521,
      "Ġplu": 1522,
      "Ġja": 1523,
      "resse": 1524,
      "ath": 1525,
      "Ġrel": 1526,
      "action": 1527,
      "Ġpasse": 1528,
      "ĠrÃ©p": 1529,
      "Ġprof": 1530,
      "Ã©rie": 1531,
      "Ġintercommun": 1532,
      "Ġcolle": 1533,
      "mÃ©ni": 1534,
      "Ġmusique": 1535,
      "ĠBibliographie": 1536,
      "ses": 1537,
      "Ã³": 1538,
      "Ġ)": 1539,
      "ĠĠčĊ": 1540,
      "anti": 1541,
      "Ġfaire": 1542,
      "Ġfort": 1543,
      "uses": 1544,
      "ast": 1545,
      "Ġnation": 1546,
      "Ġroy": 1547,
      "ĠdÃ©esse": 1548,
      "Ġeff": 1549,
      "Ġinc": 1550,
      "tÃ©r": 1551,
      "tÃ©s": 1552,
      "ĠHistoire": 1553,
      "Ġcompos": 1554,
      "Ġlangage": 1555,
      "Ġpouvoir": 1556,
      "ope": 1557,
      "Åį": 1558,
      "Ġ\"": 1559,
      "Ġent": 1560,
      "Ã©m": 1561,
      "oun": 1562,
      "orde": 1563,
      "Ġtant": 1564,
      "itaire": 1565,
      "Ġgout": 1566,
      "Ġjeu": 1567,
      "Ġpoint": 1568,
      "igine": 1569,
      "ĠChar": 1570,
      "Ġsyn": 1571,
      "Ġpeur": 1572,
      "Ġtoujours": 1573,
      "Ġsuivant": 1574,
      "ĠAmon": 1575,
      "ĠBeauj": 1576,
      "ĠsystÃ¨me": 1577,
      "gypte": 1578,
      "200": 1579,
      "cri": 1580,
      "tou": 1581,
      "ule": 1582,
      "Ġ'": 1583,
      "Ġoc": 1584,
      "Ġiss": 1585,
      "enre": 1586,
      "energie": 1587,
      "ances": 1588,
      "Ġmois": 1589,
      "orme": 1590,
      "Ġfati": 1591,
      "ilb": 1592,
      "Ġnature": 1593,
      "mpere": 1594,
      "ĠThe": 1595,
      "ĠSh": 1596,
      "ĠMoyen": 1597,
      "Ġsem": 1598,
      "dite": 1599,
      "Ġhaut": 1600,
      "occinel": 1601,
      "Ġcarac": 1602,
      "Ġavait": 1603,
      "Ġrapp": 1604,
      "Ġparticu": 1605,
      "ĠRÃ©fÃ©rences": 1606,
      "ĠamÃ©ricain": 1607,
      "Ġbulles": 1608,
      "aur": 1609,
      "eff": 1610,
      "ĠX": 1611,
      "ennes": 1612,
      "Ġpoi": 1613,
      "Ġcr": 1614,
      "arch": 1615,
      "orce": 1616,
      "ili": 1617,
      "Ġni": 1618,
      "Ġbus": 1619,
      "olais": 1620,
      "ĠÃ©tu": 1621,
      "ĠpremiÃ¨re": 1622,
      "fication": 1623,
      "Ġpopulation": 1624,
      "do": 1625,
      "yd": 1626,
      "ension": 1627,
      "Ġsal": 1628,
      "lem": 1629,
      "univers": 1630,
      "Ġtri": 1631,
      "Ġtrois": 1632,
      "Ġvoir": 1633,
      "ils": 1634,
      "Ġnord": 1635,
      "Ġgau": 1636,
      "ĠSon": 1637,
      "Ġchat": 1638,
      "ĠvidÃ©": 1639,
      "mocra": 1640,
      "ĠprÃ©cis": 1641,
      "Ġselon": 1642,
      "ĠspÃ©ci": 1643,
      "Ġcelui": 1644,
      "Ġpolitique": 1645,
      "Ġchiffres": 1646,
      "Al": 1647,
      "gts": 1648,
      "nom": 1649,
      "oin": 1650,
      "to": 1651,
      "volu": 1652,
      "Ã®": 1653,
      "Ġz": 1654,
      "Ġis": 1655,
      "enir": 1656,
      "Ġpous": 1657,
      "Ġdec": 1658,
      "ara": 1659,
      "Ġnous": 1660,
      "rage": 1661,
      "rÃ©vi": 1662,
      "ĠMi": 1663,
      "ables": 1664,
      "ologique": 1665,
      "issent": 1666,
      "Ġpremiers": 1667,
      "Ġnotamment": 1668,
      "Ġphysi": 1669,
      "Ġdoigts": 1670,
      "SI": 1671,
      "cteur": 1672,
      "lles": 1673,
      "tend": 1674,
      "Â«": 1675,
      "Ã¤": 1676,
      "Ã¯": 1677,
      "Ġcelle": 1678,
      "Ġcir": 1679,
      "istes": 1680,
      "let": 1681,
      "Ġmal": 1682,
      "Ġvert": 1683,
      "rait": 1684,
      "alitÃ©s": 1685,
      "ĠCon": 1686,
      "Ġri": 1687,
      "ĠAp": 1688,
      "oll": 1689,
      "Ġ15": 1690,
      "ensitÃ©": 1691,
      "Ġ195": 1692,
      "Ġtrouve": 1693,
      "Ġsuper": 1694,
      "Ġfranchement": 1695,
      "Ġpartir": 1696,
      "Ġess": 1697,
      "Ġterre": 1698,
      "occinella": 1699,
      "tant": 1700,
      "Ġ7": 1701,
      "Ġdieu": 1702,
      "Ġamp": 1703,
      "Ġaff": 1704,
      "Ġmain": 1705,
      "Ġfre": 1706,
      "Ġveu": 1707,
      "Ġritu": 1708,
      "Ġchange": 1709,
      "ĠBas": 1710,
      "ĠBel": 1711,
      "rÃ©e": 1712,
      "Ġcad": 1713,
      "Ġindi": 1714,
      "Ġdiale": 1715,
      "Ġdistin": 1716,
      "ĠÃ©tant": 1717,
      "issant": 1718,
      "Ġmarche": 1719,
      "Ġconstitu": 1720,
      "alisation": 1721,
      "jourd": 1722,
      "Ġproduits": 1723,
      "fs": 1724,
      "mar": 1725,
      "pl": 1726,
      "tent": 1727,
      "uc": 1728,
      "Ġ%": 1729,
      "Ġand": 1730,
      "Ġlet": 1731,
      "Ġpage": 1732,
      "Ġsor": 1733,
      "Ġsitu": 1734,
      "erae": 1735,
      "Ġmel": 1736,
      "origine": 1737,
      "Ġthe": 1738,
      "ilis": 1739,
      "ĠLang": 1740,
      "alais": 1741,
      "Ġbois": 1742,
      "ĠCan": 1743,
      "Ġconsi": 1744,
      "ĠSt": 1745,
      "Ġchim": 1746,
      "Ġsty": 1747,
      "Ġprog": 1748,
      "Ġop": 1749,
      "Ġsymb": 1750,
      "inguis": 1751,
      "Ġprincipal": 1752,
      "Ġtourne": 1753,
      "Ġmots": 1754,
      "Ġmesure": 1755,
      "ĠdÃ©fini": 1756,
      "Ġoffici": 1757,
      "bres": 1758,
      "ctive": 1759,
      "fique": 1760,
      "oh": 1761,
      "yant": 1762,
      "Ġeux": 1763,
      "Ġciel": 1764,
      "inter": 1765,
      "Ġmange": 1766,
      "ettes": 1767,
      "Ġtable": 1768,
      "Ġfac": 1769,
      "iles": 1770,
      "Ġbon": 1771,
      "autres": 1772,
      "ĠCes": 1773,
      "ĠrÃ¨": 1774,
      "chent": 1775,
      "mples": 1776,
      "ries": 1777,
      "ĠPCI": 1778,
      "aisse": 1779,
      "ĠTerre": 1780,
      "Ġpass": 1781,
      "Ġhum": 1782,
      "ĠrÃ©s": 1783,
      "Ġprodu": 1784,
      "Ġcommer": 1785,
      "Ãªte": 1786,
      "Ġcours": 1787,
      "Ġdirect": 1788,
      "verse": 1789,
      "Ġfilm": 1790,
      "Ġcouleur": 1791,
      "landais": 1792,
      "Ġjamais": 1793,
      "Ġgouvernement": 1794,
      "Ã³n": 1795,
      "avi": 1796,
      "gÃ©": 1797,
      "ira": 1798,
      "mbre": 1799,
      "rom": 1800,
      "Ġsale": 1801,
      "Ġsomme": 1802,
      "Ġdeven": 1803,
      "Ġmen": 1804,
      "Ġvari": 1805,
      "Ġbac": 1806,
      "chÃ©": 1807,
      "nee": 1808,
      "olis": 1809,
      "ĠSi": 1810,
      "ĠSans": 1811,
      "ĠdÃ©f": 1812,
      "Ġins": 1813,
      "amb": 1814,
      "Ġnez": 1815,
      "lÃ©ment": 1816,
      "Ġkm": 1817,
      "ĠAnd": 1818,
      "poque": 1819,
      "tribu": 1820,
      "Ġvisible": 1821,
      "ĠÃ©gyptienne": 1822,
      "Ġcapitale": 1823,
      "Ġfatigue": 1824,
      "ĠvidÃ©o": 1825,
      "eraeocoris": 1826,
      "..": 1827,
      "ner": 1828,
      "vo": 1829,
      "Ġsc": 1830,
      "rec": 1831,
      "indi": 1832,
      "entes": 1833,
      "urb": 1834,
      "urÃ©": 1835,
      "urope": 1836,
      "Ġvol": 1837,
      "uss": 1838,
      "rab": 1839,
      "Ġconf": 1840,
      "Ġcontre": 1841,
      "ĠDiv": 1842,
      "ĠsiÃ¨": 1843,
      "ĠdÃ©mocra": 1844,
      "ulti": 1845,
      "Ġprob": 1846,
      "Ġ194": 1847,
      "Ġsav": 1848,
      "ĠprÃ©si": 1849,
      "Ġpeuvent": 1850,
      "Ġquelques": 1851,
      "ruction": 1852,
      "Ãītat": 1853,
      "Ġ60": 1854,
      "Ġanglais": 1855,
      "istorique": 1856,
      "mpereur": 1857,
      "16": 1858,
      "cles": 1859,
      "ctif": 1860,
      "gl": 1861,
      "ile": 1862,
      "lau": 1863,
      "lab": 1864,
      "mon": 1865,
      "mÃ©e": 1866,
      "no": 1867,
      "oot": 1868,
      "tures": 1869,
      "tÃ¨res": 1870,
      "ze": 1871,
      "esp": 1872,
      "Ã©ro": 1873,
      "tet": 1874,
      "Ġmis": 1875,
      "Ġlamp": 1876,
      "Ġnou": 1877,
      "ĠCom": 1878,
      "sions": 1879,
      "Ġ16": 1880,
      "Ġpos": 1881,
      "ĠIs": 1882,
      "Ġtex": 1883,
      "ock": 1884,
      "Ġavoir": 1885,
      "Ġapprend": 1886,
      "fÃ©rence": 1887,
      "uerre": 1888,
      "hÃ©mati": 1889,
      "Ġtoute": 1890,
      "Ġdroite": 1891,
      "Ġnouvelle": 1892,
      "Ġlivre": 1893,
      "Ġgauche": 1894,
      "aff": 1895,
      "ev": 1896,
      "imp": 1897,
      "lot": 1898,
      "rond": 1899,
      "Ġâ": 1900,
      "Ġdon": 1901,
      "Ġdoc": 1902,
      "ĠlÃ©g": 1903,
      "iner": 1904,
      "Ġmol": 1905,
      "Ġnoir": 1906,
      "elon": 1907,
      "ĠAb": 1908,
      "ĠPh": 1909,
      "sible": 1910,
      "ĠdÃ©s": 1911,
      "ĠNaissance": 1912,
      "ĠÂ»)": 1913,
      "ĠJean": 1914,
      "Ġann": 1915,
      "Ġconcentra": 1916,
      "ĠutilisÃ©": 1917,
      "Ġimport": 1918,
      "Ġrouge": 1919,
      "ĠsociÃ©tÃ©": 1920,
      "Ġvrai": 1921,
      "ĠBeaujolais": 1922,
      "Ar": 1923,
      "iti": 1924,
      "iÃ¨re": 1925,
      "Ġ<": 1926,
      "ĠâĶ": 1927,
      "Ġlin": 1928,
      "Ġlit": 1929,
      "Ġcan": 1930,
      "Ġsin": 1931,
      "Ġth": 1932,
      "urent": 1933,
      "ash": 1934,
      "Ġbour": 1935,
      "ĠCommun": 1936,
      "chi": 1937,
      "Ã¨ces": 1938,
      "Ġge": 1939,
      "Ġgrec": 1940,
      "Ġparfois": 1941,
      "Ġrempl": 1942,
      "ĠSy": 1943,
      "dire": 1944,
      "ult": 1945,
      "Ġcool": 1946,
      "Ġmoder": 1947,
      "aprÃ¨s": 1948,
      "ĠprÃ©s": 1949,
      "ĠprÃ©sent": 1950,
      "ĠÃ©taient": 1951,
      "opÃ©": 1952,
      "Ġtitre": 1953,
      "Ġmaj": 1954,
      "Ġchez": 1955,
      "Ġconstr": 1956,
      "Ġassoci": 1957,
      "ĠColÃ³n": 1958,
      "Ġinternational": 1959,
      "Ġfonction": 1960,
      "Ġveut": 1961,
      "hum": 1962,
      "rans": 1963,
      "sy": 1964,
      "Ġlinguis": 1965,
      "Ġpra": 1966,
      "Ġporte": 1967,
      "Ġpublic": 1968,
      "Ġsour": 1969,
      "usion": 1970,
      "astique": 1971,
      "autre": 1972,
      "cep": 1973,
      "Ġplace": 1974,
      "Ġconse": 1975,
      "ata": 1976,
      "ĠSa": 1977,
      "Ġchac": 1978,
      "ack": 1979,
      "Ġpost": 1980,
      "Ġec": 1981,
      "Ġinform": 1982,
      "Ġsud": 1983,
      "ienne": 1984,
      "Ġforment": 1985,
      "ĠInde": 1986,
      "ĠParti": 1987,
      "Ġgrande": 1988,
      "ĠgÃ©nÃ©ral": 1989,
      "ĠgÃ©nÃ©ralement": 1990,
      "mande": 1991,
      "Ãīgypte": 1992,
      "ficie": 1993,
      "Union": 1994,
      "ĠfaÃ§": 1995,
      "Ġclassique": 1996,
      "Ġsommeil": 1997,
      "Ġnouveau": 1998,
      "ice": 1999,
      "mer": 2000,
      "nie": 2001,
      "oft": 2002,
      "pond": 2003,
      "Ġ8": 2004,
      "Ġant": 2005,
      "Ġurb": 2006,
      "Ã©tique": 2007,
      "Ġayant": 2008,
      "Ġmag": 2009,
      "uni": 2010,
      "oiles": 2011,
      "Ġlait": 2012,
      "Ġfai": 2013,
      "rat": 2014,
      "Ġcomb": 2015,
      "Ġrond": 2016,
      "Ġ(Â«": 2017,
      "sez": 2018,
      "Ġgene": 2019,
      "Ġplais": 2020,
      "ĠDÃ©": 2021,
      "Ġposs": 2022,
      "cident": 2023,
      "tÃ©ra": 2024,
      "cess": 2025,
      "Ġrap": 2026,
      "dÃ©ra": 2027,
      "Ġjours": 2028,
      "Ġphot": 2029,
      "Ġservi": 2030,
      "lose": 2031,
      "Ġorganis": 2032,
      "ĠcrÃ©ation": 2033,
      "Ġsucre": 2034,
      "ĠdÃ©sign": 2035,
      "Ġcanton": 2036,
      "ĠDivinitÃ©": 2037,
      "DF": 2038,
      "ls": 2039,
      "oli": 2040,
      "taient": 2041,
      "Ġel": 2042,
      "Ġlim": 2043,
      "Ġpor": 2044,
      "ĠpÃ©ri": 2045,
      "ĠcÃ©": 2046,
      "Ġcin": 2047,
      "Ġcentre": 2048,
      "anes": 2049,
      "oute": 2050,
      "inois": 2051,
      "Ġmieux": 2052,
      "Ġquat": 2053,
      "usatif": 2054,
      "Ġnum": 2055,
      "Ġcontra": 2056,
      "Ġautre": 2057,
      "Ġcher": 2058,
      "ĠMan": 2059,
      "Ġstress": 2060,
      "Ġtechn": 2061,
      "tÃ©g": 2062,
      "ĠNord": 2063,
      "ĠHe": 2064,
      "ĠHar": 2065,
      "Ġsupp": 2066,
      "onner": 2067,
      "Ã´le": 2068,
      "Ġseule": 2069,
      "Ġchef": 2070,
      "Ġcalcul": 2071,
      "onyme": 2072,
      "Ã©lien": 2073,
      "aÃ®t": 2074,
      "Åĵu": 2075,
      "Ġfem": 2076,
      "ĠdÃ©veloppe": 2077,
      "Ġjaune": 2078,
      "Ġsinon": 2079,
      "Ġremplac": 2080,
      "Ġplaisir": 2081,
      "-),": 2082,
      "AN": 2083,
      "hors": 2084,
      "ier": 2085,
      "ki": 2086,
      "pr": 2087,
      "rie": 2088,
      "Ã»": 2089,
      "ĠZ": 2090,
      "ĠdensitÃ©": 2091,
      "Ġlune": 2092,
      "enche": 2093,
      "Ġpain": 2094,
      "Ġpate": 2095,
      "Ġpomme": 2096,
      "Ġci": 2097,
      "Ġclig": 2098,
      "lecu": 2099,
      "Ġmur": 2100,
      "Ġmiel": 2101,
      "Ġetoiles": 2102,
      "Ġno": 2103,
      "alle": 2104,
      "Ġblo": 2105,
      "Ġbaisse": 2106,
      "Ġryth": 2107,
      "Ã¨de": 2108,
      "Ã¨mes": 2109,
      "Ġgl": 2110,
      "ĠEs": 2111,
      "ĠTe": 2112,
      "ĠDes": 2113,
      "Ġret": 2114,
      "ĠSelon": 2115,
      "ĠdÃ©p": 2116,
      "Ġseche": 2117,
      "Ġ193": 2118,
      "vier": 2119,
      "Ãªtre": 2120,
      "Ġcrev": 2121,
      "Ġjournee": 2122,
      "lande": 2123,
      "Ġnombreux": 2124,
      "Ġsoun": 2125,
      "Ġordre": 2126,
      "Ġfixe": 2127,
      "ĠmathÃ©mati": 2128,
      "Ġconnu": 2129,
      "ĠchÃ¢teau": 2130,
      "Ġsignifie": 2131,
      "Ġdegres": 2132,
      "Ġissus": 2133,
      "ilbert": 2134,
      "Ġcirc": 2135,
      "Ġsuperficie": 2136,
      "evap": 2137,
      "co": 2138,
      "eter": 2139,
      "gle": 2140,
      "nois": 2141,
      "ren": 2142,
      "ys": 2143,
      "Ġcentra": 2144,
      "Ġsh": 2145,
      "ĠsÃ©rie": 2146,
      "anse": 2147,
      "rer": 2148,
      "ison": 2149,
      "isme": 2150,
      "Ġfab": 2151,
      "Ġfrig": 2152,
      "Ã¨rent": 2153,
      "respond": 2154,
      "ĠDÃ©c": 2155,
      "ĠÃ©p": 2156,
      "ĠÃ©le": 2157,
      "ĠSe": 2158,
      "aces": 2159,
      "ĠdÃ©but": 2160,
      "ĠGe": 2161,
      "âĢ¦": 2162,
      "ĠHilbert": 2163,
      "Ġsaou": 2164,
      "viron": 2165,
      "Ġmondi": 2166,
      "Ġanci": 2167,
      "198": 2168,
      "000": 2169,
      "odes": 2170,
      "Ã©ration": 2171,
      "Ġprincipalement": 2172,
      "jets": 2173,
      "Ġculture": 2174,
      "Ġblanc": 2175,
      "Ġtombe": 2176,
      "Insee": 2177,
      "Ġanciennes": 2178,
      "Ġrapport": 2179,
      "Ġdialecte": 2180,
      "rondissement": 2181,
      "23": 2182,
      "if": 2183,
      "jou": 2184,
      "lam": 2185,
      "vie": 2186,
      "Ġpeau": 2187,
      "Ġcli": 2188,
      "Ġspe": 2189,
      "istre": 2190,
      "Ġafin": 2191,
      "ern": 2192,
      "Ġbru": 2193,
      "ĠCons": 2194,
      "ĠComme": 2195,
      "Ġgros": 2196,
      "ĠPas": 2197,
      "Ġjeux": 2198,
      "Ġchans": 2199,
      "ĠBi": 2200,
      "Ġemp": 2201,
      "ĠMa": 2202,
      "ĠJoh": 2203,
      "Ġtrou": 2204,
      "Ġ2020": 2205,
      "ĠChamp": 2206,
      "ĠArm": 2207,
      "odie": 2208,
      "Ġress": 2209,
      "Ġverre": 2210,
      "Ġtransp": 2211,
      "ouvement": 2212,
      "Ġcertains": 2213,
      "Ġdomaine": 2214,
      "Ġvoyage": 2215,
      "mÃ©nien": 2216,
      "ĠBastet": 2217,
      "ĠrÃ¨gne": 2218,
      "urÃ©at": 2219,
      "ĠâĶĤ": 2220,
      "bles": 2221,
      "ck": 2222,
      "dit": 2223,
      "jec": 2224,
      "lin": 2225,
      "lor": 2226,
      "ow": 2227,
      "Ġ!": 2228,
      "Ġpub": 2229,
      "Ġcy": 2230,
      "temps": 2231,
      "Ġdemande": 2232,
      "inst": 2233,
      "inform": 2234,
      "Ġmulti": 2235,
      "ĠCoccinella": 2236,
      "Ġrend": 2237,
      "Ġdub": 2238,
      "ĠPers": 2239,
      "ĠExe": 2240,
      "ression": 2241,
      "aison": 2242,
      "ĠBr": 2243,
      "ĠOr": 2244,
      "Ġdiman": 2245,
      "ĠrÃ©alis": 2246,
      "Ġvide": 2247,
      "ative": 2248,
      "ords": 2249,
      "Ġmoy": 2250,
      "Ġanim": 2251,
      "Ġexiste": 2252,
      "Ġartis": 2253,
      "Ġmeille": 2254,
      "Ġsub": 2255,
      "ĠKh": 2256,
      "Ġorient": 2257,
      "Ġcorrespond": 2258,
      "Ġfils": 2259,
      "Ġdroit": 2260,
      "ĠÃ©gypt": 2261,
      "Ġespace": 2262,
      "ĠdiffÃ©rents": 2263,
      "Ġliber": 2264,
      "ĠthÃ©orie": 2265,
      "Ġpousse": 2266,
      "Ġlettres": 2267,
      "Ġtableau": 2268,
      "Ġdimanche": 2269,
      "GP": 2270,
      "denti": 2271,
      "ech": 2272,
      "mie": 2273,
      "mat": 2274,
      "Ã¡": 2275,
      "ËĪ": 2276,
      "áĪ": 2277,
      "ĠcÃ´": 2278,
      "Ġsoit": 2279,
      "oud": 2280,
      "oup": 2281,
      "tel": 2282,
      "tera": 2283,
      "inaire": 2284,
      "Ġlab": 2285,
      "Ġlatin": 2286,
      "ĠtÃ©lÃ©": 2287,
      "ith": 2288,
      "Ġvo": 2289,
      "alog": 2290,
      "ĠÃĤ": 2291,
      "Ġbrit": 2292,
      "aute": 2293,
      "ĠCa": 2294,
      "ĠCor": 2295,
      "ĠAvec": 2296,
      "Ġgrou": 2297,
      "Ġgram": 2298,
      "ĠEmpire": 2299,
      "sif": 2300,
      "aimes": 2301,
      "ĠDu": 2302,
      "Ġchoc": 2303,
      "Ġchinois": 2304,
      "Ġeau": 2305,
      "Ġinv": 2306,
      "dio": 2307,
      "Ġstat": 2308,
      "Ġstab": 2309,
      "ĠOu": 2310,
      "Ġhe": 2311,
      "ĠRÃª": 2312,
      "Ġ25": 2313,
      "peur": 2314,
      "istoires": 2315,
      "moire": 2316,
      "Ġsuff": 2317,
      "Ġrespe": 2318,
      "Ġcolon": 2319,
      "Ġboug": 2320,
      "accusatif": 2321,
      "Ġcasse": 2322,
      "Ġrecense": 2323,
      "Ġformes": 2324,
      "Ġgarde": 2325,
      "Ġinternationale": 2326,
      "Ġmillions": 2327,
      "Ġlarge": 2328,
      "Ġaime": 2329,
      "Ġscienti": 2330,
      "universitÃ©": 2331,
      "Ġfrigo": 2332,
      "Ġgrammati": 2333,
      "12": 2334,
      "Fran": 2335,
      "aque": 2336,
      "bum": 2337,
      "dus": 2338,
      "ga": 2339,
      "ht": 2340,
      "mant": 2341,
      "mÃªme": 2342,
      "prÃ©": 2343,
      "Ã©lect": 2344,
      "Ġcui": 2345,
      "Ġcuis": 2346,
      "Ġavi": 2347,
      "Ġdev": 2348,
      "tiqu": 2349,
      "intes": 2350,
      "Ġmyth": 2351,
      "Ġmorce": 2352,
      "itch": 2353,
      "Ġvaleur": 2354,
      "ilitÃ©": 2355,
      "Ġnote": 2356,
      "Ġnaissance": 2357,
      "aliste": 2358,
      "Ġrus": 2359,
      "ĠAut": 2360,
      "Ã¨le": 2361,
      "Ġgenre": 2362,
      "ĠElles": 2363,
      "Ġrevient": 2364,
      "ĠBl": 2365,
      "ĠMont": 2366,
      "ĠIm": 2367,
      "ĠindÃ©": 2368,
      "Ġhistoire": 2369,
      "ĠrÃ©fÃ©rence": 2370,
      "Ġprot": 2371,
      "Ġvict": 2372,
      "ĠIls": 2373,
      "Ġarrondissement": 2374,
      "part": 2375,
      "issons": 2376,
      "iba": 2377,
      "ĠjournÃ©e": 2378,
      "Ġphil": 2379,
      "fini": 2380,
      "Ã´ne": 2381,
      "Ġlumin": 2382,
      "minist": 2383,
      "Ġcouleurs": 2384,
      "Ġdessous": 2385,
      "Ġgarder": 2386,
      "ĠsystÃ¨mes": 2387,
      "Ġbiologiste": 2388,
      "stem": 2389,
      "Ġligne": 2390,
      "Ġstyle": 2391,
      "Ġlampe": 2392,
      "Ġsound": 2393,
      "21": 2394,
      "ail": 2395,
      "da": 2396,
      "ee": 2397,
      "gus": 2398,
      "jout": 2399,
      "uy": 2400,
      "ume": 2401,
      "yn": 2402,
      "Ġ0": 2403,
      "Ġus": 2404,
      "Ġdate": 2405,
      "quer": 2406,
      "quent": 2407,
      "tit": 2408,
      "erlandais": 2409,
      "arde": 2410,
      "oix": 2411,
      "Ġlev": 2412,
      "Ġty": 2413,
      "Ġenf": 2414,
      "ell": 2415,
      "Ġbeau": 2416,
      "Ġbonne": 2417,
      "ĠCoul": 2418,
      "lion": 2419,
      "Ġgagne": 2420,
      "Ġglace": 2421,
      "Ġplat": 2422,
      "rier": 2423,
      "ĠPr": 2424,
      "Ġparf": 2425,
      "Ġcont": 2426,
      "Ġcontr": 2427,
      "ates": 2428,
      "ĠSec": 2429,
      "Ġsite": 2430,
      "ĠBe": 2431,
      "Ġvient": 2432,
      "abit": 2433,
      "Ġdist": 2434,
      "ocke": 2435,
      "Ġore": 2436,
      "ologue": 2437,
      "Ġray": 2438,
      "ĠKar": 2439,
      "199": 2440,
      "ĠInsee": 2441,
      "Ġterrit": 2442,
      "ĠmÃ©di": 2443,
      "ĠmÃ©moire": 2444,
      "Ġmilitaire": 2445,
      "Ġvapeur": 2446,
      "ĠabrÃ©vi": 2447,
      "Ġordin": 2448,
      "Ġsolu": 2449,
      "ĠBabyl": 2450,
      "Ġcantons": 2451,
      "annique": 2452,
      "ĠintercommunalitÃ©s": 2453,
      "Ġcollectif": 2454,
      "crip": 2455,
      "lemand": 2456,
      "ĠprÃ©cisant": 2457,
      "ĠconsidÃ©": 2458,
      "rabie": 2459,
      "Ġlinguistique": 2460,
      "Ġpostal": 2461,
      "ĠfaÃ§on": 2462,
      "Ġrapide": 2463,
      "ĠdÃ©veloppement": 2464,
      "Ġcircuit": 2465,
      "ĠPersonn": 2466,
      "Ġrecensement": 2467,
      "II": 2468,
      "ball": 2469,
      "cas": 2470,
      "gique": 2471,
      "han": 2472,
      "lie": 2473,
      "pent": 2474,
      "tÃ¨re": 2475,
      "wa": 2476,
      "ÉĻ": 2477,
      "Ġ/": 2478,
      "ennis": 2479,
      "quel": 2480,
      "tine": 2481,
      "lexe": 2482,
      "eton": 2483,
      "ars": 2484,
      "Ġtard": 2485,
      "Ġques": 2486,
      "Ġface": 2487,
      "Ġven": 2488,
      "Ġnet": 2489,
      "ĠListes": 2490,
      "Ġbat": 2491,
      "ĠComm": 2492,
      "Ġrire": 2493,
      "ĠAinsi": 2494,
      "seau": 2495,
      "Ã¨nes": 2496,
      "Ġguerre": 2497,
      "rix": 2498,
      "rice": 2499,
      "agnes": 2500,
      "ĠDeraeocoris": 2501,
      "ĠreÃ§": 2502,
      "ĠdÃ©ci": 2503,
      "ĠGaz": 2504,
      "tÃ©e": 2505,
      "tÃ©ris": 2506,
      "pple": 2507,
      "andes": 2508,
      "ouss": 2509,
      "ima": 2510,
      "cesse": 2511,
      "osoph": 2512,
      "Ġprom": 2513,
      "ĠChiba": 2514,
      "ĠprÃ©f": 2515,
      "Ġcarre": 2516,
      "Ġrat": 2517,
      "Ġcommuniste": 2518,
      "Ġmaison": 2519,
      "Ġsovi": 2520,
      "Ġparticip": 2521,
      "Ġacce": 2522,
      "Ġphara": 2523,
      "Ġminu": 2524,
      "eck": 2525,
      "Ġcoupe": 2526,
      "Ġfinnois": 2527,
      "Ġorig": 2528,
      "Ġsouvenir": 2529,
      "Ġgrands": 2530,
      "position": 2531,
      "ramme": 2532,
      "Ġchamp": 2533,
      "Ġdivers": 2534,
      "Ġdivert": 2535,
      "aÃ¯c": 2536,
      "ĠĠĠĠĠĠĠĠĠĠĠĠ": 2537,
      "ĠreprÃ©s": 2538,
      "ĠáĪ": 2539,
      "Ġdouble": 2540,
      "Ġreligieux": 2541,
      "ĠNew": 2542,
      "Ġcertaines": 2543,
      "ganisation": 2544,
      "Ġassez": 2545,
      "vision": 2546,
      "Ġrestent": 2547,
      "Ġlogici": 2548,
      "Ġpompe": 2549,
      "Ġsecondes": 2550,
      "ĠintercommunalitÃ©": 2551,
      "Ġroyaume": 2552,
      "volution": 2553,
      "Ġrituel": 2554,
      "Ġcommerci": 2555,
      "ĠDÃ©cÃ¨s": 2556,
      "ĠJohn": 2557,
      "Ġdubpl": 2558,
      "Ġbritannique": 2559,
      "Ġgroupes": 2560,
      "Ġheures": 2561,
      "ĠCoulomb": 2562,
      "Mari": 2563,
      "ame": 2564,
      "car": 2565,
      "cit": 2566,
      "eilles": 2567,
      "ia": 2568,
      "ket": 2569,
      "mment": 2570,
      "pare": 2571,
      "son": 2572,
      "suite": 2573,
      "tout": 2574,
      "uage": 2575,
      "Ġpalais": 2576,
      "Ġpenche": 2577,
      "Ġsang": 2578,
      "Ġsante": 2579,
      "oum": 2580,
      "teries": 2581,
      "Ġaig": 2582,
      "tiens": 2583,
      "Ġmuni": 2584,
      "ets": 2585,
      "etres": 2586,
      "Ġleve": 2587,
      "ork": 2588,
      "Ġtop": 2589,
      "Ġtension": 2590,
      "ĠfrÃ©": 2591,
      "Ġfoot": 2592,
      "itaires": 2593,
      "ase": 2594,
      "ĠLou": 2595,
      "ĠLin": 2596,
      "Ġron": 2597,
      "Ã¨tre": 2598,
      "Ġges": 2599,
      "Ġgraph": 2600,
      "rige": 2601,
      "nees": 2602,
      "ollion": 2603,
      "ĠÃ©di": 2604,
      "Ġreaction": 2605,
      "Ġetern": 2606,
      "Ġeconom": 2607,
      "Ġcafe": 2608,
      "Ġsept": 2609,
      "ogne": 2610,
      "ĠRec": 2611,
      "tuce": 2612,
      "Ġ190": 2613,
      "phere": 2614,
      "Ġtrous": 2615,
      "Ġmolecu": 2616,
      "igne": 2617,
      "Ġpron": 2618,
      "ĠAlpes": 2619,
      "Ġmemb": 2620,
      "Ġsup": 2621,
      "Ġral": 2622,
      "ards": 2623,
      "197": 2624,
      "itecture": 2625,
      "tenu": 2626,
      "ĠâĢĵ": 2627,
      "Ġadore": 2628,
      "Ġpetits": 2629,
      "Ġversion": 2630,
      "Ġexpri": 2631,
      "Ġexplose": 2632,
      "Ã©crit": 2633,
      "Ġmontres": 2634,
      "Ġabeilles": 2635,
      "Ã©tÃ©s": 2636,
      "Ġcultures": 2637,
      "ĠjamaÃ¯c": 2638,
      "ĠlibÃ©ra": 2639,
      "Ġfete": 2640,
      "ĠfÃ©dÃ©ra": 2641,
      "Ġcroissant": 2642,
      "ĠAstuce": 2643,
      "Ġsemaines": 2644,
      "Ġbacteries": 2645,
      "Ġsavon": 2646,
      "espace": 2647,
      "Ġlinge": 2648,
      "ĠCommunes": 2649,
      "Ġgele": 2650,
      "Ġmoderne": 2651,
      "humi": 2652,
      "ĠpÃ©riode": 2653,
      "Ġclignes": 2654,
      "Ġbloque": 2655,
      "Ġcrevettes": 2656,
      "evapore": 2657,
      "Ġbrule": 2658,
      "ĠChampollion": 2659,
      "ĠÃ©gyptologique": 2660,
      "Ġstabilis": 2661,
      "Ġphilosoph": 2662,
      "ministra": 2663,
      "Mariti": 2664,
      "Ġeconomise": 2665,
      "13": 2666,
      "15": 2667,
      "50": 2668,
      "Am": 2669,
      "bl": 2670,
      "din": 2671,
      "dae": 2672,
      "empereur": 2673,
      "fle": 2674,
      "fer": 2675,
      "ix": 2676,
      "iÃ¨me": 2677,
      "loit": 2678,
      "sant": 2679,
      "val": 2680,
      "ville": 2681,
      "Ġdoit": 2682,
      "Ġpu": 2683,
      "Ġceux": 2684,
      "Ġcla": 2685,
      "Ġsort": 2686,
      "anique": 2687,
      "isation": 2688,
      "lection": 2689,
      "eth": 2690,
      "Ġlequel": 2691,
      "Ġquar": 2692,
      "uri": 2693,
      "Ġfen": 2694,
      "ours": 2695,
      "ilocor": 2696,
      "rak": 2697,
      "ĠAd": 2698,
      "Ã¨te": 2699,
      "Ã¨ge": 2700,
      "roche": 2701,
      "riv": 2702,
      "ĠPer": 2703,
      "ĠEurope": 2704,
      "aton": 2705,
      "agit": 2706,
      "ĠÃ©conom": 2707,
      "ĠBou": 2708,
      "cipe": 2709,
      "uire": 2710,
      "Ġiniti": 2711,
      "dien": 2712,
      "ulaire": 2713,
      "ouvre": 2714,
      "ĠÂ»).": 2715,
      "atives": 2716,
      "ordre": 2717,
      "ordogne": 2718,
      "iller": 2719,
      "phab": 2720,
      "niques": 2721,
      "Ġnombres": 2722,
      "ĠChilocor": 2723,
      "Ġcartes": 2724,
      "Ġcartou": 2725,
      "Ã©rique": 2726,
      "ĠÃ©glis": 2727,
      "Ġallemand": 2728,
      "ablement": 2729,
      "trine": 2730,
      "Ġtransf": 2731,
      "anisme": 2732,
      "ĠAujourd": 2733,
      "Ġculte": 2734,
      "ĠáĬ": 2735,
      "Ġtels": 2736,
      "ailleurs": 2737,
      "ĠdiffÃ©rentes": 2738,
      "Ġreligie": 2739,
      "ĠmaniÃ¨re": 2740,
      "Ġcharge": 2741,
      "aÃ®tre": 2742,
      "Ġnouvelles": 2743,
      "Ġdernier": 2744,
      "ĠderniÃ¨re": 2745,
      "Ġlogique": 2746,
      "Ġnationale": 2747,
      "toum": 2748,
      "Ã®le": 2749,
      "Ġphysique": 2750,
      "ĠBelgique": 2751,
      "ĠâĨ": 2752,
      "Ġconcentration": 2753,
      "Ġvraiment": 2754,
      "Ġchacun": 2755,
      "ĠIndex": 2756,
      "Ġsaoudite": 2757,
      "teractive": 2758,
      "ĠRecords": 2759,
      "ĠChilocorus": 2760,
      "10": 2761,
      "DA": 2762,
      "cÃ¨s": 2763,
      "ime": 2764,
      "ja": 2765,
      "lit": 2766,
      "ple": 2767,
      "ronne": 2768,
      "sur": 2769,
      "uments": 2770,
      "ones": 2771,
      "Ã©poque": 2772,
      "Ġpa": 2773,
      "ouest": 2774,
      "Ġdehors": 2775,
      "Ġmang": 2776,
      "Ġmains": 2777,
      "armÃ©nien": 2778,
      "oign": 2779,
      "orat": 2780,
      "ome": 2781,
      "omie": 2782,
      "Ġtend": 2783,
      "Ġquanti": 2784,
      "Ġfille": 2785,
      "Ġbit": 2786,
      "Ġbra": 2787,
      "ĠCO": 2788,
      "ĠCert": 2789,
      "ĠAvant": 2790,
      "Ġ(-": 2791,
      "char": 2792,
      "liÃ¨re": 2793,
      "Ã¨che": 2794,
      "role": 2795,
      "Ġparler": 2796,
      "vement": 2797,
      "Ġretr": 2798,
      "ĠSau": 2799,
      "Ġchoix": 2800,
      "Ġpose": 2801,
      "Ġstru": 2802,
      "ĠĠĠ": 2803,
      "ĠJam": 2804,
      "Ġher": 2805,
      "Ġsurtout": 2806,
      "ĠRitch": 2807,
      "ĠFer": 2808,
      "lisse": 2809,
      "ĠChaque": 2810,
      "ĠÃītu": 2811,
      "190": 2812,
      "Ġforte": 2813,
      "Ġactiv": 2814,
      "Ġtradi": 2815,
      "rony": 2816,
      "ronti": 2817,
      "ĠAnth": 2818,
      "Ġ188": 2819,
      "Ġ189": 2820,
      "autom": 2821,
      "ĠgÃ©nÃ©rale": 2822,
      "Ġpresque": 2823,
      "Ġpersonne": 2824,
      "Ġdroits": 2825,
      "exist": 2826,
      "Ġautom": 2827,
      "Ġtravers": 2828,
      "Ġpropre": 2829,
      "Ġjoue": 2830,
      "Ġvraie": 2831,
      "Ġpieds": 2832,
      "ĠchÃ¢teaux": 2833,
      "Ġhauteur": 2834,
      "Ġsynch": 2835,
      "indice": 2836,
      "Ġmajor": 2837,
      "Ġconstruit": 2838,
      "Ġpratique": 2839,
      "Ġquatre": 2840,
      "Ġfemmes": 2841,
      "information": 2842,
      "ĠÃĤge": 2843,
      "Ġscientifique": 2844,
      "Ġpharaon": 2845,
      "Ġmembres": 2846,
      "Ġcartouche": 2847,
      "ĠRitchie": 2848,
      "58": 2849,
      "Ch": 2850,
      "EC": 2851,
      "ca": 2852,
      "ed": 2853,
      "fu": 2854,
      "latif": 2855,
      "mil": 2856,
      "sous": 2857,
      "uel": 2858,
      "yg": 2859,
      "Ġ9": 2860,
      "Ġeu": 2861,
      "ession": 2862,
      "Ã©b": 2863,
      "ĠpÃ©t": 2864,
      "Ġpages": 2865,
      "Ġcord": 2866,
      "ande": 2867,
      "quant": 2868,
      "Ġdeb": 2869,
      "Ġdem": 2870,
      "ĠtÃªte": 2871,
      "Ġventre": 2872,
      "ĠunitÃ©": 2873,
      "Ġenti": 2874,
      "Ġenviron": 2875,
      "Ġensuite": 2876,
      "ala": 2877,
      "alent": 2878,
      "ĠÃ¨": 2879,
      "Ġbret": 2880,
      "Ġbeff": 2881,
      "Ġrange": 2882,
      "riques": 2883,
      "ĠDi": 2884,
      "ĠDordogne": 2885,
      "Ġrem": 2886,
      "Ġsix": 2887,
      "rÃ©t": 2888,
      "rÃ©es": 2889,
      "Ġempl": 2890,
      "ĠMÃ©": 2891,
      "ĠMus": 2892,
      "ĠJeu": 2893,
      "Ġhom": 2894,
      "ĠRen": 2895,
      "mod": 2896,
      "ĠHistorique": 2897,
      "atiques": 2898,
      "illet": 2899,
      "phis": 2900,
      "Ġcompare": 2901,
      "Ġcommen": 2902,
      "stra": 2903,
      "196": 2904,
      "ĠUni": 2905,
      "Ġcourt": 2906,
      "Ġ300": 2907,
      "ĠInteractive": 2908,
      "lante": 2909,
      "Ġseulement": 2910,
      "Ġnormes": 2911,
      "Ãīc": 2912,
      "Ġagri": 2913,
      "ĠespÃ¨ces": 2914,
      "fier": 2915,
      "ĠÃ©lectrique": 2916,
      "harique": 2917,
      "Ġeffet": 2918,
      "ĠCharles": 2919,
      "ĠÃ©tudes": 2920,
      "Ġsalon": 2921,
      "Ġsymbole": 2922,
      "ĠprÃ©sident": 2923,
      "ĠEsp": 2924,
      "Ġmeilleur": 2925,
      "Ġparfait": 2926,
      "loitation": 2927,
      "ĠâĨĴ": 2928,
      "22": 2929,
      "26": 2930,
      "EG": 2931,
      "Ieter": 2932,
      "ament": 2933,
      "ach": 2934,
      "cine": 2935,
      "ctes": 2936,
      "crit": 2937,
      "clus": 2938,
      "gÃ¨": 2939,
      "hrop": 2940,
      "jÃł": 2941,
      "rant": 2942,
      "ules": 2943,
      "ulier": 2944,
      "Ġdod": 2945,
      "Ġloi": 2946,
      "onte": 2947,
      "Ã©tu": 2948,
      "Ġcet": 2949,
      "Ġcat": 2950,
      "anc": 2951,
      "ouse": 2952,
      "quÃ©": 2953,
      "Ġaur": 2954,
      "Ġajout": 2955,
      "Ġdevi": 2956,
      "tigu": 2957,
      "inage": 2958,
      "entend": 2959,
      "Ġtres": 2960,
      "uropÃ©": 2961,
      "illante": 2962,
      "meaux": 2963,
      "Ġbut": 2964,
      "ĠbÃ©nÃ©": 2965,
      "Ġru": 2966,
      "Ã¨se": 2967,
      "eure": 2968,
      "ĠTok": 2969,
      "ague": 2970,
      "Ġaug": 2971,
      "ĠDist": 2972,
      "Ġrecher": 2973,
      "Ġcheck": 2974,
      "Ġpod": 2975,
      "Ġposte": 2976,
      "ĠdÃ©jÃł": 2977,
      "Ġete": 2978,
      "Ġemb": 2979,
      "Ġecl": 2980,
      "ĠGo": 2981,
      "ĠGran": 2982,
      "Ġinf": 2983,
      "dia": 2984,
      "Ġtemp": 2985,
      "Ġtemple": 2986,
      "Ġhistoires": 2987,
      "Ġdim": 2988,
      "Ġdirige": 2989,
      "ĠNÃ©": 2990,
      "ĠRoy": 2991,
      "Ġprov": 2992,
      "ĠFin": 2993,
      "Ġdisp": 2994,
      "phes": 2995,
      "orts": 2996,
      "oss": 2997,
      "nig": 2998,
      "Ġtruc": 2999,
      "ertz": 3000,
      "ign": 3001,
      "Ġnoms": 3002,
      "Ġarch": 3003,
      "Ġcarte": 3004,
      "âĶ¬": 3005,
      "opolis": 3006,
      "193": 3007,
      "Ġalbum": 3008,
      "Ġcouronne": 3009,
      "ublique": 3010,
      "ada": 3011,
      "Ġboulier": 3012,
      "Ġconser": 3013,
      "illage": 3014,
      "Ġnombreuses": 3015,
      "Ġdivin": 3016,
      "Ġmusic": 3017,
      "ĠReid": 3018,
      "Ġkiffes": 3019,
      "Ġobjet": 3020,
      "Ġsolaire": 3021,
      "ociation": 3022,
      "Ġfix": 3023,
      "ĠCependant": 3024,
      "Ġpates": 3025,
      "ĠsÃ©par": 3026,
      "Ġpartout": 3027,
      "Ġvoile": 3028,
      "Ġsauve": 3029,
      "artiste": 3030,
      "Ġplupart": 3031,
      "Ġentend": 3032,
      "Ã©ma": 3033,
      "ĠCharente": 3034,
      "Ġparticulier": 3035,
      "Ġampoule": 3036,
      "Ġdevenir": 3037,
      "ĠdÃ©mocratie": 3038,
      "Ġapprendre": 3039,
      "ĠdonnÃ©es": 3040,
      "ĠdÃ©signer": 3041,
      "Ġgrammatical": 3042,
      "Ġmythologie": 3043,
      "Ġtype": 3044,
      "ĠsoviÃ©tique": 3045,
      "Ġsouvenirs": 3046,
      "ĠÃ©glises": 3047,
      "Ġdeborde": 3048,
      "Ieteren": 3049,
      "gÃ¨bre": 3050,
      "Ġdodo": 3051,
      "ĠDistri": 3052,
      ".)": 3053,
      "Arabie": 3054,
      "EL": 3055,
      "dou": 3056,
      "dans": 3057,
      "eb": 3058,
      "ete": 3059,
      "git": 3060,
      "gel": 3061,
      "hÃ´ne": 3062,
      "ko": 3063,
      "osition": 3064,
      "ront": 3065,
      "rist": 3066,
      "tte": 3067,
      "ware": 3068,
      "xim": 3069,
      "ym": 3070,
      "Ġdanger": 3071,
      "Ã©op": 3072,
      "Ġsais": 3073,
      "annÃ©e": 3074,
      "quelle": 3075,
      "ises": 3076,
      "Ġdevant": 3077,
      "Ġlaquelle": 3078,
      "Ġtom": 3079,
      "Ġtyp": 3080,
      "Ġfuite": 3081,
      "Ġvieux": 3082,
      "ray": 3083,
      "rain": 3084,
      "Ġbo": 3085,
      "Ġbal": 3086,
      "ĠCal": 3087,
      "Ġrien": 3088,
      "ĠAge": 3089,
      "liers": 3090,
      "Ġplastique": 3091,
      "riÃ¨re": 3092,
      "ĠPi": 3093,
      "ĠPrÃ©": 3094,
      "Ġparoles": 3095,
      "ĠEd": 3096,
      "ĠEt": 3097,
      "aide": 3098,
      "ĠÃ©qu": 3099,
      "ĠSu": 3100,
      "ĠSte": 3101,
      "ĠSch": 3102,
      "Ġ100": 3103,
      "Ġchois": 3104,
      "ĠBan": 3105,
      "ĠBur": 3106,
      "Ġcamp": 3107,
      "ĠII": 3108,
      "ĠintÃ©g": 3109,
      "Ġhabit": 3110,
      "ication": 3111,
      "Ġmonte": 3112,
      "sembl": 3113,
      "Ġtrouv": 3114,
      "erts": 3115,
      "Ġapplic": 3116,
      "entiel": 3117,
      "194": 3118,
      "Ġall": 3119,
      "Ġcourte": 3120,
      "lÃ©ments": 3121,
      "Ġactu": 3122,
      "Ġrester": 3123,
      "ĠInter": 3124,
      "cupe": 3125,
      "Ġsera": 3126,
      "ĠutilisÃ©s": 3127,
      "ĠmÃ©de": 3128,
      "tenant": 3129,
      "Ġgrandes": 3130,
      "duction": 3131,
      "Ġmilieu": 3132,
      "Ġsouff": 3133,
      "ĠRep": 3134,
      "aÃ¯que": 3135,
      "Ġespaces": 3136,
      "tionnelle": 3137,
      "Ġjouer": 3138,
      "Ġlongue": 3139,
      "Ġpattes": 3140,
      "ĠnÃ©erlandais": 3141,
      "Ġdurant": 3142,
      "Ġbande": 3143,
      "ĠdÃ©signe": 3144,
      "exploitation": 3145,
      "Ġfonctions": 3146,
      "Ġpersonnel": 3147,
      "ĠcaractÃ©ris": 3148,
      "Ġcrist": 3149,
      "Ġconseil": 3150,
      "Åĵuvre": 3151,
      "ĠExemples": 3152,
      "Ġlumineux": 3153,
      "Ġordinateurs": 3154,
      "cription": 3155,
      "ĠreprÃ©sente": 3156,
      "ronyme": 3157,
      "tigua": 3158,
      "Apple": 3159,
      "Or": 3160,
      "UL": 3161,
      "avec": 3162,
      "cur": 3163,
      "coup": 3164,
      "dre": 3165,
      "eil": 3166,
      "frique": 3167,
      "ji": 3168,
      "jo": 3169,
      "jima": 3170,
      "pend": 3171,
      "rÃ¨": 3172,
      "stitu": 3173,
      "soft": 3174,
      "voir": 3175,
      "vence": 3176,
      "Ġir": 3177,
      "ĠdÃ¨s": 3178,
      "entement": 3179,
      "Ã©p": 3180,
      "Ã©qu": 3181,
      "Ġciv": 3182,
      "anci": 3183,
      "tige": 3184,
      "ermo": 3185,
      "Ġmanger": 3186,
      "org": 3187,
      "orin": 3188,
      "orter": 3189,
      "ombre": 3190,
      "Ġfour": 3191,
      "Ġfurent": 3192,
      "Ġvague": 3193,
      "Ġetc": 3194,
      "Ġlesqu": 3195,
      "Ġenv": 3196,
      "rag": 3197,
      "aline": 3198,
      "Ġbran": 3199,
      "Ġband": 3200,
      "Ġbout": 3201,
      "ieure": 3202,
      "aul": 3203,
      "auff": 3204,
      "ĠComp": 3205,
      "ĠAGP": 3206,
      "cept": 3207,
      "chons": 3208,
      "Ġgard": 3209,
      "ĠPays": 3210,
      "ĠPEG": 3211,
      "aissent": 3212,
      "Ġcontient": 3213,
      "ager": 3214,
      "Ġaujourd": 3215,
      "ĠDon": 3216,
      "ĠÃ©lÃ©ment": 3217,
      "Ġ12": 3218,
      "Ġchu": 3219,
      "acitÃ©": 3220,
      "actif": 3221,
      "acide": 3222,
      "ĠBÃ¨s": 3223,
      "ĠBEL": 3224,
      "ĠeuropÃ©": 3225,
      "aleurs": 3226,
      "dium": 3227,
      "Ġhomme": 3228,
      "ogun": 3229,
      "ĠNob": 3230,
      "andis": 3231,
      "Ġvivant": 3232,
      "uxelles": 3233,
      "oses": 3234,
      "stÃ¨me": 3235,
      "Ġmod": 3236,
      "Ġmodi": 3237,
      "ĠLaurÃ©at": 3238,
      "ĠarmÃ©ni": 3239,
      "ĠcarÃ©lien": 3240,
      "entiellement": 3241,
      "Ġtraverse": 3242,
      "ronique": 3243,
      "ĠAnge": 3244,
      "Ġperdu": 3245,
      "Ġdirection": 3246,
      "ĠmarchÃ©": 3247,
      "Ġutilisent": 3248,
      "Ġbouchons": 3249,
      "Ġmettre": 3250,
      "Ġ183": 3251,
      "tension": 3252,
      "Ġadministra": 3253,
      "Ġ1990": 3254,
      "allÃ©e": 3255,
      "Ġmontagne": 3256,
      "ĠdÃ©crit": 3257,
      "ĠdivinitÃ©": 3258,
      "Ġattend": 3259,
      "rises": 3260,
      "Ġtranspar": 3261,
      "Ġ2007": 3262,
      "Ġobtient": 3263,
      "conte": 3264,
      "Ġagric": 3265,
      "Ġchaud": 3266,
      "Ġchaude": 3267,
      "Ġdessin": 3268,
      "cteurs": 3269,
      "Ġ1970": 3270,
      "Ġtravail": 3271,
      "oseph": 3272,
      "ĠappelÃ©": 3273,
      "Ġlibre": 3274,
      "Ġgratu": 3275,
      "ĠYork": 3276,
      "Ġfaisaient": 3277,
      "Ġlivres": 3278,
      "Ġlocalis": 3279,
      "Ġchauffe": 3280,
      "ĠÃ©crit": 3281,
      "Ġpommes": 3282,
      "rys": 3283,
      "Ġpluie": 3284,
      "tÃ©rieur": 3285,
      "ĠcomposÃ©": 3286,
      "Ġoccident": 3287,
      "ĠcaractÃ¨re": 3288,
      "Ġpoids": 3289,
      "ĠAprÃ¨s": 3290,
      "Ġrituels": 3291,
      "ĠdÃ©finition": 3292,
      "Ġpossible": 3293,
      "ĠlittÃ©ra": 3294,
      "ĠSystÃ¨me": 3295,
      "Ġrythme": 3296,
      "Ġglac": 3297,
      "ĠTechn": 3298,
      "ĠmathÃ©matiques": 3299,
      "Ġanciens": 3300,
      "jectif": 3301,
      "ĠBruxelles": 3302,
      "Ġcuivre": 3303,
      "Ġmorceau": 3304,
      "ĠindÃ©pendant": 3305,
      "Ġenfants": 3306,
      "Ġdistance": 3307,
      "Ġrayons": 3308,
      "Ġterritoire": 3309,
      "Ġdivertissement": 3310,
      "ĠLouis": 3311,
      "Ġquartier": 3312,
      "essionn": 3313,
      "Ġcordes": 3314,
      "Ġemploy": 3315,
      "Ãīcole": 3316,
      "Ġdimension": 3317,
      "ĠDistribu": 3318,
      "',": 3319,
      "'s": 3320,
      "64": 3321,
      "Empire": 3322,
      "ape": 3323,
      "cont": 3324,
      "dÃ©s": 3325,
      "gistre": 3326,
      "ho": 3327,
      "ich": 3328,
      "ige": 3329,
      "lent": 3330,
      "lair": 3331,
      "nak": 3332,
      "nae": 3333,
      "test": 3334,
      "uve": 3335,
      "Ġoign": 3336,
      "Ġdor": 3337,
      "Ġdil": 3338,
      "Ġlois": 3339,
      "Ġlentement": 3340,
      "ĠpÃ¨re": 3341,
      "Ġpiv": 3342,
      "quette": 3343,
      "Ġaout": 3344,
      "tinÃ©": 3345,
      "Ġmai": 3346,
      "unit": 3347,
      "arbre": 3348,
      "Ġlave": 3349,
      "Ġfaut": 3350,
      "Ġfusion": 3351,
      "ital": 3352,
      "Ġvent": 3353,
      "Ġvas": 3354,
      "Ġvaleurs": 3355,
      "Ġunivers": 3356,
      "asis": 3357,
      "Ġnul": 3358,
      "Ġnorme": 3359,
      "ĠLib": 3360,
      "ĠÃ®": 3361,
      "Ġbl": 3362,
      "Ġbu": 3363,
      "Ġby": 3364,
      "Ġboi": 3365,
      "Ġboy": 3366,
      "Ġbits": 3367,
      "ĠrÃ´le": 3368,
      "ĠAc": 3369,
      "ĠAtoum": 3370,
      "chant": 3371,
      "Ã¨tres": 3372,
      "Ġgon": 3373,
      "Ġgramm": 3374,
      "ĠEau": 3375,
      "ressi": 3376,
      "siris": 3377,
      "aise": 3378,
      "ĠTro": 3379,
      "atis": 3380,
      "ĠDoc": 3381,
      "ĠÃ©poque": 3382,
      "Ġremp": 3383,
      "ĠSer": 3384,
      "ĠSoci": 3385,
      "ĠSud": 3386,
      "ĠBar": 3387,
      "ĠGroupe": 3388,
      "ĠMo": 3389,
      "ĠMicro": 3390,
      "ĠVal": 3391,
      "ĠVienne": 3392,
      "tÃ©es": 3393,
      "Ġho": 3394,
      "Ġhor": 3395,
      "Ġhong": 3396,
      "Ġvib": 3397,
      "ĠHor": 3398,
      "tume": 3399,
      "Ġdisent": 3400,
      "Ġdistribu": 3401,
      "ĠÂ»),": 3402,
      "Ġcomprom": 3403,
      "ications": 3404,
      "niv": 3405,
      "ormais": 3406,
      "iennes": 3407,
      "Ġraconte": 3408,
      "ĠKe": 3409,
      "ĠÃ©tab": 3410,
      "utiliser": 3411,
      "Ġ30": 3412,
      "Ġinterne": 3413,
      "Ġmarque": 3414,
      "Ġutilise": 3415,
      "Ġutilisant": 3416,
      "ĠmÃ©t": 3417,
      "Ġadop": 3418,
      "illent": 3419,
      "Ġ1995": 3420,
      "Ġ1997": 3421,
      "posi": 3422,
      "Ġmontre": 3423,
      "ĠDejima": 3424,
      "Ġsouh": 3425,
      "rish": 3426,
      "idae": 3427,
      "Ġimpose": 3428,
      "issements": 3429,
      "Ġroutes": 3430,
      "Ġconstante": 3431,
      "Ġconstruction": 3432,
      "Ġ2011": 3433,
      "Ġvisage": 3434,
      "ĠÃ©gyptien": 3435,
      "Ġdessus": 3436,
      "Ġautor": 3437,
      "ĠsuccÃ¨s": 3438,
      "Ġ40": 3439,
      "Ġreligion": 3440,
      "Ġpropri": 3441,
      "landes": 3442,
      "Ġlongtemps": 3443,
      "ĠnÃ©cess": 3444,
      "ĠMarc": 3445,
      "Ġlorsqu": 3446,
      "Ġgras": 3447,
      "huile": 3448,
      "Ġpleure": 3449,
      "Ġfeuille": 3450,
      "Ġvoix": 3451,
      "Ġvoiture": 3452,
      "Ġfrais": 3453,
      "Ġprofessionn": 3454,
      "Ġnational": 3455,
      "Ġniveau": 3456,
      "Ġchangement": 3457,
      "Ġdistinct": 3458,
      "Ġsorti": 3459,
      "Ġsortie": 3460,
      "ĠLangue": 3461,
      "Ġprogramm": 3462,
      "Ġproduction": 3463,
      "labor": 3464,
      "ĠdÃ©sormais": 3465,
      "Ġservices": 3466,
      "Ġcalculs": 3467,
      "Ġgrosse": 3468,
      "Ġchanson": 3469,
      "Ġstatut": 3470,
      "Ġbougies": 3471,
      "France": 3472,
      "Ġavions": 3473,
      "Ġbeaucoup": 3474,
      "ĠPrin": 3475,
      "Ġoreilles": 3476,
      "cesseur": 3477,
      "Ġminutes": 3478,
      "Ġbravo": 3479,
      "ĠAnthocoris": 3480,
      "ĠbÃ©nÃ©f": 3481,
      "Ġprovince": 3482,
      "rysop": 3483,
      "ĠDistribution": 3484,
      "naeus": 3485,
      ".-": 3486,
      "25": 3487,
      "Au": 3488,
      "En": 3489,
      "Europe": 3490,
      "Ou": 3491,
      "Pro": 3492,
      "SO": 3493,
      "cence": 3494,
      "ctement": 3495,
      "dis": 3496,
      "get": 3497,
      "iz": 3498,
      "list": 3499,
      "llab": 3500,
      "mene": 3501,
      "osi": 3502,
      "su": 3503,
      "tt": 3504,
      "toie": 3505,
      "yum": 3506,
      "Ã¶": 3507,
      "ä¸": 3508,
      "Ġdent": 3509,
      "Ġdieux": 3510,
      "Ġloin": 3511,
      "enh": 3512,
      "envers": 3513,
      "onie": 3514,
      "oniens": 3515,
      "Ã©d": 3516,
      "Ã©ment": 3517,
      "Ġpet": 3518,
      "Ġsent": 3519,
      "Ġsature": 3520,
      "ana": 3521,
      "annees": 3522,
      "oure": 3523,
      "rev": 3524,
      "Ġdecis": 3525,
      "Ġdedans": 3526,
      "tiers": 3527,
      "ley": 3528,
      "lere": 3529,
      "ints": 3530,
      "ertume": 3531,
      "Ġmeu": 3532,
      "Ġmouvement": 3533,
      "Ġmix": 3534,
      "unct": 3535,
      "etale": 3536,
      "ares": 3537,
      "artif": 3538,
      "Ġtandis": 3539,
      "Ġfli": 3540,
      "Ġfeux": 3541,
      "Ġvoc": 3542,
      "Ġveau": 3543,
      "Ġventi": 3544,
      "Ġetre": 3545,
      "ĠunitÃ©s": 3546,
      "asta": 3547,
      "Ġneu": 3548,
      "rages": 3549,
      "ela": 3550,
      "aly": 3551,
      "Ġbes": 3552,
      "ĠblÃ©": 3553,
      "Ġball": 3554,
      "Ġbaille": 3555,
      "Ġbeton": 3556,
      "ĠCet": 3557,
      "ĠCour": 3558,
      "Ġrince": 3559,
      "Ġride": 3560,
      "Ġroses": 3561,
      "chniques": 3562,
      "liÃ©": 3563,
      "Ġglandes": 3564,
      "Ġplantes": 3565,
      "Ġparait": 3566,
      "ĠExp": 3567,
      "veur": 3568,
      "olat": 3569,
      "ĠTop": 3570,
      "Ġconte": 3571,
      "atur": 3572,
      "agnÃ©": 3573,
      "ĠDr": 3574,
      "ĠDonc": 3575,
      "ĠDanse": 3576,
      "ĠÃ©ch": 3577,
      "ĠÃ©lÃ©ments": 3578,
      "termin": 3579,
      "cide": 3580,
      "Ġemo": 3581,
      "ĠGar": 3582,
      "ĠGam": 3583,
      "ĠMin": 3584,
      "Ġseigne": 3585,
      "Ġpasser": 3586,
      "Ġinverse": 3587,
      "Ġstresse": 3588,
      "Ġstock": 3589,
      "Ġstocke": 3590,
      "Ġstronti": 3591,
      "Ġhub": 3592,
      "Ġhiver": 3593,
      "Ġhistor": 3594,
      "Ġhistorique": 3595,
      "ĠNouv": 3596,
      "ĠRom": 3597,
      "ĠRob": 3598,
      "Ġproches": 3599,
      "ĠHau": 3600,
      "anglais": 3601,
      "Ġcop": 3602,
      "Ġcoeur": 3603,
      "agement": 3604,
      "iquement": 3605,
      "Ġcompar": 3606,
      "Ġcomptent": 3607,
      "Ġcomptaient": 3608,
      "umm": 3609,
      "Ġopp": 3610,
      "nier": 3611,
      "ormir": 3612,
      "Ġtrin": 3613,
      "Ġmode": 3614,
      "ĠChrysop": 3615,
      "Ġarom": 3616,
      "ctrice": 3617,
      "Ġavaient": 3618,
      "Ġramene": 3619,
      "Ġapplau": 3620,
      "Ġcree": 3621,
      "Ġsodium": 3622,
      "Ġprepare": 3623,
      "ibles": 3624,
      "adores": 3625,
      "adren": 3626,
      "Ġmini": 3627,
      "Ġcernes": 3628,
      "hemis": 3629,
      "eclair": 3630,
      "Ã¢ge": 3631,
      "cules": 3632,
      "trape": 3633,
      "Ġcolores": 3634,
      "Ġbouge": 3635,
      "Ã´t": 3636,
      "ĠmÃ©th": 3637,
      "Ġ187": 3638,
      "ticle": 3639,
      "Ġseconde": 3640,
      "trie": 3641,
      "Ġtient": 3642,
      "Ġpetite": 3643,
      "Ġvertige": 3644,
      "Ġ1998": 3645,
      "ouverture": 3646,
      "pophis": 3647,
      "Ġregles": 3648,
      "Ġregarde": 3649,
      "Ġregulier": 3650,
      "roidit": 3651,
      "ĠdÃ©couver": 3652,
      "Ġatti": 3653,
      "Ġmuscles": 3654,
      "ĠRÃ©p": 3655,
      "Ġ2002": 3656,
      "ĠcrÃ©Ã©": 3657,
      "Ġmach": 3658,
      "titude": 3659,
      "ĠMeme": 3660,
      "Ġagresse": 3661,
      "Ġordis": 3662,
      "Ġaccent": 3663,
      "Ġaccomp": 3664,
      "Ġbrillent": 3665,
      "Ġblancs": 3666,
      "Ġportance": 3667,
      "ĠmatÃ©ri": 3668,
      "Ġasp": 3669,
      "Ġtombent": 3670,
      "Ġgrain": 3671,
      "Ġdurcit": 3672,
      "Ġbananes": 3673,
      "Ġprotection": 3674,
      "Ġproteines": 3675,
      "ĠapparaÃ®t": 3676,
      "ublican": 3677,
      "ĠreprÃ©sentÃ©": 3678,
      "odeur": 3679,
      "Ġmicrobes": 3680,
      "Ġbaryum": 3681,
      "Ġgrille": 3682,
      "Ġteste": 3683,
      "Ġreflexe": 3684,
      "Ġrefroidit": 3685,
      "Ġfrissons": 3686,
      "ĠProg": 3687,
      "Ġchauffent": 3688,
      "Ġpiece": 3689,
      "Ġcentaines": 3690,
      "Ġinstru": 3691,
      "Ġhaute": 3692,
      "orial": 3693,
      "Ġroman": 3694,
      "Ġreveil": 3695,
      "Ġreveille": 3696,
      "Ġfrapper": 3697,
      "Ġnaturelle": 3698,
      "ĠparticuliÃ¨re": 3699,
      "Ġpoils": 3700,
      "Alpes": 3701,
      "Ġfreine": 3702,
      "Ġcadre": 3703,
      "marrage": 3704,
      "ĠsituÃ©": 3705,
      "Ġmelodie": 3706,
      "ĠCanada": 3707,
      "Ġchimiques": 3708,
      "ĠopÃ©ra": 3709,
      "Ġmesurer": 3710,
      "interieur": 3711,
      "Ġsalee": 3712,
      "Ġmenage": 3713,
      "ĠvariÃ©tÃ©s": 3714,
      "Ġvolonte": 3715,
      "ĠsiÃ¨cle": 3716,
      "affinage": 3717,
      "lots": 3718,
      "Ġmolaire": 3719,
      "Ġbourre": 3720,
      "Ġurbaines": 3721,
      "prise": 3722,
      "Ġfabrique": 3723,
      "ĠArmy": 3724,
      "Ġcycle": 3725,
      "echo": 3726,
      "Ġvoeu": 3727,
      "Ġchocolat": 3728,
      "Ġrespec": 3729,
      "ĠImagine": 3730,
      "Ġlevure": 3731,
      "Ġsolution": 3732,
      "ĠBabyloniens": 3733,
      "Ġquestions": 3734,
      "Ġnettoie": 3735,
      "oussoles": 3736,
      "Ġaccelere": 3737,
      "Ġronron": 3738,
      "Ġeternue": 3739,
      "Ġmolecule": 3740,
      "Ġralentir": 3741,
      "humidite": 3742,
      "Ġfenetres": 3743,
      "Ġmangent": 3744,
      "ĠquantitÃ©": 3745,
      "automatique": 3746,
      "Ġsynchro": 3747,
      "ygene": 3748,
      "Ġagripper": 3749,
      "Ã©tude": 3750,
      "Ġajoutent": 3751,
      "Ġhabitants": 3752,
      "Ġsouffle": 3753,
      "ĠRepublican": 3754,
      "Ġbouts": 3755,
      "ĠNobel": 3756,
      "Ġattends": 3757,
      "Ġglacons": 3758,
      "Ġdorment": 3759,
      "Ġdilate": 3760,
      "Ġgonfle": 3761,
      "artifice": 3762,
      "Ġflipper": 3763,
      "Ġventilo": 3764,
      "Ġstrontium": 3765,
      "Ġhublots": 3766,
      "Ġapplaudit": 3767,
      "adrenaline": 3768,
      "hemisphere": 3769,
      "33": 3770,
      "AS": 3771,
      "Coccinella": 3772,
      "Deraeocoris": 3773,
      "OI": 3774,
      "PC": 3775,
      "avant": 3776,
      "bac": 3777,
      "cre": 3778,
      "den": 3779,
      "exe": 3780,
      "gion": 3781,
      "histoire": 3782,
      "ker": 3783,
      "lon": 3784,
      "mont": 3785,
      "pÃ©": 3786,
      "polis": 3787,
      "sÃ©": 3788,
      "vÃ©e": 3789,
      "vage": 3790,
      "Ġ&": 3791,
      "ĠÅ": 3792,
      "ĠÐ": 3793,
      "estiv": 3794,
      "Ġdonner": 3795,
      "Ġlire": 3796,
      "enant": 3797,
      "ensemble": 3798,
      "onnes": 3799,
      "Ã©v": 3800,
      "Ġcri": 3801,
      "Ġsuit": 3802,
      "Ġamb": 3803,
      "til": 3804,
      "tives": 3805,
      "inture": 3806,
      "Ġmise": 3807,
      "Ġmassi": 3808,
      "omiques": 3809,
      "Ġfle": 3810,
      "Ġfig": 3811,
      "Ġvend": 3812,
      "Ġvillage": 3813,
      "ources": 3814,
      "Ġdesc": 3815,
      "Ġnos": 3816,
      "elge": 3817,
      "ĠLors": 3818,
      "autÃ©": 3819,
      "ĠCul": 3820,
      "Ġro": 3821,
      "ĠAss": 3822,
      "chet": 3823,
      "ross": 3824,
      "Ġgagn": 3825,
      "ĠPat": 3826,
      "ĠThÃ©or": 3827,
      "Ġauc": 3828,
      "ĠDou": 3829,
      "ĠDennis": 3830,
      "Ġretra": 3831,
      "Ġ14": 3832,
      "acques": 3833,
      "ĠBat": 3834,
      "ĠGre": 3835,
      "ĠMon": 3836,
      "ĠMais": 3837,
      "Ġsein": 3838,
      "diant": 3839,
      "Ġtechniques": 3840,
      "ppe": 3841,
      "Ġdix": 3842,
      "amour": 3843,
      "Ġvia": 3844,
      "Ġdisc": 3845,
      "Ġjeun": 3846,
      "Ġcependant": 3847,
      "Ġexclus": 3848,
      "Ġarts": 3849,
      "ĠEntre": 3850,
      "Ġforce": 3851,
      "âĶĢâĶ¬": 3852,
      "utilise": 3853,
      "Ġlangages": 3854,
      "Ġpuiss": 3855,
      "ades": 3856,
      "Ġdirectement": 3857,
      "Ã¢ce": 3858,
      "ĠutilisÃ©e": 3859,
      "Ġrepro": 3860,
      "Ġbasse": 3861,
      "areil": 3862,
      "Ġrecons": 3863,
      "ĠexpÃ©ri": 3864,
      "nexes": 3865,
      "pose": 3866,
      "Ġimpos": 3867,
      "vention": 3868,
      "Ġ2005": 3869,
      "ĠcapacitÃ©": 3870,
      "aÃ¯s": 3871,
      "Ġroute": 3872,
      "Ġáį": 3873,
      "Ġmess": 3874,
      "Ġtravaux": 3875,
      "Ġpolitiques": 3876,
      "Ġpopulaire": 3877,
      "ĠappelÃ©e": 3878,
      "Ġrenouv": 3879,
      "ricitÃ©": 3880,
      "udget": 3881,
      "khen": 3882,
      "Ġpied": 3883,
      "Ġsauce": 3884,
      "Ġcroy": 3885,
      "Ġmorts": 3886,
      "Ġromain": 3887,
      "quipe": 3888,
      "Ġessentiellement": 3889,
      "ĠsituÃ©e": 3890,
      "Ġchimique": 3891,
      "Ġofficiel": 3892,
      "Ġfilms": 3893,
      "ĠComitÃ©": 3894,
      "ĠpossÃ¨de": 3895,
      "Ġservice": 3896,
      "ĠcÃ©lÃ¨": 3897,
      "Ġtechnique": 3898,
      "ANSI": 3899,
      "ĠPascal": 3900,
      "Ġmultip": 3901,
      "Ġanimal": 3902,
      "Ġsuffit": 3903,
      "Ġvictoire": 3904,
      "ĠKarnak": 3905,
      "ĠPersonnalitÃ©": 3906,
      "Ġmunicip": 3907,
      "ĠfrÃ©qu": 3908,
      "ĠCertains": 3909,
      "ĠÃ¨re": 3910,
      "ĠmÃ©decine": 3911,
      "ĠMicrosoft": 3912,
      "Ġprogrammation": 3913,
      "Provence": 3914,
      "unctata": 3915,
      "11": 3916,
      "53": 3917,
      "Alle": 3918,
      "ES": 3919,
      "Is": 3920,
      "RhÃ´ne": 3921,
      "bi": 3922,
      "ber": 3923,
      "bit": 3924,
      "ez": 3925,
      "face": 3926,
      "gent": 3927,
      "gri": 3928,
      "gÃ©e": 3929,
      "ha": 3930,
      "ik": 3931,
      "jan": 3932,
      "ly": 3933,
      "log": 3934,
      "males": 3935,
      "magne": 3936,
      "nent": 3937,
      "oter": 3938,
      "off": 3939,
      "pi": 3940,
      "tro": 3941,
      "tain": 3942,
      "vait": 3943,
      "yt": 3944,
      "zz": 3945,
      "Ġul": 3946,
      "ess": 3947,
      "Ġlo": 3948,
      "eng": 3949,
      "Ã©dition": 3950,
      "Ġska": 3951,
      "quÃ©e": 3952,
      "Ġdeme": 3953,
      "tim": 3954,
      "inf": 3955,
      "ero": 3956,
      "ernig": 3957,
      "unitÃ©": 3958,
      "oro": 3959,
      "Ġto": 3960,
      "Ġfui": 3961,
      "Ġflot": 3962,
      "Ġflam": 3963,
      "Ġve": 3964,
      "Ġvin": 3965,
      "Ġvilles": 3966,
      "illÃ©": 3967,
      "ĠdestinÃ©": 3968,
      "rate": 3969,
      "Ġbelge": 3970,
      "ĠCy": 3971,
      "Ġrois": 3972,
      "ĠAst": 3973,
      "liques": 3974,
      "seaux": 3975,
      "Ã¨t": 3976,
      "Ġgri": 3977,
      "rir": 3978,
      "rire": 3979,
      "rimo": 3980,
      "ĠPrix": 3981,
      "ĠEC": 3982,
      "ĠconÃ§": 3983,
      "aig": 3984,
      "ĠÃ©n": 3985,
      "Ġreven": 3986,
      "ĠSw": 3987,
      "ĠSur": 3988,
      "ĠSal": 3989,
      "ĠSole": 3990,
      "Ġpot": 3991,
      "Ġposition": 3992,
      "ĠBus": 3993,
      "ĠdÃ©di": 3994,
      "ĠGu": 3995,
      "Ġsep": 3996,
      "ĠIrish": 3997,
      "oto": 3998,
      "otom": 3999,
      "dig": 4000,
      "ĠVO": 4001,
      "ĠJap": 4002,
      "Ġhi": 4003,
      "Ġdirig": 4004,
      "ĠLeur": 4005,
      "ocie": 4006,
      "cessi": 4007,
      "pha": 4008,
      "phone": 4009,
      "Ã©rieur": 4010,
      "vironne": 4011,
      "istant": 4012,
      "Ġ2000": 4013,
      "Ã©sie": 4014,
      "ateau": 4015,
      "Ãªt": 4016,
      "Ãªmes": 4017,
      "ologies": 4018,
      "Ġconcern": 4019,
      "Ġfranc": 4020,
      "Ã©riques": 4021,
      "ĠÃ©tran": 4022,
      "Ġfortif": 4023,
      "Ġsoli": 4024,
      "ĠAnnexes": 4025,
      "ĠidÃ©": 4026,
      "Ġirak": 4027,
      "Ġminist": 4028,
      "Ġcouche": 4029,
      "ĠutilisÃ©es": 4030,
      "Ġconsac": 4031,
      "Ġorg": 4032,
      "tenir": 4033,
      "Ġnormalisation": 4034,
      "Ġadul": 4035,
      "Ġverbe": 4036,
      "ĠDanses": 4037,
      "ĠDepuis": 4038,
      "Ġatta": 4039,
      "Ġmaxim": 4040,
      "Ġseuls": 4041,
      "Ġformation": 4042,
      "Ġ2016": 4043,
      "buda": 4044,
      "otep": 4045,
      "ĠmatiÃ¨re": 4046,
      "resses": 4047,
      "Ġpermettant": 4048,
      "Ġportent": 4049,
      "veloppe": 4050,
      "tionnaire": 4051,
      "Ġrencont": 4052,
      "lÃ¨ve": 4053,
      "Ġ1960": 4054,
      "Ġbarbac": 4055,
      "europÃ©": 4056,
      "Ġfaisant": 4057,
      "Ġ1758": 4058,
      "Ġphyt": 4059,
      "Åĵur": 4060,
      "Ġjuger": 4061,
      "ĠthÃ©orÃ¨me": 4062,
      "ĠThom": 4063,
      "Ġhautes": 4064,
      "athor": 4065,
      "Ġincandes": 4066,
      "lemagne": 4067,
      "Ġtriade": 4068,
      "Ġhumains": 4069,
      "ĠrÃ©sul": 4070,
      "ĠsiÃ¨ge": 4071,
      "Ġprobablement": 4072,
      "Ġsavoir": 4073,
      "Ġimportant": 4074,
      "ultats": 4075,
      "ĠassociÃ©": 4076,
      "Ġcentrale": 4077,
      "Ġshogun": 4078,
      "Ġmondial": 4079,
      "Ġmondiale": 4080,
      "ĠBiographie": 4081,
      "Ġressources": 4082,
      "Ġartistique": 4083,
      "ĠconsidÃ©rÃ©": 4084,
      "Ġorigin": 4085,
      "Ġdubplate": 4086,
      "ĠÃ©conomique": 4087,
      "phabet": 4088,
      "Ġ(-)": 4089,
      "ĠFermat": 4090,
      "ĠbretÃ¨che": 4091,
      "Ġhommes": 4092,
      "ĠRoyaume": 4093,
      "ĠFinlande": 4094,
      "Ġlesquels": 4095,
      "Ġchute": 4096,
      "ĠDrumm": 4097,
      "ĠChrysopa": 4098,
      "ĠRÃ©publique": 4099,
      "exemple": 4100,
      "Allemagne": 4101,
      "ernighan": 4102,
      "ĠSoleil": 4103,
      "Ġincandescence": 4104,
      "ĠDrummond": 4105,
      "14": 4106,
      "27": 4107,
      "60": 4108,
      "83": 4109,
      "94": 4110,
      ":=": 4111,
      "AD": 4112,
      "AF": 4113,
      "Norin": 4114,
      "aph": 4115,
      "by": 4116,
      "bilitÃ©": 4117,
      "cli": 4118,
      "dat": 4119,
      "emb": 4120,
      "gae": 4121,
      "hyd": 4122,
      "iy": 4123,
      "iance": 4124,
      "lant": 4125,
      "langer": 4126,
      "ma": 4127,
      "mor": 4128,
      "nant": 4129,
      "odi": 4130,
      "oÃ¹": 4131,
      "pents": 4132,
      "prises": 4133,
      "sa": 4134,
      "sus": 4135,
      "ument": 4136,
      "va": 4137,
      "yo": 4138,
      "áĭ": 4139,
      "Ġdat": 4140,
      "Ġdonn": 4141,
      "onomie": 4142,
      "Ġpol": 4143,
      "Ġpap": 4144,
      "Ġsout": 4145,
      "ister": 4146,
      "ties": 4147,
      "tilis": 4148,
      "tiennent": 4149,
      "armÃ©e": 4150,
      "omÃ¨tre": 4151,
      "urrent": 4152,
      "Ġfine": 4153,
      "ita": 4154,
      "ĠvÃ©r": 4155,
      "Ġvoire": 4156,
      "Ġense": 4157,
      "Ġnatur": 4158,
      "Ġ::=": 4159,
      "ĠLab": 4160,
      "algÃ¨bre": 4161,
      "Ġbe": 4162,
      "Ġboule": 4163,
      "ĠbÃ¢": 4164,
      "Ġbudget": 4165,
      "ĠCl": 4166,
      "ĠCou": 4167,
      "ĠCent": 4168,
      "ĠCas": 4169,
      "ĠAN": 4170,
      "Ġgam": 4171,
      "Ġplut": 4172,
      "Ġplay": 4173,
      "rient": 4174,
      "Ġparle": 4175,
      "Ġparmi": 4176,
      "ĠEDF": 4177,
      "Ġjoie": 4178,
      "sident": 4179,
      "Ġpours": 4180,
      "ĠTur": 4181,
      "Ġcontribu": 4182,
      "Ġconcept": 4183,
      "ĠDun": 4184,
      "ĠÃ©d": 4185,
      "ĠÃ©vi": 4186,
      "Ġrev": 4187,
      "ĠSan": 4188,
      "ĠchrÃ©": 4189,
      "acte": 4190,
      "acti": 4191,
      "ĠBa": 4192,
      "ĠBer": 4193,
      "ĠBien": 4194,
      "ĠBorde": 4195,
      "tertain": 4196,
      "cial": 4197,
      "ĠMal": 4198,
      "endo": 4199,
      "Ġstand": 4200,
      "ĠVille": 4201,
      "ĠJoseph": 4202,
      "ĠOrig": 4203,
      "ama": 4204,
      "ĠrÃ©par": 4205,
      "ĠrÃ©seau": 4206,
      "ĠprotÃ©": 4207,
      "erson": 4208,
      "mos": 4209,
      "image": 4210,
      "Ġcompor": 4211,
      "nies": 4212,
      "nivers": 4213,
      "Ġjeune": 4214,
      "Ġ2019": 4215,
      "Ġantique": 4216,
      "Ã§ois": 4217,
      "ĠprÃ©cÃ©": 4218,
      "Ġappli": 4219,
      "ĠKernighan": 4220,
      "Ġpeuple": 4221,
      "ĠArend": 4222,
      "utilisation": 4223,
      "Ġsystem": 4224,
      "Ġidenti": 4225,
      "ĠphÃ©n": 4226,
      "ington": 4227,
      "obile": 4228,
      "tifs": 4229,
      "Ġserait": 4230,
      "Ġserpents": 4231,
      "Ġentretien": 4232,
      "Ġboulanger": 4233,
      "Ġfinalement": 4234,
      "Ġconsomm": 4235,
      "Ġsuiv": 4236,
      "tenue": 4237,
      "aki": 4238,
      "oncÃ©": 4239,
      "autor": 4240,
      "illon": 4241,
      "illard": 4242,
      "Ġchamps": 4243,
      "Ġvache": 4244,
      "ĠabrÃ©": 4245,
      "fications": 4246,
      "Ġprincipale": 4247,
      "ĠcrÃ©er": 4248,
      "Ġobtenu": 4249,
      "Ġexterne": 4250,
      "ĠMeillet": 4251,
      "culture": 4252,
      "Ġautant": 4253,
      "Ġdoux": 4254,
      "Ġbruit": 4255,
      "Ġcela": 4256,
      "Ġpropos": 4257,
      "tionnel": 4258,
      "Ġ1980": 4259,
      "lÃ¨mes": 4260,
      "ĠsÃ©lection": 4261,
      "ĠgrÃ¢ce": 4262,
      "ĠProduit": 4263,
      "âĶĢâĶĢâĶĢâĶĢâĶĢâĶĢ": 4264,
      "expression": 4265,
      "Ġouvrage": 4266,
      "ramming": 4267,
      "antine": 4268,
      "Ġsuivantes": 4269,
      "2004": 4270,
      "ĠMich": 4271,
      "ussie": 4272,
      "ĠprÃ©sente": 4273,
      "Ġfaible": 4274,
      "Ġphotos": 4275,
      "ĠremplacÃ©": 4276,
      "Ġancienne": 4277,
      "Ġchansons": 4278,
      "Ġmoyen": 4279,
      "Ġlabel": 4280,
      "ĠDuke": 4281,
      "128": 4282,
      "dustri": 4283,
      "ĠAutres": 4284,
      "ĠprotÃ¨ge": 4285,
      "finition": 4286,
      "ĠcontrÃ´le": 4287,
      "Ġrapidement": 4288,
      "Ġlogiciels": 4289,
      "Ġtransforme": 4290,
      "ĠÃītudiant": 4291,
      "rÃ©taire": 4292,
      "Ġcommencer": 4293,
      "Ġdeviennent": 4294,
      "ĠTokyo": 4295,
      "ĠdivinitÃ©s": 4296,
      "Ġapplication": 4297,
      "Ġbands": 4298,
      "Ġhoraires": 4299,
      "ĠProgramming": 4300,
      "estival": 4301,
      "rimoine": 4302,
      "ĠJapan": 4303,
      "vironnement": 4304,
      "ĠBordeaux": 4305,
      "tertainment": 4306,
      "ĠphÃ©nom": 4307,
      "EE": 4308,
      "Haute": 4309,
      "Orient": 4310,
      "cor": 4311,
      "cÃ©e": 4312,
      "don": 4313,
      "del": 4314,
      "empl": 4315,
      "fÃ©": 4316,
      "fiques": 4317,
      "ides": 4318,
      "iÃ¨res": 4319,
      "ks": 4320,
      "mÃ©es": 4321,
      "mente": 4322,
      "mouvement": 4323,
      "och": 4324,
      "oret": 4325,
      "pa": 4326,
      "rÃª": 4327,
      "ty": 4328,
      "tle": 4329,
      "uent": 4330,
      "vation": 4331,
      "yon": 4332,
      "yde": 4333,
      "zy": 4334,
      "zar": 4335,
      "Ġ),": 4336,
      "Ġdoll": 4337,
      "Ġlance": 4338,
      "enf": 4339,
      "once": 4340,
      "Ã©h": 4341,
      "Ġpince": 4342,
      "Ġpoll": 4343,
      "Ġcrois": 4344,
      "Ġsites": 4345,
      "Ġscal": 4346,
      "ancien": 4347,
      "ancÃ©": 4348,
      "anvier": 4349,
      "quet": 4350,
      "tein": 4351,
      "Ġdetend": 4352,
      "Ġdeja": 4353,
      "tiÃ©": 4354,
      "tible": 4355,
      "lephone": 4356,
      "incer": 4357,
      "erain": 4358,
      "Ġmous": 4359,
      "arc": 4360,
      "arme": 4361,
      "Ġlecteur": 4362,
      "organisation": 4363,
      "ĠlaurÃ©at": 4364,
      "ĠthÃ©": 4365,
      "ĠqualitÃ©": 4366,
      "Ġforet": 4367,
      "Ġves": 4368,
      "Ġvit": 4369,
      "Ġvec": 4370,
      "Ġvente": 4371,
      "ĠvallÃ©e": 4372,
      "Ġenvie": 4373,
      "Ġnavi": 4374,
      "ĠLig": 4375,
      "ĠLond": 4376,
      "allÃ©": 4377,
      "Ġbinaire": 4378,
      "ĠCant": 4379,
      "Ġris": 4380,
      "Ġroule": 4381,
      "ĠAka": 4382,
      "Ã¨bes": 4383,
      "rocher": 4384,
      "Ġgagnes": 4385,
      "Ġplac": 4386,
      "ĠPe": 4387,
      "ĠPuis": 4388,
      "ĠEur": 4389,
      "Ġjanvier": 4390,
      "vey": 4391,
      "olo": 4392,
      "ĠTre": 4393,
      "ĠTra": 4394,
      "agas": 4395,
      "aite": 4396,
      "ĠDj": 4397,
      "Ġred": 4398,
      "Ġrepe": 4399,
      "Ġrepar": 4400,
      "Ġreves": 4401,
      "ĠSou": 4402,
      "ĠSci": 4403,
      "ĠSous": 4404,
      "Ġchant": 4405,
      "Ġchanger": 4406,
      "Ġpoints": 4407,
      "ĠBo": 4408,
      "ĠdÃ©termin": 4409,
      "Ġeche": 4410,
      "ĠGal": 4411,
      "ĠGuerre": 4412,
      "ĠMat": 4413,
      "Ġpassent": 4414,
      "Ġindo": 4415,
      "Ġstage": 4416,
      "geance": 4417,
      "Ġtelephone": 4418,
      "ĠJus": 4419,
      "ĠJacques": 4420,
      "ĠhÃ©": 4421,
      "Ġhyd": 4422,
      "Ġhalog": 4423,
      "ĠNil": 4424,
      "ĠRo": 4425,
      "ĠrÃ©d": 4426,
      "ĠFour": 4427,
      "Ġdisque": 4428,
      "Ġdispar": 4429,
      "ouvert": 4430,
      "ouvrir": 4431,
      "Ġcoord": 4432,
      "peau": 4433,
      "pect": 4434,
      "Ã©rant": 4435,
      "Ġmonuments": 4436,
      "eaux": 4437,
      "Ġmob": 4438,
      "Ġmood": 4439,
      "Ġ2023": 4440,
      "ignement": 4441,
      "Ġannivers": 4442,
      "ĠprÃ¨s": 4443,
      "ondre": 4444,
      "Ġexac": 4445,
      "ĠChÃ¢te": 4446,
      "ĠAllemagne": 4447,
      "Ġmere": 4448,
      "Ġraison": 4449,
      "Ġradio": 4450,
      "Ġapporte": 4451,
      "ĠKing": 4452,
      "ĠÃīgypte": 4453,
      "utif": 4454,
      "Ġaller": 4455,
      "ĠalgÃ©": 4456,
      "dÃ©mie": 4457,
      "aye": 4458,
      "Ġpreuve": 4459,
      "Ġpuisque": 4460,
      "Ġjourn": 4461,
      "ĠgÃ©nie": 4462,
      "Ġtermes": 4463,
      "cup": 4464,
      "cule": 4465,
      "Ġserpent": 4466,
      "Ġfinno": 4467,
      "ĠmÃ©c": 4468,
      "Ġordi": 4469,
      "intendo": 4470,
      "mÃ©di": 4471,
      "Ġbasket": 4472,
      "Ġsecteur": 4473,
      "Ġprincipe": 4474,
      "Ġvoisin": 4475,
      "illie": 4476,
      "Ġamharique": 4477,
      "Ġreconn": 4478,
      "Ġclaire": 4479,
      "Ġ1992": 4480,
      "Ġ1993": 4481,
      "Ġcontinues": 4482,
      "Ġregle": 4483,
      "Ġregroupe": 4484,
      "Ġdivis": 4485,
      "Ġtransform": 4486,
      "pson": 4487,
      "Ġ2001": 4488,
      "Ġ2004": 4489,
      "Ġ2009": 4490,
      "Ġconnexions": 4491,
      "tribut": 4492,
      "Ġcalme": 4493,
      "Ġroutine": 4494,
      "esseur": 4495,
      "ĠrÃ©gions": 4496,
      "Ġtaf": 4497,
      "Ġ2013": 4498,
      "Ġaccorde": 4499,
      "Ġmesures": 4500,
      "Ġfile": 4501,
      "Ġfondateur": 4502,
      "Ġblanquette": 4503,
      "Ġbizar": 4504,
      "Ġjoues": 4505,
      "Ġ1988": 4506,
      "appe": 4507,
      "onymie": 4508,
      "ĠPlusieurs": 4509,
      "ĠdÃ©sig": 4510,
      "Ġ1965": 4511,
      "Ġfaisait": 4512,
      "Ġ178": 4513,
      "Ġmilliards": 4514,
      "Ġpile": 4515,
      "Ġaires": 4516,
      "Ġlignes": 4517,
      "Ġinstalle": 4518,
      "Ġscience": 4519,
      "Ġsciences": 4520,
      "asty": 4521,
      "Ġeffec": 4522,
      "ĠÃ©tudi": 4523,
      "Ġzo": 4524,
      "Ġisol": 4525,
      "Ġpouss": 4526,
      "rÃ©viation": 4527,
      "ĠampÃ¨re": 4528,
      "ĠBell": 4529,
      "ĠdÃ©fense": 4530,
      "ĠproblÃ¨mes": 4531,
      "ĠdonnÃ©": 4532,
      "ĠlinÃ©": 4533,
      "system": 4534,
      "Ġsource": 4535,
      "ception": 4536,
      "Ġconseille": 4537,
      "Ġinformatique": 4538,
      "ĠmagnÃ©": 4539,
      "Ġcombat": 4540,
      "Ġcontraire": 4541,
      "Ġcentral": 4542,
      "joue": 4543,
      "Ġspecial": 4544,
      "Ġcuisiner": 4545,
      "Ġusage": 4546,
      "casts": 4547,
      "Ġpromo": 4548,
      "Ġdiverses": 4549,
      "Ġgestion": 4550,
      "ĠlibÃ©rale": 4551,
      "Maritime": 4552,
      "Maritimes": 4553,
      "Ġreligieuse": 4554,
      "Ġstructure": 4555,
      "Ġtraditionn": 4556,
      "existence": 4557,
      "Ġautomne": 4558,
      "strad": 4559,
      "Ġpodcasts": 4560,
      "Ġeclaire": 4561,
      "Ã©optÃ¨res": 4562,
      "rÃ¨ze": 4563,
      "ĠmodÃ¨le": 4564,
      "Ġgratuit": 4565,
      "Ġgrammaire": 4566,
      "ĠDoctrine": 4567,
      "Ġcompromis": 4568,
      "nivores": 4569,
      "Ouest": 4570,
      "Ġdentiste": 4571,
      "ĠGames": 4572,
      "Ġaucun": 4573,
      "ĠGrecs": 4574,
      "khenaton": 4575,
      "ĠAstar": 4576,
      "Ġgriff": 4577,
      "Ġsepte": 4578,
      "digala": 4579,
      "Ġadultes": 4580,
      "ĠThompson": 4581,
      "Ġnaturaliste": 4582,
      "Ġplaylist": 4583,
      "Ġcomportement": 4584,
      "Ġpollen": 4585,
      "Ġscalaire": 4586,
      "ĠalgÃ©b": 4587,
      ".,": 4588,
      "Afrique": 4589,
      "Bar": 4590,
      "NF": 4591,
      "RE": 4592,
      "RÃª": 4593,
      "Saint": 4594,
      "US": 4595,
      "ba": 4596,
      "bet": 4597,
      "berg": 4598,
      "com": 4599,
      "cour": 4600,
      "fre": 4601,
      "gra": 4602,
      "hab": 4603,
      "hÅį": 4604,
      "ixe": 4605,
      "ifi": 4606,
      "lui": 4607,
      "lieu": 4608,
      "men": 4609,
      "olique": 4610,
      "pis": 4611,
      "ptiques": 4612,
      "rest": 4613,
      "ril": 4614,
      "rons": 4615,
      "rlande": 4616,
      "sie": 4617,
      "tan": 4618,
      "tor": 4619,
      "tiste": 4620,
      "vages": 4621,
      "xte": 4622,
      "´ne": 4623,
      "Âł": 4624,
      "Ã«": 4625,
      "Ð¾": 4626,
      "áī": 4627,
      "Ġos": 4628,
      "Ġdais": 4629,
      "Ġdanse": 4630,
      "Ġlent": 4631,
      "Ġlion": 4632,
      "ensif": 4633,
      "enveloppe": 4634,
      "Ã©ti": 4635,
      "Ã©ch": 4636,
      "Ġpel": 4637,
      "ĠpÃ©n": 4638,
      "Ġcit": 4639,
      "Ġsus": 4640,
      "oue": 4641,
      "ouch": 4642,
      "remi": 4643,
      "Ġaler": 4644,
      "Ġaide": 4645,
      "Ġacide": 4646,
      "tice": 4647,
      "ina": 4648,
      "Ġmou": 4649,
      "ĠmÃ¨re": 4650,
      "Ġmass": 4651,
      "arie": 4652,
      "ardi": 4653,
      "oies": 4654,
      "oile": 4655,
      "oivent": 4656,
      "ora": 4657,
      "orb": 4658,
      "orie": 4659,
      "Ġtest": 4660,
      "ura": 4661,
      "uraient": 4662,
      "Ġfou": 4663,
      "Ġfoule": 4664,
      "ĠfÃªte": 4665,
      "itant": 4666,
      "Ġval": 4667,
      "Ġvolu": 4668,
      "usage": 4669,
      "ourg": 4670,
      "astis": 4671,
      "illi": 4672,
      "Ġenre": 4673,
      "ĠLi": 4674,
      "auteur": 4675,
      "ĠCli": 4676,
      "ĠCelle": 4677,
      "mentation": 4678,
      "ĠAtra": 4679,
      "ĠAEC": 4680,
      "ĠApophis": 4681,
      "Ã¨nement": 4682,
      "roÃ¯": 4683,
      "Ġguit": 4684,
      "nements": 4685,
      "ĠPDA": 4686,
      "ĠPaul": 4687,
      "ĠparlÃ©": 4688,
      "ĠEr": 4689,
      "old": 4690,
      "olÃ©": 4691,
      "ĠTV": 4692,
      "Ġconfort": 4693,
      "Ġauteurs": 4694,
      "ĠDom": 4695,
      "ĠDel": 4696,
      "ĠÃ©v": 4697,
      "Ġremet": 4698,
      "Ġremon": 4699,
      "ĠSp": 4700,
      "ĠSie": 4701,
      "ĠSoft": 4702,
      "Ġchan": 4703,
      "Ġpoissons": 4704,
      "ĠBack": 4705,
      "ĠBNF": 4706,
      "ĠdÃ©tr": 4707,
      "ĠdÃ©ta": 4708,
      "ĠdÃ©riv": 4709,
      "ĠGl": 4710,
      "ĠGÃ©": 4711,
      "ĠGir": 4712,
      "Ġindustri": 4713,
      "oth": 4714,
      "ditions": 4715,
      "Ġstra": 4716,
      "ĠVol": 4717,
      "ĠOb": 4718,
      "tÃ©ries": 4719,
      "Ġhors": 4720,
      "ensit": 4721,
      "Ġdiz": 4722,
      "Ġdigit": 4723,
      "oges": 4724,
      "ĠNintendo": 4725,
      "ull": 4726,
      "ulÃ©": 4727,
      "ĠrÃ©c": 4728,
      "ĠrÃ©ser": 4729,
      "Ġproche": 4730,
      "Ġprocess": 4731,
      "ĠFu": 4732,
      "Ġdissous": 4733,
      "ĠmoitiÃ©": 4734,
      "phe": 4735,
      "ortant": 4736,
      "Ġox": 4737,
      "ica": 4738,
      "Ġ2018": 4739,
      "ivalent": 4740,
      "ĠannÃ©e": 4741,
      "ĠnommÃ©": 4742,
      "ĠChac": 4743,
      "ĠChange": 4744,
      "ĠprÃ©c": 4745,
      "ĠprÃ©d": 4746,
      "Ġcarot": 4747,
      "ctotom": 4748,
      "Ġfaits": 4749,
      "ology": 4750,
      "ologues": 4751,
      "ĠEntertainment": 4752,
      "roit": 4753,
      "ĠÃīgyp": 4754,
      "Ġquelque": 4755,
      "Ġparticipe": 4756,
      "Ġkil": 4757,
      "Ġtrai": 4758,
      "Ġtradition": 4759,
      "Ġif": 4760,
      "Ġpeinture": 4761,
      "Ġpermis": 4762,
      "aÃ´ne": 4763,
      "obs": 4764,
      "Ġmars": 4765,
      "Ġtermin": 4766,
      "Ġservant": 4767,
      "Ġcolonne": 4768,
      "ennemi": 4769,
      "Ġboules": 4770,
      "Ġbouillante": 4771,
      "Ġfinal": 4772,
      "Ġfinanci": 4773,
      "Ġ184": 4774,
      "mÃ©n": 4775,
      "dessus": 4776,
      "Ġtitres": 4777,
      "atifs": 4778,
      "Ġ1991": 4779,
      "Ġ1994": 4780,
      "Ġmontant": 4781,
      "Ġreggae": 4782,
      "rammes": 4783,
      "ĠÃītat": 4784,
      "Ġprincipaux": 4785,
      "ĠimpÃ©ri": 4786,
      "venir": 4787,
      "184": 4788,
      "186": 4789,
      "ĠdÃ©partements": 4790,
      "Ġobs": 4791,
      "Ġ6128": 4792,
      "Ġcallig": 4793,
      "Ġconstantes": 4794,
      "Ġtaille": 4795,
      "Ġ2014": 4796,
      "ext": 4797,
      "Ġencod": 4798,
      "Ġautour": 4799,
      "Ġnotre": 4800,
      "Ġ1977": 4801,
      "Ġferme": 4802,
      "ĠfondÃ©e": 4803,
      "Ġcellu": 4804,
      "Ġpropres": 4805,
      "Ġcertain": 4806,
      "mission": 4807,
      "Ġrestaur": 4808,
      "ĠreprÃ©sentant": 4809,
      "ĠreprÃ©sentÃ©e": 4810,
      "tiennes": 4811,
      "Ġmicrobi": 4812,
      "agnie": 4813,
      "Ġfeuilles": 4814,
      "Ġjuge": 4815,
      "alia": 4816,
      "Ġjaponaise": 4817,
      "ĠThÃ¨bes": 4818,
      "Ġpersonnage": 4819,
      "Ã©rieure": 4820,
      "Ġpouvoirs": 4821,
      "ĠBeaujeu": 4822,
      "enregistre": 4823,
      "Ġpoign": 4824,
      "architecture": 4825,
      "Allier": 4826,
      "Ġphysiologie": 4827,
      "Ġriches": 4828,
      "Ġ150": 4829,
      "Ġlettre": 4830,
      "Ġofficielle": 4831,
      "ctivement": 4832,
      "Ġfactions": 4833,
      "Ġpassage": 4834,
      "Ġhumaine": 4835,
      "iration": 4836,
      "Ġdevenu": 4837,
      "...": 4838,
      "Ġmission": 4839,
      "Ġlampes": 4840,
      "Ġtexte": 4841,
      "Ġtextes": 4842,
      "import": 4843,
      "Ġimportante": 4844,
      "Ġmodernes": 4845,
      "ĠprÃ©sence": 4846,
      "Ġfaite": 4847,
      "Ġcombus": 4848,
      "ĠDÃ©finition": 4849,
      "ĠportÃ©": 4850,
      "Ġcinq": 4851,
      "Ġfemme": 4852,
      "ĠGeor": 4853,
      "Ġtroubles": 4854,
      "ĠArmorial": 4855,
      "instru": 4856,
      "ĠcÃ´tÃ©": 4857,
      "ĠCorrÃ¨ze": 4858,
      "ĠcontrÃ´": 4859,
      "Ġvengeance": 4860,
      "Ġdubplates": 4861,
      "ĠsupÃ©rieur": 4862,
      "ĠjamaÃ¯cain": 4863,
      "Ġphilosophe": 4864,
      "Ġreligieuses": 4865,
      "charge": 4866,
      "Ġretrouver": 4867,
      "ĠactivitÃ©": 4868,
      "cadÃ©mie": 4869,
      "ĠpÃ©tro": 4870,
      "modore": 4871,
      "Ġaugmente": 4872,
      "Ġrecherche": 4873,
      "Ġinflu": 4874,
      "Ġdispos": 4875,
      "ymologie": 4876,
      "ĠBurdigala": 4877,
      "Ġenvoie": 4878,
      "Ġbranche": 4879,
      "ĠarmÃ©nienne": 4880,
      "Ġagricole": 4881,
      "ĠSociÃ©tÃ©": 4882,
      "Ġhongrois": 4883,
      "Ġsouhaite": 4884,
      "ĠbÃ©nÃ©factif": 4885,
      "ä¸Ģ": 4886,
      "alyse": 4887,
      "Ġbesoin": 4888,
      "ĠdÃ©couverte": 4889,
      "ĠparticuliÃ¨rement": 4890,
      "Ġrespecter": 4891,
      "ĠrÃ©sultat": 4892,
      "AFUL": 4893,
      "Ġstandard": 4894,
      "ĠArendt": 4895,
      "ĠdaishÅį": 4896,
      "Ġvolume": 4897,
      "ĠAtractotom": 4898,
      "Ġremonte": 4899,
      "Ġprocessus": 4900,
      "Ġmicrobiologiste": 4901,
      "ĠAtractotomus": 4902,
      "%\"": 4903,
      "AcadÃ©mie": 4904,
      "Bas": 4905,
      "CO": 4906,
      "SP": 4907,
      "SS": 4908,
      "cussi": 4909,
      "daille": 4910,
      "for": 4911,
      "gie": 4912,
      "grÃ©": 4913,
      "het": 4914,
      "hom": 4915,
      "ip": 4916,
      "iant": 4917,
      "je": 4918,
      "lar": 4919,
      "lation": 4920,
      "lÃ©e": 4921,
      "lore": 4922,
      "menti": 4923,
      "na": 4924,
      "nait": 4925,
      "oti": 4926,
      "prend": 4927,
      "tour": 4928,
      "tation": 4929,
      "uels": 4930,
      "vres": 4931,
      "ws": 4932,
      "ya": 4933,
      "Ê¼": 4934,
      "á¸": 4935,
      "Ġ]": 4936,
      "Ġ{": 4937,
      "ĠÅĵuvre": 4938,
      "Ġdyn": 4939,
      "ensi": 4940,
      "onni": 4941,
      "Ã©rop": 4942,
      "Ġpai": 4943,
      "Ġpion": 4944,
      "Ġpoum": 4945,
      "Ġcelles": 4946,
      "Ġsels": 4947,
      "anasty": 4948,
      "ougri": 4949,
      "teau": 4950,
      "Ġaim": 4951,
      "Ġdel": 4952,
      "timent": 4953,
      "tilles": 4954,
      "ini": 4955,
      "inv": 4956,
      "erie": 4957,
      "Ġmas": 4958,
      "Ġmasse": 4959,
      "Ġmira": 4960,
      "ĠmÃªmes": 4961,
      "enth": 4962,
      "unt": 4963,
      "unitÃ©s": 4964,
      "arder": 4965,
      "arts": 4966,
      "article": 4967,
      "Ġlac": 4968,
      "Ġlaisse": 4969,
      "omor": 4970,
      "Ġtaux": 4971,
      "Ġqueu": 4972,
      "urant": 4973,
      "Ġfun": 4974,
      "Ġfol": 4975,
      "Ġvs": 4976,
      "Ġvon": 4977,
      "Ġvue": 4978,
      "Ġvaut": 4979,
      "usant": 4980,
      "asi": 4981,
      "ashi": 4982,
      "ilm": 4983,
      "ĠnÃ©g": 4984,
      "ĠLoire": 4985,
      "alarme": 4986,
      "Ġbille": 4987,
      "ĠCPC": 4988,
      "Ġrue": 4989,
      "Ġrob": 4990,
      "Ġrock": 4991,
      "ĠAme": 4992,
      "anthrop": 4993,
      "Ġ()": 4994,
      "chÃ©e": 4995,
      "chers": 4996,
      "chlor": 4997,
      "chitecture": 4998,
      "chauff": 4999,
      "licules": 5000,
      "Ã¨ce": 5001,
      "euter": 5002,
      "mpunctata": 5003,
      "rose": 5004,
      "Ġgui": 5005,
      "Ġglisse": 5006,
      "rite": 5007,
      "ĠPC": 5008,
      "ĠPÃ©ri": 5009,
      "ĠPlan": 5010,
      "ĠPeter": 5011,
      "ĠPremi": 5012,
      "olf": 5013,
      "ĠTa": 5014,
      "ĠTit": 5015,
      "ĠTell": 5016,
      "ĠDan": 5017,
      "ĠDic": 5018,
      "ĠÃ©vent": 5019,
      "Ġreb": 5020,
      "Ġrede": 5021,
      "ĠSk": 5022,
      "ĠSes": 5023,
      "ĠStu": 5024,
      "ĠSab": 5025,
      "ĠSaÃ´ne": 5026,
      "deurs": 5027,
      "actions": 5028,
      "ĠBour": 5029,
      "ĠBri": 5030,
      "ĠBak": 5031,
      "ters": 5032,
      "terre": 5033,
      "citer": 5034,
      "rÃ©d": 5035,
      "Ġouver": 5036,
      "ĠdÃ©v": 5037,
      "ĠGenre": 5038,
      "Ġsemi": 5039,
      "ota": 5040,
      "ott": 5041,
      "geon": 5042,
      "ĠNom": 5043,
      "ĠNagas": 5044,
      "ĠRou": 5045,
      "ĠRet": 5046,
      "ĠRussie": 5047,
      "ami": 5048,
      "ĠrÃ©si": 5049,
      "andait": 5050,
      "ĠWeb": 5051,
      "Ġ28": 5052,
      "moins": 5053,
      "uise": 5054,
      "ĠHa": 5055,
      "ĠHen": 5056,
      "ĠHer": 5057,
      "ĠHall": 5058,
      "ĠHathor": 5059,
      "abri": 5060,
      "ĠFor": 5061,
      "Ġ192": 5062,
      "illeurs": 5063,
      "phasy": 5064,
      "vile": 5065,
      "ick": 5066,
      "Ġtrouver": 5067,
      "lisme": 5068,
      "igner": 5069,
      "Ġanc": 5070,
      "Ġpris": 5071,
      "Ġprince": 5072,
      "Ġproies": 5073,
      "Ã§ant": 5074,
      "ĠCher": 5075,
      "ĠChine": 5076,
      "ĠChris": 5077,
      "Ġmeur": 5078,
      "ĠprÃ©position": 5079,
      "Ġcarb": 5080,
      "ctures": 5081,
      "Ġavance": 5082,
      "Ġconcentre": 5083,
      "Ġsujet": 5084,
      "Ġneige": 5085,
      "ĠKen": 5086,
      "insule": 5087,
      "ĠFrancis": 5088,
      "ardin": 5089,
      "ĠUr": 5090,
      "Ġaltern": 5091,
      "Ġforces": 5092,
      "Ġcourbe": 5093,
      "Ġsoft": 5094,
      "Ġpenser": 5095,
      "Ġresp": 5096,
      "ĠAntigua": 5097,
      "Ġphr": 5098,
      "rits": 5099,
      "Ġperd": 5100,
      "Ġdirections": 5101,
      "heur": 5102,
      "head": 5103,
      "roup": 5104,
      "Ġcouches": 5105,
      "ĠpremiÃ¨res": 5106,
      "Ġcollabor": 5107,
      "ligne": 5108,
      "mÃ©nie": 5109,
      "Ġsecret": 5110,
      "Ġtire": 5111,
      "Ġpetites": 5112,
      "Ġclash": 5113,
      "Ġmilitaires": 5114,
      "Ġpresse": 5115,
      "Ġpresser": 5116,
      "idth": 5117,
      "187": 5118,
      "ĠRÃ©gion": 5119,
      "Ã©tait": 5120,
      "ĠRed": 5121,
      "Ġobjets": 5122,
      "ennui": 5123,
      "Ġ64": 5124,
      "tivement": 5125,
      "Ġformules": 5126,
      "Ġ2010": 5127,
      "Ġ2015": 5128,
      "Ġ2017": 5129,
      "Ġsigle": 5130,
      "Ġ1973": 5131,
      "Ã©nieur": 5132,
      "Ġdouce": 5133,
      "Ġpermettre": 5134,
      "Ġtravaille": 5135,
      "ĠdÃ©finir": 5136,
      "Ġportant": 5137,
      "clam": 5138,
      "Ġconnue": 5139,
      "ĠappelÃ©s": 5140,
      "Ġassi": 5141,
      "Ġ1985": 5142,
      "Ġvieilles": 5143,
      "ĠliÃ©e": 5144,
      "Ã©liopolis": 5145,
      "ĠCarl": 5146,
      "Ġprotectrice": 5147,
      "Ġapparait": 5148,
      "ĠderniÃ¨res": 5149,
      "Ġpleine": 5150,
      "Ġfrom": 5151,
      "Ġcapitales": 5152,
      "Ġlarves": 5153,
      "ĠfÃ©min": 5154,
      "guent": 5155,
      "Ġjumeaux": 5156,
      "Ġdomaines": 5157,
      "Ġwidth": 5158,
      "Ġfame": 5159,
      "ĠrÃ©gionales": 5160,
      "Ã©nÃ©ra": 5161,
      "Ġrelie": 5162,
      "ĠrÃ©pand": 5163,
      "Ġroyale": 5164,
      "Ġissu": 5165,
      "ilber": 5166,
      "Ġsemaine": 5167,
      "ĠcaractÃ¨res": 5168,
      "Ġcrash": 5169,
      "ĠspÃ©cifique": 5170,
      "ĠStand": 5171,
      "ĠpassÃ©": 5172,
      "Ġproducteurs": 5173,
      "Ġcommerce": 5174,
      "Ġinstitu": 5175,
      "ĠAndrÃ©": 5176,
      "ĠAnderson": 5177,
      "ĠprÃ©sidenti": 5178,
      "Ġmises": 5179,
      "Ġdoctrine": 5180,
      "ĠsociÃ©tÃ©s": 5181,
      "Ġlitre": 5182,
      "ĠCommunautÃ©": 5183,
      "symb": 5184,
      "Ġanthrop": 5185,
      "Ġurbaine": 5186,
      "ĠlimitÃ©": 5187,
      "ĠcinÃ©ma": 5188,
      "Ġtechnologie": 5189,
      "Ġremplacer": 5190,
      "Ġcivile": 5191,
      "Ġretour": 5192,
      "ĠÃ©pouse": 5193,
      "ĠGeertz": 5194,
      "âĢ¦)": 5195,
      "ĠpubliÃ©": 5196,
      "ĠExemple": 5197,
      "Ġmoyenne": 5198,
      "ĠlibertÃ©s": 5199,
      "tellig": 5200,
      "Ġinvente": 5201,
      "Ã©lectricitÃ©": 5202,
      "Ġrusses": 5203,
      "Ġprotoc": 5204,
      "ĠSeconde": 5205,
      "ĠabrÃ©viation": 5206,
      "ĠabrÃ©viations": 5207,
      "ĠBabylone": 5208,
      "ĠreÃ§u": 5209,
      "ĠreÃ§oit": 5210,
      "Ġparticipation": 5211,
      "Ġlogiciel": 5212,
      "ĠLinnaeus": 5213,
      "Ġgeste": 5214,
      "Ġgraphique": 5215,
      "Ã©criture": 5216,
      "ĠfÃ©dÃ©ral": 5217,
      "ĠAdalia": 5218,
      "Ġtendance": 5219,
      "Ġretrouv": 5220,
      "ĠpÃ©trole": 5221,
      "Ġbeffrois": 5222,
      "Ġaurait": 5223,
      "ĠGrand": 5224,
      "Ġmusicale": 5225,
      "ĠPierre": 5226,
      "ĠSteve": 5227,
      "Ġcampagne": 5228,
      "Ġlongueur": 5229,
      "stitut": 5230,
      "ĠTechnology": 5231,
      "ĠÃ®le": 5232,
      "Ġdistribution": 5233,
      "llabaire": 5234,
      "enhotep": 5235,
      "Ġcontexte": 5236,
      "Ġhistoriques": 5237,
      "ĠRomains": 5238,
      "ĠRobert": 5239,
      "ĠHautes": 5240,
      "Ġinstrument": 5241,
      "Ġmassif": 5242,
      "Ġroches": 5243,
      "ĠAssociation": 5244,
      "Ġgagner": 5245,
      "Ġpuissance": 5246,
      "Ġáį¡": 5247,
      "Ġmessage": 5248,
      "ĠÃ©trang": 5249,
      "Ġpapier": 5250,
      "Ġdollars": 5251,
      "veyron": 5252,
      "ĠmagnÃ©tique": 5253,
      "Ġpellicules": 5254,
      "Ġguitare": 5255,
      "ĠstratÃ©g": 5256,
      "ĠprÃ©dateurs": 5257,
      "ĠÃīgyptiens": 5258,
      "Ġcombustible": 5259,
      "Ġpaix": 5260,
      "Ġpoumons": 5261,
      "anastylose": 5262,
      "Ġqueue": 5263,
      "ĠNagasaki": 5264,
      "phasyllabaire": 5265,
      "''": 5266,
      "36": 5267,
      "Aveyron": 5268,
      "Calais": 5269,
      "Eure": 5270,
      "Hor": 5271,
      "HÃ©liopolis": 5272,
      "Lin": 5273,
      "Osiris": 5274,
      "col": 5275,
      "cla": 5276,
      "comme": 5277,
      "ceton": 5278,
      "die": 5279,
      "dont": 5280,
      "dge": 5281,
      "dam": 5282,
      "dote": 5283,
      "ef": 5284,
      "fond": 5285,
      "forme": 5286,
      "hu": 5287,
      "his": 5288,
      "ition": 5289,
      "jus": 5290,
      "lue": 5291,
      "lÃ¨me": 5292,
      "mique": 5293,
      "mons": 5294,
      "net": 5295,
      "not": 5296,
      "ovi": 5297,
      "pro": 5298,
      "prÃ¨s": 5299,
      "ponyme": 5300,
      "rissent": 5301,
      "set": 5302,
      "sons": 5303,
      "truction": 5304,
      "up": 5305,
      "uie": 5306,
      "uli": 5307,
      "vin": 5308,
      "vous": 5309,
      "vad": 5310,
      "xique": 5311,
      "xion": 5312,
      "ysi": 5313,
      "Ã¼": 5314,
      "ÃŃ": 5315,
      "Å«": 5316,
      "Ðµ": 5317,
      "à¦": 5318,
      "áĬ": 5319,
      "Ġx": 5320,
      "Ġ}": 5321,
      "Ġital": 5322,
      "Ġdatif": 5323,
      "Ġdensit": 5324,
      "Ġly": 5325,
      "ĠlancÃ©": 5326,
      "oniste": 5327,
      "onext": 5328,
      "Ã©tiques": 5329,
      "Ġpan": 5330,
      "Ġpoule": 5331,
      "Ġpig": 5332,
      "Ġpareil": 5333,
      "Ġcm": 5334,
      "Ġcoi": 5335,
      "Ġclo": 5336,
      "Ġcouverture": 5337,
      "ĠcÅĵur": 5338,
      "Ġsil": 5339,
      "Ġsait": 5340,
      "Ġsert": 5341,
      "Ġsentir": 5342,
      "Ġsorte": 5343,
      "Ġstim": 5344,
      "aniste": 5345,
      "anmoins": 5346,
      "ouk": 5347,
      "quis": 5348,
      "quets": 5349,
      "iser": 5350,
      "isne": 5351,
      "ĠaÃ©ri": 5352,
      "Ġactions": 5353,
      "Ġailes": 5354,
      "Ġailleurs": 5355,
      "lex": 5356,
      "lete": 5357,
      "lets": 5358,
      "inet": 5359,
      "inures": 5360,
      "inateur": 5361,
      "intÃ©rieur": 5362,
      "erne": 5363,
      "Ġmie": 5364,
      "Ġmare": 5365,
      "ung": 5366,
      "unissent": 5367,
      "ary": 5368,
      "arra": 5369,
      "arine": 5370,
      "aritÃ©": 5371,
      "Ġlecture": 5372,
      "orant": 5373,
      "omans": 5374,
      "Ġtro": 5375,
      "Ġtox": 5376,
      "ury": 5377,
      "ural": 5378,
      "Ġvel": 5379,
      "Ġvont": 5380,
      "Ġvise": 5381,
      "Ġvalent": 5382,
      "ustra": 5383,
      "asure": 5384,
      "asard": 5385,
      "illis": 5386,
      "Ġeng": 5387,
      "Ġenzy": 5388,
      "Ġnage": 5389,
      "Ġnaissent": 5390,
      "elous": 5391,
      "ĠLoi": 5392,
      "ĠLos": 5393,
      "ĠLune": 5394,
      "ĠLiv": 5395,
      "allis": 5396,
      "alphabet": 5397,
      "Ġboire": 5398,
      "ĠCont": 5399,
      "ĠCap": 5400,
      "Ġrang": 5401,
      "ĠAt": 5402,
      "ĠAth": 5403,
      "ĠAkhenaton": 5404,
      "Ã¨tes": 5405,
      "mpoule": 5406,
      "rot": 5407,
      "Ġgou": 5408,
      "Ġger": 5409,
      "rich": 5410,
      "riÃ¨me": 5411,
      "ĠPan": 5412,
      "ĠPal": 5413,
      "ĠPÃ©r": 5414,
      "ĠPublic": 5415,
      "ĠPoli": 5416,
      "aisons": 5417,
      "ĠTant": 5418,
      "ĠTrop": 5419,
      "Ġconj": 5420,
      "atal": 5421,
      "atmos": 5422,
      "aile": 5423,
      "aident": 5424,
      "aimant": 5425,
      "ĠDire": 5426,
      "ĠDieu": 5427,
      "ĠÃ©volu": 5428,
      "ĠSim": 5429,
      "Ġcham": 5430,
      "Ġchair": 5431,
      "Ġchiens": 5432,
      "acent": 5433,
      "Ġposi": 5434,
      "ĠBro": 5435,
      "ĠBoy": 5436,
      "ciation": 5437,
      "leste": 5438,
      "ĠdÃ©bu": 5439,
      "Ġegyp": 5440,
      "Ġempereur": 5441,
      "ĠMer": 5442,
      "ĠMel": 5443,
      "ĠMac": 5444,
      "ĠMoul": 5445,
      "ĠMaur": 5446,
      "Ġcab": 5447,
      "ĠcafÃ©": 5448,
      "ĠISO": 5449,
      "ĠintÃ©r": 5450,
      "Ġinfini": 5451,
      "otro": 5452,
      "dique": 5453,
      "difier": 5454,
      "didat": 5455,
      "endrier": 5456,
      "ĠVi": 5457,
      "Ġteam": 5458,
      "Ġtemples": 5459,
      "ĠOne": 5460,
      "Ġhar": 5461,
      "ĠhÃ©ri": 5462,
      "Ġhertz": 5463,
      "Ġhasard": 5464,
      "Ġdiver": 5465,
      "Ġdiront": 5466,
      "ĠNation": 5467,
      "amine": 5468,
      "amharique": 5469,
      "ainte": 5470,
      "ulsion": 5471,
      "ĠrÃ©el": 5472,
      "ĠrÃ©gn": 5473,
      "ĠrÃ©action": 5474,
      "Ġprojet": 5475,
      "Ġviend": 5476,
      "Ġvienn": 5477,
      "Ġvigne": 5478,
      "Ġviennent": 5479,
      "ĠWiles": 5480,
      "Ġ23": 5481,
      "ĠHom": 5482,
      "ĠHal": 5483,
      "abilitÃ©": 5484,
      "ablatif": 5485,
      "ĠFestival": 5486,
      "Ġdisait": 5487,
      "Ġcoali": 5488,
      "illerait": 5489,
      "Ġcompati": 5490,
      "ĠcomplÃ©ment": 5491,
      "Ġcommande": 5492,
      "orth": 5493,
      "osÃ©": 5494,
      "osÃ©e": 5495,
      "umiÃ¨res": 5496,
      "ics": 5497,
      "icain": 5498,
      "Ġmonter": 5499,
      "nitif": 5500,
      "ston": 5501,
      "irs": 5502,
      "Ġ2021": 5503,
      "Ġsonne": 5504,
      "ondit": 5505,
      "Ġexist": 5506,
      "Ġextra": 5507,
      "Ġextension": 5508,
      "Ġarbres": 5509,
      "Ġarrose": 5510,
      "Ġmembre": 5511,
      "ĠcarÃ©li": 5512,
      "Ġcarton": 5513,
      "Ġavril": 5514,
      "ĠEnfin": 5515,
      "Ġradi": 5516,
      "Ġrainures": 5517,
      "oyaute": 5518,
      "ĠÃīponyme": 5519,
      "ĠFranÃ§ais": 5520,
      "ĠimmÃ©di": 5521,
      "ĠÃ©thi": 5522,
      "Ġcommunication": 5523,
      "entit": 5524,
      "Ġquelqu": 5525,
      "ardes": 5526,
      "ardant": 5527,
      "192": 5528,
      "isson": 5529,
      "Ġparties": 5530,
      "Ġkit": 5531,
      "Ġtraduit": 5532,
      "oda": 5533,
      "ube": 5534,
      "ubie": 5535,
      "oreilles": 5536,
      "Ġpuisqu": 5537,
      "Ġressemble": 5538,
      "Ġressembl": 5539,
      "ritant": 5540,
      "ĠgÃ©nitif": 5541,
      "Ġminor": 5542,
      "Ġminim": 5543,
      "obe": 5544,
      "objet": 5545,
      "Ġcoups": 5546,
      "Ġcouteau": 5547,
      "Ġseront": 5548,
      "ommÃ©": 5549,
      "accom": 5550,
      "accro": 5551,
      "Ġmettent": 5552,
      "ĠmÃ©daille": 5553,
      "Ġtoucher": 5554,
      "raphie": 5555,
      "Ġ180": 5556,
      "intensitÃ©": 5557,
      "Ġsouverain": 5558,
      "Ġbases": 5559,
      "Ġsuivi": 5560,
      "alistes": 5561,
      "Ġadap": 5562,
      "Ġtige": 5563,
      "Ġtirent": 5564,
      "Ġtiennent": 5565,
      "Ġversions": 5566,
      "illant": 5567,
      "Ġrecomp": 5568,
      "Ġclin": 5569,
      "Ġclair": 5570,
      "Ġclass": 5571,
      "mettre": 5572,
      "Ã©conomie": 5573,
      "Ã©cutif": 5574,
      "Ġmontrer": 5575,
      "Ġmontagnes": 5576,
      "Ġcontinu": 5577,
      "Ġregarder": 5578,
      "ĠgÃ©nÃ©ralis": 5579,
      "icien": 5580,
      "ĠDep": 5581,
      "ĠDevant": 5582,
      "ĠdÃ©clin": 5583,
      "Ġvaches": 5584,
      "Ġlumine": 5585,
      "ĠlumiÃ¨re": 5586,
      "Ġattest": 5587,
      "Ġatomiques": 5588,
      "Ġabs": 5589,
      "ĠAmenhotep": 5590,
      "ĠmusÃ©e": 5591,
      "Ġtourner": 5592,
      "Ġfilament": 5593,
      "Ġ2006": 5594,
      "Ã©tend": 5595,
      "Ġcapte": 5596,
      "Ġcalmer": 5597,
      "ĠformÃ©": 5598,
      "Ġformule": 5599,
      "Ġpaysage": 5600,
      "Ġ2012": 5601,
      "Ġassure": 5602,
      "Ġassistant": 5603,
      "extension": 5604,
      "Ġgazeux": 5605,
      "Ġáĭ": 5606,
      "fiÃ©": 5607,
      "ĠColon": 5608,
      "resser": 5609,
      "Ġauto": 5610,
      "Ġnotation": 5611,
      "Ġ1975": 5612,
      "ĠQuÃ©b": 5613,
      "Ġbrillerait": 5614,
      "avor": 5615,
      "Ġfondament": 5616,
      "Ġtravailleurs": 5617,
      "Ġ45": 5618,
      "ĠdÃ©finit": 5619,
      "Ġinternationales": 5620,
      "Ġblanches": 5621,
      "Ġreligions": 5622,
      "Ġexemples": 5623,
      "ophy": 5624,
      "Ġjoueur": 5625,
      "enseignement": 5626,
      "Ġpatrimoine": 5627,
      "Ġrende": 5628,
      "ĠamÃ©ricaine": 5629,
      "visibles": 5630,
      "appar": 5631,
      "cerons": 5632,
      "luent": 5633,
      "tivitÃ©": 5634,
      "Ġbanque": 5635,
      "Ġ1969": 5636,
      "Ġprends": 5637,
      "Ġderniers": 5638,
      "177": 5639,
      "Ġmerci": 5640,
      "Ġangle": 5641,
      "ĠÃ©lectriques": 5642,
      "oxyde": 5643,
      "Ġpleines": 5644,
      "Ġmilliard": 5645,
      "Ġlarmes": 5646,
      "Antigua": 5647,
      "Ġouvrages": 5648,
      "Ġaiment": 5649,
      "Ġchiffre": 5650,
      "Ġsignifi": 5651,
      "Ġlign": 5652,
      "Ġpersonnels": 5653,
      "Ġsecondaire": 5654,
      "Ġclassification": 5655,
      "ĠAssez": 5656,
      "athon": 5657,
      "athlon": 5658,
      "ĠcomposÃ©s": 5659,
      "Ġentoure": 5660,
      "Ġgoutte": 5661,
      "2001": 5662,
      "mpereurs": 5663,
      "toine": 5664,
      "Ġmalheur": 5665,
      "Ġrivi": 5666,
      "Ġessuy": 5667,
      "Ġindivi": 5668,
      "Ġdistingue": 5669,
      "ĠLangues": 5670,
      "Ġconsid": 5671,
      "Ġsymboles": 5672,
      "Ġofficiellement": 5673,
      "ĠrÃ©sultats": 5674,
      "ĠdÃ©mocraties": 5675,
      "ĠCommodore": 5676,
      "ĠIsis": 5677,
      "ĠIsle": 5678,
      "Ġtextures": 5679,
      "ashington": 5680,
      "Ġgrecque": 5681,
      "Ġconstruire": 5682,
      "Ġchacune": 5683,
      "Ġmagas": 5684,
      "ratoire": 5685,
      "Ġorganismes": 5686,
      "Ġorganisations": 5687,
      "ĠcÃ©leste": 5688,
      "ĠquatriÃ¨me": 5689,
      "ĠnumÃ©rique": 5690,
      "Ġcontraintes": 5691,
      "ĠdÃ©pend": 5692,
      "Ġfabri": 5693,
      "Ġtroupeau": 5694,
      "Ġtransport": 5695,
      "Ġtransporter": 5696,
      "FranÃ§ois": 5697,
      "dustrie": 5698,
      "Ġavion": 5699,
      "Ġmorceaux": 5700,
      "Ġrusse": 5701,
      "Ġvictoires": 5702,
      "ĠSecrÃ©taire": 5703,
      "ockey": 5704,
      "Ġoreille": 5705,
      "ĠmÃ©diÃ©v": 5706,
      "ĠCommon": 5707,
      "ĠÃ©ditions": 5708,
      "ĠÃ©diteurs": 5709,
      "Ġexprimant": 5710,
      "ĠjamaÃ¯caine": 5711,
      "ĠfÃ©dÃ©rale": 5712,
      "Ġsortent": 5713,
      "ĠPerse": 5714,
      "ĠJamais": 5715,
      "ĠÃītudes": 5716,
      "ĠactivitÃ©s": 5717,
      "existent": 5718,
      "Ġeucli": 5719,
      "Ġbeffroi": 5720,
      "Ġcomparer": 5721,
      "ĠUnix": 5722,
      "Ġrecherches": 5723,
      "ĠtempÃ©ra": 5724,
      "ĠEdison": 5725,
      "Ġcristaux": 5726,
      "ĠeuropÃ©enne": 5727,
      "Ġtransparents": 5728,
      "Ġoignon": 5729,
      "Ġboites": 5730,
      "ĠTrojan": 5731,
      "positions": 5732,
      "ĠnÃ©cessaire": 5733,
      "ĠPrinceton": 5734,
      "ĠExpress": 5735,
      "Ġstockage": 5736,
      "Ġnaturellement": 5737,
      "Ġambiance": 5738,
      "Ġjeunesse": 5739,
      "Ġexclusi": 5740,
      "ĠexpÃ©riment": 5741,
      "Ġimpossible": 5742,
      "ĠcÃ©lÃ¨bre": 5743,
      "Ġultra": 5744,
      "aigre": 5745,
      "Ġrevenus": 5746,
      "Ġconcernant": 5747,
      "Ġsolide": 5748,
      "Ġmaximal": 5749,
      "ĠCoupe": 5750,
      "ĠplutÃ´t": 5751,
      "ĠDungeon": 5752,
      "ĠprotÃ©ger": 5753,
      "ĠphÃ©nomÃ¨ne": 5754,
      "ĠKingston": 5755,
      "ĠlinÃ©aire": 5756,
      "Ġspecials": 5757,
      "Ġpromotion": 5758,
      "Ġseptembre": 5759,
      "ĠalgÃ©briques": 5760,
      "Ð¾Ð": 5761,
      "ĠpÃ©ninsule": 5762,
      "Ġalerte": 5763,
      "ĠBackus": 5764,
      "ĠChacun": 5765,
      "Ġcarottes": 5766,
      "Ġtraitement": 5767,
      "Ġobscur": 5768,
      "Ġencodage": 5769,
      "Ġrichesse": 5770,
      "mentier": 5771,
      "ougriennes": 5772,
      "Ġmiracle": 5773,
      "Ġfromage": 5774,
      "Ġfameux": 5775,
      "Ġcoiff": 5776,
      "Ġstimule": 5777,
      "Ġenzymes": 5778,
      "ĠPÃ©rou": 5779,
      "Ġviennois": 5780,
      "Ġcoalition": 5781,
      "ĠQuÃ©bec": 5782,
      "55": 5783,
      "56": 5784,
      "57": 5785,
      "AC": 5786,
      "Amon": 5787,
      "Aisne": 5788,
      "Char": 5789,
      "Ie": 5790,
      "Sp": 5791,
      "Tut": 5792,
      "VAN": 5793,
      "bo": 5794,
      "bert": 5795,
      "boussoles": 5796,
      "cisse": 5797,
      "cast": 5798,
      "canisme": 5799,
      "dal": 5800,
      "dence": 5801,
      "donn": 5802,
      "emo": 5803,
      "eÃ¯": 5804,
      "emment": 5805,
      "fere": 5806,
      "guer": 5807,
      "glace": 5808,
      "hs": 5809,
      "histoires": 5810,
      "heure": 5811,
      "ires": 5812,
      "iform": 5813,
      "ift": 5814,
      "ld": 5815,
      "loi": 5816,
      "line": 5817,
      "ling": 5818,
      "lagement": 5819,
      "mm": 5820,
      "mÃ©s": 5821,
      "morce": 5822,
      "monner": 5823,
      "nerre": 5824,
      "ov": 5825,
      "oing": 5826,
      "oeil": 5827,
      "pais": 5828,
      "podes": 5829,
      "prix": 5830,
      "rure": 5831,
      "rures": 5832,
      "rint": 5833,
      "riere": 5834,
      "sp": 5835,
      "sin": 5836,
      "tait": 5837,
      "ttes": 5838,
      "tah": 5839,
      "torat": 5840,
      "uilles": 5841,
      "ufu": 5842,
      "vac": 5843,
      "vieux": 5844,
      "vaisse": 5845,
      "we": 5846,
      "wn": 5847,
      "wan": 5848,
      "way": 5849,
      "yer": 5850,
      "yaux": 5851,
      "zan": 5852,
      "Ã¥": 5853,
      "Ã¦": 5854,
      "Äģ": 5855,
      "Å¡": 5856,
      "ÉĽ": 5857,
      "ĠâĶĢ": 5858,
      "Ġdot": 5859,
      "Ġdors": 5860,
      "Ġdop": 5861,
      "Ġdore": 5862,
      "Ġdormir": 5863,
      "Ġdresser": 5864,
      "Ġlieux": 5865,
      "Ġloyaute": 5866,
      "ende": 5867,
      "encre": 5868,
      "onien": 5869,
      "onciation": 5870,
      "Ã©cu": 5871,
      "Ġpal": 5872,
      "Ġpeux": 5873,
      "ĠpÃ©r": 5874,
      "Ġpret": 5875,
      "Ġpanique": 5876,
      "Ġpull": 5877,
      "Ġcle": 5878,
      "Ġcog": 5879,
      "ĠcitÃ©": 5880,
      "Ġclan": 5881,
      "Ġcris": 5882,
      "Ġste": 5883,
      "Ġsoi": 5884,
      "Ġsie": 5885,
      "Ġsois": 5886,
      "Ġsors": 5887,
      "Ġsombre": 5888,
      "Ġsamour": 5889,
      "Ġsocie": 5890,
      "ĠsÊ¼": 5891,
      "ouy": 5892,
      "quie": 5893,
      "rement": 5894,
      "reintes": 5895,
      "isÃ©": 5896,
      "teille": 5897,
      "tecte": 5898,
      "temis": 5899,
      "Ġait": 5900,
      "Ġage": 5901,
      "Ġaction": 5902,
      "Ġaligne": 5903,
      "Ġdelic": 5904,
      "Ġdecl": 5905,
      "Ġdetest": 5906,
      "Ġdemarrage": 5907,
      "Ġdechet": 5908,
      "Ġdetecte": 5909,
      "titres": 5910,
      "tiere": 5911,
      "lebre": 5912,
      "ino": 5913,
      "inte": 5914,
      "incl": 5915,
      "indo": 5916,
      "inaison": 5917,
      "invisibles": 5918,
      "era": 5919,
      "eraux": 5920,
      "erature": 5921,
      "erfs": 5922,
      "Ġmand": 5923,
      "ĠmÃ¢": 5924,
      "Ġmuc": 5925,
      "ĠmaÃ®tre": 5926,
      "ety": 5927,
      "etes": 5928,
      "etre": 5929,
      "etait": 5930,
      "etend": 5931,
      "etoile": 5932,
      "arm": 5933,
      "aris": 5934,
      "Ġleves": 5935,
      "orange": 5936,
      "Ġlachent": 5937,
      "Ġlavages": 5938,
      "Ġtoges": 5939,
      "Ġquin": 5940,
      "Ġquant": 5941,
      "Ġquasi": 5942,
      "uritÃ©": 5943,
      "urite": 5944,
      "urÃ©lien": 5945,
      "Ġfel": 5946,
      "Ġfoy": 5947,
      "Ġfiss": 5948,
      "Ġflo": 5949,
      "Ġfume": 5950,
      "Ġfarine": 5951,
      "Ġfetes": 5952,
      "ity": 5953,
      "itaient": 5954,
      "Ġvu": 5955,
      "Ġetes": 5956,
      "Ġetres": 5957,
      "Ġetait": 5958,
      "Ġetale": 5959,
      "Ġetaient": 5960,
      "usse": 5961,
      "Ġuniques": 5962,
      "Ġuniquement": 5963,
      "asme": 5964,
      "Ġenne": 5965,
      "Ġenergie": 5966,
      "Ġdesam": 5967,
      "Ġdeshyd": 5968,
      "Ġnoires": 5969,
      "Ġnuage": 5970,
      "Ġnerfs": 5971,
      "rader": 5972,
      "rachent": 5973,
      "med": 5974,
      "ĠLit": 5975,
      "ĠLim": 5976,
      "ĠLamb": 5977,
      "ĠLandes": 5978,
      "aligner": 5979,
      "alphasyllabaire": 5980,
      "Ġber": 5981,
      "Ġbang": 5982,
      "Ġbons": 5983,
      "Ġbomb": 5984,
      "Ġbox": 5985,
      "Ġballe": 5986,
      "Ġboussoles": 5987,
      "ieuse": 5988,
      "auge": 5989,
      "autique": 5990,
      "ĠCin": 5991,
      "ĠCode": 5992,
      "ĠClau": 5993,
      "ĠCela": 5994,
      "Ġcomment": 5995,
      "Ġcomete": 5996,
      "Ġrit": 5997,
      "Ġrum": 5998,
      "Ġrari": 5999,
      "Ġrasta": 6000,
      "Ġrincer": 6001,
      "ĠAK": 6002,
      "ĠApp": 6003,
      "ĠAVAN": 6004,
      "ĠAurÃ©lien": 6005,
      "ceans": 6006,
      "chage": 6007,
      "chue": 6008,
      "sectes": 6009,
      "eufs": 6010,
      "rog": 6011,
      "roy": 6012,
      "Ġgen": 6013,
      "Ġgron": 6014,
      "Ġgru": 6015,
      "Ġgateau": 6016,
      "Ġplie": 6017,
      "Ġplans": 6018,
      "rifu": 6019,
      "nec": 6020,
      "ĠPoin": 6021,
      "Ġpars": 6022,
      "Ġparoi": 6023,
      "ĠEx": 6024,
      "ĠEra": 6025,
      "ĠEchar": 6026,
      "ĠEpais": 6027,
      "Ġjaz": 6028,
      "Ġjardin": 6029,
      "ressent": 6030,
      "sipe": 6031,
      "aisonne": 6032,
      "Ġpourrait": 6033,
      "Ġpourrie": 6034,
      "ĠTU": 6035,
      "ĠTon": 6036,
      "ĠTak": 6037,
      "ĠTrans": 6038,
      "ĠToute": 6039,
      "ĠTOI": 6040,
      "Ġcong": 6041,
      "Ġconv": 6042,
      "Ġconduit": 6043,
      "Ġcongel": 6044,
      "atum": 6045,
      "atta": 6046,
      "atrice": 6047,
      "atana": 6048,
      "aga": 6049,
      "agieux": 6050,
      "ĠDo": 6051,
      "ĠDeux": 6052,
      "ĠDormir": 6053,
      "ĠÃ©m": 6054,
      "ĠÃ©vo": 6055,
      "Ġrege": 6056,
      "Ġreduit": 6057,
      "Ġrevis": 6058,
      "Ġretient": 6059,
      "Ġreuss": 6060,
      "Ġreagit": 6061,
      "Ġrecupe": 6062,
      "Ġrejo": 6063,
      "Ġreutiliser": 6064,
      "Ġrejoue": 6065,
      "Ġrecharge": 6066,
      "Ġrechauff": 6067,
      "ĠSm": 6068,
      "ĠSam": 6069,
      "ĠStres": 6070,
      "ĠSav": 6071,
      "ĠSainte": 6072,
      "Ġ1000": 6073,
      "Ġchose": 6074,
      "Ġchiant": 6075,
      "Ġchelous": 6076,
      "Ġsiens": 6077,
      "Ġpotes": 6078,
      "Ġpoison": 6079,
      "ĠBon": 6080,
      "ĠBor": 6081,
      "ĠBasse": 6082,
      "ĠBern": 6083,
      "terieur": 6084,
      "ciens": 6085,
      "uitiers": 6086,
      "ĠdÃ©b": 6087,
      "ĠdÃ©ri": 6088,
      "Ġelect": 6089,
      "Ġecri": 6090,
      "Ġequipe": 6091,
      "Ġepis": 6092,
      "Ġevac": 6093,
      "ĠGr": 6094,
      "ĠGod": 6095,
      "ĠGlu": 6096,
      "ĠGlace": 6097,
      "ĠMas": 6098,
      "ĠMout": 6099,
      "ĠManger": 6100,
      "Ġcale": 6101,
      "Ġcause": 6102,
      "Ġcaches": 6103,
      "Ġcailler": 6104,
      "Ġsemb": 6105,
      "Ġsecher": 6106,
      "Ġsechage": 6107,
      "ĠinfÃ©r": 6108,
      "Ġintr": 6109,
      "Ġincer": 6110,
      "Ġinoff": 6111,
      "alee": 6112,
      "alem": 6113,
      "dicu": 6114,
      "dienne": 6115,
      "Ġstagne": 6116,
      "Ġstopp": 6117,
      "Ġstyl": 6118,
      "Ġstagn": 6119,
      "Ġstressent": 6120,
      "ffler": 6121,
      "ĠVan": 6122,
      "geons": 6123,
      "Ġtetra": 6124,
      "ĠJobs": 6125,
      "ĠOSI": 6126,
      "ĠOtt": 6127,
      "tÃ©ri": 6128,
      "tÃ©roÃ¯": 6129,
      "Ġhic": 6130,
      "Ġheure": 6131,
      "Ġsurprend": 6132,
      "Ġdiction": 6133,
      "Ġdiaph": 6134,
      "ĠNoun": 6135,
      "ĠRa": 6136,
      "ĠRol": 6137,
      "ĠRoule": 6138,
      "ĠRond": 6139,
      "ĠReuter": 6140,
      "amid": 6141,
      "amertume": 6142,
      "ĠprocÃ©": 6143,
      "Ġpropose": 6144,
      "Ġvir": 6145,
      "Ġvies": 6146,
      "Ġvibe": 6147,
      "ĠWh": 6148,
      "Ġ26": 6149,
      "Ġ27": 6150,
      "molecu": 6151,
      "tug": 6152,
      "abs": 6153,
      "abrÃ©viation": 6154,
      "ĠFR": 6155,
      "ĠForm": 6156,
      "Ġdisques": 6157,
      "Ġdisper": 6158,
      "Ġdissipe": 6159,
      "Ġcoins": 6160,
      "Ġcodes": 6161,
      "Ġcosy": 6162,
      "ĠcoÃ»": 6163,
      "ocra": 6164,
      "occup": 6165,
      "illee": 6166,
      "cession": 6167,
      "Ġsavent": 6168,
      "Ġtuent": 6169,
      "Ġtupper": 6170,
      "Ġtuto": 6171,
      "Ġtuyaux": 6172,
      "Ã©rard": 6173,
      "Ġcomplique": 6174,
      "Ġcomplexe": 6175,
      "Ġcomposition": 6176,
      "Ġcommand": 6177,
      "ortissent": 6178,
      "osph": 6179,
      "oshi": 6180,
      "Ġoeil": 6181,
      "Ġodeurs": 6182,
      "Ġoceans": 6183,
      "Ġoeufs": 6184,
      "outant": 6185,
      "Ġtonnerre": 6186,
      "Ġcelebre": 6187,
      "istance": 6188,
      "Ġtrie": 6189,
      "Ġtristes": 6190,
      "ĠtrÃ´ne": 6191,
      "Ġmole": 6192,
      "Ġmotive": 6193,
      "Ġmotiv": 6194,
      "lise": 6195,
      "ivrant": 6196,
      "Ġannee": 6197,
      "Ġannees": 6198,
      "Ġprise": 6199,
      "Ġprouver": 6200,
      "Ġexciter": 6201,
      "ĠLamp": 6202,
      "ĠChauff": 6203,
      "ĠAllo": 6204,
      "Ġarrachent": 6205,
      "retard": 6206,
      "Ġmetier": 6207,
      "Ġmega": 6208,
      "Ġmecanisme": 6209,
      "apres": 6210,
      "ĠprÃ©tend": 6211,
      "Ġcarres": 6212,
      "mire": 6213,
      "mitien": 6214,
      "Ġavances": 6215,
      "Ãªtes": 6216,
      "Ã¨ses": 6217,
      "Ġrater": 6218,
      "ĠÃīconom": 6219,
      "ĠÃ©tend": 6220,
      "opie": 6221,
      "Ġallo": 6222,
      "Ġforcer": 6223,
      "ĠArtemis": 6224,
      "Ġcourses": 6225,
      "ĠsacrÃ©": 6226,
      "ĠdeuxiÃ¨me": 6227,
      "Ġprefere": 6228,
      "Ġ32": 6229,
      "Ġ3000": 6230,
      "Ġ350": 6231,
      "Ġ360": 6232,
      "Ġcoincees": 6233,
      "Ġtrajets": 6234,
      "roptÃ¨res": 6235,
      "odoro": 6236,
      "ubastis": 6237,
      "Ġsyste": 6238,
      "ĠAng": 6239,
      "ĠinterprÃ©": 6240,
      "Ġphares": 6241,
      "thi": 6242,
      "Ġperds": 6243,
      "Ġperfe": 6244,
      "Ġperime": 6245,
      "Ġmineraux": 6246,
      "Ġcerises": 6247,
      "Ġdirecteur": 6248,
      "ecture": 6249,
      "ecrans": 6250,
      "Ġmari": 6251,
      "Ġmarch": 6252,
      "ĠmarÃ©es": 6253,
      "Ġmarchant": 6254,
      "Ġmarathon": 6255,
      "Ã¢tre": 6256,
      "Ġcoupes": 6257,
      "Ġcouper": 6258,
      "Ġcoulent": 6259,
      "Ġserie": 6260,
      "Ġseries": 6261,
      "Ġserveur": 6262,
      "Ġsermonner": 6263,
      "Ġserrures": 6264,
      "Ġutilisation": 6265,
      "Ġutilisateurs": 6266,
      "tration": 6267,
      "traper": 6268,
      "ĠParmentier": 6269,
      "rup": 6270,
      "Ġbouche": 6271,
      "Ġbouillie": 6272,
      "Ġbouteille": 6273,
      "finie": 6274,
      "Ġrepond": 6275,
      "Ġreproche": 6276,
      "Ã´te": 6277,
      "Ã´me": 6278,
      "sentation": 6279,
      "Ġmettaient": 6280,
      "azu": 6281,
      "iseptiques": 6282,
      "Ġ186": 6283,
      "Ġorange": 6284,
      "intaines": 6285,
      "Ġsouvient": 6286,
      "Ġbasque": 6287,
      "Ġsecs": 6288,
      "ĠsecrÃ©t": 6289,
      "Ġsecoue": 6290,
      "Ġsecurite": 6291,
      "ombent": 6292,
      "Ġprinces": 6293,
      "tention": 6294,
      "ario": 6295,
      "ariat": 6296,
      "aka": 6297,
      "olee": 6298,
      "Ġapaise": 6299,
      "ĠâĢł": 6300,
      "duc": 6301,
      "ducteur": 6302,
      "Ġadmire": 6303,
      "Ġcasque": 6304,
      "Ġcasses": 6305,
      "Ġverres": 6306,
      "Ġvertic": 6307,
      "Ġamertume": 6308,
      "Ġamortissent": 6309,
      "Ġrecoit": 6310,
      "Ġrecoud": 6311,
      "Ġrecoivent": 6312,
      "Ġclap": 6313,
      "Ġexpress": 6314,
      "Ġexpose": 6315,
      "Ġexplore": 6316,
      "Ġexpulsion": 6317,
      "Ġ1999": 6318,
      "Ġmonts": 6319,
      "Ġmontes": 6320,
      "Ġregne": 6321,
      "Ġregardant": 6322,
      "iciter": 6323,
      "mann": 6324,
      "ĠDehors": 6325,
      "ĠdÃ©couvre": 6326,
      "Ġsoupe": 6327,
      "Ġsoulagement": 6328,
      "Ġatte": 6329,
      "Ġattribu": 6330,
      "Ġattrape": 6331,
      "ographique": 6332,
      "lectron": 6333,
      "Ġprincipales": 6334,
      "Ġtours": 6335,
      "Ġtournes": 6336,
      "Ġfili": 6337,
      "Ġfiltre": 6338,
      "Ġfilantes": 6339,
      "lerent": 6340,
      "Ġdiffic": 6341,
      "ĠRÃ©seau": 6342,
      "Ã©taire": 6343,
      "Ġperso": 6344,
      "Ġpersonni": 6345,
      "ĠRegle": 6346,
      "titution": 6347,
      "Ġcaptaient": 6348,
      "Ġobjectif": 6349,
      "Ġchevel": 6350,
      "Ġagressi": 6351,
      "Ġaggra": 6352,
      "Ġagitaient": 6353,
      "Ġrougit": 6354,
      "Ġordres": 6355,
      "Ġordonne": 6356,
      "Ġdroitiere": 6357,
      "Ġbleus": 6358,
      "Ġconstance": 6359,
      "idees": 6360,
      "ierer": 6361,
      "entrainer": 6362,
      "Ġspor": 6363,
      "Ġsport": 6364,
      "Ġsprint": 6365,
      "Ġspasme": 6366,
      "Ġsolaires": 6367,
      "Ġassaisonne": 6368,
      "exterieur": 6369,
      "Ġdessert": 6370,
      "Ġdessiner": 6371,
      "Ġdesserts": 6372,
      "ĠColor": 6373,
      "ĠColomb": 6374,
      "accords": 6375,
      "ĠUnitÃ©": 6376,
      "matique": 6377,
      "Ġ1978": 6378,
      "Ã©nergie": 6379,
      "Ġsucres": 6380,
      "Ġferment": 6381,
      "Ġferies": 6382,
      "Ġdouche": 6383,
      "Ġdoudou": 6384,
      "Ġderriere": 6385,
      "Ġbrasse": 6386,
      "Ġbrillante": 6387,
      "Ġbrunit": 6388,
      "Ġpermettent": 6389,
      "Ġfamilles": 6390,
      "Ġfondre": 6391,
      "Ġarrivee": 6392,
      "Ġvaisseaux": 6393,
      "ĠNebet": 6394,
      "ĠconnaÃ®t": 6395,
      "stein": 6396,
      "Ġpatauge": 6397,
      "Ġ1986": 6398,
      "Ġsociaux": 6399,
      "Ġtombes": 6400,
      "Ġvieillis": 6401,
      "rick": 6402,
      "ampÃ¨re": 6403,
      "ampoing": 6404,
      "Ġgratte": 6405,
      "Ġgrappe": 6406,
      "Ġdurcisse": 6407,
      "Ġlorsque": 6408,
      "Ġlibres": 6409,
      "Ġbanane": 6410,
      "Ġbancs": 6411,
      "ĠchargÃ©e": 6412,
      "Ġprotections": 6413,
      "Ġproteger": 6414,
      "ylene": 6415,
      "Ġpouvant": 6416,
      "Ġmeres": 6417,
      "Ġgrasse": 6418,
      "ĠgrillÃ©": 6419,
      "ĠÃ©lectro": 6420,
      "ĠÃ©lectronique": 6421,
      "Ġ179": 6422,
      "lacement": 6423,
      "vÃ©nement": 6424,
      "Ġreflete": 6425,
      "oxygene": 6426,
      "Ġlocu": 6427,
      "Ġpleut": 6428,
      "Ġpleurent": 6429,
      "Ġfrisson": 6430,
      "Ġfruitiers": 6431,
      "âĶĢâĶĢâĶĢâĶĢâĶĢâĶĢâĶĢâĶĢ": 6432,
      "Ġchauffes": 6433,
      "Ġchauffer": 6434,
      "Ġchauffee": 6435,
      "Ġlarme": 6436,
      "Ġpizz": 6437,
      "Ġpigeons": 6438,
      "Ġmetalliques": 6439,
      "Ġpomodoro": 6440,
      "Ġcentrifu": 6441,
      "Ġsauf": 6442,
      "Ġouvres": 6443,
      "Ġouvrier": 6444,
      "versitÃ©": 6445,
      "hara": 6446,
      "Ġgrandissant": 6447,
      "Ġdegrader": 6448,
      "Ġdegivrant": 6449,
      "rymales": 6450,
      "Ġrevele": 6451,
      "Ġpluvieux": 6452,
      "Ġjaunit": 6453,
      "Ġjaunissent": 6454,
      "ressement": 6455,
      "Ġrelance": 6456,
      "Ġrelatives": 6457,
      "Ġprofesseur": 6458,
      "Ġincrev": 6459,
      "Ġcomposants": 6460,
      "ount": 6461,
      "Ġgouts": 6462,
      "Ġgouttes": 6463,
      "Ġfatiguent": 6464,
      "Ġnaturel": 6465,
      "ĠShampoing": 6466,
      "effacent": 6467,
      "ĠXX": 6468,
      "Ġtrier": 6469,
      "ĠtroisiÃ¨me": 6470,
      "Ġgauchers": 6471,
      "Ġchaton": 6472,
      "ĠspÃ©cialis": 6473,
      "tobre": 6474,
      "Ġzone": 6475,
      "Ġzero": 6476,
      "Ġisolee": 6477,
      "Ġdecrocher": 6478,
      "Ġdecouvrir": 6479,
      "Ġdecalee": 6480,
      "Ġrivier": 6481,
      "Ġridicu": 6482,
      "ĠApres": 6483,
      "Ġ1956": 6484,
      "Ġessuie": 6485,
      "Ġafflue": 6486,
      "Ġfrere": 6487,
      "Ġfreres": 6488,
      "Ġfredonn": 6489,
      "Ġcadran": 6490,
      "Ġcadrans": 6491,
      "Ġdialectes": 6492,
      "Ġconstitue": 6493,
      "Ġmelange": 6494,
      "Ġmelanger": 6495,
      "Ġmelaton": 6496,
      "ĠLanguage": 6497,
      "Ġboissons": 6498,
      "Ġstylo": 6499,
      "Ġmangeant": 6500,
      "Ġmangeoire": 6501,
      "Ġbonjour": 6502,
      "Ġhumain": 6503,
      "Ġdirects": 6504,
      "avion": 6505,
      "ĠsaletÃ©": 6506,
      "ĠvariÃ©tÃ©": 6507,
      "ĠSix": 6508,
      "ĠdÃ©mocratique": 6509,
      "glent": 6510,
      "Ġ1683": 6511,
      "Ġpossi": 6512,
      "Ġapprends": 6513,
      "Ġtoutefois": 6514,
      "affaires": 6515,
      "ĠâĦ": 6516,
      "Ġdocuments": 6517,
      "Ġdoctorat": 6518,
      "ĠlÃ©gis": 6519,
      "ĠlÃ©gumiÃ¨res": 6520,
      "ĠPhil": 6521,
      "ĠPhili": 6522,
      "Ġconcentraient": 6523,
      "Ġcanape": 6524,
      "ĠthÃ¨se": 6525,
      "ultan": 6526,
      "ĠassociÃ©e": 6527,
      "Ġfonctionne": 6528,
      "Ġsources": 6529,
      "Ġsourire": 6530,
      "Ġecran": 6531,
      "Ġecrit": 6532,
      "Ġecrans": 6533,
      "Ġecoutant": 6534,
      "Ġinformations": 6535,
      "Ġnouveautes": 6536,
      "Ġ80": 6537,
      "Ġantiseptiques": 6538,
      "Ġfaim": 6539,
      "ratation": 6540,
      "Ġronds": 6541,
      "Ġrondes": 6542,
      "Ġgenetique": 6543,
      "tÃ©ralement": 6544,
      "Ġphotons": 6545,
      "Ġelastique": 6546,
      "outef": 6547,
      "ĠnumÃ©ro": 6548,
      "ĠnumÃ©ration": 6549,
      "Ġcherche": 6550,
      "ĠManque": 6551,
      "encheurs": 6552,
      "Ġciment": 6553,
      "Ġcligne": 6554,
      "Ġmuris": 6555,
      "Ġmurissent": 6556,
      "Ġnotifs": 6557,
      "Ġbloquent": 6558,
      "ĠrythmÃ©": 6559,
      "Ġretardes": 6560,
      "Ġretombent": 6561,
      "Ġcrevaison": 6562,
      "evaporant": 6563,
      "gleterre": 6564,
      "ĠÃ©lections": 6565,
      "ĠÃ©levÃ©": 6566,
      "lamme": 6567,
      "Ġclim": 6568,
      "Ġclient": 6569,
      "Ġspect": 6570,
      "Ġspeed": 6571,
      "Ġemportant": 6572,
      "Ġempreintes": 6573,
      "ĠMaillard": 6574,
      "Ġressorts": 6575,
      "Ġtranspire": 6576,
      "ckstein": 6577,
      "oweÃ¯": 6578,
      "instruction": 6579,
      "ĠOrdin": 6580,
      "ĠrÃ©alisÃ©": 6581,
      "Ġorientales": 6582,
      "Ġliberte": 6583,
      "Ġliberent": 6584,
      "echappe": 6585,
      "Ã¡n": 6586,
      "Ġlaborat": 6587,
      "ĠtÃ©lÃ©ph": 6588,
      "Ġinvites": 6589,
      "Ġrespectivement": 6590,
      "Ġbougent": 6591,
      "Ġlargement": 6592,
      "Ġgrammatic": 6593,
      "Ã©lectronique": 6594,
      "Ġcuir": 6595,
      "Ġcuisson": 6596,
      "tiquaire": 6597,
      "Ġruser": 6598,
      "ĠindÃ©pend": 6599,
      "Ġluminosi": 6600,
      "Ġlevain": 6601,
      "Ġcontrole": 6602,
      "Ġcontagieux": 6603,
      "Ġdistances": 6604,
      "Ġquestion": 6605,
      "oussierer": 6606,
      "Ġcarree": 6607,
      "Ġcarrees": 6608,
      "Ġratta": 6609,
      "Ġrattrape": 6610,
      "Ġrattraper": 6611,
      "Ġaccelerent": 6612,
      "Ġminute": 6613,
      "Ġcoupee": 6614,
      "Ġchampagne": 6615,
      "ĠĠĠĠĠĠĠĠĠĠĠĠĠ": 6616,
      "Ġdoubler": 6617,
      "Ġaigre": 6618,
      "Ġaiguise": 6619,
      "Ġaiguilles": 6620,
      "ĠLinux": 6621,
      "Ġronronne": 6622,
      "Ġgraphiques": 6623,
      "Ġeternel": 6624,
      "Ġcafeine": 6625,
      "Ġmolecules": 6626,
      "Ġralentit": 6627,
      "Ġgelee": 6628,
      "humidifier": 6629,
      "Ġstabiliser": 6630,
      "Ġstabilisent": 6631,
      "Ġstabilisateur": 6632,
      "Ġpuce": 6633,
      "Ġpucerons": 6634,
      "Ġclavier": 6635,
      "ethylene": 6636,
      "ĠBouches": 6637,
      "ĠáĬł": 6638,
      "Ġchargee": 6639,
      "Ġpause": 6640,
      "Ġpaquets": 6641,
      "ĠSauf": 6642,
      "ĠSauvage": 6643,
      "Ġposees": 6644,
      "ĠJamaÃ¯que": 6645,
      "Ġherbes": 6646,
      "Ġhermitien": 6647,
      "Ġautomobile": 6648,
      "Ġmajorite": 6649,
      "Ġdemandait": 6650,
      "ĠentitÃ©s": 6651,
      "Ġrangement": 6652,
      "Ġremuage": 6653,
      "Ġremuent": 6654,
      "modation": 6655,
      "Ġ30000": 6656,
      "Ġ300000": 6657,
      "entendent": 6658,
      "Ġruche": 6659,
      "Ġpodcast": 6660,
      "Ġeteint": 6661,
      "Ġeclate": 6662,
      "Ġtemperature": 6663,
      "Ġdispon": 6664,
      "Ġfixes": 6665,
      "Ġentends": 6666,
      "Ġsaisi": 6667,
      "Ġsaisons": 6668,
      "Ġtomate": 6669,
      "Ġtomates": 6670,
      "rayures": 6671,
      "Ġbof": 6672,
      "Ġbalade": 6673,
      "ĠBanque": 6674,
      "ĠcaractÃ©ristiques": 6675,
      "Ġcristallis": 6676,
      "Organisation": 6677,
      "Ġirritant": 6678,
      "Ġcivilis": 6679,
      "ermopolis": 6680,
      "organ": 6681,
      "Ġfourrure": 6682,
      "ragme": 6683,
      "ĠCompte": 6684,
      "Ġgardes": 6685,
      "Ġgardait": 6686,
      "Ġtransparent": 6687,
      "Ġlocalises": 6688,
      "Ġlocaliser": 6689,
      "ĠlittÃ©ralement": 6690,
      "ĠemployÃ©s": 6691,
      "Ġoignons": 6692,
      "Ġpivote": 6693,
      "Ġpivoter": 6694,
      "Ġbuvait": 6695,
      "Ġboite": 6696,
      "ressivement": 6697,
      "atisf": 6698,
      "ĠMoins": 6699,
      "Ġhochent": 6700,
      "Ġhoquet": 6701,
      "Ġvibrent": 6702,
      "Ġvibratoire": 6703,
      "ĠHorus": 6704,
      "Ġimposee": 6705,
      "Ġpleurer": 6706,
      "Ġprofessionnels": 6707,
      "Ġdistincts": 6708,
      "Ġpetrit": 6709,
      "Ġpetrissent": 6710,
      "Ġsentent": 6711,
      "Ġdecision": 6712,
      "Ġdecisions": 6713,
      "Ġmeugle": 6714,
      "Ġmeuglent": 6715,
      "Ġvocales": 6716,
      "Ġballon": 6717,
      "Ġballons": 6718,
      "Ġbailler": 6719,
      "Ġrincee": 6720,
      "Ġrideau": 6721,
      "Ġrideaux": 6722,
      "Ġparaitre": 6723,
      "Ġemotion": 6724,
      "Ġemotions": 6725,
      "ĠNouvelle": 6726,
      "Ġcopie": 6727,
      "Ġtrinque": 6728,
      "Ġtrinquant": 6729,
      "Ġaromes": 6730,
      "Ġaromatiques": 6731,
      "Ġramenee": 6732,
      "Ġpreparer": 6733,
      "ĠmÃ©thodes": 6734,
      "Ġattirent": 6735,
      "Ġmachines": 6736,
      "ĠaccompagnÃ©": 6737,
      "Ġaspire": 6738,
      "Ġaspiration": 6739,
      "Ġgrillees": 6740,
      "Ġbourrelet": 6741,
      "Ġbourrelets": 6742,
      "Ġronronnent": 6743,
      "ĠCulture": 6744,
      "Ġretracte": 6745,
      "Ġdiscret": 6746,
      "âĶĢâĶ¬âĶĢ": 6747,
      "Ġreproches": 6748,
      "Ġrenouvelle": 6749,
      "Ġcroyait": 6750,
      "Ġlointaines": 6751,
      "Ġfuient": 6752,
      "Ġflamants": 6753,
      "Ġvinaigre": 6754,
      "ĠSwift": 6755,
      "ĠministÃ¨re": 6756,
      "Ġattache": 6757,
      "Ġbarbacane": 6758,
      "urrents": 6759,
      "ĠvÃ©rit": 6760,
      "Ġbebes": 6761,
      "ĠCentaur": 6762,
      "Ġgammes": 6763,
      "activer": 6764,
      "Ġboulangerie": 6765,
      "Ġsuivante": 6766,
      "corn": 6767,
      "enflamme": 6768,
      "Ġpincee": 6769,
      "Ġmoustiquaire": 6770,
      "Ġveste": 6771,
      "Ġvitesse": 6772,
      "ĠLondres": 6773,
      "ĠEuronext": 6774,
      "ĠTreasure": 6775,
      "Ġredressement": 6776,
      "Ġrepeter": 6777,
      "Ġrepartit": 6778,
      "ĠSouffler": 6779,
      "Ġchantant": 6780,
      "Ġechec": 6781,
      "Ġhydrate": 6782,
      "ĠFourchue": 6783,
      "Ġmobile": 6784,
      "Ġanniversaires": 6785,
      "Ġaccordeur": 6786,
      "Ġbizarres": 6787,
      "Ġzoos": 6788,
      "Ġisolation": 6789,
      "Ġpoussiere": 6790,
      "ĠAstartÃ©": 6791,
      "Ġgriffoir": 6792,
      "Barbuda": 6793,
      "restre": 6794,
      "Ã©tition": 6795,
      "Ġmouillee": 6796,
      "Ġmassage": 6797,
      "Ġtestent": 6798,
      "Ġconfortable": 6799,
      "ĠSiege": 6800,
      "ĠSoftware": 6801,
      "Ġchanteur": 6802,
      "ĠGironde": 6803,
      "Ġdigitales": 6804,
      "Ġoxygene": 6805,
      "Ġfermees": 6806,
      "Ġcellules": 6807,
      "Ġpoignet": 6808,
      "Ġaimants": 6809,
      "Ġmascul": 6810,
      "Ġlacrymales": 6811,
      "Ġfolle": 6812,
      "Ġrobinet": 6813,
      "anthropologie": 6814,
      "chlorophy": 6815,
      "Ġguide": 6816,
      "ĠPÃ©rig": 6817,
      "ĠPremier": 6818,
      "ĠDaniel": 6819,
      "ĠDictionnaire": 6820,
      "Ġrebondit": 6821,
      "Ġredemarrage": 6822,
      "ĠBrian": 6823,
      "ĠRetenir": 6824,
      "Ġancetres": 6825,
      "Ġcourbee": 6826,
      "Ġphrase": 6827,
      "ennuies": 6828,
      "Ġdoucement": 6829,
      "Ġassimil": 6830,
      "ĠStandards": 6831,
      "ĠprÃ©sidentielle": 6832,
      "Ġpigments": 6833,
      "Ġsilence": 6834,
      "Ġmarees": 6835,
      "arrache": 6836,
      "Ġtoxique": 6837,
      "Ġvelo": 6838,
      "Ġnageoires": 6839,
      "Ġgouter": 6840,
      "ĠPublications": 6841,
      "ĠPolitique": 6842,
      "atmosphere": 6843,
      "Ġegyptiennes": 6844,
      "Ġcabine": 6845,
      "otrophes": 6846,
      "ĠNational": 6847,
      "Ġviendrait": 6848,
      "ĠimmÃ©diate": 6849,
      "ĠÃ©thiop": 6850,
      "Ġressemblait": 6851,
      "accommodation": 6852,
      "accrochent": 6853,
      "Ġrecompense": 6854,
      "ĠDepoussierer": 6855,
      "Ġlignine": 6856,
      "ĠriviÃ¨re": 6857,
      "Ġessuyee": 6858,
      "Ġfabriquent": 6859,
      "ĠPerseides": 6860,
      "Ġexclusivement": 6861,
      "Ġobscurite": 6862,
      "Ġviennoiserie": 6863,
      "Tuttle": 6864,
      "emotion": 6865,
      "emmental": 6866,
      "morceaux": 6867,
      "vaisseaux": 6868,
      "Ġdopamine": 6869,
      "Ġcognait": 6870,
      "Ġcrispent": 6871,
      "Ġsteak": 6872,
      "Ġsiecles": 6873,
      "Ġsociete": 6874,
      "Ġdelicieuse": 6875,
      "Ġdeclencheurs": 6876,
      "Ġdetestent": 6877,
      "inclinaison": 6878,
      "Ġmucus": 6879,
      "Ġfeliciter": 6880,
      "Ġfissuraient": 6881,
      "Ġflow": 6882,
      "Ġfumee": 6883,
      "Ġdesamorce": 6884,
      "Ġdeshydratation": 6885,
      "Ġrumine": 6886,
      "Ġrarifie": 6887,
      "ĠAVANT": 6888,
      "Ġgronde": 6889,
      "Ġgrumeaux": 6890,
      "ĠPointilles": 6891,
      "ĠEcharpe": 6892,
      "Ġjazz": 6893,
      "Ġcongelation": 6894,
      "Ġregele": 6895,
      "Ġreviser": 6896,
      "Ġreussites": 6897,
      "Ġrecupere": 6898,
      "Ġrechauffer": 6899,
      "ĠStress": 6900,
      "Ġelectrons": 6901,
      "Ġecrire": 6902,
      "Ġepisodes": 6903,
      "Ġevacue": 6904,
      "ĠGluckstein": 6905,
      "Ġintrus": 6906,
      "Ġincertitude": 6907,
      "Ġinoffensif": 6908,
      "Ġstoppe": 6909,
      "Ġstylos": 6910,
      "Ġstagnante": 6911,
      "Ġtetrapodes": 6912,
      "ĠOttomans": 6913,
      "Ġdiaphragme": 6914,
      "ĠRouler": 6915,
      "amidon": 6916,
      "molecules": 6917,
      "Ġdisperse": 6918,
      "Ġtupperware": 6919,
      "Ġcelebrer": 6920,
      "Ġtristesse": 6921,
      "Ġmotivation": 6922,
      "ĠChauffee": 6923,
      "ĠÃīconomie": 6924,
      "Ġsysteme": 6925,
      "Ġperfection": 6926,
      "Ġchevelu": 6927,
      "Ġagressifs": 6928,
      "Ġaggravent": 6929,
      "Ġpataugeoire": 6930,
      "Ġvieillissant": 6931,
      "Ġpizzas": 6932,
      "Ġcentrifuge": 6933,
      "Ġincrevables": 6934,
      "Ġrivieres": 6935,
      "Ġridiculement": 6936,
      "Ġfredonnons": 6937,
      "Ġmelatonine": 6938,
      "ĠOrdinateur": 6939,
      "Ġluminosite": 6940,
      "Ġcontrolee": 6941,
      "ĠSauvageot": 6942,
      "Ġcristalliser": 6943,
      "chlorophylle": 6944,
      "\",": 6945,
      "37": 6946,
      "45": 6947,
      "Az": 6948,
      "Ain": 6949,
      "Ath": 6950,
      "Aton": 6951,
      "BM": 6952,
      "Beau": 6953,
      "DR": 6954,
      "EDF": 6955,
      "Game": 6956,
      "IC": 6957,
      "IX": 6958,
      "ISO": 6959,
      "NIX": 6960,
      "OS": 6961,
      "aie": 6962,
      "adÃ©": 6963,
      "bon": 6964,
      "bis": 6965,
      "cent": 6966,
      "ctu": 6967,
      "ccident": 6968,
      "duis": 6969,
      "feu": 6970,
      "ford": 6971,
      "fari": 6972,
      "fÃ¨res": 6973,
      "gi": 6974,
      "gen": 6975,
      "hb": 6976,
      "her": 6977,
      "hor": 6978,
      "hÃ©r": 6979,
      "habit": 6980,
      "iter": 6981,
      "iji": 6982,
      "loc": 6983,
      "lodie": 6984,
      "mol": 6985,
      "mÃ¨tre": 6986,
      "naires": 6987,
      "ool": 6988,
      "ood": 6989,
      "ples": 6990,
      "port": 6991,
      "sh": 6992,
      "so": 6993,
      "sone": 6994,
      "tys": 6995,
      "ug": 6996,
      "uelles": 6997,
      "van": 6998,
      "vue": 6999,
      "vard": 7000,
      "yr": 7001,
      "yle": 7002,
      "¯Ŀ": 7003,
      "Ð°": 7004,
      "åį": 7005,
      "è¯Ŀ": 7006,
      "Ġ).": 7007,
      "Ġlu": 7008,
      "Ġlou": 7009,
      "onnÃ©es": 7010,
      "Ã©si": 7011,
      "Ã©moi": 7012,
      "Ã©lection": 7013,
      "Ġpont": 7014,
      "Ġpand": 7015,
      "Ġsab": 7016,
      "Ġsing": 7017,
      "ĠsÃ©c": 7018,
      "ĠsÃ¤": 7019,
      "Ġsanc": 7020,
      "Ġsatisf": 7021,
      "ano": 7022,
      "anie": 7023,
      "ancer": 7024,
      "analyse": 7025,
      "oules": 7026,
      "quÃ©s": 7027,
      "quettes": 7028,
      "telle": 7029,
      "Ġara": 7030,
      "Ġaire": 7031,
      "Ġdemi": 7032,
      "tir": 7033,
      "tian": 7034,
      "tile": 7035,
      "time": 7036,
      "tille": 7037,
      "leg": 7038,
      "Ġmi": 7039,
      "Ġmurs": 7040,
      "Ġmorte": 7041,
      "ĠmÃ¨tres": 7042,
      "union": 7043,
      "orÃ©": 7044,
      "Ġlatine": 7045,
      "omo": 7046,
      "Ġtamb": 7047,
      "ĠtÃ©moi": 7048,
      "Ġquit": 7049,
      "Ġquoti": 7050,
      "Ġfonde": 7051,
      "Ġfrot": 7052,
      "itation": 7053,
      "Ġvous": 7054,
      "Ġvote": 7055,
      "ĠvÃ©h": 7056,
      "usta": 7057,
      "ourd": 7058,
      "astie": 7059,
      "ilota": 7060,
      "Ġence": 7061,
      "Ġenfin": 7062,
      "Ġengl": 7063,
      "Ġdestin": 7064,
      "Ġnav": 7065,
      "rad": 7066,
      "raine": 7067,
      "raire": 7068,
      "elui": 7069,
      "ĠLien": 7070,
      "alie": 7071,
      "Ġbord": 7072,
      "ieures": 7073,
      "ĠCat": 7074,
      "ĠCÃ©s": 7075,
      "ĠCop": 7076,
      "ĠCox": 7077,
      "ĠCelui": 7078,
      "Ġcomit": 7079,
      "Ġriv": 7080,
      "ĠArabie": 7081,
      "Ġ().": 7082,
      "chest": 7083,
      "seil": 7084,
      "Ã¨dent": 7085,
      "roise": 7086,
      "neau": 7087,
      "ĠPl": 7088,
      "ĠPeu": 7089,
      "ĠPol": 7090,
      "ĠPort": 7091,
      "ĠPendant": 7092,
      "Ġparc": 7093,
      "ĠEst": 7094,
      "ĠEmpereur": 7095,
      "Ġjury": 7096,
      "olie": 7097,
      "olfe": 7098,
      "ĠTour": 7099,
      "ĠTennis": 7100,
      "agri": 7101,
      "Ġauteur": 7102,
      "ĠauprÃ¨s": 7103,
      "ĠÃ©cl": 7104,
      "ĠSar": 7105,
      "ĠSat": 7106,
      "ĠSig": 7107,
      "ĠSite": 7108,
      "ĠSony": 7109,
      "Ġ11": 7110,
      "Ġchron": 7111,
      "act": 7112,
      "ĠBig": 7113,
      "ĠBubastis": 7114,
      "cius": 7115,
      "ĠdÃ©tient": 7116,
      "ĠdÃ©mont": 7117,
      "ĠdÃ©tour": 7118,
      "Ġempereurs": 7119,
      "ĠGray": 7120,
      "ĠMul": 7121,
      "ĠMak": 7122,
      "ĠMulti": 7123,
      "ĠMys": 7124,
      "Ġsection": 7125,
      "ots": 7126,
      "otte": 7127,
      "othÃ©": 7128,
      "diction": 7129,
      "endre": 7130,
      "endra": 7131,
      "endaire": 7132,
      "Ġstu": 7133,
      "Ġstation": 7134,
      "Ġha": 7135,
      "Ġhyp": 7136,
      "Ġsurn": 7137,
      "Ġsurface": 7138,
      "ensÃ©": 7139,
      "ĠNa": 7140,
      "ĠNot": 7141,
      "ĠNorm": 7142,
      "ĠNap": 7143,
      "ĠRel": 7144,
      "ĠRht": 7145,
      "ĠRich": 7146,
      "amoutef": 7147,
      "ulu": 7148,
      "ĠrÃ©v": 7149,
      "ĠrÃ©duit": 7150,
      "ĠrÃ©fle": 7151,
      "Ġproven": 7152,
      "andela": 7153,
      "Ġvive": 7154,
      "Ġviol": 7155,
      "ĠWe": 7156,
      "ĠWashington": 7157,
      "mob": 7158,
      "Ġillus": 7159,
      "ĠHÃ©ro": 7160,
      "tuaire": 7161,
      "aba": 7162,
      "ĠFon": 7163,
      "ĠFis": 7164,
      "ĠFrÃ©d": 7165,
      "Ġ1921": 7166,
      "atin": 7167,
      "onsou": 7168,
      "phtys": 7169,
      "Ã©ron": 7170,
      "Ġcompil": 7171,
      "Ġcomplet": 7172,
      "Ġcompagnie": 7173,
      "ican": 7174,
      "oirs": 7175,
      "igh": 7176,
      "Ġnomme": 7177,
      "ĠexÃ©cutif": 7178,
      "ĠChim": 7179,
      "Ã©sus": 7180,
      "ĠarchÃ©": 7181,
      "ĠarrÃª": 7182,
      "ĠprÃ©h": 7183,
      "ĠprÃ©par": 7184,
      "ĠprÃ©positions": 7185,
      "uits": 7186,
      "Ġjustice": 7187,
      "Ãªts": 7188,
      "Ġappro": 7189,
      "roix": 7190,
      "paravant": 7191,
      "ĠÃīlect": 7192,
      "ĠÃīditions": 7193,
      "Ġimm": 7194,
      "Ġcommunications": 7195,
      "ĠUtilis": 7196,
      "Ġalphab": 7197,
      "onneur": 7198,
      "ĠArchitecture": 7199,
      "ĠArmÃ©nie": 7200,
      "Ġcouramment": 7201,
      "ĠtraitÃ©": 7202,
      "ody": 7203,
      "ĠAngel": 7204,
      "ĠAntoine": 7205,
      "Ġici": 7206,
      "Ġiden": 7207,
      "Ġphase": 7208,
      "ingt": 7209,
      "Ġperform": 7210,
      "Ġministre": 7211,
      "Ġutiliser": 7212,
      "Ġentreprises": 7213,
      "ĠcolÃ©optÃ¨res": 7214,
      "Ġbouliers": 7215,
      "accomp": 7216,
      "Ġfinit": 7217,
      "Ġconsonnes": 7218,
      "Ġornement": 7219,
      "Ġorigine": 7220,
      "Ġprintemps": 7221,
      "tende": 7222,
      "trines": 7223,
      "ariens": 7224,
      "dessous": 7225,
      "Ġverbes": 7226,
      "Ġclasse": 7227,
      "allatif": 7228,
      "ĠgÃ©nÃ©ration": 7229,
      "Ġsouter": 7230,
      "ĠAmer": 7231,
      "ĠAmstrad": 7232,
      "ĠAmset": 7233,
      "Ġtransmission": 7234,
      "Ġprincipes": 7235,
      "venu": 7236,
      "189": 7237,
      "Ã©tat": 7238,
      "trib": 7239,
      "ĠAugus": 7240,
      "ĠMembre": 7241,
      "ĠMeiji": 7242,
      "ĠĠĠĠĠĠĠĠĠ": 7243,
      "Ġcalendrier": 7244,
      "ĠrÃ©gime": 7245,
      "entraÃ®": 7246,
      "Ġformer": 7247,
      "Ã©gyp": 7248,
      "Ġprim": 7249,
      "Ġespagn": 7250,
      "Ġesprits": 7251,
      "Ġaccord": 7252,
      "ĠáĮ": 7253,
      "ouveaux": 7254,
      "fiÃ©e": 7255,
      "Ġ1971": 7256,
      "ĠQuel": 7257,
      "ĠdÃ©finie": 7258,
      "Ġportor": 7259,
      "ĠNeith": 7260,
      "Ġexempl": 7261,
      "opharm": 7262,
      "Ġ1989": 7263,
      "ĠamÃ©ricaines": 7264,
      "lÃ¨ge": 7265,
      "ĠJaponais": 7266,
      "Ġaliment": 7267,
      "apprend": 7268,
      "Ġrestre": 7269,
      "ĠdurÃ©e": 7270,
      "ĠCarac": 7271,
      "olution": 7272,
      "179": 7273,
      "Ġfutur": 7274,
      "ĠÃ©lectron": 7275,
      "Ġ177": 7276,
      "Ġlocal": 7277,
      "ĠfrÃ¨re": 7278,
      "Åĵil": 7279,
      "ĠpiÃ¨ces": 7280,
      "Ġtotal": 7281,
      "ĠfÃ©od": 7282,
      "ternet": 7283,
      "And": 7284,
      "Ġouvert": 7285,
      "Ġdomin": 7286,
      "Ġoffre": 7287,
      "Ġdoivent": 7288,
      "Ġvoyelle": 7289,
      "Ġromaine": 7290,
      "Ġclassiques": 7291,
      "Ġrelations": 7292,
      "Ġeffic": 7293,
      "tÃ©rieure": 7294,
      "Ġoctobre": 7295,
      "ĠXI": 7296,
      "ĠÃ©tudie": 7297,
      "Ġsalle": 7298,
      "Ġzones": 7299,
      "rÃ©viations": 7300,
      "Ġcircul": 7301,
      "ĠConseil": 7302,
      "ĠApoll": 7303,
      "Ġampoules": 7304,
      "Ġaffir": 7305,
      "Ġdistinguer": 7306,
      "ĠCannes": 7307,
      "ĠrÃ¨g": 7308,
      "Ġpassante": 7309,
      "avid": 7310,
      "ĠbactÃ©ries": 7311,
      "Ġinscrit": 7312,
      "Ġconfir": 7313,
      "ĠproblÃ¨me": 7314,
      "Ġ1945": 7315,
      "gly": 7316,
      "glom": 7317,
      "Ã©rogly": 7318,
      "ĠannoncÃ©": 7319,
      "chia": 7320,
      "ĠassociÃ©s": 7321,
      "Ġpratiqu": 7322,
      "Ġinformatiques": 7323,
      "Ġlimites": 7324,
      "Ġtechnologies": 7325,
      "ĠHarvard": 7326,
      "ĠsupplÃ©ment": 7327,
      "kihab": 7328,
      "Ġnove": 7329,
      "Ġ1932": 7330,
      "Ġ1936": 7331,
      "Ġshann": 7332,
      "1988": 7333,
      "Ġpublie": 7334,
      "informatique": 7335,
      "Ġartisan": 7336,
      "Ġartistes": 7337,
      "Ġcorrespondant": 7338,
      "ĠcÃ´te": 7339,
      "oudan": 7340,
      "Ġsuffixe": 7341,
      "Ġdevint": 7342,
      "ĠBlack": 7343,
      "Ġordinateur": 7344,
      "ĠdÃ©cim": 7345,
      "ĠprÃ©fecture": 7346,
      "Ġparticiper": 7347,
      "Ġdivertissements": 7348,
      "ĠĠĠĠĠĠĠĠĠĠĠĠĠĠ": 7349,
      "ĠĠĠĠĠĠĠĠĠĠĠĠĠĠĠ": 7350,
      "ĠáĪĲ": 7351,
      "visional": 7352,
      "ĠsupÃ©rieure": 7353,
      "ĠlibÃ©rales": 7354,
      "Ġclause": 7355,
      "littÃ©ralement": 7356,
      "Ġtraditionnelle": 7357,
      "Ġ1884": 7358,
      "Christ": 7359,
      "ĠRenÃ©": 7360,
      "ĠRenaissance": 7361,
      "Ġbutane": 7362,
      "ĠGrande": 7363,
      "Ġdirigeant": 7364,
      "Ġdirigeants": 7365,
      "ĠNÃ©erlandais": 7366,
      "ossaire": 7367,
      "Ġarchite": 7368,
      "Ġmusical": 7369,
      "ĠsÃ©paration": 7370,
      "ĠSuper": 7371,
      "ĠSuÃ¨de": 7372,
      "Ġadministrative": 7373,
      "Ġagricoles": 7374,
      "ĠdessinÃ©e": 7375,
      "Ġoccidentale": 7376,
      "ĠÃ®les": 7377,
      "Ġblues": 7378,
      "ĠÃ©tabli": 7379,
      "Augus": 7380,
      "Ġneuf": 7381,
      "Ġseigneuri": 7382,
      "ĠNouvel": 7383,
      "ĠcomparÃ©e": 7384,
      "Ġcritique": 7385,
      "Ġdescend": 7386,
      "Ġdescendant": 7387,
      "ĠLorsque": 7388,
      "ĠPatronyme": 7389,
      "ĠThÃ©orie": 7390,
      "ĠEntreprise": 7391,
      "ĠmunicipalitÃ©": 7392,
      "Ġdemeure": 7393,
      "Ġflotte": 7394,
      "ĠconÃ§u": 7395,
      "ĠhiÃ©rogly": 7396,
      "Ġfortifi": 7397,
      "Ġphytopharm": 7398,
      "ĠANSI": 7399,
      "Ġpoursuit": 7400,
      "ĠabrÃ©gÃ©": 7401,
      "ĠMichel": 7402,
      "delÃł": 7403,
      "Ġvecteurs": 7404,
      "ĠCantal": 7405,
      "ĠGalli": 7406,
      "ĠhÃ©ros": 7407,
      "ĠhalogÃ¨ne": 7408,
      "ĠmÃ©canique": 7409,
      "ĠdÃ©signÃ©": 7410,
      "ĠObjet": 7411,
      "ĠrÃ©comp": 7412,
      "Ġterminaux": 7413,
      "ĠfinanciÃ¨re": 7414,
      "Ġrestauration": 7415,
      "ĠGeorges": 7416,
      "Ã©roport": 7417,
      "Ġpionnier": 7418,
      "ĠAmemet": 7419,
      "ĠSkatal": 7420,
      "ĠBakufu": 7421,
      "Ġcarbone": 7422,
      "ĠfÃ©minin": 7423,
      "Ġprotocoles": 7424,
      "Horus": 7425,
      "Linnaeus": 7426,
      "ĠaÃ©rienne": 7427,
      "ĠLoiret": 7428,
      "Ġgerman": 7429,
      "ĠdÃ©bute": 7430,
      "ĠMoulins": 7431,
      "Ġlumineuse": 7432,
      "ĠáĭĲ": 7433,
      "Ġfondamentale": 7434,
      "Ġrendement": 7435,
      "ĠconsidÃ¨re": 7436,
      "Ġeuclidien": 7437,
      "ĠtempÃ©rature": 7438,
      "ĠsamouraÃ¯s": 7439,
      "ĠAKA": 7440,
      "Ġrejoint": 7441,
      "ĠBernard": 7442,
      "tÃ©roÃ¯de": 7443,
      "ĠLampe": 7444,
      "Ġatteint": 7445,
      "Ġdifficul": 7446,
      "Ġspectac": 7447,
      "ĠCentauri": 7448,
      "ĠPÃ©rigord": 7449,
      "ĠsÃ©curitÃ©": 7450,
      "Ġsanctuaire": 7451,
      "ĠtÃ©moign": 7452,
      "Ġfrottement": 7453,
      "ĠvÃ©hic": 7454,
      "ĠCoxsone": 7455,
      "ĠMystic": 7456,
      "ĠRichard": 7457,
      "ĠFrÃ©dÃ©ric": 7458,
      "ĠAngeles": 7459,
      "Ġidentique": 7460,
      "kihabara": 7461,
      "Ġphytopharmace": 7462,
      "ĠSkatalites": 7463,
      "'.": 7464,
      "'Â«": 7465,
      ".).": 7466,
      "03": 7467,
      "30": 7468,
      "35": 7469,
      "54": 7470,
      "84": 7471,
      "Ab": 7472,
      "Ari": 7473,
      "Atoum": 7474,
      "Aube": 7475,
      "CE": 7476,
      "ET": 7477,
      "Est": 7478,
      "Fabri": 7479,
      "IA": 7480,
      "Irak": 7481,
      "IRE": 7482,
      "NR": 7483,
      "OT": 7484,
      "Se": 7485,
      "TA": 7486,
      "The": 7487,
      "aj": 7488,
      "aques": 7489,
      "aussi": 7490,
      "ajout": 7491,
      "bÃ©": 7492,
      "bas": 7493,
      "bil": 7494,
      "bel": 7495,
      "blÃ©": 7496,
      "banisme": 7497,
      "cy": 7498,
      "crÃ©": 7499,
      "cend": 7500,
      "ctique": 7501,
      "dennes": 7502,
      "em": 7503,
      "fa": 7504,
      "fore": 7505,
      "fric": 7506,
      "go": 7507,
      "gin": 7508,
      "gÃ©nieur": 7509,
      "homme": 7510,
      "honneur": 7511,
      "io": 7512,
      "iers": 7513,
      "jim": 7514,
      "jolais": 7515,
      "lang": 7516,
      "mn": 7517,
      "mou": 7518,
      "mir": 7519,
      "nelle": 7520,
      "nout": 7521,
      "oz": 7522,
      "oble": 7523,
      "oche": 7524,
      "ook": 7525,
      "oÃ»": 7526,
      "pou": 7527,
      "por": 7528,
      "pour": 7529,
      "pri": 7530,
      "pente": 7531,
      "tul": 7532,
      "tous": 7533,
      "uelle": 7534,
      "uellement": 7535,
      "uga": 7536,
      "vÃ©s": 7537,
      "vÃ©es": 7538,
      "wk": 7539,
      "xi": 7540,
      "xes": 7541,
      "yra": 7542,
      "zer": 7543,
      "zac": 7544,
      "{\"": 7545,
      "}\"": 7546,
      "ÉĶ": 7547,
      "ÑĤ": 7548,
      "Ġ*": 7549,
      "Ġerre": 7550,
      "ĠÅĵu": 7551,
      "esses": 7552,
      "essif": 7553,
      "Ġdan": 7554,
      "Ġdange": 7555,
      "Ġlie": 7556,
      "Ġlien": 7557,
      "environ": 7558,
      "onique": 7559,
      "onÃ©tique": 7560,
      "Ã©th": 7561,
      "Ã©lie": 7562,
      "Ã©volution": 7563,
      "Ġps": 7564,
      "Ġpes": 7565,
      "Ġpau": 7566,
      "Ġpav": 7567,
      "Ġcum": 7568,
      "ĠcÃ¢": 7569,
      "Ġcandela": 7570,
      "anim": 7571,
      "quÃ©es": 7572,
      "quide": 7573,
      "quÃ©rant": 7574,
      "rew": 7575,
      "reau": 7576,
      "ission": 7577,
      "Ġast": 7578,
      "intÃ©r": 7579,
      "industrie": 7580,
      "Ġmun": 7581,
      "Ġmor": 7582,
      "Ġmoles": 7583,
      "ĠmÃ¨ne": 7584,
      "arisation": 7585,
      "organis": 7586,
      "Ġlaiss": 7587,
      "Ġts": 7588,
      "Ġten": 7589,
      "uriel": 7590,
      "Ġfit": 7591,
      "Ġfaux": 7592,
      "Ġflu": 7593,
      "Ġfavor": 7594,
      "itaine": 7595,
      "Ġvac": 7596,
      "Ġvingt": 7597,
      "Ġunde": 7598,
      "Ġunique": 7599,
      "asp": 7600,
      "Ġench": 7601,
      "Ġentier": 7602,
      "Ġdescription": 7603,
      "ĠnÃ©e": 7604,
      "Ġnob": 7605,
      "ĠnÉĻ": 7606,
      "raient": 7607,
      "ĠLy": 7608,
      "ĠLux": 7609,
      "ĠLouvre": 7610,
      "ĠLyon": 7611,
      "quemment": 7612,
      "aug": 7613,
      "autÃ©s": 7614,
      "ĠCrÃ©": 7615,
      "ĠCam": 7616,
      "ĠCos": 7617,
      "ĠCiv": 7618,
      "ĠCross": 7619,
      "ĠCount": 7620,
      "Ġcomte": 7621,
      "ĠAg": 7622,
      "ĠAqu": 7623,
      "ĠAux": 7624,
      "ĠApple": 7625,
      "ĠAfrique": 7626,
      "ĠAker": 7627,
      "ĠASP": 7628,
      "antÃ©": 7629,
      "cembre": 7630,
      "chain": 7631,
      "liÃ©e": 7632,
      "liÃ©s": 7633,
      "seud": 7634,
      "Ġgal": 7635,
      "Ġguer": 7636,
      "Ġplate": 7637,
      "rime": 7638,
      "rices": 7639,
      "rimer": 7640,
      "ridae": 7641,
      "ĠPie": 7642,
      "ĠPic": 7643,
      "ĠPtah": 7644,
      "ĠPhara": 7645,
      "Ġpartis": 7646,
      "Ġparenth": 7647,
      "ĠElectron": 7648,
      "Ġjuri": 7649,
      "sier": 7650,
      "ola": 7651,
      "ĠTout": 7652,
      "ĠTole": 7653,
      "Ġcondition": 7654,
      "Ġconjec": 7655,
      "Ġcontenant": 7656,
      "atou": 7657,
      "atoire": 7658,
      "agin": 7659,
      "ĠDJ": 7660,
      "ĠDen": 7661,
      "ĠDavid": 7662,
      "ĠÃ©rig": 7663,
      "ĠÃ©mis": 7664,
      "ĠÃ©lu": 7665,
      "ĠÃ©qui": 7666,
      "Ġreine": 7667,
      "Ġremar": 7668,
      "ĠSI": 7669,
      "ĠSing": 7670,
      "demment": 7671,
      "Ġchap": 7672,
      "Ġchasse": 7673,
      "ĠpoÃ¨te": 7674,
      "ĠBen": 7675,
      "ĠBord": 7676,
      "ĠBelle": 7677,
      "ĠBob": 7678,
      "terie": 7679,
      "cienne": 7680,
      "cimpunctata": 7681,
      "rÃ©g": 7682,
      "Ġouest": 7683,
      "ĠdÃ©mons": 7684,
      "ĠdÃ©cembre": 7685,
      "Ġexplique": 7686,
      "Ġeaux": 7687,
      "Ġeleg": 7688,
      "ĠGen": 7689,
      "ĠGas": 7690,
      "ĠGra": 7691,
      "ĠGau": 7692,
      "ĠGuy": 7693,
      "ĠGame": 7694,
      "ĠGÃ©rard": 7695,
      "ĠMes": 7696,
      "ĠMos": 7697,
      "ĠMic": 7698,
      "ĠMorgan": 7699,
      "Ġsee": 7700,
      "rand": 7701,
      "ĠImp": 7702,
      "ĠIrlande": 7703,
      "ĠIBM": 7704,
      "Ġint": 7705,
      "Ġinten": 7706,
      "Ġintro": 7707,
      "Ġintellig": 7708,
      "Ġinfinie": 7709,
      "dic": 7710,
      "dier": 7711,
      "blement": 7712,
      "ffe": 7713,
      "ĠVoi": 7714,
      "ĠVic": 7715,
      "ĠVIC": 7716,
      "geois": 7717,
      "Ġtelle": 7718,
      "ĠJack": 7719,
      "ĠJÃ©sus": 7720,
      "ĠOss": 7721,
      "ĠOsiris": 7722,
      "Ġhab": 7723,
      "Ġhuit": 7724,
      "Ġhume": 7725,
      "Ġhilber": 7726,
      "ensus": 7727,
      "Ġdimin": 7728,
      "Ġdipl": 7729,
      "ogramme": 7730,
      "ĠNic": 7731,
      "ĠNÃ©s": 7732,
      "ĠNations": 7733,
      "ĠNote": 7734,
      "Ġsimplement": 7735,
      "ĠRÃ©s": 7736,
      "ĠRasta": 7737,
      "ams": 7738,
      "ulg": 7739,
      "ulation": 7740,
      "ĠrÃ©un": 7741,
      "ĠrÃ©seaux": 7742,
      "Ġprovient": 7743,
      "Ġproto": 7744,
      "Ġprovo": 7745,
      "Ġprojets": 7746,
      "Ġprocesseur": 7747,
      "Ġvic": 7748,
      "Ġvigue": 7749,
      "Ġviande": 7750,
      "ĠWindo": 7751,
      "mois": 7752,
      "uisse": 7753,
      "ĠHat": 7754,
      "ĠHong": 7755,
      "tuel": 7756,
      "Ġcos": 7757,
      "phantine": 7758,
      "osent": 7759,
      "umÃ©": 7760,
      "Ġmonar": 7761,
      "Ġmonarch": 7762,
      "Ġmonument": 7763,
      "oulement": 7764,
      "Ã¨rement": 7765,
      "Ġmodes": 7766,
      "iron": 7767,
      "moires": 7768,
      "ĠnommÃ©e": 7769,
      "ĠCham": 7770,
      "ĠChron": 7771,
      "ĠChrist": 7772,
      "ĠChiron": 7773,
      "Ġartif": 7774,
      "Ġarticles": 7775,
      "ĠarmÃ©nien": 7776,
      "Ġarbit": 7777,
      "retagne": 7778,
      "ĠprÃ©nom": 7779,
      "ĠcarrÃ©": 7780,
      "ĠcarriÃ¨re": 7781,
      "Ġcarnivores": 7782,
      "ctor": 7783,
      "ctur": 7784,
      "ureau": 7785,
      "ologne": 7786,
      "ologiques": 7787,
      "Ġconcerne": 7788,
      "Ġrac": 7789,
      "Ġapproche": 7790,
      "âĶ´": 7791,
      "âĶĲ": 7792,
      "ĠKoweÃ¯": 7793,
      "ting": 7794,
      "Ã©rite": 7795,
      "ĠÃ©tat": 7796,
      "ĠÃ©troi": 7797,
      "Ġcommunales": 7798,
      "ĠcommunautÃ©s": 7799,
      "opes": 7800,
      "opÃ©ration": 7801,
      "entine": 7802,
      "utile": 7803,
      "1916": 7804,
      "ĠArts": 7805,
      "ĠArtiste": 7806,
      "ĠArdennes": 7807,
      "dÃ©c": 7808,
      "Ġcourse": 7809,
      "Ġcourtes": 7810,
      "Ġcourants": 7811,
      "lÃ©phantine": 7812,
      "issage": 7813,
      "lah": 7814,
      "lare": 7815,
      "Ġaccep": 7816,
      "ĠacadÃ©": 7817,
      "Ġtraduction": 7818,
      "ropole": 7819,
      "ubis": 7820,
      "Ġyou": 7821,
      "Ġsyllab": 7822,
      "ĠAnne": 7823,
      "ĠAngleterre": 7824,
      "thÃ¨se": 7825,
      "adel": 7826,
      "heb": 7827,
      "rouve": 7828,
      "tification": 7829,
      "iteurs": 7830,
      "traction": 7831,
      "ructure": 7832,
      "Ġrepose": 7833,
      "Ġsession": 7834,
      "Ġmets": 7835,
      "ĠmÃ©ta": 7836,
      "ĠmÃ©lodie": 7837,
      "mÃ©tri": 7838,
      "Ġbassin": 7839,
      "tente": 7840,
      "arition": 7841,
      "akura": 7842,
      "Ġvoisins": 7843,
      "Ġador": 7844,
      "Ġtir": 7845,
      "Ġtiers": 7846,
      "Ġtiges": 7847,
      "illy": 7848,
      "illages": 7849,
      "illaume": 7850,
      "Ġexpli": 7851,
      "Ġ1996": 7852,
      "Ã©cran": 7853,
      "Ã©culaire": 7854,
      "Ã©crire": 7855,
      "icielle": 7856,
      "mane": 7857,
      "ĠdÃ©cis": 7858,
      "Ġaband": 7859,
      "Ġabstra": 7860,
      "fiction": 7861,
      "idÃ©e": 7862,
      "ĠimpÃ©ra": 7863,
      "ĠtournÃ©e": 7864,
      "lications": 7865,
      "Ġdiffusion": 7866,
      "ĠRÃ©volution": 7867,
      "Ġ2003": 7868,
      "Ġ2008": 7869,
      "Ġconnexion": 7870,
      "Ġpersonnes": 7871,
      "ĠcrÃ©e": 7872,
      "ĠcrÃ©ateur": 7873,
      "ĠReprÃ©": 7874,
      "trice": 7875,
      "trich": 7876,
      "Ã©tÃ©roptÃ¨res": 7877,
      "Ġchev": 7878,
      "Ġcheval": 7879,
      "ĠMexique": 7880,
      "ĠĠĠĠĠĠĠĠĠĠĠĠĠĠĠĠ": 7881,
      "aissant": 7882,
      "Ġspati": 7883,
      "Ġvisuels": 7884,
      "Ġvisiteurs": 7885,
      "Ġprimor": 7886,
      "ĠÃ©gyptiens": 7887,
      "national": 7888,
      "eneur": 7889,
      "ĠColle": 7890,
      "ĠColÃ©op": 7891,
      "Ġtelles": 7892,
      "assÃ©": 7893,
      "association": 7894,
      "Ġ1976": 7895,
      "Ġsuccessi": 7896,
      "Ġpermettait": 7897,
      "avoir": 7898,
      "ĠfondÃ©": 7899,
      "Ġ464": 7900,
      "ĠdiffÃ©rend": 7901,
      "Ġpolici": 7902,
      "ĠNephtys": 7903,
      "tisme": 7904,
      "Ġcertaine": 7905,
      "Ġaspect": 7906,
      "Ġ1983": 7907,
      "ĠamÃ©ricains": 7908,
      "lÃ¨te": 7909,
      "Ġtombeau": 7910,
      "Ġliquide": 7911,
      "onymes": 7912,
      "ĠCarÃ©lie": 7913,
      "ĠchargÃ©": 7914,
      "Ġcharpente": 7915,
      "Ġappartenant": 7916,
      "Ġ1962": 7917,
      "Ġ1967": 7918,
      "Ġprendre": 7919,
      "Ġpartage": 7920,
      "Institut": 7921,
      "communications": 7922,
      "Ġlocales": 7923,
      "Ġplein": 7924,
      "ĠÃ©cran": 7925,
      "ĠÃ©coles": 7926,
      "Ġmilliers": 7927,
      "ĠfÃ©dÃ©": 7928,
      "Ġjuin": 7929,
      "ĠdÃ©velopper": 7930,
      "Ang": 7931,
      "Ancien": 7932,
      "alifor": 7933,
      "ĠThot": 7934,
      "rÃ©sil": 7935,
      "Ġpersonnelle": 7936,
      "Ġ[-": 7937,
      "oriz": 7938,
      "quiÃ¨me": 7939,
      "ather": 7940,
      "Ġrelation": 7941,
      "ĠrÃ©publique": 7942,
      "Ġprofonde": 7943,
      "Ã©rieures": 7944,
      "Ġnationaux": 7945,
      "Ġroyal": 7946,
      "Ġincar": 7947,
      "Ġ\"{\"": 7948,
      "Ġsynta": 7949,
      "Ġsynonyme": 7950,
      "2002": 7951,
      "Ġoccupe": 7952,
      "ĠShou": 7953,
      "Ġsemble": 7954,
      "ĠprÃ©cision": 7955,
      "Ġphysicien": 7956,
      "ĠmalgrÃ©": 7957,
      "Ġ1959": 7958,
      "Ġaffaires": 7959,
      "Ġaffluent": 7960,
      "Ġmaintenant": 7961,
      "Ġdistinction": 7962,
      "ĠconstituÃ©": 7963,
      "Ġsituation": 7964,
      "ĠconsidÃ©ra": 7965,
      "Ġprogramme": 7966,
      "Ġprogressivement": 7967,
      "Ġoptique": 7968,
      "ĠdÃ©finitions": 7969,
      "interdiction": 7970,
      "Ġpassant": 7971,
      "Ġproductions": 7972,
      "Ġdevenue": 7973,
      "ĠscÃ¨ne": 7974,
      "Ġvolont": 7975,
      "Ġ1940": 7976,
      "Ġ1946": 7977,
      "Ġanglaise": 7978,
      "rondissements": 7979,
      "Ġannonce": 7980,
      "Ġconcentrations": 7981,
      "ĠâĶĮ": 7982,
      "ĠprÃ©sents": 7983,
      "Ġmajeur": 7984,
      "Ġinternationaliste": 7985,
      "Ġlinguiste": 7986,
      "acks": 7987,
      "Ġinformation": 7988,
      "Ġgrandeur": 7989,
      "ĠpossÃ¨dent": 7990,
      "Ġelse": 7991,
      "Ġportes": 7992,
      "Ġcontrat": 7993,
      "Ġretrouve": 7994,
      "ĠmathÃ©matique": 7995,
      "ĠmathÃ©maticien": 7996,
      "ysis": 7997,
      "ĠÃ©pous": 7998,
      "Ġculturel": 7999,
      "Ġpublique": 8000,
      "Ġrendre": 8001,
      "ĠOrganis": 8002,
      "Ġvideo": 8003,
      "Ġsubst": 8004,
      "ĠKhent": 8005,
      "ĠKhonsou": 8006,
      "ĠcÃ´tÃ©s": 8007,
      "tell": 8008,
      "ĠtÃ©lÃ©vision": 8009,
      "ĠtÃ©lÃ©communications": 8010,
      "Ġchinoise": 8011,
      "Ġscientifiques": 8012,
      "Ġcuisine": 8013,
      "tiquitÃ©": 8014,
      "ĠBlonde": 8015,
      "ĠBeat": 8016,
      "Ġsolutions": 8017,
      "criptions": 8018,
      "ÉĻs": 8019,
      "Ġbataille": 8020,
      "ĠdÃ©cimales": 8021,
      "Ġoriginaire": 8022,
      "ĠreprÃ©senter": 8023,
      "Ġcommerciales": 8024,
      "ĠfrÃ©quemment": 8025,
      "ĠprononcÃ©": 8026,
      "Ġprononciation": 8027,
      "Ġphilosophie": 8028,
      "ministration": 8029,
      "Ġinitiales": 8030,
      "Ġtransfert": 8031,
      "Ġstructures": 8032,
      "Ġsynchron": 8033,
      "ĠmajoritÃ©": 8034,
      "ĠsixiÃ¨me": 8035,
      "ĠcatÃ©g": 8036,
      "Ġaugment": 8037,
      "ĠGood": 8038,
      "ĠNÃ©anmoins": 8039,
      "Ġalbums": 8040,
      "Ġtypes": 8041,
      "ĠCalvad": 8042,
      "ĠPrÃ©sident": 8043,
      "ĠÃ©quiv": 8044,
      "Ġchoisir": 8045,
      "ĠintÃ©grÃ©": 8046,
      "Ġtrouvait": 8047,
      "ĠcaractÃ©ristique": 8048,
      "Ã©quivalent": 8049,
      "ragÃ¡n": 8050,
      "Ġ128": 8051,
      "Ġ1839": 8052,
      "Ġgratuits": 8053,
      "ĠemployÃ©": 8054,
      "Ġloisirs": 8055,
      "Ġbyte": 8056,
      "ĠBarbuda": 8057,
      "ĠBarragÃ¡n": 8058,
      "Ġhongroise": 8059,
      "ĠÃ©tablisse": 8060,
      "ĠpropriÃ©tÃ©": 8061,
      "laboration": 8062,
      "ĠPrincip": 8063,
      "ĠbÃ©nÃ©fici": 8064,
      "Aude": 8065,
      "Environnement": 8066,
      "ĠToponyme": 8067,
      "Ġseigneur": 8068,
      "ĠHauts": 8069,
      "Ġmachine": 8070,
      "Ġinstruments": 8071,
      "ĠopÃ©rations": 8072,
      "ĠÅĮ": 8073,
      "Ġvendu": 8074,
      "ĠCulte": 8075,
      "ĠThÃ©orÃ¨me": 8076,
      "ĠDouamoutef": 8077,
      "Ġjeunes": 8078,
      "Ġreconstruction": 8079,
      "Ġmultiples": 8080,
      "essentiel": 8081,
      "ĠdÃ©diÃ©": 8082,
      "ĠVOC": 8083,
      "ĠidÃ©es": 8084,
      "Ġministres": 8085,
      "Ġbarbacanes": 8086,
      "europÃ©ennes": 8087,
      "Ġshoguns": 8088,
      "Ġshogunat": 8089,
      "ĠdonnÃ©e": 8090,
      "Ġsouten": 8091,
      "Ġenseigne": 8092,
      "Ġpoursui": 8093,
      "ĠOrigine": 8094,
      "Ġsystems": 8095,
      "autoritÃ©": 8096,
      "donÃ©si": 8097,
      "emploie": 8098,
      "ochim": 8099,
      "ĠcoordonnÃ©es": 8100,
      "Ġexactement": 8101,
      "ĠChÃ¢teau": 8102,
      "Ġjournal": 8103,
      "Ġdivision": 8104,
      "systems": 8105,
      "Ġtraditionnelles": 8106,
      "fred": 8107,
      "Ã«l": 8108,
      "Ġcitoy": 8109,
      "Ġenregistre": 8110,
      "olÃ©on": 8111,
      "ĠGlossaire": 8112,
      "Ġdizaines": 8113,
      "ĠFujim": 8114,
      "ĠimpÃ©rial": 8115,
      "Ġcalligramme": 8116,
      "cussions": 8117,
      "Ġdelta": 8118,
      "invest": 8119,
      "ĠfunÃ©ra": 8120,
      "ĠHenri": 8121,
      "ĠUrbanisme": 8122,
      "ĠRedhead": 8123,
      "ĠrÃ©pandue": 8124,
      "Ġinstitutions": 8125,
      "symbole": 8126,
      "ĠstratÃ©gie": 8127,
      "notamment": 8128,
      "ĠdensitomÃ¨tre": 8129,
      "ĠlycÃ©e": 8130,
      "ustralie": 8131,
      "ĠLivre": 8132,
      "ĠContraire": 8133,
      "ĠPalme": 8134,
      "ĠDirection": 8135,
      "ĠhÃ©ritier": 8136,
      "Ġdiversi": 8137,
      "ĠHomonymie": 8138,
      "ĠcarÃ©lienne": 8139,
      "Ġsignifiant": 8140,
      "Ġindividu": 8141,
      "Ġmagasins": 8142,
      "ĠmÃ©diÃ©vale": 8143,
      "Spilota": 8144,
      "ĠsÊ¼Ã¤": 8145,
      "ĠCinÃ©ma": 8146,
      "ĠClaude": 8147,
      "ĠToutefois": 8148,
      "ĠcongrÃ¨s": 8149,
      "Ġsembl": 8150,
      "ĠinfÃ©rieure": 8151,
      "tugais": 8152,
      "absence": 8153,
      "AthÃ¨nes": 8154,
      "ĠCÃ©sar": 8155,
      "Ġcomitatif": 8156,
      "agriculture": 8157,
      "ĠdÃ©tourner": 8158,
      "ĠMulsant": 8159,
      "Ġstudio": 8160,
      "ĠHÃ©rodote": 8161,
      "Ġornementales": 8162,
      "ĠQuelques": 8163,
      "Ġportoricain": 8164,
      "Ġrestreint": 8165,
      "Ġefficace": 8166,
      "ĠrÃ¨gles": 8167,
      "glomÃ©ration": 8168,
      "Ġnovembre": 8169,
      "Ġdescendants": 8170,
      "AriÃ¨ge": 8171,
      "Fabricius": 8172,
      "Ġdanois": 8173,
      "Ġdangere": 8174,
      "intÃ©rÃªt": 8175,
      "Ġundecimpunctata": 8176,
      "ĠenchÃ¨res": 8177,
      "Ġnobles": 8178,
      "ĠnÉĻgus": 8179,
      "ĠPharaon": 8180,
      "ĠparenthÃ¨ses": 8181,
      "ĠToledo": 8182,
      "Ġconjecture": 8183,
      "ĠdÃ©monstration": 8184,
      "Ġelegans": 8185,
      "ĠOssie": 8186,
      "Ġhumeur": 8187,
      "Ġvigueur": 8188,
      "ĠWindows": 8189,
      "Ġarbitres": 8190,
      "ĠKoweÃ¯t": 8191,
      "Ġprimordi": 8192,
      "ĠColÃ©optÃ¨re": 8193,
      "ĠCalvados": 8194,
      "ĠFujimori": 8195,
      "ĠContrairement": 8196,
      ".),": 8197,
      "73": 8198,
      "80": 8199,
      "87": 8200,
      "AGP": 8201,
      "Apophis": 8202,
      "Asie": 8203,
      "Edo": 8204,
      "Ehb": 8205,
      "Her": 8206,
      "IEC": 8207,
      "Joseph": 8208,
      "Lou": 8209,
      "ML": 8210,
      "MM": 8211,
      "Mar": 8212,
      "Naur": 8213,
      "Oasis": 8214,
      "PM": 8215,
      "RA": 8216,
      "Son": 8217,
      "Sch": 8218,
      "Soudan": 8219,
      "TP": 8220,
      "UR": 8221,
      "ao": 8222,
      "aou": 8223,
      "aÃ©roport": 8224,
      "bun": 8225,
      "bour": 8226,
      "bri": 8227,
      "core": 8228,
      "cÃ¨de": 8229,
      "cell": 8230,
      "dj": 8231,
      "dom": 8232,
      "duire": 8233,
      "dÃ¨che": 8234,
      "eus": 8235,
      "fr": 8236,
      "fas": 8237,
      "fusion": 8238,
      "faces": 8239,
      "film": 8240,
      "gs": 8241,
      "gal": 8242,
      "gist": 8243,
      "gÃ©s": 8244,
      "garde": 8245,
      "gentine": 8246,
      "hm": 8247,
      "hen": 8248,
      "hou": 8249,
      "hit": 8250,
      "huit": 8251,
      "ian": 8252,
      "idi": 8253,
      "ierre": 8254,
      "jn": 8255,
      "jand": 8256,
      "ku": 8257,
      "ken": 8258,
      "kate": 8259,
      "len": 8260,
      "lux": 8261,
      "lls": 8262,
      "mus": 8263,
      "mig": 8264,
      "mise": 8265,
      "nai": 8266,
      "naire": 8267,
      "noum": 8268,
      "oe": 8269,
      "of": 8270,
      "oÃ¯": 8271,
      "oasis": 8272,
      "pet": 8273,
      "pel": 8274,
      "pse": 8275,
      "pens": 8276,
      "pture": 8277,
      "punctata": 8278,
      "qet": 8279,
      "rennent": 8280,
      "tol": 8281,
      "uil": 8282,
      "uant": 8283,
      "uble": 8284,
      "wen": 8285,
      "yw": 8286,
      "ymp": 8287,
      "zing": 8288,
      "Â»": 8289,
      "ÈĿ": 8290,
      "Ð»": 8291,
      "à®": 8292,
      "áĮ": 8293,
      "çĻ": 8294,
      "Ġu": 8295,
      "Ġois": 8296,
      "Ġorth": 8297,
      "ģä¸Ģ": 8298,
      "Ĵu": 8299,
      "Ġdance": 8300,
      "Ġlun": 8301,
      "Ġlut": 8302,
      "ĠlÃł": 8303,
      "enet": 8304,
      "onse": 8305,
      "Ã©lier": 8306,
      "Ã©val": 8307,
      "Ã©lÃ¨ve": 8308,
      "Ã©vÃ©nement": 8309,
      "Ġpant": 8310,
      "Ġpale": 8311,
      "Ġpond": 8312,
      "Ġcouv": 8313,
      "Ġcrit": 8314,
      "Ġcru": 8315,
      "Ġcible": 8316,
      "ĠcÃ©lÃ©": 8317,
      "Ġcath": 8318,
      "Ġcouvert": 8319,
      "Ġsch": 8320,
      "Ġscis": 8321,
      "Ġsaint": 8322,
      "Ġsultan": 8323,
      "anitÃ©": 8324,
      "ouf": 8325,
      "ouge": 8326,
      "quisse": 8327,
      "reur": 8328,
      "istique": 8329,
      "isÃ©s": 8330,
      "techn": 8331,
      "Ġaqu": 8332,
      "Ġair": 8333,
      "Ġajou": 8334,
      "Ġachet": 8335,
      "tiles": 8336,
      "tidae": 8337,
      "levant": 8338,
      "lemande": 8339,
      "lejand": 8340,
      "inatif": 8341,
      "initi": 8342,
      "insectes": 8343,
      "eri": 8344,
      "erce": 8345,
      "erres": 8346,
      "ering": 8347,
      "erma": 8348,
      "entrÃ©e": 8349,
      "arita": 8350,
      "ories": 8351,
      "ortÃ©es": 8352,
      "omÃ©": 8353,
      "omÃ¨tres": 8354,
      "Ġtor": 8355,
      "Ġtenant": 8356,
      "Ġtardi": 8357,
      "Ġtung": 8358,
      "Ġtatou": 8359,
      "Ġfic": 8360,
      "Ġfilles": 8361,
      "Ġfronti": 8362,
      "itas": 8363,
      "itÃ©e": 8364,
      "Ġvan": 8365,
      "Ġvain": 8366,
      "ĠvÃ©ri": 8367,
      "ĠvÃ©nÃ©": 8368,
      "uscrit": 8369,
      "usalem": 8370,
      "Ġunies": 8371,
      "estom": 8372,
      "aste": 8373,
      "Ġend": 8374,
      "Ġenter": 8375,
      "Ġnouveaux": 8376,
      "ration": 8377,
      "raÃ«l": 8378,
      "media": 8379,
      "mells": 8380,
      "ĠLo": 8381,
      "ĠLag": 8382,
      "ĠLot": 8383,
      "ĠLinguis": 8384,
      "allet": 8385,
      "album": 8386,
      "quement": 8387,
      "ĠÃ¢": 8388,
      "Ġbot": 8389,
      "Ġbrev": 8390,
      "Ġbaie": 8391,
      "aud": 8392,
      "auv": 8393,
      "ĠCI": 8394,
      "ĠCro": 8395,
      "ĠCentre": 8396,
      "ĠCub": 8397,
      "ĠConc": 8398,
      "ĠCong": 8399,
      "ĠCamb": 8400,
      "ĠcomtÃ©": 8401,
      "ĠAli": 8402,
      "ĠAton": 8403,
      "ĠAmpoule": 8404,
      "ĠAustralie": 8405,
      "ĠAlejand": 8406,
      "antan": 8407,
      "Ġ(),": 8408,
      "chen": 8409,
      "chis": 8410,
      "chÃ©es": 8411,
      "lian": 8412,
      "lidae": 8413,
      "seur": 8414,
      "Ã¨ches": 8415,
      "mphis": 8416,
      "roph": 8417,
      "rolog": 8418,
      "Ġgu": 8419,
      "Ġgare": 8420,
      "ĠgÃ¨nes": 8421,
      "ansion": 8422,
      "ĠPor": 8423,
      "ĠPri": 8424,
      "ĠPage": 8425,
      "ĠPyth": 8426,
      "ĠPlau": 8427,
      "ĠPatin": 8428,
      "Ġparois": 8429,
      "ĠEl": 8430,
      "ĠEss": 8431,
      "ressions": 8432,
      "sir": 8433,
      "siÃ¨re": 8434,
      "oline": 8435,
      "ĠTom": 8436,
      "ĠTaÃ¯": 8437,
      "ĠTouch": 8438,
      "ĠconfÃ©rences": 8439,
      "Ġconver": 8440,
      "Ġconcep": 8441,
      "Ġconnec": 8442,
      "ator": 8443,
      "atus": 8444,
      "agÃ©": 8445,
      "agent": 8446,
      "agglomÃ©ration": 8447,
      "ĠDod": 8448,
      "ĠDurant": 8449,
      "ĠÃ©dition": 8450,
      "Ġreti": 8451,
      "ĠSant": 8452,
      "ĠSui": 8453,
      "ĠShe": 8454,
      "ĠSitu": 8455,
      "ĠSok": 8456,
      "ĠSno": 8457,
      "ĠSki": 8458,
      "ĠSeth": 8459,
      "ĠSuisse": 8460,
      "depuis": 8461,
      "Ġ115": 8462,
      "Ġchor": 8463,
      "Ġchaire": 8464,
      "Ġchien": 8465,
      "Ġsim": 8466,
      "onto": 8467,
      "ĠBu": 8468,
      "ĠBre": 8469,
      "ĠBit": 8470,
      "ĠBos": 8471,
      "ĠBilb": 8472,
      "cience": 8473,
      "rÃ©al": 8474,
      "Ġoutre": 8475,
      "Ġouvre": 8476,
      "ĠdÃ©ch": 8477,
      "ĠdÃ©li": 8478,
      "ĠdÃ©lÃ©": 8479,
      "ĠdÃ©rou": 8480,
      "ĠdÃ©mar": 8481,
      "ĠdÃ©part": 8482,
      "ĠGDF": 8483,
      "ĠGroup": 8484,
      "ĠGolfe": 8485,
      "ĠMor": 8486,
      "ĠMit": 8487,
      "ĠMil": 8488,
      "ĠMot": 8489,
      "ĠMad": 8490,
      "ĠMah": 8491,
      "ĠMoto": 8492,
      "rante": 8493,
      "ĠIr": 8494,
      "ĠIt": 8495,
      "ĠIran": 8496,
      "Ġinven": 8497,
      "Ġincl": 8498,
      "Ġinno": 8499,
      "Ġintit": 8500,
      "Ġindis": 8501,
      "ĠindonÃ©si": 8502,
      "alerie": 8503,
      "dies": 8504,
      "diques": 8505,
      "dios": 8506,
      "Ġstars": 8507,
      "ĠVin": 8508,
      "ĠVie": 8509,
      "ĠJu": 8510,
      "ĠJÃ©r": 8511,
      "ĠJules": 8512,
      "ĠOS": 8513,
      "ĠOs": 8514,
      "Ġhard": 8515,
      "Ġdite": 8516,
      "ĠNi": 8517,
      "ĠNubie": 8518,
      "ĠRos": 8519,
      "ĠRod": 8520,
      "ĠRome": 8521,
      "ĠRhÃ´ne": 8522,
      "amon": 8523,
      "amusant": 8524,
      "ulture": 8525,
      "ulaires": 8526,
      "ĠrÃ©volu": 8527,
      "ĠrÃ©volution": 8528,
      "ĠrÃ©ception": 8529,
      "Ġprosp": 8530,
      "Ġvice": 8531,
      "Ġvign": 8532,
      "Ġvivre": 8533,
      "ĠWi": 8534,
      "ĠWolf": 8535,
      "ĠWoz": 8536,
      "Ġ21": 8537,
      "ĠHan": 8538,
      "ĠHyd": 8539,
      "ĠHaute": 8540,
      "ĠHouse": 8541,
      "ĠFÃ©": 8542,
      "ĠFond": 8543,
      "ĠFah": 8544,
      "ĠFoot": 8545,
      "ĠFilm": 8546,
      "Ġdispose": 8547,
      "Ġdisquettes": 8548,
      "ouvoir": 8549,
      "ouvrage": 8550,
      "Ġ1918": 8551,
      "Ġ1926": 8552,
      "ango": 8553,
      "angle": 8554,
      "Ġcoc": 8555,
      "occupe": 8556,
      "ocrate": 8557,
      "Ġsavant": 8558,
      "phin": 8559,
      "Ã©rindi": 8560,
      "Ġcomprennent": 8561,
      "Ġ|}": 8562,
      "oser": 8563,
      "osant": 8564,
      "osse": 8565,
      "ossi": 8566,
      "ostique": 8567,
      "osser": 8568,
      "niak": 8569,
      "uez": 8570,
      "ueil": 8571,
      "ueilli": 8572,
      "stÃ¨ne": 8573,
      "Ġtru": 8574,
      "Ġmoteur": 8575,
      "irie": 8576,
      "erton": 8577,
      "ertiste": 8578,
      "Ġantiques": 8579,
      "Ġanalog": 8580,
      "ĠprÃª": 8581,
      "Ġprennent": 8582,
      "Ã§aient": 8583,
      "utation": 8584,
      "utenant": 8585,
      "ĠnommÃ©s": 8586,
      "Ġnominatif": 8587,
      "Ġexam": 8588,
      "Ġexcep": 8589,
      "ĠChent": 8590,
      "ĠChyp": 8591,
      "ĠAlan": 8592,
      "ĠAlgÃ¨bre": 8593,
      "ĠAlfred": 8594,
      "Ġarmes": 8595,
      "apar": 8596,
      "ĠprÃ©dÃ©": 8597,
      "Ġcarn": 8598,
      "Ġcardin": 8599,
      "Ġconcerts": 8600,
      "Ġsug": 8601,
      "Ġrais": 8602,
      "ĠĠĠĠĠ": 8603,
      "ĠKan": 8604,
      "ĠKam": 8605,
      "ĠKhÃ©": 8606,
      "ĠKolo": 8607,
      "ĠKazu": 8608,
      "Ġpeuples": 8609,
      "ĠÃīdou": 8610,
      "optÃ¨res": 8611,
      "ĠÃ©gale": 8612,
      "ĠUs": 8613,
      "ĠUNIX": 8614,
      "Ġallemande": 8615,
      "ĠforÃªt": 8616,
      "ĠArt": 8617,
      "tsk": 8618,
      "ayt": 8619,
      "ayant": 8620,
      "lÃ©ans": 8621,
      "issoire": 8622,
      "Ġpartiellement": 8623,
      "ypso": 8624,
      "Ġactes": 8625,
      "Ġactive": 8626,
      "Ġkan": 8627,
      "Ġkatana": 8628,
      "Ġtrait": 8629,
      "Ġtrajet": 8630,
      "Ġtraits": 8631,
      "ĠfranÃ§aises": 8632,
      "ropri": 8633,
      "orer": 8634,
      "Ġpuissant": 8635,
      "Ġsymp": 8636,
      "ĠAnges": 8637,
      "ĠiP": 8638,
      "adj": 8639,
      "ady": 8640,
      "ĠminÃ©ra": 8641,
      "aÃ¢": 8642,
      "onnais": 8643,
      "objectif": 8644,
      "obtenir": 8645,
      "obacte": 8646,
      "ĠInstitu": 8647,
      "Ġmarti": 8648,
      "Ġmarais": 8649,
      "Ġmarches": 8650,
      "Ã¢h": 8651,
      "Ġterres": 8652,
      "Ġterrain": 8653,
      "Ġterrestre": 8654,
      "Ġservent": 8655,
      "ommand": 8656,
      "ommage": 8657,
      "Ġentreprise": 8658,
      "ĠParmi": 8659,
      "accÃ¨s": 8660,
      "mbla": 8661,
      "Ã´s": 8662,
      "Ġmettant": 8663,
      "Ġconsiste": 8664,
      "Ġconsonne": 8665,
      "Ġconsoles": 8666,
      "Ġconsoli": 8667,
      "ĠconsÃ©qu": 8668,
      "Ġconsensus": 8669,
      "hÃ©on": 8670,
      "hÃ©Ã¢tre": 8671,
      "Ġ1817": 8672,
      "Ġ1821": 8673,
      "Ġsuivie": 8674,
      "arium": 8675,
      "akers": 8676,
      "akht": 8677,
      "onctu": 8678,
      "Ġcomprendre": 8679,
      "alisme": 8680,
      "Ġcass": 8681,
      "ĠamÃ©rindi": 8682,
      "Ġrecommand": 8683,
      "vergne": 8684,
      "Ġexpressions": 8685,
      "allÃ©s": 8686,
      "Ã©cole": 8687,
      "Ã©criv": 8688,
      "Ġcontinue": 8689,
      "Ġregroup": 8690,
      "ĠÃītymologie": 8691,
      "ĠgÃ©nÃ©rations": 8692,
      "manie": 8693,
      "mantique": 8694,
      "ĠdÃ©coup": 8695,
      "ĠdÃ©couvert": 8696,
      "Ġsoumis": 8697,
      "Ġsoutient": 8698,
      "agnement": 8699,
      "Ġdivine": 8700,
      "Ġattribut": 8701,
      "ĠAmÃ©rique": 8702,
      "ĠAmasis": 8703,
      "formation": 8704,
      "ĠÃªtres": 8705,
      "180": 8706,
      "1822": 8707,
      "Ġdiffus": 8708,
      "Ã©taient": 8709,
      "Ã©taires": 8710,
      "ĠcrÃ©Ã©e": 8711,
      "ĠcrÃ©ole": 8712,
      "Ġmatern": 8713,
      "ĠReal": 8714,
      "ĠRevel": 8715,
      "ĠAuvergne": 8716,
      "Ġchefs": 8717,
      "ĠMem": 8718,
      "ĠMedia": 8719,
      "ĠMemphis": 8720,
      "ĠĠĠĠĠĠĠĠĠĠĠ": 8721,
      "convÃ©": 8722,
      "condition": 8723,
      "Ġcalmes": 8724,
      "Ġcalif": 8725,
      "ĠrÃ©gu": 8726,
      "Ġformat": 8727,
      "Ġpaysages": 8728,
      "rentissage": 8729,
      "Ġassume": 8730,
      "Ġcultiv": 8731,
      "ĠespÃ¨ce": 8732,
      "ĠaccÃ¨s": 8733,
      "Ġáī": 8734,
      "ĠmatiÃ¨res": 8735,
      "ĠColÃ©optÃ¨res": 8736,
      "assification": 8737,
      "Ġfiches": 8738,
      "Ġ1972": 8739,
      "Ġ1979": 8740,
      "keh": 8741,
      "Ã©nat": 8742,
      "Ġsuccession": 8743,
      "Ġfertil": 8744,
      "Ġdoute": 8745,
      "ava": 8746,
      "avaient": 8747,
      "Ġfamili": 8748,
      "Ġgaranti": 8749,
      "Ġcell": 8750,
      "Ġblanche": 8751,
      "Ġpropor": 8752,
      "Ġpopulaires": 8753,
      "ĠpopularitÃ©": 8754,
      "Ġconnus": 8755,
      "Ġconnaissance": 8756,
      "ophone": 8757,
      "tionnels": 8758,
      "Ġ50": 8759,
      "Ġcouplet": 8760,
      "steady": 8761,
      "Ġlongs": 8762,
      "Ġrenv": 8763,
      "Ġ1982": 8764,
      "Ġmanif": 8765,
      "Ġmanuscrit": 8766,
      "ĠnÃ©cessi": 8767,
      "Ġsignalisation": 8768,
      "ĠMaroc": 8769,
      "ĠMartin": 8770,
      "ampoule": 8771,
      "ĠliÃ©": 8772,
      "ĠliÃ©s": 8773,
      "ĠliÃ©es": 8774,
      "ĠYam": 8775,
      "ĠdurÃ©": 8776,
      "aneb": 8777,
      "ĠCarnivores": 8778,
      "aÃ®tr": 8779,
      "ĠreprÃ©sentations": 8780,
      "ylles": 8781,
      "ĠsÃ©pare": 8782,
      "ĠsÃ©mantique": 8783,
      "Ġ1966": 8784,
      "kawa": 8785,
      "Ġbarre": 8786,
      "agnant": 8787,
      "Ġanglo": 8788,
      "khmet": 8789,
      "oulÃªme": 8790,
      "ĠÃ©lectrom": 8791,
      "Ġ176": 8792,
      "vÃ©nements": 8793,
      "Ġtester": 8794,
      "Ġrefrain": 8795,
      "Ġlocale": 8796,
      "Ġfront": 8797,
      "ĠProvisional": 8798,
      "exprime": 8799,
      "expansion": 8800,
      "Ġcapital": 8801,
      "Ġpiano": 8802,
      "UniversitÃ©": 8803,
      "Ġjuli": 8804,
      "ĠdÃ©veloppÃ©": 8805,
      "ĠdÃ©veloppÃ©e": 8806,
      "oks": 8807,
      "Ġcroise": 8808,
      "ĠThermo": 8809,
      "ĠinstallÃ©": 8810,
      "Ġinstantan": 8811,
      "ĠinstallÃ©s": 8812,
      "Ġgouverne": 8813,
      "ĠrÃ©gionale": 8814,
      "rammaire": 8815,
      "Ġfrag": 8816,
      "ĠAsie": 8817,
      "Ġplume": 8818,
      "ĠrÃ©public": 8819,
      "Ġprofit": 8820,
      "Ġforts": 8821,
      "tÃ©rieures": 8822,
      "ĠcomposÃ©e": 8823,
      "Ġentour": 8824,
      "Ã©mie": 8825,
      "ound": 8826,
      "2000": 8827,
      "2003": 8828,
      "ĠShim": 8829,
      "Ġsemences": 8830,
      "Ġparticules": 8831,
      "ĠXV": 8832,
      "ĠcrÃ¨me": 8833,
      "archÃ©": 8834,
      "iliter": 8835,
      "iliaire": 8836,
      "ilibre": 8837,
      "lemme": 8838,
      "Ġtribun": 8839,
      "ĠspÃ©cialiste": 8840,
      "Alpha": 8841,
      "ĠMiysis": 8842,
      "Ã¤n": 8843,
      "ĠContin": 8844,
      "ĠConquÃ©rant": 8845,
      "ollyw": 8846,
      "Ġ1950": 8847,
      "Ġ1951": 8848,
      "Ġ79": 8849,
      "Ġcadmi": 8850,
      "Ġ%)": 8851,
      "Ġfacture": 8852,
      "Ġfaciliter": 8853,
      "landaise": 8854,
      "ĠmenÃ©s": 8855,
      "Ġvariante": 8856,
      "ĠdÃ©funt": 8857,
      "ĠAndrew": 8858,
      "...)": 8859,
      "Ġscore": 8860,
      "Ġconfusion": 8861,
      "Ġconfondre": 8862,
      "ĠprÃ©side": 8863,
      "novation": 8864,
      "importe": 8865,
      "Ġâī": 8866,
      "Ġdocument": 8867,
      "ĠmolÃ©culaire": 8868,
      "ĠAbrÃ©viations": 8869,
      "ĠdÃ©sin": 8870,
      "ĠdÃ©sert": 8871,
      "Ġimportants": 8872,
      "ArdÃ¨che": 8873,
      "Ġcandidat": 8874,
      "ĠSymb": 8875,
      "ĠprÃ©senter": 8876,
      "humanitÃ©": 8877,
      "sych": 8878,
      "Ġpratiques": 8879,
      "Ġurbain": 8880,
      "ĠportÃ©e": 8881,
      "ĠcÃ©rÃ©": 8882,
      "ĠnumÃ©riques": 8883,
      "Ġcalculatrice": 8884,
      "ĠEsquisse": 8885,
      "ĠDescription": 8886,
      "Ġsounds": 8887,
      "Ġcircons": 8888,
      "Ġfabric": 8889,
      "ĠÃ©pÃ©es": 8890,
      "ĠGeb": 8891,
      "1982": 8892,
      "Ġculturelle": 8893,
      "view": 8894,
      "ĠConst": 8895,
      "Ġempr": 8896,
      "Ġcycles": 8897,
      "ĠOrganisation": 8898,
      "ĠrÃ©alisÃ©e": 8899,
      "ĠrÃ©alisÃ©es": 8900,
      "ativement": 8901,
      "Ġmoyens": 8902,
      "Ġanimaux": 8903,
      "Ġmeilleure": 8904,
      "ĠKhnoum": 8905,
      "Ġoriental": 8906,
      "Ġorientale": 8907,
      "ĠÃ©gyptologues": 8908,
      "Ġlabels": 8909,
      "prÃ©sident": 8910,
      "Ġdevait": 8911,
      "Ġusuel": 8912,
      "ĠPrince": 8913,
      "Ġrayon": 8914,
      "1995": 8915,
      "ĠconsidÃ©rÃ©s": 8916,
      "ĠconsidÃ©rÃ©e": 8917,
      "ĠPersonnalitÃ©s": 8918,
      "casion": 8919,
      "tÃ©ristiques": 8920,
      "cesseurs": 8921,
      "ĠsoviÃ©tiques": 8922,
      "Ġorigines": 8923,
      "ĠáĪĢ": 8924,
      "ĠáĪł": 8925,
      "Ġcommerciale": 8926,
      "Ġcommercialisation": 8927,
      "Ġfootball": 8928,
      "Ġpronom": 8929,
      "Ġexprime": 8930,
      "Ġexprimer": 8931,
      "AmÃ©rique": 8932,
      "Amstrad": 8933,
      "ĠAdj": 8934,
      "ĠÃ©conomiques": 8935,
      "Ġinitial": 8936,
      "ĠáĬĢ": 8937,
      "1902": 8938,
      "Ġforteresse": 8939,
      "Ġ1895": 8940,
      "Ġmajoritaire": 8941,
      "ĠbretÃ¨ches": 8942,
      "ĠMusÃ©e": 8943,
      "ĠEspagne": 8944,
      "ĠEspÃ¨ces": 8945,
      "ancÃ©e": 8946,
      "ĠTokuga": 8947,
      "ĠarchÃ©es": 8948,
      "ĠÃ©quivalent": 8949,
      "ĠBanks": 8950,
      "semblÃ©e": 8951,
      "Ġapplications": 8952,
      "1945": 8953,
      "OrlÃ©ans": 8954,
      "ancienne": 8955,
      "ĠeuropÃ©ens": 8956,
      "ĠarmÃ©niennes": 8957,
      "Ġadministrateur": 8958,
      "Ġoccidentaux": 8959,
      "ĠlittÃ©rature": 8960,
      "ichage": 8961,
      "Ġvases": 8962,
      "ĠLiban": 8963,
      "ĠValse": 8964,
      "Ġdistributeur": 8965,
      "Ġcompromissoire": 8966,
      "ĠadoptÃ©": 8967,
      "Ġsouhait": 8968,
      "ĠautoritÃ©s": 8969,
      "ĠpropriÃ©tÃ©s": 8970,
      "ĠMarcel": 8971,
      "Ġneutre": 8972,
      "ĠÃ©chang": 8973,
      "ĠdÃ©couvertes": 8974,
      "Ġaccompag": 8975,
      "ĠmatÃ©riel": 8976,
      "ĠmatÃ©riaux": 8977,
      "ASA": 8978,
      "Ġsuites": 8979,
      "Ġfleur": 8980,
      "Ġfigure": 8981,
      "ĠLorsqu": 8982,
      "Ġgagnant": 8983,
      "Ġretraite": 8984,
      "adessif": 8985,
      "ĠáįĢ": 8986,
      "Ġrenouvellement": 8987,
      "ĠcÃ©lÃ¨bres": 8988,
      "ĠfrÃ©quence": 8989,
      "Ġdemeures": 8990,
      "Ġfuir": 8991,
      "Ġpotentiel": 8992,
      "ĠdÃ©diÃ©s": 8993,
      "ĠGuillaume": 8994,
      "ĠdirigÃ©": 8995,
      "Ġconcernent": 8996,
      "Ġirakiennes": 8997,
      "ĠconsacrÃ©": 8998,
      "Ġorganes": 8999,
      "embourg": 9000,
      "Ġdatation": 9001,
      "ĠAND": 9002,
      "ĠTurquie": 9003,
      "ĠcontribuÃ©": 9004,
      "Ġrevue": 9005,
      "ĠchrÃ©tienne": 9006,
      "ĠchrÃ©tiens": 9007,
      "ĠcontrÃ´leur": 9008,
      "donÃ©sie": 9009,
      "emploi": 9010,
      "ĠthÃ©b": 9011,
      "Ġvecteur": 9012,
      "ĠLigue": 9013,
      "Ġrisques": 9014,
      "ĠSciences": 9015,
      "ĠdÃ©terminer": 9016,
      "ĠJusqu": 9017,
      "ĠRoche": 9018,
      "Ġexactes": 9019,
      "ĠdÃ©signÃ©es": 9020,
      "ĠampÃ¨remÃ©tri": 9021,
      "Ġcontrairement": 9022,
      "tantin": 9023,
      "Ġenregist": 9024,
      "ĠLike": 9025,
      "ĠCliff": 9026,
      "ĠdÃ©truit": 9027,
      "ĠdÃ©rivÃ©s": 9028,
      "Ġdizaine": 9029,
      "ĠrÃ©servÃ©": 9030,
      "enregistrement": 9031,
      "importation": 9032,
      "instrument": 9033,
      "instructions": 9034,
      "ĠcontrÃ´ler": 9035,
      "ĠpÃ©troliers": 9036,
      "Ġinfluence": 9037,
      "Ġdisposait": 9038,
      "Ġdynastie": 9039,
      "Ġrocksteady": 9040,
      "ĠÃ©ventuellement": 9041,
      "ĠStudios": 9042,
      "ĠBourbon": 9043,
      "Ġ1924": 9044,
      "ĠFrancisco": 9045,
      "Ġalternatif": 9046,
      "Ġrespons": 9047,
      "Ġrelief": 9048,
      "hua": 9049,
      "Ġconjoin": 9050,
      "ĠMaurice": 9051,
      "ĠintÃ©rÃªts": 9052,
      "ĠHalobacte": 9053,
      "Ġcompatible": 9054,
      "ĠattestÃ©": 9055,
      "ĠexpÃ©rimentale": 9056,
      "Ġmandat": 9057,
      "ĠmÃ¢ch": 9058,
      "Ġfoyer": 9059,
      "ĠLittÃ©ra": 9060,
      "ĠdÃ©rivÃ©": 9061,
      "ĠRoller": 9062,
      "Ġvirgu": 9063,
      "osphÃ¨re": 9064,
      "thiopie": 9065,
      "Ġmariage": 9066,
      "ĠsecrÃ©taires": 9067,
      "ducation": 9068,
      "ĠlÃ©gisl": 9069,
      "ĠPhilippe": 9070,
      "ĠindÃ©pendante": 9071,
      "ĠvÃ©ritable": 9072,
      "Ġmasculin": 9073,
      "ĠimmÃ©diatement": 9074,
      "ĠÃ©thiopien": 9075,
      "Azur": 9076,
      "åįģä¸Ģ": 9077,
      "ĠpandÃ©mie": 9078,
      "Ġarabe": 9079,
      "Ġtambour": 9080,
      "ĠdestinÃ©e": 9081,
      "Ġnaval": 9082,
      "ĠMultimedia": 9083,
      "ĠNapolÃ©on": 9084,
      "ĠrÃ©vÃ¨le": 9085,
      "ĠFisher": 9086,
      "ĠarrÃªtÃ©": 9087,
[...]
