{"<pad>":0,"<s>":1,"</s>":2,"<unk>":3,"<mask>":4,"<user>":5,"<guizmo>":6,"<search>":7,"</search>":8,"<result>":9,"</result>":10,"!":11,"\"":12,"#":13,"$":14,"%":15,"&":16,"'":17,"(":18,")":19,"*":20,"+":21,",":22,"-":23,".":24,"/":25,"0":26,"1":27,"2":28,"3":29,"4":30,"5":31,"6":32,"7":33,"8":34,"9":35,":":36,";":37,"<":38,"=":39,">":40,"?":41,"@":42,"A":43,"B":44,"C":45,"D":46,"E":47,"F":48,"G":49,"H":50,"I":51,"J":52,"K":53,"L":54,"M":55,"N":56,"O":57,"P":58,"Q":59,"R":60,"S":61,"T":62,"U":63,"V":64,"W":65,"X":66,"Y":67,"Z":68,"[":69,"\\":70,"]":71,"^":72,"_":73,"`":74,"a":75,"b":76,"c":77,"d":78,"e":79,"f":80,"g":81,"h":82,"i":83,"j":84,"k":85,"l":86,"m":87,"n":88,"o":89,"p":90,"q":91,"r":92,"s":93,"t":94,"u":95,"v":96,"w":97,"x":98,"y":99,"z":100,"{":101,"|":102,"}":103,"~":104,"¡":105,"¢":106,"£":107,"¤":108,"¥":109,"¦":110,"§":111,"¨":112,"©":113,"ª":114,"«":115,"¬":116,"®":117,"¯":118,"°":119,"±":120,"²":121,"³":122,"´":123,"µ":124,"¶":125,"·":126,"¸":127,"¹":128,"º":129,"»":130,"¼":131,"½":132,"¾":133,"¿":134,"À":135,"Á":136,"Â":137,"Ã":138,"Ä":139,"Å":140,"Æ":141,"Ç":142,"È":143,"É":144,"Ê":145,"Ë":146,"Ì":147,"Í":148,"Î":149,"Ï":150,"Ð":151,"Ñ":152,"Ò":153,"Ó":154,"Ô":155,"Õ":156,"Ö":157,"×":158,"Ø":159,"Ù":160,"Ú":161,"Û":162,"Ü":163,"Ý":164,"Þ":165,"ß":166,"à":167,"á":168,"â":169,"ã":170,"ä":171,"å":172,"æ":173,"ç":174,"è":175,"é":176,"ê":177,"ë":178,"ì":179,"í":180,"î":181,"ï":182,"ð":183,"ñ":184,"ò":185,"ó":186,"ô":187,"õ":188,"ö":189,"÷":190,"ø":191,"ù":192,"ú":193,"û":194,"ü":195,"ý":196,"þ":197,"ÿ":198,"Ā":199,"ā":200,"Ă":201,"ă":202,"Ą":203,"ą":204,"Ć":205,"ć":206,"Ĉ":207,"ĉ":208,"Ċ":209,"ċ":210,"Č":211,"č":212,"Ď":213,"ď":214,"Đ":215,"đ":216,"Ē":217,"ē":218,"Ĕ":219,"ĕ":220,"Ė":221,"ė":222,"Ę":223,"ę":224,"Ě":225,"ě":226,"Ĝ":227,"ĝ":228,"Ğ":229,"ğ":230,"Ġ":231,"ġ":232,"Ģ":233,"ģ":234,"Ĥ":235,"ĥ":236,"Ħ":237,"ħ":238,"Ĩ":239,"ĩ":240,"Ī":241,"ī":242,"Ĭ":243,"ĭ":244,"Į":245,"į":246,"İ":247,"ı":248,"Ĳ":249,"ĳ":250,"Ĵ":251,"ĵ":252,"Ķ":253,"ķ":254,"ĸ":255,"Ĺ":256,"ĺ":257,"Ļ":258,"ļ":259,"Ľ":260,"ľ":261,"Ŀ":262,"ŀ":263,"Ł":264,"ł":265,"Ń":266,"es":267,"Ġd":268,"Ġl":269,"en":270,"on":271,"Ã©":272,"čĊ":273,"Ġp":274,"Ġc":275,"Ġs":276,"an":277,"ou":278,"qu":279,"re":280,"is":281,"te":282,"Ġa":283,"Ġde":284,"ti":285,"le":286,"in":287,"er":288,"Ġm":289,"ent":290,"un":291,"ĠčĊ":292,"et":293,"ar":294,"oi":295,"Ġle":296,"or":297,"Ġla":298,"om":299,"Ġt":300,"Ġqu":301,"ur":302,"Ġf":303,"it":304,"Ġv":305,"Ġet":306,"us":307,"Ġun":308,"our":309,"est":310,"as":311,"Ġles":312,"il":313,"Ġen":314,"Ġdes":315,"Ġn":316,"Ġ:":317,"tion":318,"ra":319,"me":320,"el":321,"ĠL":322,"al":323,"que":324,"ĠÃ":325,"Ġb":326,"ie":327,"au":328,"ĠC":329,"Ġcom":330,"ment":331,"Ġ?":332,"Ġr":333,"ĠA":334,"ant":335,"Ġ(":336,"ce":337,"Ġdu":338,"ch":339,"li":340,"se":341,"Ã¨":342,"eu":343,"mp":344,"ro":345,"ĠÃł":346,"Ġg":347,"ans":348,"Ġpl":349,"ri":350,"ne":351,"ĠP":352,"Ġpar":353,"ĠE":354,"Ġj":355,"res":356,"si":357,"ve":358,"Ġqui":359,"ol":360,"ais":361,"Ġpour":362,"ĠT":363,"Ġcon":364,"at":365,"ag":366,"Ġau":367,"ai":368,"Ġest":369,"ĠD":370,"ĠÃ©":371,"Ġre":372,"ĠS":373,"de":374,"Ġ1":375,"Ġch":376,"ation":377,"Ġsi":378,"ac":379,"ont":380,"Ġpo":381,"ĠB":382,"ter":383,"ĠÂ":384,"ci":385,"Ġplus":386,"rÃ©":387,"les":388,"Ġou":389,"ui":390,"ĠdÃ©":391,"Ġe":392,"Ġune":393,"ĠG":394,"ĠM":395,"eux":396,"Ġcomme":397,"Ġca":398,"Ġse":399,"ran":400,"Ġdans":401,"Ġpas":402,"ĠI":403,"quoi":404,"Ġin":405,"ait":406,"ine":407,"ale":408,"ot":409,"xp":410,"di":411,"mple":412,"ble":413,"end":414,"Ġst":415,"ff":416,"ĠV":417,"ge":418,"Ġte":419,"ĠĠ":420,"ĠJ":421,"ĠO":422,"tÃ©":423,"Ġh":424,"Ġque":425,"pp":426,"Ġsur":427,"âĢ":428,"ens":429,"Ġdi":430,"che":431,"og":432,"ĠN":433,"Ã©e":434,"itÃ©":435,"Ġsimple":436,"ĠR":437,"Ġon":438,"am":439,"ain":440,"ul":441,"ĠrÃ©":442,"Ġpro":443,"ers":444,"lique":445,"Ġveux":446,"and":447,"Ġvi":448,"ĠW":449,"Ġ2":450,"mo":451,"vec":452,"Ġpote":453,"ois":454,"uis":455,"Ġil":456,"ĠH":457,"tu":458,"ab":459,"ĠF":460,"Ġdis":461,"xplique":462,"ouv":463,"iste":464,"Ġ19":465,"ous":466,"ang":467,"im":468,"Ġavec":469,"ĠLe":470,"Ġco":471,"Ġmoi":472,"age":473,"ĠÂ»":474,"Ġ-":475,"ati":476,"oc":477,"ord":478,"ille":479,"ique":480,"Ġ;":481,"tes":482,"ons":483,"ces":484,"pe":485,"urs":486,"Ġsa":487,"ph":488,"Ġtu":489,"âĢĻ":490,"Ã©r":491,"aire":492,"tre":493,"vi":494,"Ġcomp":495,"ĠÂ«":496,"elle":497,"Ġcomm":498,"Ġ|":499,"ques":500,"Ġnon":501,"esh":502,"ux":503,"ort":504,"os":505,"ĠWesh":506,"ĠTu":507,"ors":508,"um":509,"nÃ©":510,"ĠPour":511,"Ġo":512,"ic":513,"),":514,"out":515,"Ġmon":516,"ni":517,"Ġton":518,"ue":519,"Ġje":520,"eau":521,"st":522,"Ġquoi":523,"sem":524,"Ġce":525,"orm":526,"Ġpourquoi":527,"oir":528,"oule":529,"ĠGui":530,"zmo":531,"une":532,"ĠExplique":533,"Ġstp":534,"ĠVas":535,"ĠPourquoi":536,"ĠGuizmo":537,"Ã¨re":538,"ist":539,"nes":540,"semble":541,"Ġsont":542,"Ġtr":543,"ĠJe":544,"Ġmo":545,"ĠIl":546,"Ġleur":547,"ction":548,"ir":549,"Ġ20":550,"ert":551,"lis":552,"Ġson":553,"Ġensemble":554,"iv":555,"moi":556,"ig":557,"Ġan":558,"Ġpr":559,"Ã§":560,"ussi":561,"ut":562,"Ġnom":563,"ond":564,"Ġex":565,"tique":566,"ĠLa":567,"ĠCh":568,"ĠAl":569,"Ã©s":570,"Ġar":571,"ret":572,"ate":573,"Ġme":574,"ap":575,"ĠprÃ©":576,"Ġcar":577,"uit":578,"Ġaussi":579,"ĠLes":580,"der":581,"ct":582,"mi":583,"Ġav":584,"Ġjus":585,").":586,"aux":587,"ure":588,"Ãª":589,"Ã¨s":590,"Ġfait":591,"olog":592,"use":593,"ĠEn":594,"Ġconc":595,"Ġsu":596,"ien":597,"Ġra":598,"Ġne":599,"ance":600,"bre":601,"ĠĠĠĠ":602,"Ġapp":603,"âĶ":604,"ence":605,"ince":606,"ĠK":607,"Ġfran":608,"Ġcre":609,"oy":610,"ins":611,"roi":612,"Ġpeu":613,"tin":614,"sion":615,"mes":616,"Ã©ri":617,"par":618,"ĠÃī":619,"ĠFran":620,"entre":621,"ĠOk":622,"Ġim":623,"Ġ.":624,"ĠÃ©t":625,"Ġcommun":626,"op":627,"ion":628,"Ġjuste":629,"Ġ,":630,"enti":631,"uti":632,"Ġquel":633,"asy":634,"Ġmais":635,"ard":636,"ĠÃ©g":637,"agine":638,"19":639,"fÃ©r":640,"ĠU":641,"ences":642,"Ġal":643,"Ġplan":644,"onne":645,"Ġfor":646,"ĠAr":647,"dÃ©":648,"Ġcour":649,"ts":650,"ĠEasy":651,"ĠAlors":652,"ay":653,"ĠOn":654,"lÃ©":655,"iss":656,"Ġ+":657,"Ġso":658,"Ġsac":659,"oire":660,"Ġparti":661,"la":662,"yp":663,"Ã§ais":664,"Ġcreuse":665,"Ġimagine":666,"Ġac":667,"Ġdeux":668,"gn":669,"Ġk":670,"âĶĢ":671,"00":672,"Ġpre":673,"Ġaux":674,"utilis":675,"ib":676,"Ġ3":677,"Ġcoince":678,"ette":679,"Ġtra":680,"Ġconcret":681,"Ã©es":682,"ĠfranÃ§ais":683,"rop":684,"od":685,"Ġlang":686,"Ġpens":687,"veau":688,"ats":689,"ub":690,"Ġy":691,"Ġvider":692,"ture":693,"ore":694,"Ġpuis":695,"Ġquand":696,"Ġres":697,"Ġjour":698,"Ġ||":699,"ron":700,"Ġsy":701,"ĠAn":702,"Ġsaoule":703,"Ġmom":704,"Ġi":705,"tement":706,"Ġinter":707,"Ġpe":708,"Ġph":709,"th":710,"rend":711,"ĠToi":712,"aient":713,"Ġpenses":714,"rit":715,"ing":716,"ĠgÃ©":717,"air":718,"Ġmoment":719,"Ġ=":720,"Ġper":721,"ad":722,"Ġsous":723,"Ġmin":724,"fÃ©rences":725,"aÃ":726,"tres":727,"Ġcer":728,"ales":729,"onn":730,"ob":731,"Ġdire":732,"he":733,"elles":734,"ĠIn":735,"alement":736,"ec":737,"ire":738,"Ġmar":739,"Ã¢":740,"teur":741,"ĠListe":742,"oit":743,"ĠDis":744,"Ġcommunes":745,"ss":746,"Ġes":747,"ations":748,"otes":749,"rou":750,"Ġter":751,"Ġcou":752,"cu":753,"tif":754,"cip":755,"Ġser":756,"Ġtout":757,"Ġpremi":758,"iff":759,"vant":760,"ite":761,"Ġutilis":762,"omm":763,"tra":764,"Ġentre":765,"ĠPar":766,"ĠNotes":767,"lan":768,"ues":769,"Ġont":770,"Ġcol":771,"tions":772,"lle":773,"ru":774,"enne":775,"Ġbou":776,"aires":777,"acc":778,"âĶĢâĶĢ":779,"mb":780,"fin":781,"Ġsans":782,"Ġsuis":783,"Ġfin":784,"Ġrep":785,"Ã´":786,"sent":787,"lo":788,"Ġses":789,"Ġmet":790,"Ġcons":791,"az":792,"uer":793,"ĠmÃ©":794,"ace":795,"hÃ©":796,"ise":797,"able":798,"Ġtou":799,"ures":800,"raph":801,"Ġmoins":802,"Ġ18":803,"ĠFrance":804,"Ġcerveau":805,"ange":806,"Ġseu":807,"ieu":808,"Ġor":809,"aine":810,"lig":811,"Ã¨me":812,"Ġ10":813,"int":814,"Ġsouv":815,"tic":816,"Ġpeut":817,"mÃ©":818,"Ġbas":819,"Ġsec":820,"explique":821,"Ġsui":822,"omb":823,"Ġprin":824,"Ġmeme":825,"ten":826,"endant":827,"tr":828,"ari":829,"omme":830,"Ġbien":831,"ches":832,"ak":833,"ĠgÃ©nÃ©":834,"des":835,"onc":836,"ments":837,"Ġnorm":838,"Ġcomprend":839,"duit":840,"ole":841,"Ġap":842,"Ġgran":843,"ĠÃ©tÃ©":844,"itÃ©s":845,"ĠâĢ":846,"ente":847,"Ġvois":848,"alis":849,"aut":850,"are":851,"du":852,"Ġad":853,"aines":854,"ĠrÃ©fÃ©rences":855,"xe":856,"ae":857,"Ġti":858,"Ġcas":859,"Ġtrop":860,"els":861,"Ã¨res":862,"Ġpeti":863,"ah":864,"nis":865,"Ġver":866,"ill":867,"ieux":868,"ante":869,"Ġam":870,"ants":871,"atif":872,"nÃ©es":873,"Ġnombre":874,"ologie":875,"illes":876,"Ġrec":877,"ver":878,"Ġcl":879,"Ġcor":880,"Ġexp":881,"Ġ199":882,"apon":883,"iens":884,"Ã©ra":885,"all":886,"met":887,"Ã©c":888,"Ġmil":889,"ouver":890,"rÃ¨s":891,"ong":892,"nex":893,"po":894,"Ġelle":895,"Ġmont":896,"Ġcontin":897,"Ġreg":898,"chement":899,"roid":900,"ta":901,"ram":902,"ĠDans":903,"Ġcha":904,"ĠÃīt":905,"ĠgÃ©nÃ©ra":906,"ici":907,"iques":908,"man":909,"Ġpres":910,"but":911,"ĠDe":912,"ĠdÃ©c":913,"Ãªme":914,"Ġcomprends":915,"Ãī":916,"Ãł":917,"Ġsou":918,"Ġva":919,"agne":920,"Ġdiv":921,"Ġlum":922,"ains":923,"Ġavant":924,"insi":925,"Ġat":926,"ograph":927,"ris":928,"Ġab":929,"ĠAm":930,"ays":931,"form":932,"Ġtrans":933,"fic":934,"ps":935,"lect":936,"Ġmus":937,"Ġvers":938,"Ġprincip":939,"id":940,"jour":941,"Ġtoi":942,"ĠÃ©galement":943,"Ġimp":944,"ven":945,"isse":946,"Ġtour":947,"Ġfil":948,"ĠÃª":949,"18":950,"ies":951,"lus":952,"Ġdont":953,"lic":954,"Ġdit":955,"ler":956,"Ġdiff":957,"ĠRÃ©":958,"Ġ200":959,"partement":960,"Ã©t":961,"Ġconnex":962,"ĠQ":963,"Ġpers":964,"vent":965,"ĠcrÃ©":966,"Ġma":967,"ĠRe":968,"ĠÃªtre":969,"anis":970,"titu":971,"mps":972,"ĠBeau":973,"Ġlui":974,"Ġsel":975,"Ġfroid":976,"itu":977,"Ġcap":978,"Ġkiff":979,"Ġsouvent":980,"ĠâĢĶ":981,"ĠÃītats":982,"ĠVoir":983,"tri":984,"tiques":985,"lement":986,"ĠAu":987,"vient":988,"aÃ¯":989,"iel":990,"Ġmot":991,"ĠdÃ©partement":992,"Ġob":993,"Ġexter":994,"roupe":995,"enn":996,"Ã©tÃ©":997,"jet":998,"Ġche":999,"cien":1000,"ĠMe":1001,"Ġils":1002,"ĠĠĠĠĠĠĠĠ":1003,"con":1004,"Ġ6":1005,"Ġcal":1006,"Ġag":1007,"Ġrou":1008,"ages":1009,"ĠÃ©tait":1010,"Ġforme":1011,"ds":1012,"ves":1013,"Ġord":1014,"esse":1015,"Ġdroi":1016,"erg":1017,"Ġble":1018,"aiss":1019,"Ġconst":1020,"Ġchau":1021,"Ġseul":1022,"20":1023,"ide":1024,"min":1025,"tive":1026,"iere":1027,"Ġpop":1028,"aleur":1029,"ĠrÃ©g":1030,"ommun":1031,"ticles":1032,"ographie":1033,"ere":1034,"entra":1035,"Ġform":1036,"lier":1037,"Ġpays":1038,"Ġcoule":1039,"Ġta":1040,"istoire":1041,"Ġ201":1042,"Ġyeux":1043,"bu":1044,"rent":1045,"Ã©g":1046,"Ġsp":1047,"Ġsol":1048,"Ġass":1049,"Ġvis":1050,"nement":1051,"ature":1052,"Ġarri":1053,"dent":1054,"vel":1055,"Ġpri":1056,"Ġcul":1057,"Ġsens":1058,"Ġainsi":1059,"Ġleurs":1060,"ctions":1061,"ateur":1062,"ĠÃ©gyp":1063,"Ġcontinuer":1064,"nation":1065,"Ġans":1066,"Ġliste":1067,"Ġesp":1068,"ĠreprÃ©":1069,"Unis":1070,"ex":1071,"ote":1072,"opp":1073,"Ġdess":1074,"Ġgaz":1075,"Ġvite":1076,"ĠArticles":1077,"Ġacc":1078,"Ġreste":1079,"Ġconnexes":1080,"cul":1081,"Ġcette":1082,"oles":1083,"Ġbleu":1084,"cte":1085,"pes":1086,"Ġá":1087,"ene":1088,"Ġces":1089,"ouve":1090,"ĠLiens":1091,"ĠÂ».":1092,"Ġexternes":1093,"fi":1094,"per":1095,"Ã¹":1096,"Ġdonc":1097,"Ġmati":1098,"alitÃ©":1099,"ĠElle":1100,"Ġenc":1101,"ĠCol":1102,"rois":1103,"ĠÂ»,":1104,"Ã©ric":1105,"accord":1106,"leil":1107,"Ġfois":1108,"ress":1109,"Ġtel":1110,"ocor":1111,"iver":1112,"entir":1113,"ĠUn":1114,"Ġsoleil":1115,"Ġnormal":1116,"Ġmes":1117,"assi":1118,"Ġaut":1119,"ĠBab":1120,"aissance":1121,"mati":1122,"oci":1123,"Ġfi":1124,"Ġnot":1125,"mpl":1126,"icro":1127,"ass":1128,"ĠCe":1129,"cher":1130,"Ġsig":1131,"abord":1132,"Ġ197":1133,"Ġpetit":1134,"aille":1135,"ke":1136,"Ã©n":1137,"Ġsuc":1138,"ĠQu":1139,"puis":1140,"Ġfer":1141,"Ġmonde":1142,"Ġkiffe":1143,"Ġdou":1144,"Ġder":1145,"ents":1146,"orte":1147,"Ġbr":1148,"Ġpermet":1149,"av":1150,"cis":1151,"ĠmÃªme":1152,"Ġfam":1153,"Ġfond":1154,"ieurs":1155,"Ġgar":1156,"aint":1157,"Ġproduit":1158,"anger":1159,"Ġtrav":1160,"Ġchaque":1161,"nÃ©e":1162,"Ġ4":1163,"Ġcel":1164,"erre":1165,"Ġville":1166,"ĠdÃ©fin":1167,"Ġlangues":1168,"Ġinternation":1169,"Ġarrive":1170,"enter":1171,"one":1172,"Ġblan":1173,"ieur":1174,"Ġcode":1175,"Ġsyst":1176,"ĠdiffÃ©r":1177,"Ġport":1178,"ines":1179,"ĠCette":1180,"ĠannÃ©es":1181,"Ġcorps":1182,"be":1183,"cl":1184,"gyp":1185,"ose":1186,"onde":1187,"Ġvais":1188,"Ġbi":1189,"Ġroi":1190,"ĠAh":1191,"rig":1192,"Ġrelig":1193,"Ġpoli":1194,"ĠNe":1195,"Ġprop":1196,"ĠoÃ¹":1197,"Ġexe":1198,"Ġpopul":1199,"yth":1200,"Ġmat":1201,"rique":1202,"Ġconn":1203,"velopp":1204,"fort":1205,"land":1206,"oph":1207,"tis":1208,"Ġcert":1209,"Ġdebut":1210,"Ġvoit":1211,"tionn":1212,"Ġjou":1213,"ĠFranchement":1214,"Ġlumiere":1215,"ganis":1216,"Ġ5":1217,"ense":1218,"Ġappel":1219,"Ã¢te":1220,"Ġcoup":1221,"Ġpremier":1222,"lais":1223,"mis":1224,"ste":1225,"Ġdonne":1226,"Ġlong":1227,"Ġpat":1228,"Ġas":1229,"Ġren":1230,"Ġ198":1231,"Ġsoci":1232,"hÃ©or":1233,"ĠamÃ©ric":1234,"lÃ¨":1235,"vis":1236,"Ġpendant":1237,"Ġman":1238,"omp":1239,"ĠJapon":1240,"ergie":1241,"=\"":1242,"Ġali":1243,"oires":1244,"Ġtous":1245,"Ġtomb":1246,"Ġfont":1247,"Ġvie":1248,"ĠnÃ©":1249,"Ġgroupe":1250,"ric":1251,"Ġsign":1252,"ĠMar":1253,"ellement":1254,"Ġbase":1255,"Ġapres":1256,"amp":1257,"app":1258,"cer":1259,"lu":1260,"Ġli":1261,"ony":1262,"Ġrest":1263,"Ġgra":1264,"Ġjam":1265,"Ġchaleur":1266,"Ġof":1267,"ivers":1268,"Ġlangue":1269,"Ġmatin":1270,"ger":1271,"gne":1272,"ud":1273,"ĠY":1274,"Ġdur":1275,"Ġlors":1276,"Ġlib":1277,"Ã©li":1278,"ane":1279,"tiv":1280,"Ġban":1281,"ĠCar":1282,"antes":1283,"ĠPlus":1284,"olu":1285,"Ġchar":1286,"ĠdÃ©si":1287,"Ġprote":1288,"Ġcommence":1289,"Ġappar":1290,"ublic":1291,"aÃ®":1292,"aha":1293,"ĠreprÃ©sent":1294,"ode":1295,"ser":1296,"vre":1297,"yl":1298,"Ġlieu":1299,"Ġpouv":1300,"ĠsÃ©":1301,"tien":1302,"oie":1303,"Ġvra":1304,"Ġnouv":1305,"Ġ196":1306,"Ġprend":1307,"ateurs":1308,"issement":1309,"Ġderni":1310,"Ġfamille":1311,"17":1312,"bes":1313,"gue":1314,"hes":1315,"hiver":1316,"ka":1317,"tient":1318,"Ġmer":1319,"Ġmicro":1320,"Ġbar":1321,"Ġgr":1322,"agn":1323,"amment":1324,"ĠHaha":1325,"Ġcompte":1326,"Ġang":1327,"teurs":1328,"Ġfut":1329,"ĠÃĢ":1330,"Ġ|-":1331,"Ġalors":1332,"Ġencore":1333,"eur":1334,"fois":1335,"kh":1336,"oul":1337,"Ġfais":1338,"asse":1339,"Ġpart":1340,"ĠÃ©lect":1341,"Ġ17":1342,"Ġcommune":1343,"istor":1344,"lace":1345,"ĠfranÃ§aise":1346,"cÃ©":1347,"vÃ©":1348,"Ġliv":1349,"Ġcant":1350,"Ġtes":1351,"Ġref":1352,"ĠSaint":1353,"Ġplusieurs":1354,"CI":1355,"In":1356,"cin":1357,"commun":1358,"hui":1359,"ox":1360,"Ġloc":1361,"Ġple":1362,"Ġmentir":1363,"Ġlache":1364,"Ġfr":1365,"Ġfeu":1366,"ites":1367,"ĠPro":1368,"Ġouais":1369,"Ġtete":1370,"Ġphy":1371,"âĶĢâĶĢâĶĢâĶĢ":1372,"Ġsuite":1373,"Ġchauff":1374,"cle":1375,"exp":1376,"ient":1377,"Ġfon":1378,"Ġvoi":1379,"chn":1380,"ĠÃ©c":1381,"Ġchats":1382,"Ġtemps":1383,"Ġpartie":1384,"Ġmilli":1385,"Ġcapit":1386,"cs":1387,"ft":1388,"Åĵ":1389,"Ġlar":1390,"Ġpi":1391,"tie":1392,"Ġtot":1393,"Ġfe":1394,"ĠfÃ©":1395,"Ġnuit":1396,"sition":1397,"Ġautres":1398,"tern":1399,"Ġavis":1400,"ocoris":1401,"Uni":1402,"fe":1403,"gu":1404,"ton":1405,"tat":1406,"Ġpie":1407,"Ġdevient":1408,"Ġdepuis":1409,"see":1410,"Ġparce":1411,"Ġju":1412,"ĠdÃ©velopp":1413,"pper":1414,"Ġcourant":1415,"Ġmetal":1416,"ennent":1417,"Ġexemple":1418,"An":1419,"ade":1420,"Ġlog":1421,"Ġpom":1422,"Ġcent":1423,"Ġsau":1424,"Ġsoir":1425,"Ġjapon":1426,"Ġouv":1427,"Ġjusqu":1428,"ĠParis":1429,"hesite":1430,"cal":1431,"ges":1432,"ions":1433,"ok":1434,"pt":1435,"vers":1436,"Ġelles":1437,"Ġdom":1438,"Ġcro":1439,"ann":1440,"Ġai":1441,"Ġmort":1442,"ĠthÃ©or":1443,"its":1444,"ali":1445,"ros":1446,"Ġchiff":1447,"ĠchÃ¢te":1448,"uite":1449,"Ġoff":1450,"ĠtrÃ¨s":1451,"ologiste":1452,"ĠUne":1453,"conom":1454,"Ġsigni":1455,"Ġjaponais":1456,"har":1457,"pendant":1458,"Ġlig":1459,"tier":1460,"tienne":1461,"art":1462,"Ã¨ne":1463,"ĠTh":1464,"Ġinst":1465,"Ġhau":1466,"Ġcote":1467,"atique":1468,"Ġancien":1469,"ibli":1470,"Ġterme":1471,"Ġgrand":1472,"ĠBaba":1473,"ĠQuand":1474,"Ġsignal":1475,"cture":1476,"center":1477,"fie":1478,"ible":1479,"Ġw":1480,"Ã©ci":1481,"Ġdeg":1482,"ores":1483,"Ġfa":1484,"Ġbul":1485,"Ġgouver":1486,"rÃ©s":1487,"Ġtoutes":1488,"ĠaprÃ¨s":1489,"Ġpression":1490,"jours":1491,"Ġpersonn":1492,"ĠBeaufort":1493,"ĠrÃ©gion":1494,"Ġprix":1495,"Ġalign":1496,"hi":1497,"ry":1498,"Ġ[":1499,"Ġdoi":1500,"Ã©nÃ©":1501,"Ã©lÃ©":1502,"Ġsci":1503,"initÃ©":1504,"ori":1505,"Ġvoy":1506,"Ġrom":1507,"Ġreve":1508,"ĠBibli":1509,"dition":1510,"oyen":1511,"Ġsecond":1512,"Ġclassi":1513,"ramm":1514,"cinel":1515,"cra":1516,"qui":1517,"Ġfra":1518,"aume":1519,"ĠAs":1520,"mpire":1521,"Ġplu":1522,"Ġja":1523,"resse":1524,"ath":1525,"Ġrel":1526,"action":1527,"Ġpasse":1528,"ĠrÃ©p":1529,"Ġprof":1530,"Ã©rie":1531,"Ġintercommun":1532,"Ġcolle":1533,"mÃ©ni":1534,"Ġmusique":1535,"ĠBibliographie":1536,"ses":1537,"Ã³":1538,"Ġ)":1539,"ĠĠčĊ":1540,"anti":1541,"Ġfaire":1542,"Ġfort":1543,"uses":1544,"ast":1545,"Ġnation":1546,"Ġroy":1547,"ĠdÃ©esse":1548,"Ġeff":1549,"Ġinc":1550,"tÃ©r":1551,"tÃ©s":1552,"ĠHistoire":1553,"Ġcompos":1554,"Ġlangage":1555,"Ġpouvoir":1556,"ope":1557,"Åį":1558,"Ġ\"":1559,"Ġent":1560,"Ã©m":1561,"oun":1562,"orde":1563,"Ġtant":1564,"itaire":1565,"Ġgout":1566,"Ġjeu":1567,"Ġpoint":1568,"igine":1569,"ĠChar":1570,"Ġsyn":1571,"Ġpeur":1572,"Ġtoujours":1573,"Ġsuivant":1574,"ĠAmon":1575,"ĠBeauj":1576,"ĠsystÃ¨me":1577,"gypte":1578,"200":1579,"cri":1580,"tou":1581,"ule":1582,"Ġ'":1583,"Ġoc":1584,"Ġiss":1585,"enre":1586,"energie":1587,"ances":1588,"Ġmois":1589,"orme":1590,"Ġfati":1591,"ilb":1592,"Ġnature":1593,"mpere":1594,"ĠThe":1595,"ĠSh":1596,"ĠMoyen":1597,"Ġsem":1598,"dite":1599,"Ġhaut":1600,"occinel":1601,"Ġcarac":1602,"Ġavait":1603,"Ġrapp":1604,"Ġparticu":1605,"ĠRÃ©fÃ©rences":1606,"ĠamÃ©ricain":1607,"Ġbulles":1608,"aur":1609,"eff":1610,"ĠX":1611,"ennes":1612,"Ġpoi":1613,"Ġcr":1614,"arch":1615,"orce":1616,"ili":1617,"Ġni":1618,"Ġbus":1619,"olais":1620,"ĠÃ©tu":1621,"ĠpremiÃ¨re":1622,"fication":1623,"Ġpopulation":1624,"do":1625,"yd":1626,"ension":1627,"Ġsal":1628,"lem":1629,"univers":1630,"Ġtri":1631,"Ġtrois":1632,"Ġvoir":1633,"ils":1634,"Ġnord":1635,"Ġgau":1636,"ĠSon":1637,"Ġchat":1638,"ĠvidÃ©":1639,"mocra":1640,"ĠprÃ©cis":1641,"Ġselon":1642,"ĠspÃ©ci":1643,"Ġcelui":1644,"Ġpolitique":1645,"Ġchiffres":1646,"Al":1647,"gts":1648,"nom":1649,"oin":1650,"to":1651,"volu":1652,"Ã®":1653,"Ġz":1654,"Ġis":1655,"enir":1656,"Ġpous":1657,"Ġdec":1658,"ara":1659,"Ġnous":1660,"rage":1661,"rÃ©vi":1662,"ĠMi":1663,"ables":1664,"ologique":1665,"issent":1666,"Ġpremiers":1667,"Ġnotamment":1668,"Ġphysi":1669,"Ġdoigts":1670,"SI":1671,"cteur":1672,"lles":1673,"tend":1674,"Â«":1675,"Ã¤":1676,"Ã¯":1677,"Ġcelle":1678,"Ġcir":1679,"istes":1680,"let":1681,"Ġmal":1682,"Ġvert":1683,"rait":1684,"alitÃ©s":1685,"ĠCon":1686,"Ġri":1687,"ĠAp":1688,"oll":1689,"Ġ15":1690,"ensitÃ©":1691,"Ġ195":1692,"Ġtrouve":1693,"Ġsuper":1694,"Ġfranchement":1695,"Ġpartir":1696,"Ġess":1697,"Ġterre":1698,"occinella":1699,"tant":1700,"Ġ7":1701,"Ġdieu":1702,"Ġamp":1703,"Ġaff":1704,"Ġmain":1705,"Ġfre":1706,"Ġveu":1707,"Ġritu":1708,"Ġchange":1709,"ĠBas":1710,"ĠBel":1711,"rÃ©e":1712,"Ġcad":1713,"Ġindi":1714,"Ġdiale":1715,"Ġdistin":1716,"ĠÃ©tant":1717,"issant":1718,"Ġmarche":1719,"Ġconstitu":1720,"alisation":1721,"jourd":1722,"Ġproduits":1723,"fs":1724,"mar":1725,"pl":1726,"tent":1727,"uc":1728,"Ġ%":1729,"Ġand":1730,"Ġlet":1731,"Ġpage":1732,"Ġsor":1733,"Ġsitu":1734,"erae":1735,"Ġmel":1736,"origine":1737,"Ġthe":1738,"ilis":1739,"ĠLang":1740,"alais":1741,"Ġbois":1742,"ĠCan":1743,"Ġconsi":1744,"ĠSt":1745,"Ġchim":1746,"Ġsty":1747,"Ġprog":1748,"Ġop":1749,"Ġsymb":1750,"inguis":1751,"Ġprincipal":1752,"Ġtourne":1753,"Ġmots":1754,"Ġmesure":1755,"ĠdÃ©fini":1756,"Ġoffici":1757,"bres":1758,"ctive":1759,"fique":1760,"oh":1761,"yant":1762,"Ġeux":1763,"Ġciel":1764,"inter":1765,"Ġmange":1766,"ettes":1767,"Ġtable":1768,"Ġfac":1769,"iles":1770,"Ġbon":1771,"autres":1772,"ĠCes":1773,"ĠrÃ¨":1774,"chent":1775,"mples":1776,"ries":1777,"ĠPCI":1778,"aisse":1779,"ĠTerre":1780,"Ġpass":1781,"Ġhum":1782,"ĠrÃ©s":1783,"Ġprodu":1784,"Ġcommer":1785,"Ãªte":1786,"Ġcours":1787,"Ġdirect":1788,"verse":1789,"Ġfilm":1790,"Ġcouleur":1791,"landais":1792,"Ġjamais":1793,"Ġgouvernement":1794,"Ã³n":1795,"avi":1796,"gÃ©":1797,"ira":1798,"mbre":1799,"rom":1800,"Ġsale":1801,"Ġsomme":1802,"Ġdeven":1803,"Ġmen":1804,"Ġvari":1805,"Ġbac":1806,"chÃ©":1807,"nee":1808,"olis":1809,"ĠSi":1810,"ĠSans":1811,"ĠdÃ©f":1812,"Ġins":1813,"amb":1814,"Ġnez":1815,"lÃ©ment":1816,"Ġkm":1817,"ĠAnd":1818,"poque":1819,"tribu":1820,"Ġvisible":1821,"ĠÃ©gyptienne":1822,"Ġcapitale":1823,"Ġfatigue":1824,"ĠvidÃ©o":1825,"eraeocoris":1826,"..":1827,"ner":1828,"vo":1829,"Ġsc":1830,"rec":1831,"indi":1832,"entes":1833,"urb":1834,"urÃ©":1835,"urope":1836,"Ġvol":1837,"uss":1838,"rab":1839,"Ġconf":1840,"Ġcontre":1841,"ĠDiv":1842,"ĠsiÃ¨":1843,"ĠdÃ©mocra":1844,"ulti":1845,"Ġprob":1846,"Ġ194":1847,"Ġsav":1848,"ĠprÃ©si":1849,"Ġpeuvent":1850,"Ġquelques":1851,"ruction":1852,"Ãītat":1853,"Ġ60":1854,"Ġanglais":1855,"istorique":1856,"mpereur":1857,"16":1858,"cles":1859,"ctif":1860,"gl":1861,"ile":1862,"lau":1863,"lab":1864,"mon":1865,"mÃ©e":1866,"no":1867,"oot":1868,"tures":1869,"tÃ¨res":1870,"ze":1871,"esp":1872,"Ã©ro":1873,"tet":1874,"Ġmis":1875,"Ġlamp":1876,"Ġnou":1877,"ĠCom":1878,"sions":1879,"Ġ16":1880,"Ġpos":1881,"ĠIs":1882,"Ġtex":1883,"ock":1884,"Ġavoir":1885,"Ġapprend":1886,"fÃ©rence":1887,"uerre":1888,"hÃ©mati":1889,"Ġtoute":1890,"Ġdroite":1891,"Ġnouvelle":1892,"Ġlivre":1893,"Ġgauche":1894,"aff":1895,"ev":1896,"imp":1897,"lot":1898,"rond":1899,"Ġâ":1900,"Ġdon":1901,"Ġdoc":1902,"ĠlÃ©g":1903,"iner":1904,"Ġmol":1905,"Ġnoir":1906,"elon":1907,"ĠAb":1908,"ĠPh":1909,"sible":1910,"ĠdÃ©s":1911,"ĠNaissance":1912,"ĠÂ»)":1913,"ĠJean":1914,"Ġann":1915,"Ġconcentra":1916,"ĠutilisÃ©":1917,"Ġimport":1918,"Ġrouge":1919,"ĠsociÃ©tÃ©":1920,"Ġvrai":1921,"ĠBeaujolais":1922,"Ar":1923,"iti":1924,"iÃ¨re":1925,"Ġ<":1926,"ĠâĶ":1927,"Ġlin":1928,"Ġlit":1929,"Ġcan":1930,"Ġsin":1931,"Ġth":1932,"urent":1933,"ash":1934,"Ġbour":1935,"ĠCommun":1936,"chi":1937,"Ã¨ces":1938,"Ġge":1939,"Ġgrec":1940,"Ġparfois":1941,"Ġrempl":1942,"ĠSy":1943,"dire":1944,"ult":1945,"Ġcool":1946,"Ġmoder":1947,"aprÃ¨s":1948,"ĠprÃ©s":1949,"ĠprÃ©sent":1950,"ĠÃ©taient":1951,"opÃ©":1952,"Ġtitre":1953,"Ġmaj":1954,"Ġchez":1955,"Ġconstr":1956,"Ġassoci":1957,"ĠColÃ³n":1958,"Ġinternational":1959,"Ġfonction":1960,"Ġveut":1961,"hum":1962,"rans":1963,"sy":1964,"Ġlinguis":1965,"Ġpra":1966,"Ġporte":1967,"Ġpublic":1968,"Ġsour":1969,"usion":1970,"astique":1971,"autre":1972,"cep":1973,"Ġplace":1974,"Ġconse":1975,"ata":1976,"ĠSa":1977,"Ġchac":1978,"ack":1979,"Ġpost":1980,"Ġec":1981,"Ġinform":1982,"Ġsud":1983,"ienne":1984,"Ġforment":1985,"ĠInde":1986,"ĠParti":1987,"Ġgrande":1988,"ĠgÃ©nÃ©ral":1989,"ĠgÃ©nÃ©ralement":1990,"mande":1991,"Ãīgypte":1992,"ficie":1993,"Union":1994,"ĠfaÃ§":1995,"Ġclassique":1996,"Ġsommeil":1997,"Ġnouveau":1998,"ice":1999,"mer":2000,"nie":2001,"oft":2002,"pond":2003,"Ġ8":2004,"Ġant":2005,"Ġurb":2006,"Ã©tique":2007,"Ġayant":2008,"Ġmag":2009,"uni":2010,"oiles":2011,"Ġlait":2012,"Ġfai":2013,"rat":2014,"Ġcomb":2015,"Ġrond":2016,"Ġ(Â«":2017,"sez":2018,"Ġgene":2019,"Ġplais":2020,"ĠDÃ©":2021,"Ġposs":2022,"cident":2023,"tÃ©ra":2024,"cess":2025,"Ġrap":2026,"dÃ©ra":2027,"Ġjours":2028,"Ġphot":2029,"Ġservi":2030,"lose":2031,"Ġorganis":2032,"ĠcrÃ©ation":2033,"Ġsucre":2034,"ĠdÃ©sign":2035,"Ġcanton":2036,"ĠDivinitÃ©":2037,"DF":2038,"ls":2039,"oli":2040,"taient":2041,"Ġel":2042,"Ġlim":2043,"Ġpor":2044,"ĠpÃ©ri":2045,"ĠcÃ©":2046,"Ġcin":2047,"Ġcentre":2048,"anes":2049,"oute":2050,"inois":2051,"Ġmieux":2052,"Ġquat":2053,"usatif":2054,"Ġnum":2055,"Ġcontra":2056,"Ġautre":2057,"Ġcher":2058,"ĠMan":2059,"Ġstress":2060,"Ġtechn":2061,"tÃ©g":2062,"ĠNord":2063,"ĠHe":2064,"ĠHar":2065,"Ġsupp":2066,"onner":2067,"Ã´le":2068,"Ġseule":2069,"Ġchef":2070,"Ġcalcul":2071,"onyme":2072,"Ã©lien":2073,"aÃ®t":2074,"Åĵu":2075,"Ġfem":2076,"ĠdÃ©veloppe":2077,"Ġjaune":2078,"Ġsinon":2079,"Ġremplac":2080,"Ġplaisir":2081,"-),":2082,"AN":2083,"hors":2084,"ier":2085,"ki":2086,"pr":2087,"rie":2088,"Ã»":2089,"ĠZ":2090,"ĠdensitÃ©":2091,"Ġlune":2092,"enche":2093,"Ġpain":2094,"Ġpate":2095,"Ġpomme":2096,"Ġci":2097,"Ġclig":2098,"lecu":2099,"Ġmur":2100,"Ġmiel":2101,"Ġetoiles":2102,"Ġno":2103,"alle":2104,"Ġblo":2105,"Ġbaisse":2106,"Ġryth":2107,"Ã¨de":2108,"Ã¨mes":2109,"Ġgl":2110,"ĠEs":2111,"ĠTe":2112,"ĠDes":2113,"Ġret":2114,"ĠSelon":2115,"ĠdÃ©p":2116,"Ġseche":2117,"Ġ193":2118,"vier":2119,"Ãªtre":2120,"Ġcrev":2121,"Ġjournee":2122,"lande":2123,"Ġnombreux":2124,"Ġsoun":2125,"Ġordre":2126,"Ġfixe":2127,"ĠmathÃ©mati":2128,"Ġconnu":2129,"ĠchÃ¢teau":2130,"Ġsignifie":2131,"Ġdegres":2132,"Ġissus":2133,"ilbert":2134,"Ġcirc":2135,"Ġsuperficie":2136,"evap":2137,"co":2138,"eter":2139,"gle":2140,"nois":2141,"ren":2142,"ys":2143,"Ġcentra":2144,"Ġsh":2145,"ĠsÃ©rie":2146,"anse":2147,"rer":2148,"ison":2149,"isme":2150,"Ġfab":2151,"Ġfrig":2152,"Ã¨rent":2153,"respond":2154,"ĠDÃ©c":2155,"ĠÃ©p":2156,"ĠÃ©le":2157,"ĠSe":2158,"aces":2159,"ĠdÃ©but":2160,"ĠGe":2161,"âĢ¦":2162,"ĠHilbert":2163,"Ġsaou":2164,"viron":2165,"Ġmondi":2166,"Ġanci":2167,"198":2168,"000":2169,"odes":2170,"Ã©ration":2171,"Ġprincipalement":2172,"jets":2173,"Ġculture":2174,"Ġblanc":2175,"Ġtombe":2176,"Insee":2177,"Ġanciennes":2178,"Ġrapport":2179,"Ġdialecte":2180,"rondissement":2181,"23":2182,"if":2183,"jou":2184,"lam":2185,"vie":2186,"Ġpeau":2187,"Ġcli":2188,"Ġspe":2189,"istre":2190,"Ġafin":2191,"ern":2192,"Ġbru":2193,"ĠCons":2194,"ĠComme":2195,"Ġgros":2196,"ĠPas":2197,"Ġjeux":2198,"Ġchans":2199,"ĠBi":2200,"Ġemp":2201,"ĠMa":2202,"ĠJoh":2203,"Ġtrou":2204,"Ġ2020":2205,"ĠChamp":2206,"ĠArm":2207,"odie":2208,"Ġress":2209,"Ġverre":2210,"Ġtransp":2211,"ouvement":2212,"Ġcertains":2213,"Ġdomaine":2214,"Ġvoyage":2215,"mÃ©nien":2216,"ĠBastet":2217,"ĠrÃ¨gne":2218,"urÃ©at":2219,"ĠâĶĤ":2220,"bles":2221,"ck":2222,"dit":2223,"jec":2224,"lin":2225,"lor":2226,"ow":2227,"Ġ!":2228,"Ġpub":2229,"Ġcy":2230,"temps":2231,"Ġdemande":2232,"inst":2233,"inform":2234,"Ġmulti":2235,"ĠCoccinella":2236,"Ġrend":2237,"Ġdub":2238,"ĠPers":2239,"ĠExe":2240,"ression":2241,"aison":2242,"ĠBr":2243,"ĠOr":2244,"Ġdiman":2245,"ĠrÃ©alis":2246,"Ġvide":2247,"ative":2248,"ords":2249,"Ġmoy":2250,"Ġanim":2251,"Ġexiste":2252,"Ġartis":2253,"Ġmeille":2254,"Ġsub":2255,"ĠKh":2256,"Ġorient":2257,"Ġcorrespond":2258,"Ġfils":2259,"Ġdroit":2260,"ĠÃ©gypt":2261,"Ġespace":2262,"ĠdiffÃ©rents":2263,"Ġliber":2264,"ĠthÃ©orie":2265,"Ġpousse":2266,"Ġlettres":2267,"Ġtableau":2268,"Ġdimanche":2269,"GP":2270,"denti":2271,"ech":2272,"mie":2273,"mat":2274,"Ã¡":2275,"ËĪ":2276,"áĪ":2277,"ĠcÃ´":2278,"Ġsoit":2279,"oud":2280,"oup":2281,"tel":2282,"tera":2283,"inaire":2284,"Ġlab":2285,"Ġlatin":2286,"ĠtÃ©lÃ©":2287,"ith":2288,"Ġvo":2289,"alog":2290,"ĠÃĤ":2291,"Ġbrit":2292,"aute":2293,"ĠCa":2294,"ĠCor":2295,"ĠAvec":2296,"Ġgrou":2297,"Ġgram":2298,"ĠEmpire":2299,"sif":2300,"aimes":2301,"ĠDu":2302,"Ġchoc":2303,"Ġchinois":2304,"Ġeau":2305,"Ġinv":2306,"dio":2307,"Ġstat":2308,"Ġstab":2309,"ĠOu":2310,"Ġhe":2311,"ĠRÃª":2312,"Ġ25":2313,"peur":2314,"istoires":2315,"moire":2316,"Ġsuff":2317,"Ġrespe":2318,"Ġcolon":2319,"Ġboug":2320,"accusatif":2321,"Ġcasse":2322,"Ġrecense":2323,"Ġformes":2324,"Ġgarde":2325,"Ġinternationale":2326,"Ġmillions":2327,"Ġlarge":2328,"Ġaime":2329,"Ġscienti":2330,"universitÃ©":2331,"Ġfrigo":2332,"Ġgrammati":2333,"12":2334,"Fran":2335,"aque":2336,"bum":2337,"dus":2338,"ga":2339,"ht":2340,"mant":2341,"mÃªme":2342,"prÃ©":2343,"Ã©lect":2344,"Ġcui":2345,"Ġcuis":2346,"Ġavi":2347,"Ġdev":2348,"tiqu":2349,"intes":2350,"Ġmyth":2351,"Ġmorce":2352,"itch":2353,"Ġvaleur":2354,"ilitÃ©":2355,"Ġnote":2356,"Ġnaissance":2357,"aliste":2358,"Ġrus":2359,"ĠAut":2360,"Ã¨le":2361,"Ġgenre":2362,"ĠElles":2363,"Ġrevient":2364,"ĠBl":2365,"ĠMont":2366,"ĠIm":2367,"ĠindÃ©":2368,"Ġhistoire":2369,"ĠrÃ©fÃ©rence":2370,"Ġprot":2371,"Ġvict":2372,"ĠIls":2373,"Ġarrondissement":2374,"part":2375,"issons":2376,"iba":2377,"ĠjournÃ©e":2378,"Ġphil":2379,"fini":2380,"Ã´ne":2381,"Ġlumin":2382,"minist":2383,"Ġcouleurs":2384,"Ġdessous":2385,"Ġgarder":2386,"ĠsystÃ¨mes":2387,"Ġbiologiste":2388,"stem":2389,"Ġligne":2390,"Ġstyle":2391,"Ġlampe":2392,"Ġsound":2393,"21":2394,"ail":2395,"da":2396,"ee":2397,"gus":2398,"jout":2399,"uy":2400,"ume":2401,"yn":2402,"Ġ0":2403,"Ġus":2404,"Ġdate":2405,"quer":2406,"quent":2407,"tit":2408,"erlandais":2409,"arde":2410,"oix":2411,"Ġlev":2412,"Ġty":2413,"Ġenf":2414,"ell":2415,"Ġbeau":2416,"Ġbonne":2417,"ĠCoul":2418,"lion":2419,"Ġgagne":2420,"Ġglace":2421,"Ġplat":2422,"rier":2423,"ĠPr":2424,"Ġparf":2425,"Ġcont":2426,"Ġcontr":2427,"ates":2428,"ĠSec":2429,"Ġsite":2430,"ĠBe":2431,"Ġvient":2432,"abit":2433,"Ġdist":2434,"ocke":2435,"Ġore":2436,"ologue":2437,"Ġray":2438,"ĠKar":2439,"199":2440,"ĠInsee":2441,"Ġterrit":2442,"ĠmÃ©di":2443,"ĠmÃ©moire":2444,"Ġmilitaire":2445,"Ġvapeur":2446,"ĠabrÃ©vi":2447,"Ġordin":2448,"Ġsolu":2449,"ĠBabyl":2450,"Ġcantons":2451,"annique":2452,"ĠintercommunalitÃ©s":2453,"Ġcollectif":2454,"crip":2455,"lemand":2456,"ĠprÃ©cisant":2457,"ĠconsidÃ©":2458,"rabie":2459,"Ġlinguistique":2460,"Ġpostal":2461,"ĠfaÃ§on":2462,"Ġrapide":2463,"ĠdÃ©veloppement":2464,"Ġcircuit":2465,"ĠPersonn":2466,"Ġrecensement":2467,"II":2468,"ball":2469,"cas":2470,"gique":2471,"han":2472,"lie":2473,"pent":2474,"tÃ¨re":2475,"wa":2476,"ÉĻ":2477,"Ġ/":2478,"ennis":2479,"quel":2480,"tine":2481,"lexe":2482,"eton":2483,"ars":2484,"Ġtard":2485,"Ġques":2486,"Ġface":2487,"Ġven":2488,"Ġnet":2489,"ĠListes":2490,"Ġbat":2491,"ĠComm":2492,"Ġrire":2493,"ĠAinsi":2494,"seau":2495,"Ã¨nes":2496,"Ġguerre":2497,"rix":2498,"rice":2499,"agnes":2500,"ĠDeraeocoris":2501,"ĠreÃ§":2502,"ĠdÃ©ci":2503,"ĠGaz":2504,"tÃ©e":2505,"tÃ©ris":2506,"pple":2507,"andes":2508,"ouss":2509,"ima":2510,"cesse":2511,"osoph":2512,"Ġprom":2513,"ĠChiba":2514,"ĠprÃ©f":2515,"Ġcarre":2516,"Ġrat":2517,"Ġcommuniste":2518,"Ġmaison":2519,"Ġsovi":2520,"Ġparticip":2521,"Ġacce":2522,"Ġphara":2523,"Ġminu":2524,"eck":2525,"Ġcoupe":2526,"Ġfinnois":2527,"Ġorig":2528,"Ġsouvenir":2529,"Ġgrands":2530,"position":2531,"ramme":2532,"Ġchamp":2533,"Ġdivers":2534,"Ġdivert":2535,"aÃ¯c":2536,"ĠĠĠĠĠĠĠĠĠĠĠĠ":2537,"ĠreprÃ©s":2538,"ĠáĪ":2539,"Ġdouble":2540,"Ġreligieux":2541,"ĠNew":2542,"Ġcertaines":2543,"ganisation":2544,"Ġassez":2545,"vision":2546,"Ġrestent":2547,"Ġlogici":2548,"Ġpompe":2549,"Ġsecondes":2550,"ĠintercommunalitÃ©":2551,"Ġroyaume":2552,"volution":2553,"Ġrituel":2554,"Ġcommerci":2555,"ĠDÃ©cÃ¨s":2556,"ĠJohn":2557,"Ġdubpl":2558,"Ġbritannique":2559,"Ġgroupes":2560,"Ġheures":2561,"ĠCoulomb":2562,"Mari":2563,"ame":2564,"car":2565,"cit":2566,"eilles":2567,"ia":2568,"ket":2569,"mment":2570,"pare":2571,"son":2572,"suite":2573,"tout":2574,"uage":2575,"Ġpalais":2576,"Ġpenche":2577,"Ġsang":2578,"Ġsante":2579,"oum":2580,"teries":2581,"Ġaig":2582,"tiens":2583,"Ġmuni":2584,"ets":2585,"etres":2586,"Ġleve":2587,"ork":2588,"Ġtop":2589,"Ġtension":2590,"ĠfrÃ©":2591,"Ġfoot":2592,"itaires":2593,"ase":2594,"ĠLou":2595,"ĠLin":2596,"Ġron":2597,"Ã¨tre":2598,"Ġges":2599,"Ġgraph":2600,"rige":2601,"nees":2602,"ollion":2603,"ĠÃ©di":2604,"Ġreaction":2605,"Ġetern":2606,"Ġeconom":2607,"Ġcafe":2608,"Ġsept":2609,"ogne":2610,"ĠRec":2611,"tuce":2612,"Ġ190":2613,"phere":2614,"Ġtrous":2615,"Ġmolecu":2616,"igne":2617,"Ġpron":2618,"ĠAlpes":2619,"Ġmemb":2620,"Ġsup":2621,"Ġral":2622,"ards":2623,"197":2624,"itecture":2625,"tenu":2626,"ĠâĢĵ":2627,"Ġadore":2628,"Ġpetits":2629,"Ġversion":2630,"Ġexpri":2631,"Ġexplose":2632,"Ã©crit":2633,"Ġmontres":2634,"Ġabeilles":2635,"Ã©tÃ©s":2636,"Ġcultures":2637,"ĠjamaÃ¯c":2638,"ĠlibÃ©ra":2639,"Ġfete":2640,"ĠfÃ©dÃ©ra":2641,"Ġcroissant":2642,"ĠAstuce":2643,"Ġsemaines":2644,"Ġbacteries":2645,"Ġsavon":2646,"espace":2647,"Ġlinge":2648,"ĠCommunes":2649,"Ġgele":2650,"Ġmoderne":2651,"humi":2652,"ĠpÃ©riode":2653,"Ġclignes":2654,"Ġbloque":2655,"Ġcrevettes":2656,"evapore":2657,"Ġbrule":2658,"ĠChampollion":2659,"ĠÃ©gyptologique":2660,"Ġstabilis":2661,"Ġphilosoph":2662,"ministra":2663,"Mariti":2664,"Ġeconomise":2665,"13":2666,"15":2667,"50":2668,"Am":2669,"bl":2670,"din":2671,"dae":2672,"empereur":2673,"fle":2674,"fer":2675,"ix":2676,"iÃ¨me":2677,"loit":2678,"sant":2679,"val":2680,"ville":2681,"Ġdoit":2682,"Ġpu":2683,"Ġceux":2684,"Ġcla":2685,"Ġsort":2686,"anique":2687,"isation":2688,"lection":2689,"eth":2690,"Ġlequel":2691,"Ġquar":2692,"uri":2693,"Ġfen":2694,"ours":2695,"ilocor":2696,"rak":2697,"ĠAd":2698,"Ã¨te":2699,"Ã¨ge":2700,"roche":2701,"riv":2702,"ĠPer":2703,"ĠEurope":2704,"aton":2705,"agit":2706,"ĠÃ©conom":2707,"ĠBou":2708,"cipe":2709,"uire":2710,"Ġiniti":2711,"dien":2712,"ulaire":2713,"ouvre":2714,"ĠÂ»).":2715,"atives":2716,"ordre":2717,"ordogne":2718,"iller":2719,"phab":2720,"niques":2721,"Ġnombres":2722,"ĠChilocor":2723,"Ġcartes":2724,"Ġcartou":2725,"Ã©rique":2726,"ĠÃ©glis":2727,"Ġallemand":2728,"ablement":2729,"trine":2730,"Ġtransf":2731,"anisme":2732,"ĠAujourd":2733,"Ġculte":2734,"ĠáĬ":2735,"Ġtels":2736,"ailleurs":2737,"ĠdiffÃ©rentes":2738,"Ġreligie":2739,"ĠmaniÃ¨re":2740,"Ġcharge":2741,"aÃ®tre":2742,"Ġnouvelles":2743,"Ġdernier":2744,"ĠderniÃ¨re":2745,"Ġlogique":2746,"Ġnationale":2747,"toum":2748,"Ã®le":2749,"Ġphysique":2750,"ĠBelgique":2751,"ĠâĨ":2752,"Ġconcentration":2753,"Ġvraiment":2754,"Ġchacun":2755,"ĠIndex":2756,"Ġsaoudite":2757,"teractive":2758,"ĠRecords":2759,"ĠChilocorus":2760,"10":2761,"DA":2762,"cÃ¨s":2763,"ime":2764,"ja":2765,"lit":2766,"ple":2767,"ronne":2768,"sur":2769,"uments":2770,"ones":2771,"Ã©poque":2772,"Ġpa":2773,"ouest":2774,"Ġdehors":2775,"Ġmang":2776,"Ġmains":2777,"armÃ©nien":2778,"oign":2779,"orat":2780,"ome":2781,"omie":2782,"Ġtend":2783,"Ġquanti":2784,"Ġfille":2785,"Ġbit":2786,"Ġbra":2787,"ĠCO":2788,"ĠCert":2789,"ĠAvant":2790,"Ġ(-":2791,"char":2792,"liÃ¨re":2793,"Ã¨che":2794,"role":2795,"Ġparler":2796,"vement":2797,"Ġretr":2798,"ĠSau":2799,"Ġchoix":2800,"Ġpose":2801,"Ġstru":2802,"ĠĠĠ":2803,"ĠJam":2804,"Ġher":2805,"Ġsurtout":2806,"ĠRitch":2807,"ĠFer":2808,"lisse":2809,"ĠChaque":2810,"ĠÃītu":2811,"190":2812,"Ġforte":2813,"Ġactiv":2814,"Ġtradi":2815,"rony":2816,"ronti":2817,"ĠAnth":2818,"Ġ188":2819,"Ġ189":2820,"autom":2821,"ĠgÃ©nÃ©rale":2822,"Ġpresque":2823,"Ġpersonne":2824,"Ġdroits":2825,"exist":2826,"Ġautom":2827,"Ġtravers":2828,"Ġpropre":2829,"Ġjoue":2830,"Ġvraie":2831,"Ġpieds":2832,"ĠchÃ¢teaux":2833,"Ġhauteur":2834,"Ġsynch":2835,"indice":2836,"Ġmajor":2837,"Ġconstruit":2838,"Ġpratique":2839,"Ġquatre":2840,"Ġfemmes":2841,"information":2842,"ĠÃĤge":2843,"Ġscientifique":2844,"Ġpharaon":2845,"Ġmembres":2846,"Ġcartouche":2847,"ĠRitchie":2848,"58":2849,"Ch":2850,"EC":2851,"ca":2852,"ed":2853,"fu":2854,"latif":2855,"mil":2856,"sous":2857,"uel":2858,"yg":2859,"Ġ9":2860,"Ġeu":2861,"ession":2862,"Ã©b":2863,"ĠpÃ©t":2864,"Ġpages":2865,"Ġcord":2866,"ande":2867,"quant":2868,"Ġdeb":2869,"Ġdem":2870,"ĠtÃªte":2871,"Ġventre":2872,"ĠunitÃ©":2873,"Ġenti":2874,"Ġenviron":2875,"Ġensuite":2876,"ala":2877,"alent":2878,"ĠÃ¨":2879,"Ġbret":2880,"Ġbeff":2881,"Ġrange":2882,"riques":2883,"ĠDi":2884,"ĠDordogne":2885,"Ġrem":2886,"Ġsix":2887,"rÃ©t":2888,"rÃ©es":2889,"Ġempl":2890,"ĠMÃ©":2891,"ĠMus":2892,"ĠJeu":2893,"Ġhom":2894,"ĠRen":2895,"mod":2896,"ĠHistorique":2897,"atiques":2898,"illet":2899,"phis":2900,"Ġcompare":2901,"Ġcommen":2902,"stra":2903,"196":2904,"ĠUni":2905,"Ġcourt":2906,"Ġ300":2907,"ĠInteractive":2908,"lante":2909,"Ġseulement":2910,"Ġnormes":2911,"Ãīc":2912,"Ġagri":2913,"ĠespÃ¨ces":2914,"fier":2915,"ĠÃ©lectrique":2916,"harique":2917,"Ġeffet":2918,"ĠCharles":2919,"ĠÃ©tudes":2920,"Ġsalon":2921,"Ġsymbole":2922,"ĠprÃ©sident":2923,"ĠEsp":2924,"Ġmeilleur":2925,"Ġparfait":2926,"loitation":2927,"ĠâĨĴ":2928,"22":2929,"26":2930,"EG":2931,"Ieter":2932,"ament":2933,"ach":2934,"cine":2935,"ctes":2936,"crit":2937,"clus":2938,"gÃ¨":2939,"hrop":2940,"jÃł":2941,"rant":2942,"ules":2943,"ulier":2944,"Ġdod":2945,"Ġloi":2946,"onte":2947,"Ã©tu":2948,"Ġcet":2949,"Ġcat":2950,"anc":2951,"ouse":2952,"quÃ©":2953,"Ġaur":2954,"Ġajout":2955,"Ġdevi":2956,"tigu":2957,"inage":2958,"entend":2959,"Ġtres":2960,"uropÃ©":2961,"illante":2962,"meaux":2963,"Ġbut":2964,"ĠbÃ©nÃ©":2965,"Ġru":2966,"Ã¨se":2967,"eure":2968,"ĠTok":2969,"ague":2970,"Ġaug":2971,"ĠDist":2972,"Ġrecher":2973,"Ġcheck":2974,"Ġpod":2975,"Ġposte":2976,"ĠdÃ©jÃł":2977,"Ġete":2978,"Ġemb":2979,"Ġecl":2980,"ĠGo":2981,"ĠGran":2982,"Ġinf":2983,"dia":2984,"Ġtemp":2985,"Ġtemple":2986,"Ġhistoires":2987,"Ġdim":2988,"Ġdirige":2989,"ĠNÃ©":2990,"ĠRoy":2991,"Ġprov":2992,"ĠFin":2993,"Ġdisp":2994,"phes":2995,"orts":2996,"oss":2997,"nig":2998,"Ġtruc":2999,"ertz":3000,"ign":3001,"Ġnoms":3002,"Ġarch":3003,"Ġcarte":3004,"âĶ¬":3005,"opolis":3006,"193":3007,"Ġalbum":3008,"Ġcouronne":3009,"ublique":3010,"ada":3011,"Ġboulier":3012,"Ġconser":3013,"illage":3014,"Ġnombreuses":3015,"Ġdivin":3016,"Ġmusic":3017,"ĠReid":3018,"Ġkiffes":3019,"Ġobjet":3020,"Ġsolaire":3021,"ociation":3022,"Ġfix":3023,"ĠCependant":3024,"Ġpates":3025,"ĠsÃ©par":3026,"Ġpartout":3027,"Ġvoile":3028,"Ġsauve":3029,"artiste":3030,"Ġplupart":3031,"Ġentend":3032,"Ã©ma":3033,"ĠCharente":3034,"Ġparticulier":3035,"Ġampoule":3036,"Ġdevenir":3037,"ĠdÃ©mocratie":3038,"Ġapprendre":3039,"ĠdonnÃ©es":3040,"ĠdÃ©signer":3041,"Ġgrammatical":3042,"Ġmythologie":3043,"Ġtype":3044,"ĠsoviÃ©tique":3045,"Ġsouvenirs":3046,"ĠÃ©glises":3047,"Ġdeborde":3048,"Ieteren":3049,"gÃ¨bre":3050,"Ġdodo":3051,"ĠDistri":3052,".)":3053,"Arabie":3054,"EL":3055,"dou":3056,"dans":3057,"eb":3058,"ete":3059,"git":3060,"gel":3061,"hÃ´ne":3062,"ko":3063,"osition":3064,"ront":3065,"rist":3066,"tte":3067,"ware":3068,"xim":3069,"ym":3070,"Ġdanger":3071,"Ã©op":3072,"Ġsais":3073,"annÃ©e":3074,"quelle":3075,"ises":3076,"Ġdevant":3077,"Ġlaquelle":3078,"Ġtom":3079,"Ġtyp":3080,"Ġfuite":3081,"Ġvieux":3082,"ray":3083,"rain":3084,"Ġbo":3085,"Ġbal":3086,"ĠCal":3087,"Ġrien":3088,"ĠAge":3089,"liers":3090,"Ġplastique":3091,"riÃ¨re":3092,"ĠPi":3093,"ĠPrÃ©":3094,"Ġparoles":3095,"ĠEd":3096,"ĠEt":3097,"aide":3098,"ĠÃ©qu":3099,"ĠSu":3100,"ĠSte":3101,"ĠSch":3102,"Ġ100":3103,"Ġchois":3104,"ĠBan":3105,"ĠBur":3106,"Ġcamp":3107,"ĠII":3108,"ĠintÃ©g":3109,"Ġhabit":3110,"ication":3111,"Ġmonte":3112,"sembl":3113,"Ġtrouv":3114,"erts":3115,"Ġapplic":3116,"entiel":3117,"194":3118,"Ġall":3119,"Ġcourte":3120,"lÃ©ments":3121,"Ġactu":3122,"Ġrester":3123,"ĠInter":3124,"cupe":3125,"Ġsera":3126,"ĠutilisÃ©s":3127,"ĠmÃ©de":3128,"tenant":3129,"Ġgrandes":3130,"duction":3131,"Ġmilieu":3132,"Ġsouff":3133,"ĠRep":3134,"aÃ¯que":3135,"Ġespaces":3136,"tionnelle":3137,"Ġjouer":3138,"Ġlongue":3139,"Ġpattes":3140,"ĠnÃ©erlandais":3141,"Ġdurant":3142,"Ġbande":3143,"ĠdÃ©signe":3144,"exploitation":3145,"Ġfonctions":3146,"Ġpersonnel":3147,"ĠcaractÃ©ris":3148,"Ġcrist":3149,"Ġconseil":3150,"Åĵuvre":3151,"ĠExemples":3152,"Ġlumineux":3153,"Ġordinateurs":3154,"cription":3155,"ĠreprÃ©sente":3156,"ronyme":3157,"tigua":3158,"Apple":3159,"Or":3160,"UL":3161,"avec":3162,"cur":3163,"coup":3164,"dre":3165,"eil":3166,"frique":3167,"ji":3168,"jo":3169,"jima":3170,"pend":3171,"rÃ¨":3172,"stitu":3173,"soft":3174,"voir":3175,"vence":3176,"Ġir":3177,"ĠdÃ¨s":3178,"entement":3179,"Ã©p":3180,"Ã©qu":3181,"Ġciv":3182,"anci":3183,"tige":3184,"ermo":3185,"Ġmanger":3186,"org":3187,"orin":3188,"orter":3189,"ombre":3190,"Ġfour":3191,"Ġfurent":3192,"Ġvague":3193,"Ġetc":3194,"Ġlesqu":3195,"Ġenv":3196,"rag":3197,"aline":3198,"Ġbran":3199,"Ġband":3200,"Ġbout":3201,"ieure":3202,"aul":3203,"auff":3204,"ĠComp":3205,"ĠAGP":3206,"cept":3207,"chons":3208,"Ġgard":3209,"ĠPays":3210,"ĠPEG":3211,"aissent":3212,"Ġcontient":3213,"ager":3214,"Ġaujourd":3215,"ĠDon":3216,"ĠÃ©lÃ©ment":3217,"Ġ12":3218,"Ġchu":3219,"acitÃ©":3220,"actif":3221,"acide":3222,"ĠBÃ¨s":3223,"ĠBEL":3224,"ĠeuropÃ©":3225,"aleurs":3226,"dium":3227,"Ġhomme":3228,"ogun":3229,"ĠNob":3230,"andis":3231,"Ġvivant":3232,"uxelles":3233,"oses":3234,"stÃ¨me":3235,"Ġmod":3236,"Ġmodi":3237,"ĠLaurÃ©at":3238,"ĠarmÃ©ni":3239,"ĠcarÃ©lien":3240,"entiellement":3241,"Ġtraverse":3242,"ronique":3243,"ĠAnge":3244,"Ġperdu":3245,"Ġdirection":3246,"ĠmarchÃ©":3247,"Ġutilisent":3248,"Ġbouchons":3249,"Ġmettre":3250,"Ġ183":3251,"tension":3252,"Ġadministra":3253,"Ġ1990":3254,"allÃ©e":3255,"Ġmontagne":3256,"ĠdÃ©crit":3257,"ĠdivinitÃ©":3258,"Ġattend":3259,"rises":3260,"Ġtranspar":3261,"Ġ2007":3262,"Ġobtient":3263,"conte":3264,"Ġagric":3265,"Ġchaud":3266,"Ġchaude":3267,"Ġdessin":3268,"cteurs":3269,"Ġ1970":3270,"Ġtravail":3271,"oseph":3272,"ĠappelÃ©":3273,"Ġlibre":3274,"Ġgratu":3275,"ĠYork":3276,"Ġfaisaient":3277,"Ġlivres":3278,"Ġlocalis":3279,"Ġchauffe":3280,"ĠÃ©crit":3281,"Ġpommes":3282,"rys":3283,"Ġpluie":3284,"tÃ©rieur":3285,"ĠcomposÃ©":3286,"Ġoccident":3287,"ĠcaractÃ¨re":3288,"Ġpoids":3289,"ĠAprÃ¨s":3290,"Ġrituels":3291,"ĠdÃ©finition":3292,"Ġpossible":3293,"ĠlittÃ©ra":3294,"ĠSystÃ¨me":3295,"Ġrythme":3296,"Ġglac":3297,"ĠTechn":3298,"ĠmathÃ©matiques":3299,"Ġanciens":3300,"jectif":3301,"ĠBruxelles":3302,"Ġcuivre":3303,"Ġmorceau":3304,"ĠindÃ©pendant":3305,"Ġenfants":3306,"Ġdistance":3307,"Ġrayons":3308,"Ġterritoire":3309,"Ġdivertissement":3310,"ĠLouis":3311,"Ġquartier":3312,"essionn":3313,"Ġcordes":3314,"Ġemploy":3315,"Ãīcole":3316,"Ġdimension":3317,"ĠDistribu":3318,"',":3319,"'s":3320,"64":3321,"Empire":3322,"ape":3323,"cont":3324,"dÃ©s":3325,"gistre":3326,"ho":3327,"ich":3328,"ige":3329,"lent":3330,"lair":3331,"nak":3332,"nae":3333,"test":3334,"uve":3335,"Ġoign":3336,"Ġdor":3337,"Ġdil":3338,"Ġlois":3339,"Ġlentement":3340,"ĠpÃ¨re":3341,"Ġpiv":3342,"quette":3343,"Ġaout":3344,"tinÃ©":3345,"Ġmai":3346,"unit":3347,"arbre":3348,"Ġlave":3349,"Ġfaut":3350,"Ġfusion":3351,"ital":3352,"Ġvent":3353,"Ġvas":3354,"Ġvaleurs":3355,"Ġunivers":3356,"asis":3357,"Ġnul":3358,"Ġnorme":3359,"ĠLib":3360,"ĠÃ®":3361,"Ġbl":3362,"Ġbu":3363,"Ġby":3364,"Ġboi":3365,"Ġboy":3366,"Ġbits":3367,"ĠrÃ´le":3368,"ĠAc":3369,"ĠAtoum":3370,"chant":3371,"Ã¨tres":3372,"Ġgon":3373,"Ġgramm":3374,"ĠEau":3375,"ressi":3376,"siris":3377,"aise":3378,"ĠTro":3379,"atis":3380,"ĠDoc":3381,"ĠÃ©poque":3382,"Ġremp":3383,"ĠSer":3384,"ĠSoci":3385,"ĠSud":3386,"ĠBar":3387,"ĠGroupe":3388,"ĠMo":3389,"ĠMicro":3390,"ĠVal":3391,"ĠVienne":3392,"tÃ©es":3393,"Ġho":3394,"Ġhor":3395,"Ġhong":3396,"Ġvib":3397,"ĠHor":3398,"tume":3399,"Ġdisent":3400,"Ġdistribu":3401,"ĠÂ»),":3402,"Ġcomprom":3403,"ications":3404,"niv":3405,"ormais":3406,"iennes":3407,"Ġraconte":3408,"ĠKe":3409,"ĠÃ©tab":3410,"utiliser":3411,"Ġ30":3412,"Ġinterne":3413,"Ġmarque":3414,"Ġutilise":3415,"Ġutilisant":3416,"ĠmÃ©t":3417,"Ġadop":3418,"illent":3419,"Ġ1995":3420,"Ġ1997":3421,"posi":3422,"Ġmontre":3423,"ĠDejima":3424,"Ġsouh":3425,"rish":3426,"idae":3427,"Ġimpose":3428,"issements":3429,"Ġroutes":3430,"Ġconstante":3431,"Ġconstruction":3432,"Ġ2011":3433,"Ġvisage":3434,"ĠÃ©gyptien":3435,"Ġdessus":3436,"Ġautor":3437,"ĠsuccÃ¨s":3438,"Ġ40":3439,"Ġreligion":3440,"Ġpropri":3441,"landes":3442,"Ġlongtemps":3443,"ĠnÃ©cess":3444,"ĠMarc":3445,"Ġlorsqu":3446,"Ġgras":3447,"huile":3448,"Ġpleure":3449,"Ġfeuille":3450,"Ġvoix":3451,"Ġvoiture":3452,"Ġfrais":3453,"Ġprofessionn":3454,"Ġnational":3455,"Ġniveau":3456,"Ġchangement":3457,"Ġdistinct":3458,"Ġsorti":3459,"Ġsortie":3460,"ĠLangue":3461,"Ġprogramm":3462,"Ġproduction":3463,"labor":3464,"ĠdÃ©sormais":3465,"Ġservices":3466,"Ġcalculs":3467,"Ġgrosse":3468,"Ġchanson":3469,"Ġstatut":3470,"Ġbougies":3471,"France":3472,"Ġavions":3473,"Ġbeaucoup":3474,"ĠPrin":3475,"Ġoreilles":3476,"cesseur":3477,"Ġminutes":3478,"Ġbravo":3479,"ĠAnthocoris":3480,"ĠbÃ©nÃ©f":3481,"Ġprovince":3482,"rysop":3483,"ĠDistribution":3484,"naeus":3485,".-":3486,"25":3487,"Au":3488,"En":3489,"Europe":3490,"Ou":3491,"Pro":3492,"SO":3493,"cence":3494,"ctement":3495,"dis":3496,"get":3497,"iz":3498,"list":3499,"llab":3500,"mene":3501,"osi":3502,"su":3503,"tt":3504,"toie":3505,"yum":3506,"Ã¶":3507,"ä¸":3508,"Ġdent":3509,"Ġdieux":3510,"Ġloin":3511,"enh":3512,"envers":3513,"onie":3514,"oniens":3515,"Ã©d":3516,"Ã©ment":3517,"Ġpet":3518,"Ġsent":3519,"Ġsature":3520,"ana":3521,"annees":3522,"oure":3523,"rev":3524,"Ġdecis":3525,"Ġdedans":3526,"tiers":3527,"ley":3528,"lere":3529,"ints":3530,"ertume":3531,"Ġmeu":3532,"Ġmouvement":3533,"Ġmix":3534,"unct":3535,"etale":3536,"ares":3537,"artif":3538,"Ġtandis":3539,"Ġfli":3540,"Ġfeux":3541,"Ġvoc":3542,"Ġveau":3543,"Ġventi":3544,"Ġetre":3545,"ĠunitÃ©s":3546,"asta":3547,"Ġneu":3548,"rages":3549,"ela":3550,"aly":3551,"Ġbes":3552,"ĠblÃ©":3553,"Ġball":3554,"Ġbaille":3555,"Ġbeton":3556,"ĠCet":3557,"ĠCour":3558,"Ġrince":3559,"Ġride":3560,"Ġroses":3561,"chniques":3562,"liÃ©":3563,"Ġglandes":3564,"Ġplantes":3565,"Ġparait":3566,"ĠExp":3567,"veur":3568,"olat":3569,"ĠTop":3570,"Ġconte":3571,"atur":3572,"agnÃ©":3573,"ĠDr":3574,"ĠDonc":3575,"ĠDanse":3576,"ĠÃ©ch":3577,"ĠÃ©lÃ©ments":3578,"termin":3579,"cide":3580,"Ġemo":3581,"ĠGar":3582,"ĠGam":3583,"ĠMin":3584,"Ġseigne":3585,"Ġpasser":3586,"Ġinverse":3587,"Ġstresse":3588,"Ġstock":3589,"Ġstocke":3590,"Ġstronti":3591,"Ġhub":3592,"Ġhiver":3593,"Ġhistor":3594,"Ġhistorique":3595,"ĠNouv":3596,"ĠRom":3597,"ĠRob":3598,"Ġproches":3599,"ĠHau":3600,"anglais":3601,"Ġcop":3602,"Ġcoeur":3603,"agement":3604,"iquement":3605,"Ġcompar":3606,"Ġcomptent":3607,"Ġcomptaient":3608,"umm":3609,"Ġopp":3610,"nier":3611,"ormir":3612,"Ġtrin":3613,"Ġmode":3614,"ĠChrysop":3615,"Ġarom":3616,"ctrice":3617,"Ġavaient":3618,"Ġramene":3619,"Ġapplau":3620,"Ġcree":3621,"Ġsodium":3622,"Ġprepare":3623,"ibles":3624,"adores":3625,"adren":3626,"Ġmini":3627,"Ġcernes":3628,"hemis":3629,"eclair":3630,"Ã¢ge":3631,"cules":3632,"trape":3633,"Ġcolores":3634,"Ġbouge":3635,"Ã´t":3636,"ĠmÃ©th":3637,"Ġ187":3638,"ticle":3639,"Ġseconde":3640,"trie":3641,"Ġtient":3642,"Ġpetite":3643,"Ġvertige":3644,"Ġ1998":3645,"ouverture":3646,"pophis":3647,"Ġregles":3648,"Ġregarde":3649,"Ġregulier":3650,"roidit":3651,"ĠdÃ©couver":3652,"Ġatti":3653,"Ġmuscles":3654,"ĠRÃ©p":3655,"Ġ2002":3656,"ĠcrÃ©Ã©":3657,"Ġmach":3658,"titude":3659,"ĠMeme":3660,"Ġagresse":3661,"Ġordis":3662,"Ġaccent":3663,"Ġaccomp":3664,"Ġbrillent":3665,"Ġblancs":3666,"Ġportance":3667,"ĠmatÃ©ri":3668,"Ġasp":3669,"Ġtombent":3670,"Ġgrain":3671,"Ġdurcit":3672,"Ġbananes":3673,"Ġprotection":3674,"Ġproteines":3675,"ĠapparaÃ®t":3676,"ublican":3677,"ĠreprÃ©sentÃ©":3678,"odeur":3679,"Ġmicrobes":3680,"Ġbaryum":3681,"Ġgrille":3682,"Ġteste":3683,"Ġreflexe":3684,"Ġrefroidit":3685,"Ġfrissons":3686,"ĠProg":3687,"Ġchauffent":3688,"Ġpiece":3689,"Ġcentaines":3690,"Ġinstru":3691,"Ġhaute":3692,"orial":3693,"Ġroman":3694,"Ġreveil":3695,"Ġreveille":3696,"Ġfrapper":3697,"Ġnaturelle":3698,"ĠparticuliÃ¨re":3699,"Ġpoils":3700,"Alpes":3701,"Ġfreine":3702,"Ġcadre":3703,"marrage":3704,"ĠsituÃ©":3705,"Ġmelodie":3706,"ĠCanada":3707,"Ġchimiques":3708,"ĠopÃ©ra":3709,"Ġmesurer":3710,"interieur":3711,"Ġsalee":3712,"Ġmenage":3713,"ĠvariÃ©tÃ©s":3714,"Ġvolonte":3715,"ĠsiÃ¨cle":3716,"affinage":3717,"lots":3718,"Ġmolaire":3719,"Ġbourre":3720,"Ġurbaines":3721,"prise":3722,"Ġfabrique":3723,"ĠArmy":3724,"Ġcycle":3725,"echo":3726,"Ġvoeu":3727,"Ġchocolat":3728,"Ġrespec":3729,"ĠImagine":3730,"Ġlevure":3731,"Ġsolution":3732,"ĠBabyloniens":3733,"Ġquestions":3734,"Ġnettoie":3735,"oussoles":3736,"Ġaccelere":3737,"Ġronron":3738,"Ġeternue":3739,"Ġmolecule":3740,"Ġralentir":3741,"humidite":3742,"Ġfenetres":3743,"Ġmangent":3744,"ĠquantitÃ©":3745,"automatique":3746,"Ġsynchro":3747,"ygene":3748,"Ġagripper":3749,"Ã©tude":3750,"Ġajoutent":3751,"Ġhabitants":3752,"Ġsouffle":3753,"ĠRepublican":3754,"Ġbouts":3755,"ĠNobel":3756,"Ġattends":3757,"Ġglacons":3758,"Ġdorment":3759,"Ġdilate":3760,"Ġgonfle":3761,"artifice":3762,"Ġflipper":3763,"Ġventilo":3764,"Ġstrontium":3765,"Ġhublots":3766,"Ġapplaudit":3767,"adrenaline":3768,"hemisphere":3769,"33":3770,"AS":3771,"Coccinella":3772,"Deraeocoris":3773,"OI":3774,"PC":3775,"avant":3776,"bac":3777,"cre":3778,"den":3779,"exe":3780,"gion":3781,"histoire":3782,"ker":3783,"lon":3784,"mont":3785,"pÃ©":3786,"polis":3787,"sÃ©":3788,"vÃ©e":3789,"vage":3790,"Ġ&":3791,"ĠÅ":3792,"ĠÐ":3793,"estiv":3794,"Ġdonner":3795,"Ġlire":3796,"enant":3797,"ensemble":3798,"onnes":3799,"Ã©v":3800,"Ġcri":3801,"Ġsuit":3802,"Ġamb":3803,"til":3804,"tives":3805,"inture":3806,"Ġmise":3807,"Ġmassi":3808,"omiques":3809,"Ġfle":3810,"Ġfig":3811,"Ġvend":3812,"Ġvillage":3813,"ources":3814,"Ġdesc":3815,"Ġnos":3816,"elge":3817,"ĠLors":3818,"autÃ©":3819,"ĠCul":3820,"Ġro":3821,"ĠAss":3822,"chet":3823,"ross":3824,"Ġgagn":3825,"ĠPat":3826,"ĠThÃ©or":3827,"Ġauc":3828,"ĠDou":3829,"ĠDennis":3830,"Ġretra":3831,"Ġ14":3832,"acques":3833,"ĠBat":3834,"ĠGre":3835,"ĠMon":3836,"ĠMais":3837,"Ġsein":3838,"diant":3839,"Ġtechniques":3840,"ppe":3841,"Ġdix":3842,"amour":3843,"Ġvia":3844,"Ġdisc":3845,"Ġjeun":3846,"Ġcependant":3847,"Ġexclus":3848,"Ġarts":3849,"ĠEntre":3850,"Ġforce":3851,"âĶĢâĶ¬":3852,"utilise":3853,"Ġlangages":3854,"Ġpuiss":3855,"ades":3856,"Ġdirectement":3857,"Ã¢ce":3858,"ĠutilisÃ©e":3859,"Ġrepro":3860,"Ġbasse":3861,"areil":3862,"Ġrecons":3863,"ĠexpÃ©ri":3864,"nexes":3865,"pose":3866,"Ġimpos":3867,"vention":3868,"Ġ2005":3869,"ĠcapacitÃ©":3870,"aÃ¯s":3871,"Ġroute":3872,"Ġáį":3873,"Ġmess":3874,"Ġtravaux":3875,"Ġpolitiques":3876,"Ġpopulaire":3877,"ĠappelÃ©e":3878,"Ġrenouv":3879,"ricitÃ©":3880,"udget":3881,"khen":3882,"Ġpied":3883,"Ġsauce":3884,"Ġcroy":3885,"Ġmorts":3886,"Ġromain":3887,"quipe":3888,"Ġessentiellement":3889,"ĠsituÃ©e":3890,"Ġchimique":3891,"Ġofficiel":3892,"Ġfilms":3893,"ĠComitÃ©":3894,"ĠpossÃ¨de":3895,"Ġservice":3896,"ĠcÃ©lÃ¨":3897,"Ġtechnique":3898,"ANSI":3899,"ĠPascal":3900,"Ġmultip":3901,"Ġanimal":3902,"Ġsuffit":3903,"Ġvictoire":3904,"ĠKarnak":3905,"ĠPersonnalitÃ©":3906,"Ġmunicip":3907,"ĠfrÃ©qu":3908,"ĠCertains":3909,"ĠÃ¨re":3910,"ĠmÃ©decine":3911,"ĠMicrosoft":3912,"Ġprogrammation":3913,"Provence":3914,"unctata":3915,"11":3916,"53":3917,"Alle":3918,"ES":3919,"Is":3920,"RhÃ´ne":3921,"bi":3922,"ber":3923,"bit":3924,"ez":3925,"face":3926,"gent":3927,"gri":3928,"gÃ©e":3929,"ha":3930,"ik":3931,"jan":3932,"ly":3933,"log":3934,"males":3935,"magne":3936,"nent":3937,"oter":3938,"off":3939,"pi":3940,"tro":3941,"tain":3942,"vait":3943,"yt":3944,"zz":3945,"Ġul":3946,"ess":3947,"Ġlo":3948,"eng":3949,"Ã©dition":3950,"Ġska":3951,"quÃ©e":3952,"Ġdeme":3953,"tim":3954,"inf":3955,"ero":3956,"ernig":3957,"unitÃ©":3958,"oro":3959,"Ġto":3960,"Ġfui":3961,"Ġflot":3962,"Ġflam":3963,"Ġve":3964,"Ġvin":3965,"Ġvilles":3966,"illÃ©":3967,"ĠdestinÃ©":3968,"rate":3969,"Ġbelge":3970,"ĠCy":3971,"Ġrois":3972,"ĠAst":3973,"liques":3974,"seaux":3975,"Ã¨t":3976,"Ġgri":3977,"rir":3978,"rire":3979,"rimo":3980,"ĠPrix":3981,"ĠEC":3982,"ĠconÃ§":3983,"aig":3984,"ĠÃ©n":3985,"Ġreven":3986,"ĠSw":3987,"ĠSur":3988,"ĠSal":3989,"ĠSole":3990,"Ġpot":3991,"Ġposition":3992,"ĠBus":3993,"ĠdÃ©di":3994,"ĠGu":3995,"Ġsep":3996,"ĠIrish":3997,"oto":3998,"otom":3999,"dig":4000,"ĠVO":4001,"ĠJap":4002,"Ġhi":4003,"Ġdirig":4004,"ĠLeur":4005,"ocie":4006,"cessi":4007,"pha":4008,"phone":4009,"Ã©rieur":4010,"vironne":4011,"istant":4012,"Ġ2000":4013,"Ã©sie":4014,"ateau":4015,"Ãªt":4016,"Ãªmes":4017,"ologies":4018,"Ġconcern":4019,"Ġfranc":4020,"Ã©riques":4021,"ĠÃ©tran":4022,"Ġfortif":4023,"Ġsoli":4024,"ĠAnnexes":4025,"ĠidÃ©":4026,"Ġirak":4027,"Ġminist":4028,"Ġcouche":4029,"ĠutilisÃ©es":4030,"Ġconsac":4031,"Ġorg":4032,"tenir":4033,"Ġnormalisation":4034,"Ġadul":4035,"Ġverbe":4036,"ĠDanses":4037,"ĠDepuis":4038,"Ġatta":4039,"Ġmaxim":4040,"Ġseuls":4041,"Ġformation":4042,"Ġ2016":4043,"buda":4044,"otep":4045,"ĠmatiÃ¨re":4046,"resses":4047,"Ġpermettant":4048,"Ġportent":4049,"veloppe":4050,"tionnaire":4051,"Ġrencont":4052,"lÃ¨ve":4053,"Ġ1960":4054,"Ġbarbac":4055,"europÃ©":4056,"Ġfaisant":4057,"Ġ1758":4058,"Ġphyt":4059,"Åĵur":4060,"Ġjuger":4061,"ĠthÃ©orÃ¨me":4062,"ĠThom":4063,"Ġhautes":4064,"athor":4065,"Ġincandes":4066,"lemagne":4067,"Ġtriade":4068,"Ġhumains":4069,"ĠrÃ©sul":4070,"ĠsiÃ¨ge":4071,"Ġprobablement":4072,"Ġsavoir":4073,"Ġimportant":4074,"ultats":4075,"ĠassociÃ©":4076,"Ġcentrale":4077,"Ġshogun":4078,"Ġmondial":4079,"Ġmondiale":4080,"ĠBiographie":4081,"Ġressources":4082,"Ġartistique":4083,"ĠconsidÃ©rÃ©":4084,"Ġorigin":4085,"Ġdubplate":4086,"ĠÃ©conomique":4087,"phabet":4088,"Ġ(-)":4089,"ĠFermat":4090,"ĠbretÃ¨che":4091,"Ġhommes":4092,"ĠRoyaume":4093,"ĠFinlande":4094,"Ġlesquels":4095,"Ġchute":4096,"ĠDrumm":4097,"ĠChrysopa":4098,"ĠRÃ©publique":4099,"exemple":4100,"Allemagne":4101,"ernighan":4102,"ĠSoleil":4103,"Ġincandescence":4104,"ĠDrummond":4105,"14":4106,"27":4107,"60":4108,"83":4109,"94":4110,":=":4111,"AD":4112,"AF":4113,"Norin":4114,"aph":4115,"by":4116,"bilitÃ©":4117,"cli":4118,"dat":4119,"emb":4120,"gae":4121,"hyd":4122,"iy":4123,"iance":4124,"lant":4125,"langer":4126,"ma":4127,"mor":4128,"nant":4129,"odi":4130,"oÃ¹":4131,"pents":4132,"prises":4133,"sa":4134,"sus":4135,"ument":4136,"va":4137,"yo":4138,"áĭ":4139,"Ġdat":4140,"Ġdonn":4141,"onomie":4142,"Ġpol":4143,"Ġpap":4144,"Ġsout":4145,"ister":4146,"ties":4147,"tilis":4148,"tiennent":4149,"armÃ©e":4150,"omÃ¨tre":4151,"urrent":4152,"Ġfine":4153,"ita":4154,"ĠvÃ©r":4155,"Ġvoire":4156,"Ġense":4157,"Ġnatur":4158,"Ġ::=":4159,"ĠLab":4160,"algÃ¨bre":4161,"Ġbe":4162,"Ġboule":4163,"ĠbÃ¢":4164,"Ġbudget":4165,"ĠCl":4166,"ĠCou":4167,"ĠCent":4168,"ĠCas":4169,"ĠAN":4170,"Ġgam":4171,"Ġplut":4172,"Ġplay":4173,"rient":4174,"Ġparle":4175,"Ġparmi":4176,"ĠEDF":4177,"Ġjoie":4178,"sident":4179,"Ġpours":4180,"ĠTur":4181,"Ġcontribu":4182,"Ġconcept":4183,"ĠDun":4184,"ĠÃ©d":4185,"ĠÃ©vi":4186,"Ġrev":4187,"ĠSan":4188,"ĠchrÃ©":4189,"acte":4190,"acti":4191,"ĠBa":4192,"ĠBer":4193,"ĠBien":4194,"ĠBorde":4195,"tertain":4196,"cial":4197,"ĠMal":4198,"endo":4199,"Ġstand":4200,"ĠVille":4201,"ĠJoseph":4202,"ĠOrig":4203,"ama":4204,"ĠrÃ©par":4205,"ĠrÃ©seau":4206,"ĠprotÃ©":4207,"erson":4208,"mos":4209,"image":4210,"Ġcompor":4211,"nies":4212,"nivers":4213,"Ġjeune":4214,"Ġ2019":4215,"Ġantique":4216,"Ã§ois":4217,"ĠprÃ©cÃ©":4218,"Ġappli":4219,"ĠKernighan":4220,"Ġpeuple":4221,"ĠArend":4222,"utilisation":4223,"Ġsystem":4224,"Ġidenti":4225,"ĠphÃ©n":4226,"ington":4227,"obile":4228,"tifs":4229,"Ġserait":4230,"Ġserpents":4231,"Ġentretien":4232,"Ġboulanger":4233,"Ġfinalement":4234,"Ġconsomm":4235,"Ġsuiv":4236,"tenue":4237,"aki":4238,"oncÃ©":4239,"autor":4240,"illon":4241,"illard":4242,"Ġchamps":4243,"Ġvache":4244,"ĠabrÃ©":4245,"fications":4246,"Ġprincipale":4247,"ĠcrÃ©er":4248,"Ġobtenu":4249,"Ġexterne":4250,"ĠMeillet":4251,"culture":4252,"Ġautant":4253,"Ġdoux":4254,"Ġbruit":4255,"Ġcela":4256,"Ġpropos":4257,"tionnel":4258,"Ġ1980":4259,"lÃ¨mes":4260,"ĠsÃ©lection":4261,"ĠgrÃ¢ce":4262,"ĠProduit":4263,"âĶĢâĶĢâĶĢâĶĢâĶĢâĶĢ":4264,"expression":4265,"Ġouvrage":4266,"ramming":4267,"antine":4268,"Ġsuivantes":4269,"2004":4270,"ĠMich":4271,"ussie":4272,"ĠprÃ©sente":4273,"Ġfaible":4274,"Ġphotos":4275,"ĠremplacÃ©":4276,"Ġancienne":4277,"Ġchansons":4278,"Ġmoyen":4279,"Ġlabel":4280,"ĠDuke":4281,"128":4282,"dustri":4283,"ĠAutres":4284,"ĠprotÃ¨ge":4285,"finition":4286,"ĠcontrÃ´le":4287,"Ġrapidement":4288,"Ġlogiciels":4289,"Ġtransforme":4290,"ĠÃītudiant":4291,"rÃ©taire":4292,"Ġcommencer":4293,"Ġdeviennent":4294,"ĠTokyo":4295,"ĠdivinitÃ©s":4296,"Ġapplication":4297,"Ġbands":4298,"Ġhoraires":4299,"ĠProgramming":4300,"estival":4301,"rimoine":4302,"ĠJapan":4303,"vironnement":4304,"ĠBordeaux":4305,"tertainment":4306,"ĠphÃ©nom":4307,"EE":4308,"Haute":4309,"Orient":4310,"cor":4311,"cÃ©e":4312,"don":4313,"del":4314,"empl":4315,"fÃ©":4316,"fiques":4317,"ides":4318,"iÃ¨res":4319,"ks":4320,"mÃ©es":4321,"mente":4322,"mouvement":4323,"och":4324,"oret":4325,"pa":4326,"rÃª":4327,"ty":4328,"tle":4329,"uent":4330,"vation":4331,"yon":4332,"yde":4333,"zy":4334,"zar":4335,"Ġ),":4336,"Ġdoll":4337,"Ġlance":4338,"enf":4339,"once":4340,"Ã©h":4341,"Ġpince":4342,"Ġpoll":4343,"Ġcrois":4344,"Ġsites":4345,"Ġscal":4346,"ancien":4347,"ancÃ©":4348,"anvier":4349,"quet":4350,"tein":4351,"Ġdetend":4352,"Ġdeja":4353,"tiÃ©":4354,"tible":4355,"lephone":4356,"incer":4357,"erain":4358,"Ġmous":4359,"arc":4360,"arme":4361,"Ġlecteur":4362,"organisation":4363,"ĠlaurÃ©at":4364,"ĠthÃ©":4365,"ĠqualitÃ©":4366,"Ġforet":4367,"Ġves":4368,"Ġvit":4369,"Ġvec":4370,"Ġvente":4371,"ĠvallÃ©e":4372,"Ġenvie":4373,"Ġnavi":4374,"ĠLig":4375,"ĠLond":4376,"allÃ©":4377,"Ġbinaire":4378,"ĠCant":4379,"Ġris":4380,"Ġroule":4381,"ĠAka":4382,"Ã¨bes":4383,"rocher":4384,"Ġgagnes":4385,"Ġplac":4386,"ĠPe":4387,"ĠPuis":4388,"ĠEur":4389,"Ġjanvier":4390,"vey":4391,"olo":4392,"ĠTre":4393,"ĠTra":4394,"agas":4395,"aite":4396,"ĠDj":4397,"Ġred":4398,"Ġrepe":4399,"Ġrepar":4400,"Ġreves":4401,"ĠSou":4402,"ĠSci":4403,"ĠSous":4404,"Ġchant":4405,"Ġchanger":4406,"Ġpoints":4407,"ĠBo":4408,"ĠdÃ©termin":4409,"Ġeche":4410,"ĠGal":4411,"ĠGuerre":4412,"ĠMat":4413,"Ġpassent":4414,"Ġindo":4415,"Ġstage":4416,"geance":4417,"Ġtelephone":4418,"ĠJus":4419,"ĠJacques":4420,"ĠhÃ©":4421,"Ġhyd":4422,"Ġhalog":4423,"ĠNil":4424,"ĠRo":4425,"ĠrÃ©d":4426,"ĠFour":4427,"Ġdisque":4428,"Ġdispar":4429,"ouvert":4430,"ouvrir":4431,"Ġcoord":4432,"peau":4433,"pect":4434,"Ã©rant":4435,"Ġmonuments":4436,"eaux":4437,"Ġmob":4438,"Ġmood":4439,"Ġ2023":4440,"ignement":4441,"Ġannivers":4442,"ĠprÃ¨s":4443,"ondre":4444,"Ġexac":4445,"ĠChÃ¢te":4446,"ĠAllemagne":4447,"Ġmere":4448,"Ġraison":4449,"Ġradio":4450,"Ġapporte":4451,"ĠKing":4452,"ĠÃīgypte":4453,"utif":4454,"Ġaller":4455,"ĠalgÃ©":4456,"dÃ©mie":4457,"aye":4458,"Ġpreuve":4459,"Ġpuisque":4460,"Ġjourn":4461,"ĠgÃ©nie":4462,"Ġtermes":4463,"cup":4464,"cule":4465,"Ġserpent":4466,"Ġfinno":4467,"ĠmÃ©c":4468,"Ġordi":4469,"intendo":4470,"mÃ©di":4471,"Ġbasket":4472,"Ġsecteur":4473,"Ġprincipe":4474,"Ġvoisin":4475,"illie":4476,"Ġamharique":4477,"Ġreconn":4478,"Ġclaire":4479,"Ġ1992":4480,"Ġ1993":4481,"Ġcontinues":4482,"Ġregle":4483,"Ġregroupe":4484,"Ġdivis":4485,"Ġtransform":4486,"pson":4487,"Ġ2001":4488,"Ġ2004":4489,"Ġ2009":4490,"Ġconnexions":4491,"tribut":4492,"Ġcalme":4493,"Ġroutine":4494,"esseur":4495,"ĠrÃ©gions":4496,"Ġtaf":4497,"Ġ2013":4498,"Ġaccorde":4499,"Ġmesures":4500,"Ġfile":4501,"Ġfondateur":4502,"Ġblanquette":4503,"Ġbizar":4504,"Ġjoues":4505,"Ġ1988":4506,"appe":4507,"onymie":4508,"ĠPlusieurs":4509,"ĠdÃ©sig":4510,"Ġ1965":4511,"Ġfaisait":4512,"Ġ178":4513,"Ġmilliards":4514,"Ġpile":4515,"Ġaires":4516,"Ġlignes":4517,"Ġinstalle":4518,"Ġscience":4519,"Ġsciences":4520,"asty":4521,"Ġeffec":4522,"ĠÃ©tudi":4523,"Ġzo":4524,"Ġisol":4525,"Ġpouss":4526,"rÃ©viation":4527,"ĠampÃ¨re":4528,"ĠBell":4529,"ĠdÃ©fense":4530,"ĠproblÃ¨mes":4531,"ĠdonnÃ©":4532,"ĠlinÃ©":4533,"system":4534,"Ġsource":4535,"ception":4536,"Ġconseille":4537,"Ġinformatique":4538,"ĠmagnÃ©":4539,"Ġcombat":4540,"Ġcontraire":4541,"Ġcentral":4542,"joue":4543,"Ġspecial":4544,"Ġcuisiner":4545,"Ġusage":4546,"casts":4547,"Ġpromo":4548,"Ġdiverses":4549,"Ġgestion":4550,"ĠlibÃ©rale":4551,"Maritime":4552,"Maritimes":4553,"Ġreligieuse":4554,"Ġstructure":4555,"Ġtraditionn":4556,"existence":4557,"Ġautomne":4558,"strad":4559,"Ġpodcasts":4560,"Ġeclaire":4561,"Ã©optÃ¨res":4562,"rÃ¨ze":4563,"ĠmodÃ¨le":4564,"Ġgratuit":4565,"Ġgrammaire":4566,"ĠDoctrine":4567,"Ġcompromis":4568,"nivores":4569,"Ouest":4570,"Ġdentiste":4571,"ĠGames":4572,"Ġaucun":4573,"ĠGrecs":4574,"khenaton":4575,"ĠAstar":4576,"Ġgriff":4577,"Ġsepte":4578,"digala":4579,"Ġadultes":4580,"ĠThompson":4581,"Ġnaturaliste":4582,"Ġplaylist":4583,"Ġcomportement":4584,"Ġpollen":4585,"Ġscalaire":4586,"ĠalgÃ©b":4587,".,":4588,"Afrique":4589,"Bar":4590,"NF":4591,"RE":4592,"RÃª":4593,"Saint":4594,"US":4595,"ba":4596,"bet":4597,"berg":4598,"com":4599,"cour":4600,"fre":4601,"gra":4602,"hab":4603,"hÅį":4604,"ixe":4605,"ifi":4606,"lui":4607,"lieu":4608,"men":4609,"olique":4610,"pis":4611,"ptiques":4612,"rest":4613,"ril":4614,"rons":4615,"rlande":4616,"sie":4617,"tan":4618,"tor":4619,"tiste":4620,"vages":4621,"xte":4622,"´ne":4623,"Âł":4624,"Ã«":4625,"Ð¾":4626,"áī":4627,"Ġos":4628,"Ġdais":4629,"Ġdanse":4630,"Ġlent":4631,"Ġlion":4632,"ensif":4633,"enveloppe":4634,"Ã©ti":4635,"Ã©ch":4636,"Ġpel":4637,"ĠpÃ©n":4638,"Ġcit":4639,"Ġsus":4640,"oue":4641,"ouch":4642,"remi":4643,"Ġaler":4644,"Ġaide":4645,"Ġacide":4646,"tice":4647,"ina":4648,"Ġmou":4649,"ĠmÃ¨re":4650,"Ġmass":4651,"arie":4652,"ardi":4653,"oies":4654,"oile":4655,"oivent":4656,"ora":4657,"orb":4658,"orie":4659,"Ġtest":4660,"ura":4661,"uraient":4662,"Ġfou":4663,"Ġfoule":4664,"ĠfÃªte":4665,"itant":4666,"Ġval":4667,"Ġvolu":4668,"usage":4669,"ourg":4670,"astis":4671,"illi":4672,"Ġenre":4673,"ĠLi":4674,"auteur":4675,"ĠCli":4676,"ĠCelle":4677,"mentation":4678,"ĠAtra":4679,"ĠAEC":4680,"ĠApophis":4681,"Ã¨nement":4682,"roÃ¯":4683,"Ġguit":4684,"nements":4685,"ĠPDA":4686,"ĠPaul":4687,"ĠparlÃ©":4688,"ĠEr":4689,"old":4690,"olÃ©":4691,"ĠTV":4692,"Ġconfort":4693,"Ġauteurs":4694,"ĠDom":4695,"ĠDel":4696,"ĠÃ©v":4697,"Ġremet":4698,"Ġremon":4699,"ĠSp":4700,"ĠSie":4701,"ĠSoft":4702,"Ġchan":4703,"Ġpoissons":4704,"ĠBack":4705,"ĠBNF":4706,"ĠdÃ©tr":4707,"ĠdÃ©ta":4708,"ĠdÃ©riv":4709,"ĠGl":4710,"ĠGÃ©":4711,"ĠGir":4712,"Ġindustri":4713,"oth":4714,"ditions":4715,"Ġstra":4716,"ĠVol":4717,"ĠOb":4718,"tÃ©ries":4719,"Ġhors":4720,"ensit":4721,"Ġdiz":4722,"Ġdigit":4723,"oges":4724,"ĠNintendo":4725,"ull":4726,"ulÃ©":4727,"ĠrÃ©c":4728,"ĠrÃ©ser":4729,"Ġproche":4730,"Ġprocess":4731,"ĠFu":4732,"Ġdissous":4733,"ĠmoitiÃ©":4734,"phe":4735,"ortant":4736,"Ġox":4737,"ica":4738,"Ġ2018":4739,"ivalent":4740,"ĠannÃ©e":4741,"ĠnommÃ©":4742,"ĠChac":4743,"ĠChange":4744,"ĠprÃ©c":4745,"ĠprÃ©d":4746,"Ġcarot":4747,"ctotom":4748,"Ġfaits":4749,"ology":4750,"ologues":4751,"ĠEntertainment":4752,"roit":4753,"ĠÃīgyp":4754,"Ġquelque":4755,"Ġparticipe":4756,"Ġkil":4757,"Ġtrai":4758,"Ġtradition":4759,"Ġif":4760,"Ġpeinture":4761,"Ġpermis":4762,"aÃ´ne":4763,"obs":4764,"Ġmars":4765,"Ġtermin":4766,"Ġservant":4767,"Ġcolonne":4768,"ennemi":4769,"Ġboules":4770,"Ġbouillante":4771,"Ġfinal":4772,"Ġfinanci":4773,"Ġ184":4774,"mÃ©n":4775,"dessus":4776,"Ġtitres":4777,"atifs":4778,"Ġ1991":4779,"Ġ1994":4780,"Ġmontant":4781,"Ġreggae":4782,"rammes":4783,"ĠÃītat":4784,"Ġprincipaux":4785,"ĠimpÃ©ri":4786,"venir":4787,"184":4788,"186":4789,"ĠdÃ©partements":4790,"Ġobs":4791,"Ġ6128":4792,"Ġcallig":4793,"Ġconstantes":4794,"Ġtaille":4795,"Ġ2014":4796,"ext":4797,"Ġencod":4798,"Ġautour":4799,"Ġnotre":4800,"Ġ1977":4801,"Ġferme":4802,"ĠfondÃ©e":4803,"Ġcellu":4804,"Ġpropres":4805,"Ġcertain":4806,"mission":4807,"Ġrestaur":4808,"ĠreprÃ©sentant":4809,"ĠreprÃ©sentÃ©e":4810,"tiennes":4811,"Ġmicrobi":4812,"agnie":4813,"Ġfeuilles":4814,"Ġjuge":4815,"alia":4816,"Ġjaponaise":4817,"ĠThÃ¨bes":4818,"Ġpersonnage":4819,"Ã©rieure":4820,"Ġpouvoirs":4821,"ĠBeaujeu":4822,"enregistre":4823,"Ġpoign":4824,"architecture":4825,"Allier":4826,"Ġphysiologie":4827,"Ġriches":4828,"Ġ150":4829,"Ġlettre":4830,"Ġofficielle":4831,"ctivement":4832,"Ġfactions":4833,"Ġpassage":4834,"Ġhumaine":4835,"iration":4836,"Ġdevenu":4837,"...":4838,"Ġmission":4839,"Ġlampes":4840,"Ġtexte":4841,"Ġtextes":4842,"import":4843,"Ġimportante":4844,"Ġmodernes":4845,"ĠprÃ©sence":4846,"Ġfaite":4847,"Ġcombus":4848,"ĠDÃ©finition":4849,"ĠportÃ©":4850,"Ġcinq":4851,"Ġfemme":4852,"ĠGeor":4853,"Ġtroubles":4854,"ĠArmorial":4855,"instru":4856,"ĠcÃ´tÃ©":4857,"ĠCorrÃ¨ze":4858,"ĠcontrÃ´":4859,"Ġvengeance":4860,"Ġdubplates":4861,"ĠsupÃ©rieur":4862,"ĠjamaÃ¯cain":4863,"Ġphilosophe":4864,"Ġreligieuses":4865,"charge":4866,"Ġretrouver":4867,"ĠactivitÃ©":4868,"cadÃ©mie":4869,"ĠpÃ©tro":4870,"modore":4871,"Ġaugmente":4872,"Ġrecherche":4873,"Ġinflu":4874,"Ġdispos":4875,"ymologie":4876,"ĠBurdigala":4877,"Ġenvoie":4878,"Ġbranche":4879,"ĠarmÃ©nienne":4880,"Ġagricole":4881,"ĠSociÃ©tÃ©":4882,"Ġhongrois":4883,"Ġsouhaite":4884,"ĠbÃ©nÃ©factif":4885,"ä¸Ģ":4886,"alyse":4887,"Ġbesoin":4888,"ĠdÃ©couverte":4889,"ĠparticuliÃ¨rement":4890,"Ġrespecter":4891,"ĠrÃ©sultat":4892,"AFUL":4893,"Ġstandard":4894,"ĠArendt":4895,"ĠdaishÅį":4896,"Ġvolume":4897,"ĠAtractotom":4898,"Ġremonte":4899,"Ġprocessus":4900,"Ġmicrobiologiste":4901,"ĠAtractotomus":4902,"%\"":4903,"AcadÃ©mie":4904,"Bas":4905,"CO":4906,"SP":4907,"SS":4908,"cussi":4909,"daille":4910,"for":4911,"gie":4912,"grÃ©":4913,"het":4914,"hom":4915,"ip":4916,"iant":4917,"je":4918,"lar":4919,"lation":4920,"lÃ©e":4921,"lore":4922,"menti":4923,"na":4924,"nait":4925,"oti":4926,"prend":4927,"tour":4928,"tation":4929,"uels":4930,"vres":4931,"ws":4932,"ya":4933,"Ê¼":4934,"á¸":4935,"Ġ]":4936,"Ġ{":4937,"ĠÅĵuvre":4938,"Ġdyn":4939,"ensi":4940,"onni":4941,"Ã©rop":4942,"Ġpai":4943,"Ġpion":4944,"Ġpoum":4945,"Ġcelles":4946,"Ġsels":4947,"anasty":4948,"ougri":4949,"teau":4950,"Ġaim":4951,"Ġdel":4952,"timent":4953,"tilles":4954,"ini":4955,"inv":4956,"erie":4957,"Ġmas":4958,"Ġmasse":4959,"Ġmira":4960,"ĠmÃªmes":4961,"enth":4962,"unt":4963,"unitÃ©s":4964,"arder":4965,"arts":4966,"article":4967,"Ġlac":4968,"Ġlaisse":4969,"omor":4970,"Ġtaux":4971,"Ġqueu":4972,"urant":4973,"Ġfun":4974,"Ġfol":4975,"Ġvs":4976,"Ġvon":4977,"Ġvue":4978,"Ġvaut":4979,"usant":4980,"asi":4981,"ashi":4982,"ilm":4983,"ĠnÃ©g":4984,"ĠLoire":4985,"alarme":4986,"Ġbille":4987,"ĠCPC":4988,"Ġrue":4989,"Ġrob":4990,"Ġrock":4991,"ĠAme":4992,"anthrop":4993,"Ġ()":4994,"chÃ©e":4995,"chers":4996,"chlor":4997,"chitecture":4998,"chauff":4999,"licules":5000,"Ã¨ce":5001,"euter":5002,"mpunctata":5003,"rose":5004,"Ġgui":5005,"Ġglisse":5006,"rite":5007,"ĠPC":5008,"ĠPÃ©ri":5009,"ĠPlan":5010,"ĠPeter":5011,"ĠPremi":5012,"olf":5013,"ĠTa":5014,"ĠTit":5015,"ĠTell":5016,"ĠDan":5017,"ĠDic":5018,"ĠÃ©vent":5019,"Ġreb":5020,"Ġrede":5021,"ĠSk":5022,"ĠSes":5023,"ĠStu":5024,"ĠSab":5025,"ĠSaÃ´ne":5026,"deurs":5027,"actions":5028,"ĠBour":5029,"ĠBri":5030,"ĠBak":5031,"ters":5032,"terre":5033,"citer":5034,"rÃ©d":5035,"Ġouver":5036,"ĠdÃ©v":5037,"ĠGenre":5038,"Ġsemi":5039,"ota":5040,"ott":5041,"geon":5042,"ĠNom":5043,"ĠNagas":5044,"ĠRou":5045,"ĠRet":5046,"ĠRussie":5047,"ami":5048,"ĠrÃ©si":5049,"andait":5050,"ĠWeb":5051,"Ġ28":5052,"moins":5053,"uise":5054,"ĠHa":5055,"ĠHen":5056,"ĠHer":5057,"ĠHall":5058,"ĠHathor":5059,"abri":5060,"ĠFor":5061,"Ġ192":5062,"illeurs":5063,"phasy":5064,"vile":5065,"ick":5066,"Ġtrouver":5067,"lisme":5068,"igner":5069,"Ġanc":5070,"Ġpris":5071,"Ġprince":5072,"Ġproies":5073,"Ã§ant":5074,"ĠCher":5075,"ĠChine":5076,"ĠChris":5077,"Ġmeur":5078,"ĠprÃ©position":5079,"Ġcarb":5080,"ctures":5081,"Ġavance":5082,"Ġconcentre":5083,"Ġsujet":5084,"Ġneige":5085,"ĠKen":5086,"insule":5087,"ĠFrancis":5088,"ardin":5089,"ĠUr":5090,"Ġaltern":5091,"Ġforces":5092,"Ġcourbe":5093,"Ġsoft":5094,"Ġpenser":5095,"Ġresp":5096,"ĠAntigua":5097,"Ġphr":5098,"rits":5099,"Ġperd":5100,"Ġdirections":5101,"heur":5102,"head":5103,"roup":5104,"Ġcouches":5105,"ĠpremiÃ¨res":5106,"Ġcollabor":5107,"ligne":5108,"mÃ©nie":5109,"Ġsecret":5110,"Ġtire":5111,"Ġpetites":5112,"Ġclash":5113,"Ġmilitaires":5114,"Ġpresse":5115,"Ġpresser":5116,"idth":5117,"187":5118,"ĠRÃ©gion":5119,"Ã©tait":5120,"ĠRed":5121,"Ġobjets":5122,"ennui":5123,"Ġ64":5124,"tivement":5125,"Ġformules":5126,"Ġ2010":5127,"Ġ2015":5128,"Ġ2017":5129,"Ġsigle":5130,"Ġ1973":5131,"Ã©nieur":5132,"Ġdouce":5133,"Ġpermettre":5134,"Ġtravaille":5135,"ĠdÃ©finir":5136,"Ġportant":5137,"clam":5138,"Ġconnue":5139,"ĠappelÃ©s":5140,"Ġassi":5141,"Ġ1985":5142,"Ġvieilles":5143,"ĠliÃ©e":5144,"Ã©liopolis":5145,"ĠCarl":5146,"Ġprotectrice":5147,"Ġapparait":5148,"ĠderniÃ¨res":5149,"Ġpleine":5150,"Ġfrom":5151,"Ġcapitales":5152,"Ġlarves":5153,"ĠfÃ©min":5154,"guent":5155,"Ġjumeaux":5156,"Ġdomaines":5157,"Ġwidth":5158,"Ġfame":5159,"ĠrÃ©gionales":5160,"Ã©nÃ©ra":5161,"Ġrelie":5162,"ĠrÃ©pand":5163,"Ġroyale":5164,"Ġissu":5165,"ilber":5166,"Ġsemaine":5167,"ĠcaractÃ¨res":5168,"Ġcrash":5169,"ĠspÃ©cifique":5170,"ĠStand":5171,"ĠpassÃ©":5172,"Ġproducteurs":5173,"Ġcommerce":5174,"Ġinstitu":5175,"ĠAndrÃ©":5176,"ĠAnderson":5177,"ĠprÃ©sidenti":5178,"Ġmises":5179,"Ġdoctrine":5180,"ĠsociÃ©tÃ©s":5181,"Ġlitre":5182,"ĠCommunautÃ©":5183,"symb":5184,"Ġanthrop":5185,"Ġurbaine":5186,"ĠlimitÃ©":5187,"ĠcinÃ©ma":5188,"Ġtechnologie":5189,"Ġremplacer":5190,"Ġcivile":5191,"Ġretour":5192,"ĠÃ©pouse":5193,"ĠGeertz":5194,"âĢ¦)":5195,"ĠpubliÃ©":5196,"ĠExemple":5197,"Ġmoyenne":5198,"ĠlibertÃ©s":5199,"tellig":5200,"Ġinvente":5201,"Ã©lectricitÃ©":5202,"Ġrusses":5203,"Ġprotoc":5204,"ĠSeconde":5205,"ĠabrÃ©viation":5206,"ĠabrÃ©viations":5207,"ĠBabylone":5208,"ĠreÃ§u":5209,"ĠreÃ§oit":5210,"Ġparticipation":5211,"Ġlogiciel":5212,"ĠLinnaeus":5213,"Ġgeste":5214,"Ġgraphique":5215,"Ã©criture":5216,"ĠfÃ©dÃ©ral":5217,"ĠAdalia":5218,"Ġtendance":5219,"Ġretrouv":5220,"ĠpÃ©trole":5221,"Ġbeffrois":5222,"Ġaurait":5223,"ĠGrand":5224,"Ġmusicale":5225,"ĠPierre":5226,"ĠSteve":5227,"Ġcampagne":5228,"Ġlongueur":5229,"stitut":5230,"ĠTechnology":5231,"ĠÃ®le":5232,"Ġdistribution":5233,"llabaire":5234,"enhotep":5235,"Ġcontexte":5236,"Ġhistoriques":5237,"ĠRomains":5238,"ĠRobert":5239,"ĠHautes":5240,"Ġinstrument":5241,"Ġmassif":5242,"Ġroches":5243,"ĠAssociation":5244,"Ġgagner":5245,"Ġpuissance":5246,"Ġáį¡":5247,"Ġmessage":5248,"ĠÃ©trang":5249,"Ġpapier":5250,"Ġdollars":5251,"veyron":5252,"ĠmagnÃ©tique":5253,"Ġpellicules":5254,"Ġguitare":5255,"ĠstratÃ©g":5256,"ĠprÃ©dateurs":5257,"ĠÃīgyptiens":5258,"Ġcombustible":5259,"Ġpaix":5260,"Ġpoumons":5261,"anastylose":5262,"Ġqueue":5263,"ĠNagasaki":5264,"phasyllabaire":5265,"''":5266,"36":5267,"Aveyron":5268,"Calais":5269,"Eure":5270,"Hor":5271,"HÃ©liopolis":5272,"Lin":5273,"Osiris":5274,"col":5275,"cla":5276,"comme":5277,"ceton":5278,"die":5279,"dont":5280,"dge":5281,"dam":5282,"dote":5283,"ef":5284,"fond":5285,"forme":5286,"hu":5287,"his":5288,"ition":5289,"jus":5290,"lue":5291,"lÃ¨me":5292,"mique":5293,"mons":5294,"net":5295,"not":5296,"ovi":5297,"pro":5298,"prÃ¨s":5299,"ponyme":5300,"rissent":5301,"set":5302,"sons":5303,"truction":5304,"up":5305,"uie":5306,"uli":5307,"vin":5308,"vous":5309,"vad":5310,"xique":5311,"xion":5312,"ysi":5313,"Ã¼":5314,"ÃŃ":5315,"Å«":5316,"Ðµ":5317,"à¦":5318,"áĬ":5319,"Ġx":5320,"Ġ}":5321,"Ġital":5322,"Ġdatif":5323,"Ġdensit":5324,"Ġly":5325,"ĠlancÃ©":5326,"oniste":5327,"onext":5328,"Ã©tiques":5329,"Ġpan":5330,"Ġpoule":5331,"Ġpig":5332,"Ġpareil":5333,"Ġcm":5334,"Ġcoi":5335,"Ġclo":5336,"Ġcouverture":5337,"ĠcÅĵur":5338,"Ġsil":5339,"Ġsait":5340,"Ġsert":5341,"Ġsentir":5342,"Ġsorte":5343,"Ġstim":5344,"aniste":5345,"anmoins":5346,"ouk":5347,"quis":5348,"quets":5349,"iser":5350,"isne":5351,"ĠaÃ©ri":5352,"Ġactions":5353,"Ġailes":5354,"Ġailleurs":5355,"lex":5356,"lete":5357,"lets":5358,"inet":5359,"inures":5360,"inateur":5361,"intÃ©rieur":5362,"erne":5363,"Ġmie":5364,"Ġmare":5365,"ung":5366,"unissent":5367,"ary":5368,"arra":5369,"arine":5370,"aritÃ©":5371,"Ġlecture":5372,"orant":5373,"omans":5374,"Ġtro":5375,"Ġtox":5376,"ury":5377,"ural":5378,"Ġvel":5379,"Ġvont":5380,"Ġvise":5381,"Ġvalent":5382,"ustra":5383,"asure":5384,"asard":5385,"illis":5386,"Ġeng":5387,"Ġenzy":5388,"Ġnage":5389,"Ġnaissent":5390,"elous":5391,"ĠLoi":5392,"ĠLos":5393,"ĠLune":5394,"ĠLiv":5395,"allis":5396,"alphabet":5397,"Ġboire":5398,"ĠCont":5399,"ĠCap":5400,"Ġrang":5401,"ĠAt":5402,"ĠAth":5403,"ĠAkhenaton":5404,"Ã¨tes":5405,"mpoule":5406,"rot":5407,"Ġgou":5408,"Ġger":5409,"rich":5410,"riÃ¨me":5411,"ĠPan":5412,"ĠPal":5413,"ĠPÃ©r":5414,"ĠPublic":5415,"ĠPoli":5416,"aisons":5417,"ĠTant":5418,"ĠTrop":5419,"Ġconj":5420,"atal":5421,"atmos":5422,"aile":5423,"aident":5424,"aimant":5425,"ĠDire":5426,"ĠDieu":5427,"ĠÃ©volu":5428,"ĠSim":5429,"Ġcham":5430,"Ġchair":5431,"Ġchiens":5432,"acent":5433,"Ġposi":5434,"ĠBro":5435,"ĠBoy":5436,"ciation":5437,"leste":5438,"ĠdÃ©bu":5439,"Ġegyp":5440,"Ġempereur":5441,"ĠMer":5442,"ĠMel":5443,"ĠMac":5444,"ĠMoul":5445,"ĠMaur":5446,"Ġcab":5447,"ĠcafÃ©":5448,"ĠISO":5449,"ĠintÃ©r":5450,"Ġinfini":5451,"otro":5452,"dique":5453,"difier":5454,"didat":5455,"endrier":5456,"ĠVi":5457,"Ġteam":5458,"Ġtemples":5459,"ĠOne":5460,"Ġhar":5461,"ĠhÃ©ri":5462,"Ġhertz":5463,"Ġhasard":5464,"Ġdiver":5465,"Ġdiront":5466,"ĠNation":5467,"amine":5468,"amharique":5469,"ainte":5470,"ulsion":5471,"ĠrÃ©el":5472,"ĠrÃ©gn":5473,"ĠrÃ©action":5474,"Ġprojet":5475,"Ġviend":5476,"Ġvienn":5477,"Ġvigne":5478,"Ġviennent":5479,"ĠWiles":5480,"Ġ23":5481,"ĠHom":5482,"ĠHal":5483,"abilitÃ©":5484,"ablatif":5485,"ĠFestival":5486,"Ġdisait":5487,"Ġcoali":5488,"illerait":5489,"Ġcompati":5490,"ĠcomplÃ©ment":5491,"Ġcommande":5492,"orth":5493,"osÃ©":5494,"osÃ©e":5495,"umiÃ¨res":5496,"ics":5497,"icain":5498,"Ġmonter":5499,"nitif":5500,"ston":5501,"irs":5502,"Ġ2021":5503,"Ġsonne":5504,"ondit":5505,"Ġexist":5506,"Ġextra":5507,"Ġextension":5508,"Ġarbres":5509,"Ġarrose":5510,"Ġmembre":5511,"ĠcarÃ©li":5512,"Ġcarton":5513,"Ġavril":5514,"ĠEnfin":5515,"Ġradi":5516,"Ġrainures":5517,"oyaute":5518,"ĠÃīponyme":5519,"ĠFranÃ§ais":5520,"ĠimmÃ©di":5521,"ĠÃ©thi":5522,"Ġcommunication":5523,"entit":5524,"Ġquelqu":5525,"ardes":5526,"ardant":5527,"192":5528,"isson":5529,"Ġparties":5530,"Ġkit":5531,"Ġtraduit":5532,"oda":5533,"ube":5534,"ubie":5535,"oreilles":5536,"Ġpuisqu":5537,"Ġressemble":5538,"Ġressembl":5539,"ritant":5540,"ĠgÃ©nitif":5541,"Ġminor":5542,"Ġminim":5543,"obe":5544,"objet":5545,"Ġcoups":5546,"Ġcouteau":5547,"Ġseront":5548,"ommÃ©":5549,"accom":5550,"accro":5551,"Ġmettent":5552,"ĠmÃ©daille":5553,"Ġtoucher":5554,"raphie":5555,"Ġ180":5556,"intensitÃ©":5557,"Ġsouverain":5558,"Ġbases":5559,"Ġsuivi":5560,"alistes":5561,"Ġadap":5562,"Ġtige":5563,"Ġtirent":5564,"Ġtiennent":5565,"Ġversions":5566,"illant":5567,"Ġrecomp":5568,"Ġclin":5569,"Ġclair":5570,"Ġclass":5571,"mettre":5572,"Ã©conomie":5573,"Ã©cutif":5574,"Ġmontrer":5575,"Ġmontagnes":5576,"Ġcontinu":5577,"Ġregarder":5578,"ĠgÃ©nÃ©ralis":5579,"icien":5580,"ĠDep":5581,"ĠDevant":5582,"ĠdÃ©clin":5583,"Ġvaches":5584,"Ġlumine":5585,"ĠlumiÃ¨re":5586,"Ġattest":5587,"Ġatomiques":5588,"Ġabs":5589,"ĠAmenhotep":5590,"ĠmusÃ©e":5591,"Ġtourner":5592,"Ġfilament":5593,"Ġ2006":5594,"Ã©tend":5595,"Ġcapte":5596,"Ġcalmer":5597,"ĠformÃ©":5598,"Ġformule":5599,"Ġpaysage":5600,"Ġ2012":5601,"Ġassure":5602,"Ġassistant":5603,"extension":5604,"Ġgazeux":5605,"Ġáĭ":5606,"fiÃ©":5607,"ĠColon":5608,"resser":5609,"Ġauto":5610,"Ġnotation":5611,"Ġ1975":5612,"ĠQuÃ©b":5613,"Ġbrillerait":5614,"avor":5615,"Ġfondament":5616,"Ġtravailleurs":5617,"Ġ45":5618,"ĠdÃ©finit":5619,"Ġinternationales":5620,"Ġblanches":5621,"Ġreligions":5622,"Ġexemples":5623,"ophy":5624,"Ġjoueur":5625,"enseignement":5626,"Ġpatrimoine":5627,"Ġrende":5628,"ĠamÃ©ricaine":5629,"visibles":5630,"appar":5631,"cerons":5632,"luent":5633,"tivitÃ©":5634,"Ġbanque":5635,"Ġ1969":5636,"Ġprends":5637,"Ġderniers":5638,"177":5639,"Ġmerci":5640,"Ġangle":5641,"ĠÃ©lectriques":5642,"oxyde":5643,"Ġpleines":5644,"Ġmilliard":5645,"Ġlarmes":5646,"Antigua":5647,"Ġouvrages":5648,"Ġaiment":5649,"Ġchiffre":5650,"Ġsignifi":5651,"Ġlign":5652,"Ġpersonnels":5653,"Ġsecondaire":5654,"Ġclassification":5655,"ĠAssez":5656,"athon":5657,"athlon":5658,"ĠcomposÃ©s":5659,"Ġentoure":5660,"Ġgoutte":5661,"2001":5662,"mpereurs":5663,"toine":5664,"Ġmalheur":5665,"Ġrivi":5666,"Ġessuy":5667,"Ġindivi":5668,"Ġdistingue":5669,"ĠLangues":5670,"Ġconsid":5671,"Ġsymboles":5672,"Ġofficiellement":5673,"ĠrÃ©sultats":5674,"ĠdÃ©mocraties":5675,"ĠCommodore":5676,"ĠIsis":5677,"ĠIsle":5678,"Ġtextures":5679,"ashington":5680,"Ġgrecque":5681,"Ġconstruire":5682,"Ġchacune":5683,"Ġmagas":5684,"ratoire":5685,"Ġorganismes":5686,"Ġorganisations":5687,"ĠcÃ©leste":5688,"ĠquatriÃ¨me":5689,"ĠnumÃ©rique":5690,"Ġcontraintes":5691,"ĠdÃ©pend":5692,"Ġfabri":5693,"Ġtroupeau":5694,"Ġtransport":5695,"Ġtransporter":5696,"FranÃ§ois":5697,"dustrie":5698,"Ġavion":5699,"Ġmorceaux":5700,"Ġrusse":5701,"Ġvictoires":5702,"ĠSecrÃ©taire":5703,"ockey":5704,"Ġoreille":5705,"ĠmÃ©diÃ©v":5706,"ĠCommon":5707,"ĠÃ©ditions":5708,"ĠÃ©diteurs":5709,"Ġexprimant":5710,"ĠjamaÃ¯caine":5711,"ĠfÃ©dÃ©rale":5712,"Ġsortent":5713,"ĠPerse":5714,"ĠJamais":5715,"ĠÃītudes":5716,"ĠactivitÃ©s":5717,"existent":5718,"Ġeucli":5719,"Ġbeffroi":5720,"Ġcomparer":5721,"ĠUnix":5722,"Ġrecherches":5723,"ĠtempÃ©ra":5724,"ĠEdison":5725,"Ġcristaux":5726,"ĠeuropÃ©enne":5727,"Ġtransparents":5728,"Ġoignon":5729,"Ġboites":5730,"ĠTrojan":5731,"positions":5732,"ĠnÃ©cessaire":5733,"ĠPrinceton":5734,"ĠExpress":5735,"Ġstockage":5736,"Ġnaturellement":5737,"Ġambiance":5738,"Ġjeunesse":5739,"Ġexclusi":5740,"ĠexpÃ©riment":5741,"Ġimpossible":5742,"ĠcÃ©lÃ¨bre":5743,"Ġultra":5744,"aigre":5745,"Ġrevenus":5746,"Ġconcernant":5747,"Ġsolide":5748,"Ġmaximal":5749,"ĠCoupe":5750,"ĠplutÃ´t":5751,"ĠDungeon":5752,"ĠprotÃ©ger":5753,"ĠphÃ©nomÃ¨ne":5754,"ĠKingston":5755,"ĠlinÃ©aire":5756,"Ġspecials":5757,"Ġpromotion":5758,"Ġseptembre":5759,"ĠalgÃ©briques":5760,"Ð¾Ð":5761,"ĠpÃ©ninsule":5762,"Ġalerte":5763,"ĠBackus":5764,"ĠChacun":5765,"Ġcarottes":5766,"Ġtraitement":5767,"Ġobscur":5768,"Ġencodage":5769,"Ġrichesse":5770,"mentier":5771,"ougriennes":5772,"Ġmiracle":5773,"Ġfromage":5774,"Ġfameux":5775,"Ġcoiff":5776,"Ġstimule":5777,"Ġenzymes":5778,"ĠPÃ©rou":5779,"Ġviennois":5780,"Ġcoalition":5781,"ĠQuÃ©bec":5782,"55":5783,"56":5784,"57":5785,"AC":5786,"Amon":5787,"Aisne":5788,"Char":5789,"Ie":5790,"Sp":5791,"Tut":5792,"VAN":5793,"bo":5794,"bert":5795,"boussoles":5796,"cisse":5797,"cast":5798,"canisme":5799,"dal":5800,"dence":5801,"donn":5802,"emo":5803,"eÃ¯":5804,"emment":5805,"fere":5806,"guer":5807,"glace":5808,"hs":5809,"histoires":5810,"heure":5811,"ires":5812,"iform":5813,"ift":5814,"ld":5815,"loi":5816,"line":5817,"ling":5818,"lagement":5819,"mm":5820,"mÃ©s":5821,"morce":5822,"monner":5823,"nerre":5824,"ov":5825,"oing":5826,"oeil":5827,"pais":5828,"podes":5829,"prix":5830,"rure":5831,"rures":5832,"rint":5833,"riere":5834,"sp":5835,"sin":5836,"tait":5837,"ttes":5838,"tah":5839,"torat":5840,"uilles":5841,"ufu":5842,"vac":5843,"vieux":5844,"vaisse":5845,"we":5846,"wn":5847,"wan":5848,"way":5849,"yer":5850,"yaux":5851,"zan":5852,"Ã¥":5853,"Ã¦":5854,"Äģ":5855,"Å¡":5856,"ÉĽ":5857,"ĠâĶĢ":5858,"Ġdot":5859,"Ġdors":5860,"Ġdop":5861,"Ġdore":5862,"Ġdormir":5863,"Ġdresser":5864,"Ġlieux":5865,"Ġloyaute":5866,"ende":5867,"encre":5868,"onien":5869,"onciation":5870,"Ã©cu":5871,"Ġpal":5872,"Ġpeux":5873,"ĠpÃ©r":5874,"Ġpret":5875,"Ġpanique":5876,"Ġpull":5877,"Ġcle":5878,"Ġcog":5879,"ĠcitÃ©":5880,"Ġclan":5881,"Ġcris":5882,"Ġste":5883,"Ġsoi":5884,"Ġsie":5885,"Ġsois":5886,"Ġsors":5887,"Ġsombre":5888,"Ġsamour":5889,"Ġsocie":5890,"ĠsÊ¼":5891,"ouy":5892,"quie":5893,"rement":5894,"reintes":5895,"isÃ©":5896,"teille":5897,"tecte":5898,"temis":5899,"Ġait":5900,"Ġage":5901,"Ġaction":5902,"Ġaligne":5903,"Ġdelic":5904,"Ġdecl":5905,"Ġdetest":5906,"Ġdemarrage":5907,"Ġdechet":5908,"Ġdetecte":5909,"titres":5910,"tiere":5911,"lebre":5912,"ino":5913,"inte":5914,"incl":5915,"indo":5916,"inaison":5917,"invisibles":5918,"era":5919,"eraux":5920,"erature":5921,"erfs":5922,"Ġmand":5923,"ĠmÃ¢":5924,"Ġmuc":5925,"ĠmaÃ®tre":5926,"ety":5927,"etes":5928,"etre":5929,"etait":5930,"etend":5931,"etoile":5932,"arm":5933,"aris":5934,"Ġleves":5935,"orange":5936,"Ġlachent":5937,"Ġlavages":5938,"Ġtoges":5939,"Ġquin":5940,"Ġquant":5941,"Ġquasi":5942,"uritÃ©":5943,"urite":5944,"urÃ©lien":5945,"Ġfel":5946,"Ġfoy":5947,"Ġfiss":5948,"Ġflo":5949,"Ġfume":5950,"Ġfarine":5951,"Ġfetes":5952,"ity":5953,"itaient":5954,"Ġvu":5955,"Ġetes":5956,"Ġetres":5957,"Ġetait":5958,"Ġetale":5959,"Ġetaient":5960,"usse":5961,"Ġuniques":5962,"Ġuniquement":5963,"asme":5964,"Ġenne":5965,"Ġenergie":5966,"Ġdesam":5967,"Ġdeshyd":5968,"Ġnoires":5969,"Ġnuage":5970,"Ġnerfs":5971,"rader":5972,"rachent":5973,"med":5974,"ĠLit":5975,"ĠLim":5976,"ĠLamb":5977,"ĠLandes":5978,"aligner":5979,"alphasyllabaire":5980,"Ġber":5981,"Ġbang":5982,"Ġbons":5983,"Ġbomb":5984,"Ġbox":5985,"Ġballe":5986,"Ġboussoles":5987,"ieuse":5988,"auge":5989,"autique":5990,"ĠCin":5991,"ĠCode":5992,"ĠClau":5993,"ĠCela":5994,"Ġcomment":5995,"Ġcomete":5996,"Ġrit":5997,"Ġrum":5998,"Ġrari":5999,"Ġrasta":6000,"Ġrincer":6001,"ĠAK":6002,"ĠApp":6003,"ĠAVAN":6004,"ĠAurÃ©lien":6005,"ceans":6006,"chage":6007,"chue":6008,"sectes":6009,"eufs":6010,"rog":6011,"roy":6012,"Ġgen":6013,"Ġgron":6014,"Ġgru":6015,"Ġgateau":6016,"Ġplie":6017,"Ġplans":6018,"rifu":6019,"nec":6020,"ĠPoin":6021,"Ġpars":6022,"Ġparoi":6023,"ĠEx":6024,"ĠEra":6025,"ĠEchar":6026,"ĠEpais":6027,"Ġjaz":6028,"Ġjardin":6029,"ressent":6030,"sipe":6031,"aisonne":6032,"Ġpourrait":6033,"Ġpourrie":6034,"ĠTU":6035,"ĠTon":6036,"ĠTak":6037,"ĠTrans":6038,"ĠToute":6039,"ĠTOI":6040,"Ġcong":6041,"Ġconv":6042,"Ġconduit":6043,"Ġcongel":6044,"atum":6045,"atta":6046,"atrice":6047,"atana":6048,"aga":6049,"agieux":6050,"ĠDo":6051,"ĠDeux":6052,"ĠDormir":6053,"ĠÃ©m":6054,"ĠÃ©vo":6055,"Ġrege":6056,"Ġreduit":6057,"Ġrevis":6058,"Ġretient":6059,"Ġreuss":6060,"Ġreagit":6061,"Ġrecupe":6062,"Ġrejo":6063,"Ġreutiliser":6064,"Ġrejoue":6065,"Ġrecharge":6066,"Ġrechauff":6067,"ĠSm":6068,"ĠSam":6069,"ĠStres":6070,"ĠSav":6071,"ĠSainte":6072,"Ġ1000":6073,"Ġchose":6074,"Ġchiant":6075,"Ġchelous":6076,"Ġsiens":6077,"Ġpotes":6078,"Ġpoison":6079,"ĠBon":6080,"ĠBor":6081,"ĠBasse":6082,"ĠBern":6083,"terieur":6084,"ciens":6085,"uitiers":6086,"ĠdÃ©b":6087,"ĠdÃ©ri":6088,"Ġelect":6089,"Ġecri":6090,"Ġequipe":6091,"Ġepis":6092,"Ġevac":6093,"ĠGr":6094,"ĠGod":6095,"ĠGlu":6096,"ĠGlace":6097,"ĠMas":6098,"ĠMout":6099,"ĠManger":6100,"Ġcale":6101,"Ġcause":6102,"Ġcaches":6103,"Ġcailler":6104,"Ġsemb":6105,"Ġsecher":6106,"Ġsechage":6107,"ĠinfÃ©r":6108,"Ġintr":6109,"Ġincer":6110,"Ġinoff":6111,"alee":6112,"alem":6113,"dicu":6114,"dienne":6115,"Ġstagne":6116,"Ġstopp":6117,"Ġstyl":6118,"Ġstagn":6119,"Ġstressent":6120,"ffler":6121,"ĠVan":6122,"geons":6123,"Ġtetra":6124,"ĠJobs":6125,"ĠOSI":6126,"ĠOtt":6127,"tÃ©ri":6128,"tÃ©roÃ¯":6129,"Ġhic":6130,"Ġheure":6131,"Ġsurprend":6132,"Ġdiction":6133,"Ġdiaph":6134,"ĠNoun":6135,"ĠRa":6136,"ĠRol":6137,"ĠRoule":6138,"ĠRond":6139,"ĠReuter":6140,"amid":6141,"amertume":6142,"ĠprocÃ©":6143,"Ġpropose":6144,"Ġvir":6145,"Ġvies":6146,"Ġvibe":6147,"ĠWh":6148,"Ġ26":6149,"Ġ27":6150,"molecu":6151,"tug":6152,"abs":6153,"abrÃ©viation":6154,"ĠFR":6155,"ĠForm":6156,"Ġdisques":6157,"Ġdisper":6158,"Ġdissipe":6159,"Ġcoins":6160,"Ġcodes":6161,"Ġcosy":6162,"ĠcoÃ»":6163,"ocra":6164,"occup":6165,"illee":6166,"cession":6167,"Ġsavent":6168,"Ġtuent":6169,"Ġtupper":6170,"Ġtuto":6171,"Ġtuyaux":6172,"Ã©rard":6173,"Ġcomplique":6174,"Ġcomplexe":6175,"Ġcomposition":6176,"Ġcommand":6177,"ortissent":6178,"osph":6179,"oshi":6180,"Ġoeil":6181,"Ġodeurs":6182,"Ġoceans":6183,"Ġoeufs":6184,"outant":6185,"Ġtonnerre":6186,"Ġcelebre":6187,"istance":6188,"Ġtrie":6189,"Ġtristes":6190,"ĠtrÃ´ne":6191,"Ġmole":6192,"Ġmotive":6193,"Ġmotiv":6194,"lise":6195,"ivrant":6196,"Ġannee":6197,"Ġannees":6198,"Ġprise":6199,"Ġprouver":6200,"Ġexciter":6201,"ĠLamp":6202,"ĠChauff":6203,"ĠAllo":6204,"Ġarrachent":6205,"retard":6206,"Ġmetier":6207,"Ġmega":6208,"Ġmecanisme":6209,"apres":6210,"ĠprÃ©tend":6211,"Ġcarres":6212,"mire":6213,"mitien":6214,"Ġavances":6215,"Ãªtes":6216,"Ã¨ses":6217,"Ġrater":6218,"ĠÃīconom":6219,"ĠÃ©tend":6220,"opie":6221,"Ġallo":6222,"Ġforcer":6223,"ĠArtemis":6224,"Ġcourses":6225,"ĠsacrÃ©":6226,"ĠdeuxiÃ¨me":6227,"Ġprefere":6228,"Ġ32":6229,"Ġ3000":6230,"Ġ350":6231,"Ġ360":6232,"Ġcoincees":6233,"Ġtrajets":6234,"roptÃ¨res":6235,"odoro":6236,"ubastis":6237,"Ġsyste":6238,"ĠAng":6239,"ĠinterprÃ©":6240,"Ġphares":6241,"thi":6242,"Ġperds":6243,"Ġperfe":6244,"Ġperime":6245,"Ġmineraux":6246,"Ġcerises":6247,"Ġdirecteur":6248,"ecture":6249,"ecrans":6250,"Ġmari":6251,"Ġmarch":6252,"ĠmarÃ©es":6253,"Ġmarchant":6254,"Ġmarathon":6255,"Ã¢tre":6256,"Ġcoupes":6257,"Ġcouper":6258,"Ġcoulent":6259,"Ġserie":6260,"Ġseries":6261,"Ġserveur":6262,"Ġsermonner":6263,"Ġserrures":6264,"Ġutilisation":6265,"Ġutilisateurs":6266,"tration":6267,"traper":6268,"ĠParmentier":6269,"rup":6270,"Ġbouche":6271,"Ġbouillie":6272,"Ġbouteille":6273,"finie":6274,"Ġrepond":6275,"Ġreproche":6276,"Ã´te":6277,"Ã´me":6278,"sentation":6279,"Ġmettaient":6280,"azu":6281,"iseptiques":6282,"Ġ186":6283,"Ġorange":6284,"intaines":6285,"Ġsouvient":6286,"Ġbasque":6287,"Ġsecs":6288,"ĠsecrÃ©t":6289,"Ġsecoue":6290,"Ġsecurite":6291,"ombent":6292,"Ġprinces":6293,"tention":6294,"ario":6295,"ariat":6296,"aka":6297,"olee":6298,"Ġapaise":6299,"ĠâĢł":6300,"duc":6301,"ducteur":6302,"Ġadmire":6303,"Ġcasque":6304,"Ġcasses":6305,"Ġverres":6306,"Ġvertic":6307,"Ġamertume":6308,"Ġamortissent":6309,"Ġrecoit":6310,"Ġrecoud":6311,"Ġrecoivent":6312,"Ġclap":6313,"Ġexpress":6314,"Ġexpose":6315,"Ġexplore":6316,"Ġexpulsion":6317,"Ġ1999":6318,"Ġmonts":6319,"Ġmontes":6320,"Ġregne":6321,"Ġregardant":6322,"iciter":6323,"mann":6324,"ĠDehors":6325,"ĠdÃ©couvre":6326,"Ġsoupe":6327,"Ġsoulagement":6328,"Ġatte":6329,"Ġattribu":6330,"Ġattrape":6331,"ographique":6332,"lectron":6333,"Ġprincipales":6334,"Ġtours":6335,"Ġtournes":6336,"Ġfili":6337,"Ġfiltre":6338,"Ġfilantes":6339,"lerent":6340,"Ġdiffic":6341,"ĠRÃ©seau":6342,"Ã©taire":6343,"Ġperso":6344,"Ġpersonni":6345,"ĠRegle":6346,"titution":6347,"Ġcaptaient":6348,"Ġobjectif":6349,"Ġchevel":6350,"Ġagressi":6351,"Ġaggra":6352,"Ġagitaient":6353,"Ġrougit":6354,"Ġordres":6355,"Ġordonne":6356,"Ġdroitiere":6357,"Ġbleus":6358,"Ġconstance":6359,"idees":6360,"ierer":6361,"entrainer":6362,"Ġspor":6363,"Ġsport":6364,"Ġsprint":6365,"Ġspasme":6366,"Ġsolaires":6367,"Ġassaisonne":6368,"exterieur":6369,"Ġdessert":6370,"Ġdessiner":6371,"Ġdesserts":6372,"ĠColor":6373,"ĠColomb":6374,"accords":6375,"ĠUnitÃ©":6376,"matique":6377,"Ġ1978":6378,"Ã©nergie":6379,"Ġsucres":6380,"Ġferment":6381,"Ġferies":6382,"Ġdouche":6383,"Ġdoudou":6384,"Ġderriere":6385,"Ġbrasse":6386,"Ġbrillante":6387,"Ġbrunit":6388,"Ġpermettent":6389,"Ġfamilles":6390,"Ġfondre":6391,"Ġarrivee":6392,"Ġvaisseaux":6393,"ĠNebet":6394,"ĠconnaÃ®t":6395,"stein":6396,"Ġpatauge":6397,"Ġ1986":6398,"Ġsociaux":6399,"Ġtombes":6400,"Ġvieillis":6401,"rick":6402,"ampÃ¨re":6403,"ampoing":6404,"Ġgratte":6405,"Ġgrappe":6406,"Ġdurcisse":6407,"Ġlorsque":6408,"Ġlibres":6409,"Ġbanane":6410,"Ġbancs":6411,"ĠchargÃ©e":6412,"Ġprotections":6413,"Ġproteger":6414,"ylene":6415,"Ġpouvant":6416,"Ġmeres":6417,"Ġgrasse":6418,"ĠgrillÃ©":6419,"ĠÃ©lectro":6420,"ĠÃ©lectronique":6421,"Ġ179":6422,"lacement":6423,"vÃ©nement":6424,"Ġreflete":6425,"oxygene":6426,"Ġlocu":6427,"Ġpleut":6428,"Ġpleurent":6429,"Ġfrisson":6430,"Ġfruitiers":6431,"âĶĢâĶĢâĶĢâĶĢâĶĢâĶĢâĶĢâĶĢ":6432,"Ġchauffes":6433,"Ġchauffer":6434,"Ġchauffee":6435,"Ġlarme":6436,"Ġpizz":6437,"Ġpigeons":6438,"Ġmetalliques":6439,"Ġpomodoro":6440,"Ġcentrifu":6441,"Ġsauf":6442,"Ġouvres":6443,"Ġouvrier":6444,"versitÃ©":6445,"hara":6446,"Ġgrandissant":6447,"Ġdegrader":6448,"Ġdegivrant":6449,"rymales":6450,"Ġrevele":6451,"Ġpluvieux":6452,"Ġjaunit":6453,"Ġjaunissent":6454,"ressement":6455,"Ġrelance":6456,"Ġrelatives":6457,"Ġprofesseur":6458,"Ġincrev":6459,"Ġcomposants":6460,"ount":6461,"Ġgouts":6462,"Ġgouttes":6463,"Ġfatiguent":6464,"Ġnaturel":6465,"ĠShampoing":6466,"effacent":6467,"ĠXX":6468,"Ġtrier":6469,"ĠtroisiÃ¨me":6470,"Ġgauchers":6471,"Ġchaton":6472,"ĠspÃ©cialis":6473,"tobre":6474,"Ġzone":6475,"Ġzero":6476,"Ġisolee":6477,"Ġdecrocher":6478,"Ġdecouvrir":6479,"Ġdecalee":6480,"Ġrivier":6481,"Ġridicu":6482,"ĠApres":6483,"Ġ1956":6484,"Ġessuie":6485,"Ġafflue":6486,"Ġfrere":6487,"Ġfreres":6488,"Ġfredonn":6489,"Ġcadran":6490,"Ġcadrans":6491,"Ġdialectes":6492,"Ġconstitue":6493,"Ġmelange":6494,"Ġmelanger":6495,"Ġmelaton":6496,"ĠLanguage":6497,"Ġboissons":6498,"Ġstylo":6499,"Ġmangeant":6500,"Ġmangeoire":6501,"Ġbonjour":6502,"Ġhumain":6503,"Ġdirects":6504,"avion":6505,"ĠsaletÃ©":6506,"ĠvariÃ©tÃ©":6507,"ĠSix":6508,"ĠdÃ©mocratique":6509,"glent":6510,"Ġ1683":6511,"Ġpossi":6512,"Ġapprends":6513,"Ġtoutefois":6514,"affaires":6515,"ĠâĦ":6516,"Ġdocuments":6517,"Ġdoctorat":6518,"ĠlÃ©gis":6519,"ĠlÃ©gumiÃ¨res":6520,"ĠPhil":6521,"ĠPhili":6522,"Ġconcentraient":6523,"Ġcanape":6524,"ĠthÃ¨se":6525,"ultan":6526,"ĠassociÃ©e":6527,"Ġfonctionne":6528,"Ġsources":6529,"Ġsourire":6530,"Ġecran":6531,"Ġecrit":6532,"Ġecrans":6533,"Ġecoutant":6534,"Ġinformations":6535,"Ġnouveautes":6536,"Ġ80":6537,"Ġantiseptiques":6538,"Ġfaim":6539,"ratation":6540,"Ġronds":6541,"Ġrondes":6542,"Ġgenetique":6543,"tÃ©ralement":6544,"Ġphotons":6545,"Ġelastique":6546,"outef":6547,"ĠnumÃ©ro":6548,"ĠnumÃ©ration":6549,"Ġcherche":6550,"ĠManque":6551,"encheurs":6552,"Ġciment":6553,"Ġcligne":6554,"Ġmuris":6555,"Ġmurissent":6556,"Ġnotifs":6557,"Ġbloquent":6558,"ĠrythmÃ©":6559,"Ġretardes":6560,"Ġretombent":6561,"Ġcrevaison":6562,"evaporant":6563,"gleterre":6564,"ĠÃ©lections":6565,"ĠÃ©levÃ©":6566,"lamme":6567,"Ġclim":6568,"Ġclient":6569,"Ġspect":6570,"Ġspeed":6571,"Ġemportant":6572,"Ġempreintes":6573,"ĠMaillard":6574,"Ġressorts":6575,"Ġtranspire":6576,"ckstein":6577,"oweÃ¯":6578,"instruction":6579,"ĠOrdin":6580,"ĠrÃ©alisÃ©":6581,"Ġorientales":6582,"Ġliberte":6583,"Ġliberent":6584,"echappe":6585,"Ã¡n":6586,"Ġlaborat":6587,"ĠtÃ©lÃ©ph":6588,"Ġinvites":6589,"Ġrespectivement":6590,"Ġbougent":6591,"Ġlargement":6592,"Ġgrammatic":6593,"Ã©lectronique":6594,"Ġcuir":6595,"Ġcuisson":6596,"tiquaire":6597,"Ġruser":6598,"ĠindÃ©pend":6599,"Ġluminosi":6600,"Ġlevain":6601,"Ġcontrole":6602,"Ġcontagieux":6603,"Ġdistances":6604,"Ġquestion":6605,"oussierer":6606,"Ġcarree":6607,"Ġcarrees":6608,"Ġratta":6609,"Ġrattrape":6610,"Ġrattraper":6611,"Ġaccelerent":6612,"Ġminute":6613,"Ġcoupee":6614,"Ġchampagne":6615,"ĠĠĠĠĠĠĠĠĠĠĠĠĠ":6616,"Ġdoubler":6617,"Ġaigre":6618,"Ġaiguise":6619,"Ġaiguilles":6620,"ĠLinux":6621,"Ġronronne":6622,"Ġgraphiques":6623,"Ġeternel":6624,"Ġcafeine":6625,"Ġmolecules":6626,"Ġralentit":6627,"Ġgelee":6628,"humidifier":6629,"Ġstabiliser":6630,"Ġstabilisent":6631,"Ġstabilisateur":6632,"Ġpuce":6633,"Ġpucerons":6634,"Ġclavier":6635,"ethylene":6636,"ĠBouches":6637,"ĠáĬł":6638,"Ġchargee":6639,"Ġpause":6640,"Ġpaquets":6641,"ĠSauf":6642,"ĠSauvage":6643,"Ġposees":6644,"ĠJamaÃ¯que":6645,"Ġherbes":6646,"Ġhermitien":6647,"Ġautomobile":6648,"Ġmajorite":6649,"Ġdemandait":6650,"ĠentitÃ©s":6651,"Ġrangement":6652,"Ġremuage":6653,"Ġremuent":6654,"modation":6655,"Ġ30000":6656,"Ġ300000":6657,"entendent":6658,"Ġruche":6659,"Ġpodcast":6660,"Ġeteint":6661,"Ġeclate":6662,"Ġtemperature":6663,"Ġdispon":6664,"Ġfixes":6665,"Ġentends":6666,"Ġsaisi":6667,"Ġsaisons":6668,"Ġtomate":6669,"Ġtomates":6670,"rayures":6671,"Ġbof":6672,"Ġbalade":6673,"ĠBanque":6674,"ĠcaractÃ©ristiques":6675,"Ġcristallis":6676,"Organisation":6677,"Ġirritant":6678,"Ġcivilis":6679,"ermopolis":6680,"organ":6681,"Ġfourrure":6682,"ragme":6683,"ĠCompte":6684,"Ġgardes":6685,"Ġgardait":6686,"Ġtransparent":6687,"Ġlocalises":6688,"Ġlocaliser":6689,"ĠlittÃ©ralement":6690,"ĠemployÃ©s":6691,"Ġoignons":6692,"Ġpivote":6693,"Ġpivoter":6694,"Ġbuvait":6695,"Ġboite":6696,"ressivement":6697,"atisf":6698,"ĠMoins":6699,"Ġhochent":6700,"Ġhoquet":6701,"Ġvibrent":6702,"Ġvibratoire":6703,"ĠHorus":6704,"Ġimposee":6705,"Ġpleurer":6706,"Ġprofessionnels":6707,"Ġdistincts":6708,"Ġpetrit":6709,"Ġpetrissent":6710,"Ġsentent":6711,"Ġdecision":6712,"Ġdecisions":6713,"Ġmeugle":6714,"Ġmeuglent":6715,"Ġvocales":6716,"Ġballon":6717,"Ġballons":6718,"Ġbailler":6719,"Ġrincee":6720,"Ġrideau":6721,"Ġrideaux":6722,"Ġparaitre":6723,"Ġemotion":6724,"Ġemotions":6725,"ĠNouvelle":6726,"Ġcopie":6727,"Ġtrinque":6728,"Ġtrinquant":6729,"Ġaromes":6730,"Ġaromatiques":6731,"Ġramenee":6732,"Ġpreparer":6733,"ĠmÃ©thodes":6734,"Ġattirent":6735,"Ġmachines":6736,"ĠaccompagnÃ©":6737,"Ġaspire":6738,"Ġaspiration":6739,"Ġgrillees":6740,"Ġbourrelet":6741,"Ġbourrelets":6742,"Ġronronnent":6743,"ĠCulture":6744,"Ġretracte":6745,"Ġdiscret":6746,"âĶĢâĶ¬âĶĢ":6747,"Ġreproches":6748,"Ġrenouvelle":6749,"Ġcroyait":6750,"Ġlointaines":6751,"Ġfuient":6752,"Ġflamants":6753,"Ġvinaigre":6754,"ĠSwift":6755,"ĠministÃ¨re":6756,"Ġattache":6757,"Ġbarbacane":6758,"urrents":6759,"ĠvÃ©rit":6760,"Ġbebes":6761,"ĠCentaur":6762,"Ġgammes":6763,"activer":6764,"Ġboulangerie":6765,"Ġsuivante":6766,"corn":6767,"enflamme":6768,"Ġpincee":6769,"Ġmoustiquaire":6770,"Ġveste":6771,"Ġvitesse":6772,"ĠLondres":6773,"ĠEuronext":6774,"ĠTreasure":6775,"Ġredressement":6776,"Ġrepeter":6777,"Ġrepartit":6778,"ĠSouffler":6779,"Ġchantant":6780,"Ġechec":6781,"Ġhydrate":6782,"ĠFourchue":6783,"Ġmobile":6784,"Ġanniversaires":6785,"Ġaccordeur":6786,"Ġbizarres":6787,"Ġzoos":6788,"Ġisolation":6789,"Ġpoussiere":6790,"ĠAstartÃ©":6791,"Ġgriffoir":6792,"Barbuda":6793,"restre":6794,"Ã©tition":6795,"Ġmouillee":6796,"Ġmassage":6797,"Ġtestent":6798,"Ġconfortable":6799,"ĠSiege":6800,"ĠSoftware":6801,"Ġchanteur":6802,"ĠGironde":6803,"Ġdigitales":6804,"Ġoxygene":6805,"Ġfermees":6806,"Ġcellules":6807,"Ġpoignet":6808,"Ġaimants":6809,"Ġmascul":6810,"Ġlacrymales":6811,"Ġfolle":6812,"Ġrobinet":6813,"anthropologie":6814,"chlorophy":6815,"Ġguide":6816,"ĠPÃ©rig":6817,"ĠPremier":6818,"ĠDaniel":6819,"ĠDictionnaire":6820,"Ġrebondit":6821,"Ġredemarrage":6822,"ĠBrian":6823,"ĠRetenir":6824,"Ġancetres":6825,"Ġcourbee":6826,"Ġphrase":6827,"ennuies":6828,"Ġdoucement":6829,"Ġassimil":6830,"ĠStandards":6831,"ĠprÃ©sidentielle":6832,"Ġpigments":6833,"Ġsilence":6834,"Ġmarees":6835,"arrache":6836,"Ġtoxique":6837,"Ġvelo":6838,"Ġnageoires":6839,"Ġgouter":6840,"ĠPublications":6841,"ĠPolitique":6842,"atmosphere":6843,"Ġegyptiennes":6844,"Ġcabine":6845,"otrophes":6846,"ĠNational":6847,"Ġviendrait":6848,"ĠimmÃ©diate":6849,"ĠÃ©thiop":6850,"Ġressemblait":6851,"accommodation":6852,"accrochent":6853,"Ġrecompense":6854,"ĠDepoussierer":6855,"Ġlignine":6856,"ĠriviÃ¨re":6857,"Ġessuyee":6858,"Ġfabriquent":6859,"ĠPerseides":6860,"Ġexclusivement":6861,"Ġobscurite":6862,"Ġviennoiserie":6863,"Tuttle":6864,"emotion":6865,"emmental":6866,"morceaux":6867,"vaisseaux":6868,"Ġdopamine":6869,"Ġcognait":6870,"Ġcrispent":6871,"Ġsteak":6872,"Ġsiecles":6873,"Ġsociete":6874,"Ġdelicieuse":6875,"Ġdeclencheurs":6876,"Ġdetestent":6877,"inclinaison":6878,"Ġmucus":6879,"Ġfeliciter":6880,"Ġfissuraient":6881,"Ġflow":6882,"Ġfumee":6883,"Ġdesamorce":6884,"Ġdeshydratation":6885,"Ġrumine":6886,"Ġrarifie":6887,"ĠAVANT":6888,"Ġgronde":6889,"Ġgrumeaux":6890,"ĠPointilles":6891,"ĠEcharpe":6892,"Ġjazz":6893,"Ġcongelation":6894,"Ġregele":6895,"Ġreviser":6896,"Ġreussites":6897,"Ġrecupere":6898,"Ġrechauffer":6899,"ĠStress":6900,"Ġelectrons":6901,"Ġecrire":6902,"Ġepisodes":6903,"Ġevacue":6904,"ĠGluckstein":6905,"Ġintrus":6906,"Ġincertitude":6907,"Ġinoffensif":6908,"Ġstoppe":6909,"Ġstylos":6910,"Ġstagnante":6911,"Ġtetrapodes":6912,"ĠOttomans":6913,"Ġdiaphragme":6914,"ĠRouler":6915,"amidon":6916,"molecules":6917,"Ġdisperse":6918,"Ġtupperware":6919,"Ġcelebrer":6920,"Ġtristesse":6921,"Ġmotivation":6922,"ĠChauffee":6923,"ĠÃīconomie":6924,"Ġsysteme":6925,"Ġperfection":6926,"Ġchevelu":6927,"Ġagressifs":6928,"Ġaggravent":6929,"Ġpataugeoire":6930,"Ġvieillissant":6931,"Ġpizzas":6932,"Ġcentrifuge":6933,"Ġincrevables":6934,"Ġrivieres":6935,"Ġridiculement":6936,"Ġfredonnons":6937,"Ġmelatonine":6938,"ĠOrdinateur":6939,"Ġluminosite":6940,"Ġcontrolee":6941,"ĠSauvageot":6942,"Ġcristalliser":6943,"chlorophylle":6944,"\",":6945,"37":6946,"45":6947,"Az":6948,"Ain":6949,"Ath":6950,"Aton":6951,"BM":6952,"Beau":6953,"DR":6954,"EDF":6955,"Game":6956,"IC":6957,"IX":6958,"ISO":6959,"NIX":6960,"OS":6961,"aie":6962,"adÃ©":6963,"bon":6964,"bis":6965,"cent":6966,"ctu":6967,"ccident":6968,"duis":6969,"feu":6970,"ford":6971,"fari":6972,"fÃ¨res":6973,"gi":6974,"gen":6975,"hb":6976,"her":6977,"hor":6978,"hÃ©r":6979,"habit":6980,"iter":6981,"iji":6982,"loc":6983,"lodie":6984,"mol":6985,"mÃ¨tre":6986,"naires":6987,"ool":6988,"ood":6989,"ples":6990,"port":6991,"sh":6992,"so":6993,"sone":6994,"tys":6995,"ug":6996,"uelles":6997,"van":6998,"vue":6999,"vard":7000,"yr":7001,"yle":7002,"¯Ŀ":7003,"Ð°":7004,"åį":7005,"è¯Ŀ":7006,"Ġ).":7007,"Ġlu":7008,"Ġlou":7009,"onnÃ©es":7010,"Ã©si":7011,"Ã©moi":7012,"Ã©lection":7013,"Ġpont":7014,"Ġpand":7015,"Ġsab":7016,"Ġsing":7017,"ĠsÃ©c":7018,"ĠsÃ¤":7019,"Ġsanc":7020,"Ġsatisf":7021,"ano":7022,"anie":7023,"ancer":7024,"analyse":7025,"oules":7026,"quÃ©s":7027,"quettes":7028,"telle":7029,"Ġara":7030,"Ġaire":7031,"Ġdemi":7032,"tir":7033,"tian":7034,"tile":7035,"time":7036,"tille":7037,"leg":7038,"Ġmi":7039,"Ġmurs":7040,"Ġmorte":7041,"ĠmÃ¨tres":7042,"union":7043,"orÃ©":7044,"Ġlatine":7045,"omo":7046,"Ġtamb":7047,"ĠtÃ©moi":7048,"Ġquit":7049,"Ġquoti":7050,"Ġfonde":7051,"Ġfrot":7052,"itation":7053,"Ġvous":7054,"Ġvote":7055,"ĠvÃ©h":7056,"usta":7057,"ourd":7058,"astie":7059,"ilota":7060,"Ġence":7061,"Ġenfin":7062,"Ġengl":7063,"Ġdestin":7064,"Ġnav":7065,"rad":7066,"raine":7067,"raire":7068,"elui":7069,"ĠLien":7070,"alie":7071,"Ġbord":7072,"ieures":7073,"ĠCat":7074,"ĠCÃ©s":7075,"ĠCop":7076,"ĠCox":7077,"ĠCelui":7078,"Ġcomit":7079,"Ġriv":7080,"ĠArabie":7081,"Ġ().":7082,"chest":7083,"seil":7084,"Ã¨dent":7085,"roise":7086,"neau":7087,"ĠPl":7088,"ĠPeu":7089,"ĠPol":7090,"ĠPort":7091,"ĠPendant":7092,"Ġparc":7093,"ĠEst":7094,"ĠEmpereur":7095,"Ġjury":7096,"olie":7097,"olfe":7098,"ĠTour":7099,"ĠTennis":7100,"agri":7101,"Ġauteur":7102,"ĠauprÃ¨s":7103,"ĠÃ©cl":7104,"ĠSar":7105,"ĠSat":7106,"ĠSig":7107,"ĠSite":7108,"ĠSony":7109,"Ġ11":7110,"Ġchron":7111,"act":7112,"ĠBig":7113,"ĠBubastis":7114,"cius":7115,"ĠdÃ©tient":7116,"ĠdÃ©mont":7117,"ĠdÃ©tour":7118,"Ġempereurs":7119,"ĠGray":7120,"ĠMul":7121,"ĠMak":7122,"ĠMulti":7123,"ĠMys":7124,"Ġsection":7125,"ots":7126,"otte":7127,"othÃ©":7128,"diction":7129,"endre":7130,"endra":7131,"endaire":7132,"Ġstu":7133,"Ġstation":7134,"Ġha":7135,"Ġhyp":7136,"Ġsurn":7137,"Ġsurface":7138,"ensÃ©":7139,"ĠNa":7140,"ĠNot":7141,"ĠNorm":7142,"ĠNap":7143,"ĠRel":7144,"ĠRht":7145,"ĠRich":7146,"amoutef":7147,"ulu":7148,"ĠrÃ©v":7149,"ĠrÃ©duit":7150,"ĠrÃ©fle":7151,"Ġproven":7152,"andela":7153,"Ġvive":7154,"Ġviol":7155,"ĠWe":7156,"ĠWashington":7157,"mob":7158,"Ġillus":7159,"ĠHÃ©ro":7160,"tuaire":7161,"aba":7162,"ĠFon":7163,"ĠFis":7164,"ĠFrÃ©d":7165,"Ġ1921":7166,"atin":7167,"onsou":7168,"phtys":7169,"Ã©ron":7170,"Ġcompil":7171,"Ġcomplet":7172,"Ġcompagnie":7173,"ican":7174,"oirs":7175,"igh":7176,"Ġnomme":7177,"ĠexÃ©cutif":7178,"ĠChim":7179,"Ã©sus":7180,"ĠarchÃ©":7181,"ĠarrÃª":7182,"ĠprÃ©h":7183,"ĠprÃ©par":7184,"ĠprÃ©positions":7185,"uits":7186,"Ġjustice":7187,"Ãªts":7188,"Ġappro":7189,"roix":7190,"paravant":7191,"ĠÃīlect":7192,"ĠÃīditions":7193,"Ġimm":7194,"Ġcommunications":7195,"ĠUtilis":7196,"Ġalphab":7197,"onneur":7198,"ĠArchitecture":7199,"ĠArmÃ©nie":7200,"Ġcouramment":7201,"ĠtraitÃ©":7202,"ody":7203,"ĠAngel":7204,"ĠAntoine":7205,"Ġici":7206,"Ġiden":7207,"Ġphase":7208,"ingt":7209,"Ġperform":7210,"Ġministre":7211,"Ġutiliser":7212,"Ġentreprises":7213,"ĠcolÃ©optÃ¨res":7214,"Ġbouliers":7215,"accomp":7216,"Ġfinit":7217,"Ġconsonnes":7218,"Ġornement":7219,"Ġorigine":7220,"Ġprintemps":7221,"tende":7222,"trines":7223,"ariens":7224,"dessous":7225,"Ġverbes":7226,"Ġclasse":7227,"allatif":7228,"ĠgÃ©nÃ©ration":7229,"Ġsouter":7230,"ĠAmer":7231,"ĠAmstrad":7232,"ĠAmset":7233,"Ġtransmission":7234,"Ġprincipes":7235,"venu":7236,"189":7237,"Ã©tat":7238,"trib":7239,"ĠAugus":7240,"ĠMembre":7241,"ĠMeiji":7242,"ĠĠĠĠĠĠĠĠĠ":7243,"Ġcalendrier":7244,"ĠrÃ©gime":7245,"entraÃ®":7246,"Ġformer":7247,"Ã©gyp":7248,"Ġprim":7249,"Ġespagn":7250,"Ġesprits":7251,"Ġaccord":7252,"ĠáĮ":7253,"ouveaux":7254,"fiÃ©e":7255,"Ġ1971":7256,"ĠQuel":7257,"ĠdÃ©finie":7258,"Ġportor":7259,"ĠNeith":7260,"Ġexempl":7261,"opharm":7262,"Ġ1989":7263,"ĠamÃ©ricaines":7264,"lÃ¨ge":7265,"ĠJaponais":7266,"Ġaliment":7267,"apprend":7268,"Ġrestre":7269,"ĠdurÃ©e":7270,"ĠCarac":7271,"olution":7272,"179":7273,"Ġfutur":7274,"ĠÃ©lectron":7275,"Ġ177":7276,"Ġlocal":7277,"ĠfrÃ¨re":7278,"Åĵil":7279,"ĠpiÃ¨ces":7280,"Ġtotal":7281,"ĠfÃ©od":7282,"ternet":7283,"And":7284,"Ġouvert":7285,"Ġdomin":7286,"Ġoffre":7287,"Ġdoivent":7288,"Ġvoyelle":7289,"Ġromaine":7290,"Ġclassiques":7291,"Ġrelations":7292,"Ġeffic":7293,"tÃ©rieure":7294,"Ġoctobre":7295,"ĠXI":7296,"ĠÃ©tudie":7297,"Ġsalle":7298,"Ġzones":7299,"rÃ©viations":7300,"Ġcircul":7301,"ĠConseil":7302,"ĠApoll":7303,"Ġampoules":7304,"Ġaffir":7305,"Ġdistinguer":7306,"ĠCannes":7307,"ĠrÃ¨g":7308,"Ġpassante":7309,"avid":7310,"ĠbactÃ©ries":7311,"Ġinscrit":7312,"Ġconfir":7313,"ĠproblÃ¨me":7314,"Ġ1945":7315,"gly":7316,"glom":7317,"Ã©rogly":7318,"ĠannoncÃ©":7319,"chia":7320,"ĠassociÃ©s":7321,"Ġpratiqu":7322,"Ġinformatiques":7323,"Ġlimites":7324,"Ġtechnologies":7325,"ĠHarvard":7326,"ĠsupplÃ©ment":7327,"kihab":7328,"Ġnove":7329,"Ġ1932":7330,"Ġ1936":7331,"Ġshann":7332,"1988":7333,"Ġpublie":7334,"informatique":7335,"Ġartisan":7336,"Ġartistes":7337,"Ġcorrespondant":7338,"ĠcÃ´te":7339,"oudan":7340,"Ġsuffixe":7341,"Ġdevint":7342,"ĠBlack":7343,"Ġordinateur":7344,"ĠdÃ©cim":7345,"ĠprÃ©fecture":7346,"Ġparticiper":7347,"Ġdivertissements":7348,"ĠĠĠĠĠĠĠĠĠĠĠĠĠĠ":7349,"ĠĠĠĠĠĠĠĠĠĠĠĠĠĠĠ":7350,"ĠáĪĲ":7351,"visional":7352,"ĠsupÃ©rieure":7353,"ĠlibÃ©rales":7354,"Ġclause":7355,"littÃ©ralement":7356,"Ġtraditionnelle":7357,"Ġ1884":7358,"Christ":7359,"ĠRenÃ©":7360,"ĠRenaissance":7361,"Ġbutane":7362,"ĠGrande":7363,"Ġdirigeant":7364,"Ġdirigeants":7365,"ĠNÃ©erlandais":7366,"ossaire":7367,"Ġarchite":7368,"Ġmusical":7369,"ĠsÃ©paration":7370,"ĠSuper":7371,"ĠSuÃ¨de":7372,"Ġadministrative":7373,"Ġagricoles":7374,"ĠdessinÃ©e":7375,"Ġoccidentale":7376,"ĠÃ®les":7377,"Ġblues":7378,"ĠÃ©tabli":7379,"Augus":7380,"Ġneuf":7381,"Ġseigneuri":7382,"ĠNouvel":7383,"ĠcomparÃ©e":7384,"Ġcritique":7385,"Ġdescend":7386,"Ġdescendant":7387,"ĠLorsque":7388,"ĠPatronyme":7389,"ĠThÃ©orie":7390,"ĠEntreprise":7391,"ĠmunicipalitÃ©":7392,"Ġdemeure":7393,"Ġflotte":7394,"ĠconÃ§u":7395,"ĠhiÃ©rogly":7396,"Ġfortifi":7397,"Ġphytopharm":7398,"ĠANSI":7399,"Ġpoursuit":7400,"ĠabrÃ©gÃ©":7401,"ĠMichel":7402,"delÃł":7403,"Ġvecteurs":7404,"ĠCantal":7405,"ĠGalli":7406,"ĠhÃ©ros":7407,"ĠhalogÃ¨ne":7408,"ĠmÃ©canique":7409,"ĠdÃ©signÃ©":7410,"ĠObjet":7411,"ĠrÃ©comp":7412,"Ġterminaux":7413,"ĠfinanciÃ¨re":7414,"Ġrestauration":7415,"ĠGeorges":7416,"Ã©roport":7417,"Ġpionnier":7418,"ĠAmemet":7419,"ĠSkatal":7420,"ĠBakufu":7421,"Ġcarbone":7422,"ĠfÃ©minin":7423,"Ġprotocoles":7424,"Horus":7425,"Linnaeus":7426,"ĠaÃ©rienne":7427,"ĠLoiret":7428,"Ġgerman":7429,"ĠdÃ©bute":7430,"ĠMoulins":7431,"Ġlumineuse":7432,"ĠáĭĲ":7433,"Ġfondamentale":7434,"Ġrendement":7435,"ĠconsidÃ¨re":7436,"Ġeuclidien":7437,"ĠtempÃ©rature":7438,"ĠsamouraÃ¯s":7439,"ĠAKA":7440,"Ġrejoint":7441,"ĠBernard":7442,"tÃ©roÃ¯de":7443,"ĠLampe":7444,"Ġatteint":7445,"Ġdifficul":7446,"Ġspectac":7447,"ĠCentauri":7448,"ĠPÃ©rigord":7449,"ĠsÃ©curitÃ©":7450,"Ġsanctuaire":7451,"ĠtÃ©moign":7452,"Ġfrottement":7453,"ĠvÃ©hic":7454,"ĠCoxsone":7455,"ĠMystic":7456,"ĠRichard":7457,"ĠFrÃ©dÃ©ric":7458,"ĠAngeles":7459,"Ġidentique":7460,"kihabara":7461,"Ġphytopharmace":7462,"ĠSkatalites":7463,"'.":7464,"'Â«":7465,".).":7466,"03":7467,"30":7468,"35":7469,"54":7470,"84":7471,"Ab":7472,"Ari":7473,"Atoum":7474,"Aube":7475,"CE":7476,"ET":7477,"Est":7478,"Fabri":7479,"IA":7480,"Irak":7481,"IRE":7482,"NR":7483,"OT":7484,"Se":7485,"TA":7486,"The":7487,"aj":7488,"aques":7489,"aussi":7490,"ajout":7491,"bÃ©":7492,"bas":7493,"bil":7494,"bel":7495,"blÃ©":7496,"banisme":7497,"cy":7498,"crÃ©":7499,"cend":7500,"ctique":7501,"dennes":7502,"em":7503,"fa":7504,"fore":7505,"fric":7506,"go":7507,"gin":7508,"gÃ©nieur":7509,"homme":7510,"honneur":7511,"io":7512,"iers":7513,"jim":7514,"jolais":7515,"lang":7516,"mn":7517,"mou":7518,"mir":7519,"nelle":7520,"nout":7521,"oz":7522,"oble":7523,"oche":7524,"ook":7525,"oÃ»":7526,"pou":7527,"por":7528,"pour":7529,"pri":7530,"pente":7531,"tul":7532,"tous":7533,"uelle":7534,"uellement":7535,"uga":7536,"vÃ©s":7537,"vÃ©es":7538,"wk":7539,"xi":7540,"xes":7541,"yra":7542,"zer":7543,"zac":7544,"{\"":7545,"}\"":7546,"ÉĶ":7547,"ÑĤ":7548,"Ġ*":7549,"Ġerre":7550,"ĠÅĵu":7551,"esses":7552,"essif":7553,"Ġdan":7554,"Ġdange":7555,"Ġlie":7556,"Ġlien":7557,"environ":7558,"onique":7559,"onÃ©tique":7560,"Ã©th":7561,"Ã©lie":7562,"Ã©volution":7563,"Ġps":7564,"Ġpes":7565,"Ġpau":7566,"Ġpav":7567,"Ġcum":7568,"ĠcÃ¢":7569,"Ġcandela":7570,"anim":7571,"quÃ©es":7572,"quide":7573,"quÃ©rant":7574,"rew":7575,"reau":7576,"ission":7577,"Ġast":7578,"intÃ©r":7579,"industrie":7580,"Ġmun":7581,"Ġmor":7582,"Ġmoles":7583,"ĠmÃ¨ne":7584,"arisation":7585,"organis":7586,"Ġlaiss":7587,"Ġts":7588,"Ġten":7589,"uriel":7590,"Ġfit":7591,"Ġfaux":7592,"Ġflu":7593,"Ġfavor":7594,"itaine":7595,"Ġvac":7596,"Ġvingt":7597,"Ġunde":7598,"Ġunique":7599,"asp":7600,"Ġench":7601,"Ġentier":7602,"Ġdescription":7603,"ĠnÃ©e":7604,"Ġnob":7605,"ĠnÉĻ":7606,"raient":7607,"ĠLy":7608,"ĠLux":7609,"ĠLouvre":7610,"ĠLyon":7611,"quemment":7612,"aug":7613,"autÃ©s":7614,"ĠCrÃ©":7615,"ĠCam":7616,"ĠCos":7617,"ĠCiv":7618,"ĠCross":7619,"ĠCount":7620,"Ġcomte":7621,"ĠAg":7622,"ĠAqu":7623,"ĠAux":7624,"ĠApple":7625,"ĠAfrique":7626,"ĠAker":7627,"ĠASP":7628,"antÃ©":7629,"cembre":7630,"chain":7631,"liÃ©e":7632,"liÃ©s":7633,"seud":7634,"Ġgal":7635,"Ġguer":7636,"Ġplate":7637,"rime":7638,"rices":7639,"rimer":7640,"ridae":7641,"ĠPie":7642,"ĠPic":7643,"ĠPtah":7644,"ĠPhara":7645,"Ġpartis":7646,"Ġparenth":7647,"ĠElectron":7648,"Ġjuri":7649,"sier":7650,"ola":7651,"ĠTout":7652,"ĠTole":7653,"Ġcondition":7654,"Ġconjec":7655,"Ġcontenant":7656,"atou":7657,"atoire":7658,"agin":7659,"ĠDJ":7660,"ĠDen":7661,"ĠDavid":7662,"ĠÃ©rig":7663,"ĠÃ©mis":7664,"ĠÃ©lu":7665,"ĠÃ©qui":7666,"Ġreine":7667,"Ġremar":7668,"ĠSI":7669,"ĠSing":7670,"demment":7671,"Ġchap":7672,"Ġchasse":7673,"ĠpoÃ¨te":7674,"ĠBen":7675,"ĠBord":7676,"ĠBelle":7677,"ĠBob":7678,"terie":7679,"cienne":7680,"cimpunctata":7681,"rÃ©g":7682,"Ġouest":7683,"ĠdÃ©mons":7684,"ĠdÃ©cembre":7685,"Ġexplique":7686,"Ġeaux":7687,"Ġeleg":7688,"ĠGen":7689,"ĠGas":7690,"ĠGra":7691,"ĠGau":7692,"ĠGuy":7693,"ĠGame":7694,"ĠGÃ©rard":7695,"ĠMes":7696,"ĠMos":7697,"ĠMic":7698,"ĠMorgan":7699,"Ġsee":7700,"rand":7701,"ĠImp":7702,"ĠIrlande":7703,"ĠIBM":7704,"Ġint":7705,"Ġinten":7706,"Ġintro":7707,"Ġintellig":7708,"Ġinfinie":7709,"dic":7710,"dier":7711,"blement":7712,"ffe":7713,"ĠVoi":7714,"ĠVic":7715,"ĠVIC":7716,"geois":7717,"Ġtelle":7718,"ĠJack":7719,"ĠJÃ©sus":7720,"ĠOss":7721,"ĠOsiris":7722,"Ġhab":7723,"Ġhuit":7724,"Ġhume":7725,"Ġhilber":7726,"ensus":7727,"Ġdimin":7728,"Ġdipl":7729,"ogramme":7730,"ĠNic":7731,"ĠNÃ©s":7732,"ĠNations":7733,"ĠNote":7734,"Ġsimplement":7735,"ĠRÃ©s":7736,"ĠRasta":7737,"ams":7738,"ulg":7739,"ulation":7740,"ĠrÃ©un":7741,"ĠrÃ©seaux":7742,"Ġprovient":7743,"Ġproto":7744,"Ġprovo":7745,"Ġprojets":7746,"Ġprocesseur":7747,"Ġvic":7748,"Ġvigue":7749,"Ġviande":7750,"ĠWindo":7751,"mois":7752,"uisse":7753,"ĠHat":7754,"ĠHong":7755,"tuel":7756,"Ġcos":7757,"phantine":7758,"osent":7759,"umÃ©":7760,"Ġmonar":7761,"Ġmonarch":7762,"Ġmonument":7763,"oulement":7764,"Ã¨rement":7765,"Ġmodes":7766,"iron":7767,"moires":7768,"ĠnommÃ©e":7769,"ĠCham":7770,"ĠChron":7771,"ĠChrist":7772,"ĠChiron":7773,"Ġartif":7774,"Ġarticles":7775,"ĠarmÃ©nien":7776,"Ġarbit":7777,"retagne":7778,"ĠprÃ©nom":7779,"ĠcarrÃ©":7780,"ĠcarriÃ¨re":7781,"Ġcarnivores":7782,"ctor":7783,"ctur":7784,"ureau":7785,"ologne":7786,"ologiques":7787,"Ġconcerne":7788,"Ġrac":7789,"Ġapproche":7790,"âĶ´":7791,"âĶĲ":7792,"ĠKoweÃ¯":7793,"ting":7794,"Ã©rite":7795,"ĠÃ©tat":7796,"ĠÃ©troi":7797,"Ġcommunales":7798,"ĠcommunautÃ©s":7799,"opes":7800,"opÃ©ration":7801,"entine":7802,"utile":7803,"1916":7804,"ĠArts":7805,"ĠArtiste":7806,"ĠArdennes":7807,"dÃ©c":7808,"Ġcourse":7809,"Ġcourtes":7810,"Ġcourants":7811,"lÃ©phantine":7812,"issage":7813,"lah":7814,"lare":7815,"Ġaccep":7816,"ĠacadÃ©":7817,"Ġtraduction":7818,"ropole":7819,"ubis":7820,"Ġyou":7821,"Ġsyllab":7822,"ĠAnne":7823,"ĠAngleterre":7824,"thÃ¨se":7825,"adel":7826,"heb":7827,"rouve":7828,"tification":7829,"iteurs":7830,"traction":7831,"ructure":7832,"Ġrepose":7833,"Ġsession":7834,"Ġmets":7835,"ĠmÃ©ta":7836,"ĠmÃ©lodie":7837,"mÃ©tri":7838,"Ġbassin":7839,"tente":7840,"arition":7841,"akura":7842,"Ġvoisins":7843,"Ġador":7844,"Ġtir":7845,"Ġtiers":7846,"Ġtiges":7847,"illy":7848,"illages":7849,"illaume":7850,"Ġexpli":7851,"Ġ1996":7852,"Ã©cran":7853,"Ã©culaire":7854,"Ã©crire":7855,"icielle":7856,"mane":7857,"ĠdÃ©cis":7858,"Ġaband":7859,"Ġabstra":7860,"fiction":7861,"idÃ©e":7862,"ĠimpÃ©ra":7863,"ĠtournÃ©e":7864,"lications":7865,"Ġdiffusion":7866,"ĠRÃ©volution":7867,"Ġ2003":7868,"Ġ2008":7869,"Ġconnexion":7870,"Ġpersonnes":7871,"ĠcrÃ©e":7872,"ĠcrÃ©ateur":7873,"ĠReprÃ©":7874,"trice":7875,"trich":7876,"Ã©tÃ©roptÃ¨res":7877,"Ġchev":7878,"Ġcheval":7879,"ĠMexique":7880,"ĠĠĠĠĠĠĠĠĠĠĠĠĠĠĠĠ":7881,"aissant":7882,"Ġspati":7883,"Ġvisuels":7884,"Ġvisiteurs":7885,"Ġprimor":7886,"ĠÃ©gyptiens":7887,"national":7888,"eneur":7889,"ĠColle":7890,"ĠColÃ©op":7891,"Ġtelles":7892,"assÃ©":7893,"association":7894,"Ġ1976":7895,"Ġsuccessi":7896,"Ġpermettait":7897,"avoir":7898,"ĠfondÃ©":7899,"Ġ464":7900,"ĠdiffÃ©rend":7901,"Ġpolici":7902,"ĠNephtys":7903,"tisme":7904,"Ġcertaine":7905,"Ġaspect":7906,"Ġ1983":7907,"ĠamÃ©ricains":7908,"lÃ¨te":7909,"Ġtombeau":7910,"Ġliquide":7911,"onymes":7912,"ĠCarÃ©lie":7913,"ĠchargÃ©":7914,"Ġcharpente":7915,"Ġappartenant":7916,"Ġ1962":7917,"Ġ1967":7918,"Ġprendre":7919,"Ġpartage":7920,"Institut":7921,"communications":7922,"Ġlocales":7923,"Ġplein":7924,"ĠÃ©cran":7925,"ĠÃ©coles":7926,"Ġmilliers":7927,"ĠfÃ©dÃ©":7928,"Ġjuin":7929,"ĠdÃ©velopper":7930,"Ang":7931,"Ancien":7932,"alifor":7933,"ĠThot":7934,"rÃ©sil":7935,"Ġpersonnelle":7936,"Ġ[-":7937,"oriz":7938,"quiÃ¨me":7939,"ather":7940,"Ġrelation":7941,"ĠrÃ©publique":7942,"Ġprofonde":7943,"Ã©rieures":7944,"Ġnationaux":7945,"Ġroyal":7946,"Ġincar":7947,"Ġ\"{\"":7948,"Ġsynta":7949,"Ġsynonyme":7950,"2002":7951,"Ġoccupe":7952,"ĠShou":7953,"Ġsemble":7954,"ĠprÃ©cision":7955,"Ġphysicien":7956,"ĠmalgrÃ©":7957,"Ġ1959":7958,"Ġaffaires":7959,"Ġaffluent":7960,"Ġmaintenant":7961,"Ġdistinction":7962,"ĠconstituÃ©":7963,"Ġsituation":7964,"ĠconsidÃ©ra":7965,"Ġprogramme":7966,"Ġprogressivement":7967,"Ġoptique":7968,"ĠdÃ©finitions":7969,"interdiction":7970,"Ġpassant":7971,"Ġproductions":7972,"Ġdevenue":7973,"ĠscÃ¨ne":7974,"Ġvolont":7975,"Ġ1940":7976,"Ġ1946":7977,"Ġanglaise":7978,"rondissements":7979,"Ġannonce":7980,"Ġconcentrations":7981,"ĠâĶĮ":7982,"ĠprÃ©sents":7983,"Ġmajeur":7984,"Ġinternationaliste":7985,"Ġlinguiste":7986,"acks":7987,"Ġinformation":7988,"Ġgrandeur":7989,"ĠpossÃ¨dent":7990,"Ġelse":7991,"Ġportes":7992,"Ġcontrat":7993,"Ġretrouve":7994,"ĠmathÃ©matique":7995,"ĠmathÃ©maticien":7996,"ysis":7997,"ĠÃ©pous":7998,"Ġculturel":7999,"Ġpublique":8000,"Ġrendre":8001,"ĠOrganis":8002,"Ġvideo":8003,"Ġsubst":8004,"ĠKhent":8005,"ĠKhonsou":8006,"ĠcÃ´tÃ©s":8007,"tell":8008,"ĠtÃ©lÃ©vision":8009,"ĠtÃ©lÃ©communications":8010,"Ġchinoise":8011,"Ġscientifiques":8012,"Ġcuisine":8013,"tiquitÃ©":8014,"ĠBlonde":8015,"ĠBeat":8016,"Ġsolutions":8017,"criptions":8018,"ÉĻs":8019,"Ġbataille":8020,"ĠdÃ©cimales":8021,"Ġoriginaire":8022,"ĠreprÃ©senter":8023,"Ġcommerciales":8024,"ĠfrÃ©quemment":8025,"ĠprononcÃ©":8026,"Ġprononciation":8027,"Ġphilosophie":8028,"ministration":8029,"Ġinitiales":8030,"Ġtransfert":8031,"Ġstructures":8032,"Ġsynchron":8033,"ĠmajoritÃ©":8034,"ĠsixiÃ¨me":8035,"ĠcatÃ©g":8036,"Ġaugment":8037,"ĠGood":8038,"ĠNÃ©anmoins":8039,"Ġalbums":8040,"Ġtypes":8041,"ĠCalvad":8042,"ĠPrÃ©sident":8043,"ĠÃ©quiv":8044,"Ġchoisir":8045,"ĠintÃ©grÃ©":8046,"Ġtrouvait":8047,"ĠcaractÃ©ristique":8048,"Ã©quivalent":8049,"ragÃ¡n":8050,"Ġ128":8051,"Ġ1839":8052,"Ġgratuits":8053,"ĠemployÃ©":8054,"Ġloisirs":8055,"Ġbyte":8056,"ĠBarbuda":8057,"ĠBarragÃ¡n":8058,"Ġhongroise":8059,"ĠÃ©tablisse":8060,"ĠpropriÃ©tÃ©":8061,"laboration":8062,"ĠPrincip":8063,"ĠbÃ©nÃ©fici":8064,"Aude":8065,"Environnement":8066,"ĠToponyme":8067,"Ġseigneur":8068,"ĠHauts":8069,"Ġmachine":8070,"Ġinstruments":8071,"ĠopÃ©rations":8072,"ĠÅĮ":8073,"Ġvendu":8074,"ĠCulte":8075,"ĠThÃ©orÃ¨me":8076,"ĠDouamoutef":8077,"Ġjeunes":8078,"Ġreconstruction":8079,"Ġmultiples":8080,"essentiel":8081,"ĠdÃ©diÃ©":8082,"ĠVOC":8083,"ĠidÃ©es":8084,"Ġministres":8085,"Ġbarbacanes":8086,"europÃ©ennes":8087,"Ġshoguns":8088,"Ġshogunat":8089,"ĠdonnÃ©e":8090,"Ġsouten":8091,"Ġenseigne":8092,"Ġpoursui":8093,"ĠOrigine":8094,"Ġsystems":8095,"autoritÃ©":8096,"donÃ©si":8097,"emploie":8098,"ochim":8099,"ĠcoordonnÃ©es":8100,"Ġexactement":8101,"ĠChÃ¢teau":8102,"Ġjournal":8103,"Ġdivision":8104,"systems":8105,"Ġtraditionnelles":8106,"fred":8107,"Ã«l":8108,"Ġcitoy":8109,"Ġenregistre":8110,"olÃ©on":8111,"ĠGlossaire":8112,"Ġdizaines":8113,"ĠFujim":8114,"ĠimpÃ©rial":8115,"Ġcalligramme":8116,"cussions":8117,"Ġdelta":8118,"invest":8119,"ĠfunÃ©ra":8120,"ĠHenri":8121,"ĠUrbanisme":8122,"ĠRedhead":8123,"ĠrÃ©pandue":8124,"Ġinstitutions":8125,"symbole":8126,"ĠstratÃ©gie":8127,"notamment":8128,"ĠdensitomÃ¨tre":8129,"ĠlycÃ©e":8130,"ustralie":8131,"ĠLivre":8132,"ĠContraire":8133,"ĠPalme":8134,"ĠDirection":8135,"ĠhÃ©ritier":8136,"Ġdiversi":8137,"ĠHomonymie":8138,"ĠcarÃ©lienne":8139,"Ġsignifiant":8140,"Ġindividu":8141,"Ġmagasins":8142,"ĠmÃ©diÃ©vale":8143,"Spilota":8144,"ĠsÊ¼Ã¤":8145,"ĠCinÃ©ma":8146,"ĠClaude":8147,"ĠToutefois":8148,"ĠcongrÃ¨s":8149,"Ġsembl":8150,"ĠinfÃ©rieure":8151,"tugais":8152,"absence":8153,"AthÃ¨nes":8154,"ĠCÃ©sar":8155,"Ġcomitatif":8156,"agriculture":8157,"ĠdÃ©tourner":8158,"ĠMulsant":8159,"Ġstudio":8160,"ĠHÃ©rodote":8161,"Ġornementales":8162,"ĠQuelques":8163,"Ġportoricain":8164,"Ġrestreint":8165,"Ġefficace":8166,"ĠrÃ¨gles":8167,"glomÃ©ration":8168,"Ġnovembre":8169,"Ġdescendants":8170,"AriÃ¨ge":8171,"Fabricius":8172,"Ġdanois":8173,"Ġdangere":8174,"intÃ©rÃªt":8175,"Ġundecimpunctata":8176,"ĠenchÃ¨res":8177,"Ġnobles":8178,"ĠnÉĻgus":8179,"ĠPharaon":8180,"ĠparenthÃ¨ses":8181,"ĠToledo":8182,"Ġconjecture":8183,"ĠdÃ©monstration":8184,"Ġelegans":8185,"ĠOssie":8186,"Ġhumeur":8187,"Ġvigueur":8188,"ĠWindows":8189,"Ġarbitres":8190,"ĠKoweÃ¯t":8191,"Ġprimordi":8192,"ĠColÃ©optÃ¨re":8193,"ĠCalvados":8194,"ĠFujimori":8195,"ĠContrairement":8196,".),":8197,"73":8198,"80":8199,"87":8200,"AGP":8201,"Apophis":8202,"Asie":8203,"Edo":8204,"Ehb":8205,"Her":8206,"IEC":8207,"Joseph":8208,"Lou":8209,"ML":8210,"MM":8211,"Mar":8212,"Naur":8213,"Oasis":8214,"PM":8215,"RA":8216,"Son":8217,"Sch":8218,"Soudan":8219,"TP":8220,"UR":8221,"ao":8222,"aou":8223,"aÃ©roport":8224,"bun":8225,"bour":8226,"bri":8227,"core":8228,"cÃ¨de":8229,"cell":8230,"dj":8231,"dom":8232,"duire":8233,"dÃ¨che":8234,"eus":8235,"fr":8236,"fas":8237,"fusion":8238,"faces":8239,"film":8240,"gs":8241,"gal":8242,"gist":8243,"gÃ©s":8244,"garde":8245,"gentine":8246,"hm":8247,"hen":8248,"hou":8249,"hit":8250,"huit":8251,"ian":8252,"idi":8253,"ierre":8254,"jn":8255,"jand":8256,"ku":8257,"ken":8258,"kate":8259,"len":8260,"lux":8261,"lls":8262,"mus":8263,"mig":8264,"mise":8265,"nai":8266,"naire":8267,"noum":8268,"oe":8269,"of":8270,"oÃ¯":8271,"oasis":8272,"pet":8273,"pel":8274,"pse":8275,"pens":8276,"pture":8277,"punctata":8278,"qet":8279,"rennent":8280,"tol":8281,"uil":8282,"uant":8283,"uble":8284,"wen":8285,"yw":8286,"ymp":8287,"zing":8288,"Â»":8289,"ÈĿ":8290,"Ð»":8291,"à®":8292,"áĮ":8293,"çĻ":8294,"Ġu":8295,"Ġois":8296,"Ġorth":8297,"ģä¸Ģ":8298,"Ĵu":8299,"Ġdance":8300,"Ġlun":8301,"Ġlut":8302,"ĠlÃł":8303,"enet":8304,"onse":8305,"Ã©lier":8306,"Ã©val":8307,"Ã©lÃ¨ve":8308,"Ã©vÃ©nement":8309,"Ġpant":8310,"Ġpale":8311,"Ġpond":8312,"Ġcouv":8313,"Ġcrit":8314,"Ġcru":8315,"Ġcible":8316,"ĠcÃ©lÃ©":8317,"Ġcath":8318,"Ġcouvert":8319,"Ġsch":8320,"Ġscis":8321,"Ġsaint":8322,"Ġsultan":8323,"anitÃ©":8324,"ouf":8325,"ouge":8326,"quisse":8327,"reur":8328,"istique":8329,"isÃ©s":8330,"techn":8331,"Ġaqu":8332,"Ġair":8333,"Ġajou":8334,"Ġachet":8335,"tiles":8336,"tidae":8337,"levant":8338,"lemande":8339,"lejand":8340,"inatif":8341,"initi":8342,"insectes":8343,"eri":8344,"erce":8345,"erres":8346,"ering":8347,"erma":8348,"entrÃ©e":8349,"arita":8350,"ories":8351,"ortÃ©es":8352,"omÃ©":8353,"omÃ¨tres":8354,"Ġtor":8355,"Ġtenant":8356,"Ġtardi":8357,"Ġtung":8358,"Ġtatou":8359,"Ġfic":8360,"Ġfilles":8361,"Ġfronti":8362,"itas":8363,"itÃ©e":8364,"Ġvan":8365,"Ġvain":8366,"ĠvÃ©ri":8367,"ĠvÃ©nÃ©":8368,"uscrit":8369,"usalem":8370,"Ġunies":8371,"estom":8372,"aste":8373,"Ġend":8374,"Ġenter":8375,"Ġnouveaux":8376,"ration":8377,"raÃ«l":8378,"media":8379,"mells":8380,"ĠLo":8381,"ĠLag":8382,"ĠLot":8383,"ĠLinguis":8384,"allet":8385,"album":8386,"quement":8387,"ĠÃ¢":8388,"Ġbot":8389,"Ġbrev":8390,"Ġbaie":8391,"aud":8392,"auv":8393,"ĠCI":8394,"ĠCro":8395,"ĠCentre":8396,"ĠCub":8397,"ĠConc":8398,"ĠCong":8399,"ĠCamb":8400,"ĠcomtÃ©":8401,"ĠAli":8402,"ĠAton":8403,"ĠAmpoule":8404,"ĠAustralie":8405,"ĠAlejand":8406,"antan":8407,"Ġ(),":8408,"chen":8409,"chis":8410,"chÃ©es":8411,"lian":8412,"lidae":8413,"seur":8414,"Ã¨ches":8415,"mphis":8416,"roph":8417,"rolog":8418,"Ġgu":8419,"Ġgare":8420,"ĠgÃ¨nes":8421,"ansion":8422,"ĠPor":8423,"ĠPri":8424,"ĠPage":8425,"ĠPyth":8426,"ĠPlau":8427,"ĠPatin":8428,"Ġparois":8429,"ĠEl":8430,"ĠEss":8431,"ressions":8432,"sir":8433,"siÃ¨re":8434,"oline":8435,"ĠTom":8436,"ĠTaÃ¯":8437,"ĠTouch":8438,"ĠconfÃ©rences":8439,"Ġconver":8440,"Ġconcep":8441,"Ġconnec":8442,"ator":8443,"atus":8444,"agÃ©":8445,"agent":8446,"agglomÃ©ration":8447,"ĠDod":8448,"ĠDurant":8449,"ĠÃ©dition":8450,"Ġreti":8451,"ĠSant":8452,"ĠSui":8453,"ĠShe":8454,"ĠSitu":8455,"ĠSok":8456,"ĠSno":8457,"ĠSki":8458,"ĠSeth":8459,"ĠSuisse":8460,"depuis":8461,"Ġ115":8462,"Ġchor":8463,"Ġchaire":8464,"Ġchien":8465,"Ġsim":8466,"onto":8467,"ĠBu":8468,"ĠBre":8469,"ĠBit":8470,"ĠBos":8471,"ĠBilb":8472,"cience":8473,"rÃ©al":8474,"Ġoutre":8475,"Ġouvre":8476,"ĠdÃ©ch":8477,"ĠdÃ©li":8478,"ĠdÃ©lÃ©":8479,"ĠdÃ©rou":8480,"ĠdÃ©mar":8481,"ĠdÃ©part":8482,"ĠGDF":8483,"ĠGroup":8484,"ĠGolfe":8485,"ĠMor":8486,"ĠMit":8487,"ĠMil":8488,"ĠMot":8489,"ĠMad":8490,"ĠMah":8491,"ĠMoto":8492,"rante":8493,"ĠIr":8494,"ĠIt":8495,"ĠIran":8496,"Ġinven":8497,"Ġincl":8498,"Ġinno":8499,"Ġintit":8500,"Ġindis":8501,"ĠindonÃ©si":8502,"alerie":8503,"dies":8504,"diques":8505,"dios":8506,"Ġstars":8507,"ĠVin":8508,"ĠVie":8509,"ĠJu":8510,"ĠJÃ©r":8511,"ĠJules":8512,"ĠOS":8513,"ĠOs":8514,"Ġhard":8515,"Ġdite":8516,"ĠNi":8517,"ĠNubie":8518,"ĠRos":8519,"ĠRod":8520,"ĠRome":8521,"ĠRhÃ´ne":8522,"amon":8523,"amusant":8524,"ulture":8525,"ulaires":8526,"ĠrÃ©volu":8527,"ĠrÃ©volution":8528,"ĠrÃ©ception":8529,"Ġprosp":8530,"Ġvice":8531,"Ġvign":8532,"Ġvivre":8533,"ĠWi":8534,"ĠWolf":8535,"ĠWoz":8536,"Ġ21":8537,"ĠHan":8538,"ĠHyd":8539,"ĠHaute":8540,"ĠHouse":8541,"ĠFÃ©":8542,"ĠFond":8543,"ĠFah":8544,"ĠFoot":8545,"ĠFilm":8546,"Ġdispose":8547,"Ġdisquettes":8548,"ouvoir":8549,"ouvrage":8550,"Ġ1918":8551,"Ġ1926":8552,"ango":8553,"angle":8554,"Ġcoc":8555,"occupe":8556,"ocrate":8557,"Ġsavant":8558,"phin":8559,"Ã©rindi":8560,"Ġcomprennent":8561,"Ġ|}":8562,"oser":8563,"osant":8564,"osse":8565,"ossi":8566,"ostique":8567,"osser":8568,"niak":8569,"uez":8570,"ueil":8571,"ueilli":8572,"stÃ¨ne":8573,"Ġtru":8574,"Ġmoteur":8575,"irie":8576,"erton":8577,"ertiste":8578,"Ġantiques":8579,"Ġanalog":8580,"ĠprÃª":8581,"Ġprennent":8582,"Ã§aient":8583,"utation":8584,"utenant":8585,"ĠnommÃ©s":8586,"Ġnominatif":8587,"Ġexam":8588,"Ġexcep":8589,"ĠChent":8590,"ĠChyp":8591,"ĠAlan":8592,"ĠAlgÃ¨bre":8593,"ĠAlfred":8594,"Ġarmes":8595,"apar":8596,"ĠprÃ©dÃ©":8597,"Ġcarn":8598,"Ġcardin":8599,"Ġconcerts":8600,"Ġsug":8601,"Ġrais":8602,"ĠĠĠĠĠ":8603,"ĠKan":8604,"ĠKam":8605,"ĠKhÃ©":8606,"ĠKolo":8607,"ĠKazu":8608,"Ġpeuples":8609,"ĠÃīdou":8610,"optÃ¨res":8611,"ĠÃ©gale":8612,"ĠUs":8613,"ĠUNIX":8614,"Ġallemande":8615,"ĠforÃªt":8616,"ĠArt":8617,"tsk":8618,"ayt":8619,"ayant":8620,"lÃ©ans":8621,"issoire":8622,"Ġpartiellement":8623,"ypso":8624,"Ġactes":8625,"Ġactive":8626,"Ġkan":8627,"Ġkatana":8628,"Ġtrait":8629,"Ġtrajet":8630,"Ġtraits":8631,"ĠfranÃ§aises":8632,"ropri":8633,"orer":8634,"Ġpuissant":8635,"Ġsymp":8636,"ĠAnges":8637,"ĠiP":8638,"adj":8639,"ady":8640,"ĠminÃ©ra":8641,"aÃ¢":8642,"onnais":8643,"objectif":8644,"obtenir":8645,"obacte":8646,"ĠInstitu":8647,"Ġmarti":8648,"Ġmarais":8649,"Ġmarches":8650,"Ã¢h":8651,"Ġterres":8652,"Ġterrain":8653,"Ġterrestre":8654,"Ġservent":8655,"ommand":8656,"ommage":8657,"Ġentreprise":8658,"ĠParmi":8659,"accÃ¨s":8660,"mbla":8661,"Ã´s":8662,"Ġmettant":8663,"Ġconsiste":8664,"Ġconsonne":8665,"Ġconsoles":8666,"Ġconsoli":8667,"ĠconsÃ©qu":8668,"Ġconsensus":8669,"hÃ©on":8670,"hÃ©Ã¢tre":8671,"Ġ1817":8672,"Ġ1821":8673,"Ġsuivie":8674,"arium":8675,"akers":8676,"akht":8677,"onctu":8678,"Ġcomprendre":8679,"alisme":8680,"Ġcass":8681,"ĠamÃ©rindi":8682,"Ġrecommand":8683,"vergne":8684,"Ġexpressions":8685,"allÃ©s":8686,"Ã©cole":8687,"Ã©criv":8688,"Ġcontinue":8689,"Ġregroup":8690,"ĠÃītymologie":8691,"ĠgÃ©nÃ©rations":8692,"manie":8693,"mantique":8694,"ĠdÃ©coup":8695,"ĠdÃ©couvert":8696,"Ġsoumis":8697,"Ġsoutient":8698,"agnement":8699,"Ġdivine":8700,"Ġattribut":8701,"ĠAmÃ©rique":8702,"ĠAmasis":8703,"formation":8704,"ĠÃªtres":8705,"180":8706,"1822":8707,"Ġdiffus":8708,"Ã©taient":8709,"Ã©taires":8710,"ĠcrÃ©Ã©e":8711,"ĠcrÃ©ole":8712,"Ġmatern":8713,"ĠReal":8714,"ĠRevel":8715,"ĠAuvergne":8716,"Ġchefs":8717,"ĠMem":8718,"ĠMedia":8719,"ĠMemphis":8720,"ĠĠĠĠĠĠĠĠĠĠĠ":8721,"convÃ©":8722,"condition":8723,"Ġcalmes":8724,"Ġcalif":8725,"ĠrÃ©gu":8726,"Ġformat":8727,"Ġpaysages":8728,"rentissage":8729,"Ġassume":8730,"Ġcultiv":8731,"ĠespÃ¨ce":8732,"ĠaccÃ¨s":8733,"Ġáī":8734,"ĠmatiÃ¨res":8735,"ĠColÃ©optÃ¨res":8736,"assification":8737,"Ġfiches":8738,"Ġ1972":8739,"Ġ1979":8740,"keh":8741,"Ã©nat":8742,"Ġsuccession":8743,"Ġfertil":8744,"Ġdoute":8745,"ava":8746,"avaient":8747,"Ġfamili":8748,"Ġgaranti":8749,"Ġcell":8750,"Ġblanche":8751,"Ġpropor":8752,"Ġpopulaires":8753,"ĠpopularitÃ©":8754,"Ġconnus":8755,"Ġconnaissance":8756,"ophone":8757,"tionnels":8758,"Ġ50":8759,"Ġcouplet":8760,"steady":8761,"Ġlongs":8762,"Ġrenv":8763,"Ġ1982":8764,"Ġmanif":8765,"Ġmanuscrit":8766,"ĠnÃ©cessi":8767,"Ġsignalisation":8768,"ĠMaroc":8769,"ĠMartin":8770,"ampoule":8771,"ĠliÃ©":8772,"ĠliÃ©s":8773,"ĠliÃ©es":8774,"ĠYam":8775,"ĠdurÃ©":8776,"aneb":8777,"ĠCarnivores":8778,"aÃ®tr":8779,"ĠreprÃ©sentations":8780,"ylles":8781,"ĠsÃ©pare":8782,"ĠsÃ©mantique":8783,"Ġ1966":8784,"kawa":8785,"Ġbarre":8786,"agnant":8787,"Ġanglo":8788,"khmet":8789,"oulÃªme":8790,"ĠÃ©lectrom":8791,"Ġ176":8792,"vÃ©nements":8793,"Ġtester":8794,"Ġrefrain":8795,"Ġlocale":8796,"Ġfront":8797,"ĠProvisional":8798,"exprime":8799,"expansion":8800,"Ġcapital":8801,"Ġpiano":8802,"UniversitÃ©":8803,"Ġjuli":8804,"ĠdÃ©veloppÃ©":8805,"ĠdÃ©veloppÃ©e":8806,"oks":8807,"Ġcroise":8808,"ĠThermo":8809,"ĠinstallÃ©":8810,"Ġinstantan":8811,"ĠinstallÃ©s":8812,"Ġgouverne":8813,"ĠrÃ©gionale":8814,"rammaire":8815,"Ġfrag":8816,"ĠAsie":8817,"Ġplume":8818,"ĠrÃ©public":8819,"Ġprofit":8820,"Ġforts":8821,"tÃ©rieures":8822,"ĠcomposÃ©e":8823,"Ġentour":8824,"Ã©mie":8825,"ound":8826,"2000":8827,"2003":8828,"ĠShim":8829,"Ġsemences":8830,"Ġparticules":8831,"ĠXV":8832,"ĠcrÃ¨me":8833,"archÃ©":8834,"iliter":8835,"iliaire":8836,"ilibre":8837,"lemme":8838,"Ġtribun":8839,"ĠspÃ©cialiste":8840,"Alpha":8841,"ĠMiysis":8842,"Ã¤n":8843,"ĠContin":8844,"ĠConquÃ©rant":8845,"ollyw":8846,"Ġ1950":8847,"Ġ1951":8848,"Ġ79":8849,"Ġcadmi":8850,"Ġ%)":8851,"Ġfacture":8852,"Ġfaciliter":8853,"landaise":8854,"ĠmenÃ©s":8855,"Ġvariante":8856,"ĠdÃ©funt":8857,"ĠAndrew":8858,"...)":8859,"Ġscore":8860,"Ġconfusion":8861,"Ġconfondre":8862,"ĠprÃ©side":8863,"novation":8864,"importe":8865,"Ġâī":8866,"Ġdocument":8867,"ĠmolÃ©culaire":8868,"ĠAbrÃ©viations":8869,"ĠdÃ©sin":8870,"ĠdÃ©sert":8871,"Ġimportants":8872,"ArdÃ¨che":8873,"Ġcandidat":8874,"ĠSymb":8875,"ĠprÃ©senter":8876,"humanitÃ©":8877,"sych":8878,"Ġpratiques":8879,"Ġurbain":8880,"ĠportÃ©e":8881,"ĠcÃ©rÃ©":8882,"ĠnumÃ©riques":8883,"Ġcalculatrice":8884,"ĠEsquisse":8885,"ĠDescription":8886,"Ġsounds":8887,"Ġcircons":8888,"Ġfabric":8889,"ĠÃ©pÃ©es":8890,"ĠGeb":8891,"1982":8892,"Ġculturelle":8893,"view":8894,"ĠConst":8895,"Ġempr":8896,"Ġcycles":8897,"ĠOrganisation":8898,"ĠrÃ©alisÃ©e":8899,"ĠrÃ©alisÃ©es":8900,"ativement":8901,"Ġmoyens":8902,"Ġanimaux":8903,"Ġmeilleure":8904,"ĠKhnoum":8905,"Ġoriental":8906,"Ġorientale":8907,"ĠÃ©gyptologues":8908,"Ġlabels":8909,"prÃ©sident":8910,"Ġdevait":8911,"Ġusuel":8912,"ĠPrince":8913,"Ġrayon":8914,"1995":8915,"ĠconsidÃ©rÃ©s":8916,"ĠconsidÃ©rÃ©e":8917,"ĠPersonnalitÃ©s":8918,"casion":8919,"tÃ©ristiques":8920,"cesseurs":8921,"ĠsoviÃ©tiques":8922,"Ġorigines":8923,"ĠáĪĢ":8924,"ĠáĪł":8925,"Ġcommerciale":8926,"Ġcommercialisation":8927,"Ġfootball":8928,"Ġpronom":8929,"Ġexprime":8930,"Ġexprimer":8931,"AmÃ©rique":8932,"Amstrad":8933,"ĠAdj":8934,"ĠÃ©conomiques":8935,"Ġinitial":8936,"ĠáĬĢ":8937,"1902":8938,"Ġforteresse":8939,"Ġ1895":8940,"Ġmajoritaire":8941,"ĠbretÃ¨ches":8942,"ĠMusÃ©e":8943,"ĠEspagne":8944,"ĠEspÃ¨ces":8945,"ancÃ©e":8946,"ĠTokuga":8947,"ĠarchÃ©es":8948,"ĠÃ©quivalent":8949,"ĠBanks":8950,"semblÃ©e":8951,"Ġapplications":8952,"1945":8953,"OrlÃ©ans":8954,"ancienne":8955,"ĠeuropÃ©ens":8956,"ĠarmÃ©niennes":8957,"Ġadministrateur":8958,"Ġoccidentaux":8959,"ĠlittÃ©rature":8960,"ichage":8961,"Ġvases":8962,"ĠLiban":8963,"ĠValse":8964,"Ġdistributeur":8965,"Ġcompromissoire":8966,"ĠadoptÃ©":8967,"Ġsouhait":8968,"ĠautoritÃ©s":8969,"ĠpropriÃ©tÃ©s":8970,"ĠMarcel":8971,"Ġneutre":8972,"ĠÃ©chang":8973,"ĠdÃ©couvertes":8974,"Ġaccompag":8975,"ĠmatÃ©riel":8976,"ĠmatÃ©riaux":8977,"ASA":8978,"Ġsuites":8979,"Ġfleur":8980,"Ġfigure":8981,"ĠLorsqu":8982,"Ġgagnant":8983,"Ġretraite":8984,"adessif":8985,"ĠáįĢ":8986,"Ġrenouvellement":8987,"ĠcÃ©lÃ¨bres":8988,"ĠfrÃ©quence":8989,"Ġdemeures":8990,"Ġfuir":8991,"Ġpotentiel":8992,"ĠdÃ©diÃ©s":8993,"ĠGuillaume":8994,"ĠdirigÃ©":8995,"Ġconcernent":8996,"Ġirakiennes":8997,"ĠconsacrÃ©":8998,"Ġorganes":8999,"embourg":9000,"Ġdatation":9001,"ĠAND":9002,"ĠTurquie":9003,"ĠcontribuÃ©":9004,"Ġrevue":9005,"ĠchrÃ©tienne":9006,"ĠchrÃ©tiens":9007,"ĠcontrÃ´leur":9008,"donÃ©sie":9009,"emploi":9010,"ĠthÃ©b":9011,"Ġvecteur":9012,"ĠLigue":9013,"Ġrisques":9014,"ĠSciences":9015,"ĠdÃ©terminer":9016,"ĠJusqu":9017,"ĠRoche":9018,"Ġexactes":9019,"ĠdÃ©signÃ©es":9020,"ĠampÃ¨remÃ©tri":9021,"Ġcontrairement":9022,"tantin":9023,"Ġenregist":9024,"ĠLike":9025,"ĠCliff":9026,"ĠdÃ©truit":9027,"ĠdÃ©rivÃ©s":9028,"Ġdizaine":9029,"ĠrÃ©servÃ©":9030,"enregistrement":9031,"importation":9032,"instrument":9033,"instructions":9034,"ĠcontrÃ´ler":9035,"ĠpÃ©troliers":9036,"Ġinfluence":9037,"Ġdisposait":9038,"Ġdynastie":9039,"Ġrocksteady":9040,"ĠÃ©ventuellement":9041,"ĠStudios":9042,"ĠBourbon":9043,"Ġ1924":9044,"ĠFrancisco":9045,"Ġalternatif":9046,"Ġrespons":9047,"Ġrelief":9048,"hua":9049,"Ġconjoin":9050,"ĠMaurice":9051,"ĠintÃ©rÃªts":9052,"ĠHalobacte":9053,"Ġcompatible":9054,"ĠattestÃ©":9055,"ĠexpÃ©rimentale":9056,"Ġmandat":9057,"ĠmÃ¢ch":9058,"Ġfoyer":9059,"ĠLittÃ©ra":9060,"ĠdÃ©rivÃ©":9061,"ĠRoller":9062,"Ġvirgu":9063,"osphÃ¨re":9064,"thiopie":9065,"Ġmariage":9066,"ĠsecrÃ©taires":9067,"ducation":9068,"ĠlÃ©gisl":9069,"ĠPhilippe":9070,"ĠindÃ©pendante":9071,"ĠvÃ©ritable":9072,"Ġmasculin":9073,"ĠimmÃ©diatement":9074,"ĠÃ©thiopien":9075,"Azur":9076,"åįģä¸Ģ":9077,"ĠpandÃ©mie":9078,"Ġarabe":9079,"Ġtambour":9080,"ĠdestinÃ©e":9081,"Ġnaval":9082,"ĠMultimedia":9083,"ĠNapolÃ©on":9084,"ĠrÃ©vÃ¨le":9085,"ĠFisher":9086,"ĠarrÃªtÃ©":9087,"ĠÃīlectricitÃ©":9088,"Ġperformances":9089,"ĠAmerican":9090,"tribue":9091,"Ġprimaire":9092,"ĠáĮ¸":9093,"ĠCaractÃ©ristiques":9094,"ĠXIV":9095,"ĠsupplÃ©mentaires":9096,"Augustin":9097,"Ġgermanique":9098,"Ġspectacle":9099,"ĠvÃ©hicules":9100,"OTAN":9101,"bilitÃ©s":9102,"oÃ»t":9103,"Ġerreurs":9104,"Ġpsylles":9105,"Ġastron":9106,"Ġlaisser":9107,"seudonyme":9108,"ĠVoici":9109,"ĠRastafari":9110,"ĠHongrie":9111,"Ġmonarques":9112,"Ġartificielle":9113,"Ġraccour":9114,"Ġsyllabe":9115,"Ġabstraite":9116,"ĠCollege":9117,"Ġcitoyens":9118,"investissement":9119,"Ġnoblesse":9120,"Louis":9121,"çĻ¾":9122,"ĠpanthÃ©on":9123,"ĠcÃ©lÃ©b":9124,"Ġscission":9125,"technique":9126,"ĠtungstÃ¨ne":9127,"Ġbotaniste":9128,"ĠAlejandro":9129,"ĠPlauger":9130,"ĠSuivant":9131,"Ġvignoble":9132,"ĠWozniak":9133,"ĠChypre":9134,"ĠÃīdouard":9135,"ĠRevelation":9136,"convÃ©ni":9137,"ĠfertilitÃ©":9138,"ĠnÃ©cessite":9139,"ĠTokugawa":9140,"ĠHalobacteri":9141,"29":9142,"31":9143,"34":9144,"39":9145,"40":9146,"41":9147,"66":9148,"70":9149,"75":9150,"86":9151,";\"":9152,"AL":9153,"As":9154,"At":9155,"Amp":9156,"Ampoule":9157,"Akihabara":9158,"Camp":9159,"Den":9160,"Ex":9161,"Fin":9162,"Hermopolis":9163,"IS":9164,"IEE":9165,"Irlande":9166,"INR":9167,"Je":9168,"Les":9169,"Luc":9170,"MP":9171,"NC":9172,"NES":9173,"Nubie":9174,"NET":9175,"OA":9176,"Off":9177,"Occident":9178,"PS":9179,"Per":9180,"Paul":9181,"Pierre":9182,"QL":9183,"Re":9184,"RDF":9185,"SJ":9186,"TJ":9187,"Th":9188,"UF":9189,"UNES":9190,"WY":9191,"ave":9192,"aout":9193,"ailles":9194,"ben":9195,"bou":9196,"bal":9197,"bie":9198,"bourg":9199,"cie":9200,"cons":9201,"caire":9202,"cate":9203,"clÃ©":9204,"cod":9205,"dd":9206,"dt":9207,"dy":9208,"dant":9209,"deux":9210,"dÃ©e":9211,"dente":9212,"emp":9213,"fou":9214,"fri":9215,"fran":9216,"fend":9217,"fesseur":9218,"gol":9219,"gine":9220,"gies":9221,"gateur":9222,"gren":9223,"gocie":9224,"gagnant":9225,"hel":9226,"hos":9227,"hod":9228,"hall":9229,"hyt":9230,"hters":9231,"hÅ«":9232,"iteur":9233,"ize":9234,"iendaire":9235,"jut":9236,"kan":9237,"kun":9238,"ll":9239,"las":9240,"litÃ©":9241,"lÃł":9242,"mur":9243,"mard":9244,"menter":9245,"nt":9246,"ny":9247,"nou":9248,"nel":9249,"nst":9250,"nacks":9251,"oo":9252,"oque":9253,"oins":9254,"ooter":9255,"pin":9256,"pus":9257,"rin":9258,"ror":9259,"rence":9260,"rise":9261,"riller":9262,"soit":9263,"santes":9264,"tur":9265,"tas":9266,"trÃ©":9267,"tob":9268,"table":9269,"tta":9270,"tori":9271,"tologue":9272,"uÃ©e":9273,"utu":9274,"uves":9275,"var":9276,"vitÃ©":9277,"vise":9278,"vodie":9279,"vrages":9280,"wi":9281,"win":9282,"wag":9283,"ward":9284,"work":9285,"xon":9286,"xor":9287,"xic":9288,"xford":9289,"yri":9290,"yles":9291,"zi":9292,"||":9293,"¥áĭ":9294,"Ã¸":9295,"Ð¸":9296,"ÑĢ":9297,"Ñĥ":9298,"Ñĩ":9299,"á¹":9300,"Ġer":9301,"Ġour":9302,"Ġott":9303,"ĠentraÃ®":9304,"īáĪ":9305,"İle":9306,"ķáĮ":9307,"ese":9308,"esite":9309,"escla":9310,"Ġdest":9311,"Ġdente":9312,"Ġdates":9313,"Ġdrole":9314,"Ġlot":9315,"Ġlister":9316,"enz":9317,"enac":9318,"enci":9319,"endi":9320,"ennies":9321,"environnement":9322,"onnÃ©":9323,"onales":9324,"ondition":9325,"Ã©l":9326,"Ã©re":9327,"Ã©rÃ©":9328,"Ã©rÃ©s":9329,"Ã©tende":9330,"ĠpÃ©":9331,"Ġpil":9332,"Ġpiste":9333,"Ġpique":9334,"Ġpoire":9335,"Ġpuits":9336,"Ġpyra":9337,"Ġponctu":9338,"Ġpsych":9339,"Ġcesse":9340,"Ġcrat":9341,"Ġcantine":9342,"Ġsne":9343,"Ġsain":9344,"Ġsla":9345,"Ġscul":9346,"ĠsÃ»":9347,"ĠsÅĵur":9348,"ĠsantÃ©":9349,"Ġskate":9350,"Ġsnacks":9351,"aniques":9352,"outi":9353,"oulis":9354,"ouret":9355,"ouper":9356,"quest":9357,"recte":9358,"reennes":9359,"isc":9360,"ism":9361,"isÃ©es":9362,"istiques":9363,"Ġasi":9364,"Ġami":9365,"Ġath":9366,"Ġactrice":9367,"ĠaÃ©ron":9368,"Ġdepar":9369,"Ġdecide":9370,"Ġdefend":9371,"tiÃ¨re":9372,"timents":9373,"ind":9374,"inn":9375,"indÃ©":9376,"inverse":9377,"invention":9378,"inberg":9379,"erci":9380,"ervi":9381,"eroun":9382,"erator":9383,"Ġmille":9384,"Ġmouve":9385,"Ġmeneur":9386,"Ġmauv":9387,"enta":9388,"unes":9389,"unts":9390,"arr":9391,"arab":9392,"arith":9393,"argent":9394,"orn":9395,"oron":9396,"oration":9397,"ortes":9398,"orise":9399,"orient":9400,"ortÃ©e":9401,"orld":9402,"oronto":9403,"Ġlamb":9404,"Ġlaches":9405,"Ġlags":9406,"omes":9407,"oman":9408,"Ġtre":9409,"ĠtÃ¢":9410,"ĠtrÃ©s":9411,"Ġtenir":9412,"Ġtacti":9413,"Ġquad":9414,"Ġquart":9415,"ĠqualitÃ©s":9416,"urait":9417,"urÃ©e":9418,"Ġfoi":9419,"Ġfuit":9420,"Ġfoie":9421,"Ġfestival":9422,"Ġflux":9423,"Ġflemme":9424,"itage":9425,"Ġvil":9426,"Ġvoul":9427,"Ġvenir":9428,"Ġvase":9429,"Ġvarie":9430,"Ġeth":9431,"ustive":9432,"Ġuns":9433,"ourn":9434,"asa":9435,"astre":9436,"astiques":9437,"assembl":9438,"ilo":9439,"Ġnour":9440,"ĠnaÃ®t":9441,"Ġnanisme":9442,"Ġnager":9443,"rains":9444,"raines":9445,"rairie":9446,"meister":9447,"meuble":9448,"ĠLÃ©":9449,"ĠLet":9450,"ĠLog":9451,"ĠLancer":9452,"ald":9453,"alise":9454,"aller":9455,"aliennes":9456,"ĠÃİle":9457,"Ġbre":9458,"Ġbin":9459,"Ġbil":9460,"Ġbri":9461,"Ġbob":9462,"Ġblin":9463,"Ġbureau":9464,"Ġbosser":9465,"ieme":9466,"auf":9467,"ĠCD":9468,"ĠCV":9469,"ĠCo":9470,"ĠCri":9471,"ĠCitÃ©":9472,"ĠCaire":9473,"ĠCod":9474,"ĠClo":9475,"ĠCentra":9476,"ĠCenter":9477,"ĠCoccinel":9478,"ĠCrist":9479,"ĠCalifor":9480,"Ġcomite":9481,"ĠcomitÃ©s":9482,"Ġrig":9483,"Ġrentre":9484,"Ġrites":9485,"Ġrares":9486,"ĠAz":9487,"ĠAff":9488,"ĠAir":9489,"ĠAkh":9490,"ĠArab":9491,"ĠAape":9492,"chim":9493,"lidÃ©s":9494,"secte":9495,"Ã¨g":9496,"Ã¨des":9497,"Ã¨ze":9498,"Ã¨dre":9499,"mpor":9500,"rochis":9501,"ĠgagnÃ©":9502,"Ġgross":9503,"Ġpluriel":9504,"riche":9505,"riÃ¨s":9506,"rictions":9507,"neaux":9508,"nedis":9509,"ĠPH":9510,"ĠPin":9511,"ĠPil":9512,"ĠPelle":9513,"ĠPace":9514,"ĠPenn":9515,"ĠPow":9516,"ĠPAS":9517,"ĠPOI":9518,"ĠPologne":9519,"ĠPUF":9520,"Ġparam":9521,"Ġparten":9522,"Ġparents":9523,"ĠparaÃ®t":9524,"Ġparodi":9525,"ĠparallÃ©":9526,"ĠparÃ¨dre":9527,"ĠEth":9528,"ĠEnedis":9529,"Ġjette":9530,"Ġjob":9531,"sive":9532,"oly":9533,"olaire":9534,"olue":9535,"olise":9536,"aiser":9537,"Ġpourrit":9538,"ĠTA":9539,"ĠTr":9540,"ĠTw":9541,"ĠTas":9542,"ĠTch":9543,"ĠTay":9544,"ĠTyp":9545,"ĠTits":9546,"ĠTÃ©lÃ©":9547,"ĠTiy":9548,"ĠTool":9549,"ĠToronto":9550,"Ġconqu":9551,"ĠconfÃ©rence":9552,"Ġcontenu":9553,"Ġcontiennent":9554,"Ġconducteur":9555,"ato":9556,"atch":9557,"attein":9558,"attribut":9559,"ago":9560,"agar":9561,"Ġaudio":9562,"Ġautrich":9563,"ĠDer":9564,"ĠDam":9565,"ĠDab":9566,"ĠDesh":9567,"ĠDig":9568,"ĠDiff":9569,"ĠÃ©quipe":9570,"ĠÃ©lÃ¨ve":9571,"ĠÃ©vÃ©nements":9572,"Ġretiennent":9573,"Ġretenue":9574,"Ġrelise":9575,"ĠSil":9576,"ĠSel":9577,"ĠSol":9578,"ĠStÃ©":9579,"ĠSaut":9580,"ĠSka":9581,"ĠStat":9582,"ĠSaÃ¯s":9583,"ĠSÃ©nat":9584,"deur":9585,"Ġ133":9586,"Ġchante":9587,"Ġsimil":9588,"aci":9589,"acrÃ©":9590,"acÃ©s":9591,"acts":9592,"aculaire":9593,"actuel":9594,"ĠpoÃ©sie":9595,"ĠBir":9596,"ĠBill":9597,"ĠBlais":9598,"ĠBali":9599,"ĠBeff":9600,"terne":9601,"ĠdÃ©n":9602,"ĠdÃ©r":9603,"ĠdÃ©mon":9604,"ĠdÃ©esses":9605,"Ġevolu":9606,"ĠGT":9607,"ĠGate":9608,"ĠGard":9609,"ĠGÃ©nÃ©ra":9610,"ĠGrammaire":9611,"ĠMy":9612,"ĠMen":9613,"ĠMis":9614,"ĠMur":9615,"ĠMend":9616,"ĠMay":9617,"ĠMod":9618,"ĠMoh":9619,"ĠMaÃ®tre":9620,"ĠMaÃ¢":9621,"Ġcaus":9622,"Ġcache":9623,"Ġsex":9624,"Ġsever":9625,"ranger":9626,"Ġpassion":9627,"ĠIoun":9628,"Ġinser":9629,"Ġinrat":9630,"Ġintelle":9631,"dim":9632,"dir":9633,"diens":9634,"dictif":9635,"Ġstats":9636,"ffixe":9637,"ĠVe":9638,"ĠVer":9639,"ĠVers":9640,"ĠVig":9641,"geant":9642,"ĠĠĠčĊ":9643,"ĠĠĠĠčĊ":9644,"ĠJud":9645,"ĠJava":9646,"tÃ©si":9647,"Ġhy":9648,"ĠhÃ©b":9649,"Ġhockey":9650,"Ġhoriz":9651,"Ġhesite":9652,"Ġsurnom":9653,"Ġsurmont":9654,"âĢĵ":9655,"enses":9656,"Ġdiagn":9657,"ogÃ©nÃ©":9658,"ogrammes":9659,"ĠNo":9660,"ĠNet":9661,"ĠNit":9662,"ĠNat":9663,"ĠNav":9664,"ĠNice":9665,"ĠNik":9666,"ĠRh":9667,"ĠRi":9668,"ĠRab":9669,"amille":9670,"ammi":9671,"aminateur":9672,"ammed":9673,"ulÃ©e":9674,"ulature":9675,"ĠrÃ©ussi":9676,"ĠprocÃ¨s":9677,"Ġprochain":9678,"ĠWer":9679,"ĠWilli":9680,"Ġ22":9681,"oissantes":9682,"ĠHT":9683,"ĠHi":9684,"ĠHy":9685,"ĠHap":9686,"ĠHÃ¢":9687,"ĠHak":9688,"ĠHockey":9689,"ĠHermopolis":9690,"abrÃ©":9691,"abessif":9692,"ĠFe":9693,"ĠFre":9694,"ĠFont":9695,"ĠFore":9696,"Ġdisposi":9697,"ouvent":9698,"ouvres":9699,"Ġ1917":9700,"immeuble":9701,"Ġcoin":9702,"Ġcofond":9703,"Ġcoreennes":9704,"ocÃ©":9705,"ordan":9706,"ordinateur":9707,"illeures":9708,"pere":9709,"Ġsafe":9710,"phen":9711,"treet":9712,"Ġcompter":9713,"Ġcompris":9714,"Ġcomporte":9715,"Ġcompose":9716,"Ġcomposi":9717,"Ġcomplex":9718,"ĠcomplÃ¨te":9719,"Ġcommiss":9720,"osan":9721,"osses":9722,"umer":9723,"nÃ©ade":9724,"nÃ©fer":9725,"ical":9726,"icoulis":9727,"sembles":9728,"istan":9729,"istants":9730,"irent":9731,"iritu":9732,"irlandais":9733,"ivardi":9734,"igu":9735,"Ġprit":9736,"Ġprenant":9737,"Ã§u":9738,"Ã§onner":9739,"ĠnommÃ©es":9740,"Ġexer":9741,"Ġexos":9742,"Ġexten":9743,"ĠexcÃ©":9744,"ĠextÃ©rieur":9745,"ĠexÃ©cu":9746,"ĠChinois":9747,"ĠAlpha":9748,"Ġarme":9749,"Ġargu":9750,"ĠarmÃ©es":9751,"ĠprÃ©v":9752,"ĠprÃ©al":9753,"ĠprÃ©fi":9754,"ĠprÃ©occup":9755,"Ġcarnet":9756,"mile":9757,"miques":9758,"mides":9759,"mitiques":9760,"midite":9761,"urer":9762,"usement":9763,"ĠEngine":9764,"Ġconcurrents":9765,"Ġrale":9766,"Ġrame":9767,"Ġrates":9768,"Ġrager":9769,"Ġrarement":9770,"Ġnegocie":9771,"ĠĠĠĠĠĠĠ":9772,"Ġapplis":9773,"Ġappare":9774,"Ġapporter":9775,"Ġappropri":9776,"ĠKi":9777,"ĠKÃ©":9778,"ĠKid":9779,"ĠKhar":9780,"ĠKlin":9781,"Ġfranco":9782,"Ġcreve":9783,"oyÃ©":9784,"insp":9785,"roits":9786,"pard":9787,"ĠÃīlÃ©ment":9788,"ĠÃīcrit":9789,"ĠÃīthiopie":9790,"ĠFrank":9791,"ĠFranÃ§ois":9792,"entrefer":9793,"Ġimag":9794,"Ġ..":9795,"ĠÃ©tym":9796,"Ġcommuni":9797,"ĠcommunautÃ©":9798,"ople":9799,"opot":9800,"ionales":9801,"utiques":9802,"ĠÃ©gal":9803,"1920":9804,"ĠUS":9805,"ĠUl":9806,"ĠplanÃ¨te":9807,"Ġfortement":9808,"ĠArmÃ©e":9809,"ĠArrondissements":9810,"dÃ©partement":9811,"dÃ©tenue":9812,"Ġcourante":9813,"aya":9814,"issait":9815,"laÃ§ant":9816,"Ġacqui":9817,"Ġaccident":9818,"Ġacronyme":9819,"Ġacariens":9820,"Ġdeuxieme":9821,"Ġki":9822,"Ġkir":9823,"Ġprete":9824,"Ġprefer":9825,"Ġauxqu":9826,"Ġ31":9827,"Ġ35":9828,"Ġtrain":9829,"Ġtraces":9830,"ropro":9831,"odologie":9832,"Ġpuisse":9833,"Ġresultats":9834,"Ġreseaux":9835,"ĠAnouk":9836,"ĠAncienne":9837,"ĠAnubis":9838,"Ġmomies":9839,"Ġmomifi":9840,"ĠidÃ©e":9841,"Ġinternes":9842,"Ġinterven":9843,"Ġintervient":9844,"Ġinterieur":9845,"Ġinterloc":9846,"ĠphonÃ©tique":9847,"thÃ©tiques":9848,"ingh":9849,"ingÃ©nieur":9850,"ĠgÃ©ant":9851,"ĠgÃ©nies":9852,"ĠgÃ©ographique":9853,"ĠpermÃ©":9854,"adu":9855,"adop":9856,"adjectif":9857,"administration":9858,"onnet":9859,"onnie":9860,"oban":9861,"obal":9862,"objets":9863,"Ġdirecte":9864,"hed":9865,"heim":9866,"ĠInten":9867,"ĠIntel":9868,"ĠInstitut":9869,"ĠInternet":9870,"ĠInnovation":9871,"ĠIndonÃ©sie":9872,"ĠInsecte":9873,"Ġmarine":9874,"ĠmarquÃ©":9875,"oitou":9876,"Ġesti":9877,"rouilles":9878,"Ġcoul":9879,"culer":9880,"cipiendaire":9881,"Ġseras":9882,"itecte":9883,"ommÃ©e":9884,"trations":9885,"ĠParc":9886,"Ġcoloc":9887,"Ġcolons":9888,"ruteurs":9889,"ructeurs":9890,"Ġboutiques":9891,"Ġbouffe":9892,"accorde":9893,"mbidi":9894,"Ġfinis":9895,"Ġfinale":9896,"Ġreptil":9897,"Ġrepondre":9898,"Ã´ts":9899,"Ġsessions":9900,"Ġconsult":9901,"Ġconscience":9902,"ĠmÃ©tra":9903,"Ġ1850":9904,"Ġ1853":9905,"Ġorchest":9906,"intro":9907,"tics":9908,"ĠsecrÃ©taire":9909,"omboniste":9910,"trÃªme":9911,"arian":9912,"ĠgÃ©nÃ©rique":9913,"Ġnormale":9914,"Ġnormalement":9915,"Ġnormalis":9916,"aliser":9917,"alisÃ©e":9918,"ductions":9919,"Ġadj":9920,"Ġadmet":9921,"Ġaddictif":9922,"Ġtimidite":9923,"Ġcash":9924,"elson":9925,"illac":9926,"anted":9927,"Ġrecos":9928,"Ġrecours":9929,"Ġrecurrents":9930,"Ġrecondition":9931,"Ġrecruteurs":9932,"verbe":9933,"Ġcornes":9934,"Ġexpos":9935,"Ġexpression":9936,"allÃ¨":9937,"Ġmilieux":9938,"Ġregionales":9939,"iciens":9940,"ĠDev":9941,"ĠdÃ©cret":9942,"ĠdÃ©crire":9943,"ĠdÃ©clare":9944,"ĠdÃ©cennies":9945,"Ġdivan":9946,"Ġdivises":9947,"ographe":9948,"ĠAmÃ©ric":9949,"formes":9950,"Ġtransvers":9951,"Ġmuscle":9952,"identi":9953,"Ã©tymologie":9954,"Ġpersos":9955,"Ġmail":9956,"Ġmaxi":9957,"ĠRecher":9958,"aÃ¯d":9959,"ennuy":9960,"Ġchemin":9961,"ĠMeilleures":9962,"ĠagrÃ©":9963,"2013":9964,"ĠrÃ©gÃ©nÃ©ra":9965,"Ġpaysans":9966,"Ġspiritu":9967,"Ġsoldes":9968,"Ġassistants":9969,"ĠprivÃ©":9970,"ĠprivÃ©e":9971,"exÃ©cu":9972,"examinateur":9973,"Ġaccus":9974,"Ġaccusatif":9975,"Ġaccords":9976,"culteurs":9977,"fices":9978,"Ġencorb":9979,"ĠCollÃ¨ge":9980,"asser":9981,"Ġsigne":9982,"ailleries":9983,"key":9984,"Ġfera":9985,"Ġfermes":9986,"Ġfertilis":9987,"ĠderriÃ¨re":9988,"ĠbrÃ»":9989,"avait":9990,"Ġfonder":9991,"Ġfondation":9992,"Ġtrava":9993,"ĠdÃ©finissent":9994,"Ġinternationaux":9995,"ĠdiffÃ©rence":9996,"ĠdiffÃ©rences":9997,"behs":9998,"Ġbiologie":9999,"Ġbiographie":10000,"ĠAho":10001,"Ġmaths":10002,"ophiles":10003,"Ġdebuts":10004,"Ġ55":10005,"Ã¢teau":10006,"Ġcouple":10007,"Ġpatch":10008,"ĠastÃ©roÃ¯de":10009,"Ġrenaissance":10010,"Ġ1981":10011,"Ġsociale":10012,"Ġsocialiste":10013,"visÃ©e":10014,"Ġmanque":10015,"Ġmanip":10016,"ĠMarine":10017,"appro":10018,"applique":10019,"approche":10020,"apparition":10021,"cerotte":10022,"luence":10023,"Ġlive":10024,"Ġresto":10025,"Ġrestrictions":10026,"Ã©liens":10027,"anemar":10028,"tivitÃ©s":10029,"ĠCarte":10030,"ĠCaraÃ¯":10031,"ĠCarÃ©lien":10032,"ĠCaroline":10033,"ĠchargÃ©s":10034,"Ġprotege":10035,"Ġappart":10036,"Ġapparues":10037,"Ġappartient":10038,"Ġapparaissent":10039,"serv":10040,"server":10041,"Ġpouvait":10042,"Ġnouvel":10043,"Ġ1961":10044,"Ġmicros":10045,"Ġbarque":10046,"Ġbaronnie":10047,"agner":10048,"Ġangoissantes":10049,"Ġrefaire":10050,"CII":10051,"oxyd":10052,"ĠlocalitÃ©":10053,"ĠfrÃ¨res":10054,"ĠProfesseur":10055,"Ġfonce":10056,"Ġvoies":10057,"ĠÃ©crire":10058,"ĠÃ©crite":10059,"Ġpierre":10060,"Ġpierres":10061,"Ġpieges":10062,"Ġjuillet":10063,"AntiquitÃ©":10064,"Ġpompes":10065,"Ġcentaine":10066,"Ġsaucerotte":10067,"Ġsoirs":10068,"Ġdomes":10069,"anner":10070,"ĠthÃ©orique":10071,"itsu":10072,"Ġsignification":10073,"Ġsignifier":10074,"Ġinsta":10075,"Ġcoteaux":10076,"Ġweb":10077,"Ġwifi":10078,"Ġwhom":10079,"Ġwallet":10080,"ĠdegrÃ©":10081,"oresc":10082,"Ġfaveur":10083,"Ġgouvernements":10084,"Ġpersonnages":10085,"Ã©nÃ©gal":10086,"Ã©lÃ©ment":10087,"oriale":10088,"Ġromance":10089,"Ġsecondaires":10090,"cinellidÃ©s":10091,"Ġfrapp":10092,"aumeillant":10093,"Ġpasseport":10094,"ĠrÃ©pert":10095,"ĠrÃ©pÃ©tition":10096,"Ġprofs":10097,"Ġcollection":10098,"Ġroyaux":10099,"Ġincor":10100,"Ġcomposent":10101,"Ġ\"(":10102,"Ġ\")":10103,"Ġ\"}\"":10104,"Ġ\";\"":10105,"ĠtantÅį":10106,"cript":10107,"Ġissue":10108,"effic":10109,"architecte":10110,"iliers":10111,"Ġnipp":10112,"ĠÃ©tude":10113,"doade":10114,"ydos":10115,"Ġsalari":10116,"Ġtrifas":10117,"mocratie":10118,"ĠspÃ©cification":10119,"ĠspÃ©cifications":10120,"ĠspÃ©cifiques":10121,"nomin":10122,"ĠzÃ©ro":10123,"Ġisomor":10124,"Ġdeco":10125,"Ġdecor":10126,"Ġdecode":10127,"Ġdecouper":10128,"Ġdecouvres":10129,"ĠMiridae":10130,"Ã¯vodie":10131,"ĠConf":10132,"ĠConcept":10133,"Ġrive":10134,"ĠApriÃ¨s":10135,"Ġ1953":10136,"Ġ1954":10137,"Ġ1957":10138,"Ġ1958":10139,"Ġessaye":10140,"Ġ70":10141,"Ġveulent":10142,"ĠBase":10143,"ĠBelron":10144,"Ġindique":10145,"Ġindice":10146,"Ġconstituent":10147,"Ġconstitution":10148,"ĠLangage":10149,"ĠCandidat":10150,"ĠStan":10151,"Ġchimi":10152,"Ġstylet":10153,"Ġprogresses":10154,"ĠopÃ©ration":10155,"Ġsymbolis":10156,"Ġsymbolise":10157,"ĠdÃ©finitivement":10158,"Ġtablettes":10159,"ĠrÃ¨gle":10160,"ĠrÃ©sistance":10161,"ĠrÃ©solution":10162,"Ġproducteur":10163,"rome":10164,"ĠbactÃ©ri":10165,"ĠSiwa":10166,"ĠdÃ©fend":10167,"Ġinspi":10168,"ambiance":10169,"ĠscÃ©n":10170,"Ġscope":10171,"Ġscooter":10172,"indiction":10173,"ussure":10174,"Ġconfond":10175,"ĠsiÃ¨cles":10176,"Ġ1947":10177,"Ġ1948":10178,"glas":10179,"Ġdoctrines":10180,"ĠlÃ©gende":10181,"ĠmolÃ©":10182,"ĠAbel":10183,"ĠAbrÃ©viation":10184,"ĠAbdal":10185,"Ġannuelles":10186,"Ġimportance":10187,"Ġcana":10188,"Ġcanopes":10189,"Ġther":10190,"ĠthÃ¨me":10191,"Ġthermo":10192,"Ġthriller":10193,"Ġbourse":10194,"Ġbourgeois":10195,"ĠSyrie":10196,"ĠprÃ©sentiel":10197,"ĠprÃ©sentes":10198,"ĠprÃ©sentÃ©es":10199,"Ġpublics":10200,"Ġsouris":10201,"Ġconseiller":10202,"ĠSaoud":10203,"ĠSaussure":10204,"ĠfaÃ§ade":10205,"ĠantÃ©rieures":10206,"Ġmagie":10207,"ratchia":10208,"Ġcombin":10209,"Ġcombats":10210,"ĠDÃ©partement":10211,"ĠDÃ©mocratie":10212,"ĠpossÃ©d":10213,"dÃ©ration":10214,"Ġphoto":10215,"ĠdÃ©signait":10216,"olition":10217,"Ġelli":10218,"Ġlimiter":10219,"Ġporter":10220,"ĠpÃ©riph":10221,"ĠcinquiÃ¨me":10222,"outeillages":10223,"ĠManif":10224,"ĠHey":10225,"Ġsupportes":10226,"Ġnotion":10227,"Ġnoter":10228,"Ġrythmique":10229,"ĠTef":10230,"Ġ1930":10231,"cool":10232,"ĠÃ©levÃ©e":10233,"ĠSekhmet":10234,"âĢ¦),":10235,"âĢ¦).":10236,"Ġsaoudien":10237,"1980":10238,"1989":10239,"Ġclients":10240,"Ġbruyant":10241,"ĠConsole":10242,"ĠConstitution":10243,"ĠConstantin":10244,"ĠempÃª":10245,"ĠJohann":10246,"Ġtroue":10247,"Ġtroupes":10248,"Ġressens":10249,"cksie":10250,"own":10251,"Ġmultipo":10252,"Ġrends":10253,"Ġrendu":10254,"Ġvideos":10255,"Ġanimes":10256,"Ġorientation":10257,"ËĪÉĽ":10258,"áĪ³":10259,"Ġlatins":10260,"ĠvoÃ¯vodie":10261,"alogie":10262,"Ġchinoises":10263,"Ġstatue":10264,"ĠOutre":10265,"ĠOupou":10266,"ĠOuvrages":10267,"Ġsuffrage":10268,"Ġcolonie":10269,"Ġcolonnes":10270,"Ġcolonisation":10271,"Ġdevoirs":10272,"ĠAutor":10273,"ĠBlue":10274,"ĠMontou":10275,"Ġcontour":10276,"ĠBefore":10277,"ĠBembidi":10278,"1990":10279,"1994":10280,"Ġterritoriale":10281,"ĠmÃ©diane":10282,"IIIe":10283,"Ġvenusta":10284,"ĠCommission":10285,"ĠdÃ©cide":10286,"ĠprÃ©fÃ¨re":10287,"ĠparticipÃ©":10288,"Ġfinnoise":10289,"ĠáĪ°":10290,"carnation":10291,"Ġtopologie":10292,"Ġtoponymes":10293,"ĠLouxor":10294,"rigeants":10295,"Ġ1903":10296,"Ġ1904":10297,"Ġprononce":10298,"1973":10299,"1976":10300,"Ġadorer":10301,"dinet":10302,"dinand":10303,"Ġclaque":10304,"Ġfenniques":10305,"ouvreur":10306,"ĠáĬķáĮ":10307,"Ġpaie":10308,"Ġmanga":10309,"oratoires":10310,"Ġtendre":10311,"ĠCertaines":10312,"ĠSaudi":10313,"Ġstructur":10314,"1904":10315,"Ġforteresses":10316,"Ġ1894":10317,"Ġproprement":10318,"Ġdemle":10319,"Ġdemain":10320,"Ġentiers":10321,"ĠentiÃ¨rement":10322,"ĠDirigeants":10323,"ĠMÃ©moires":10324,"ĠMusicien":10325,"ĠcommencÃ©":10326,"1968":10327,"1969":10328,"ĠUnivers":10329,"Ġparfaites":10330,"Ġaura":10331,"Ġdeviendra":10332,"Ġtresor":10333,"Ġruiner":10334,"Ġembry":10335,"Ġembrouilles":10336,"Ġembouteillages":10337,"Ġinfos":10338,"nighters":10339,"Ġconserve":10340,"Ġconserver":10341,"Ġconservation":10342,"ĠsÃ©parÃ©s":10343,"Ġsauvegarde":10344,"Ġtypologie":10345,"Ġtypiques":10346,"Ġboxe":10347,"Ġbalance":10348,"ĠCalypso":10349,"ĠPike":10350,"ĠPrÃ©nom":10351,"ĠPrÃ©sentation":10352,"ĠStephen":10353,"ĠSchivardi":10354,"Ġtrouvent":10355,"Ġactuel":10356,"Ġactuelles":10357,"Ġactuels":10358,"Ġactuellement":10359,"ĠmÃ©decin":10360,"ĠnÃ©erlandaise":10361,"pendance":10362,"Ġcivils":10363,"Ġlesquelles":10364,"Ġbranches":10365,"ĠCompagnie":10366,"ĠÃ©lÃ©mentaire":10367,"ĠÃ©lÃ©mentaires":10368,"Ġchutes":10369,"Ġmodification":10370,"ĠmodifiÃ©e":10371,"Ġoccidental":10372,"ĠlittÃ©raire":10373,"ĠTechnologie":10374,"Ġvastes":10375,"Ġuniversel":10376,"Ġuniversitaires":10377,"ĠLibrairie":10378,"ĠAcc":10379,"Ġremplace":10380,"ĠKek":10381,"ĠmÃ©tal":10382,"ĠadoptÃ©es":10383,"ĠnÃ©cessaires":10384,"Ġprofessionnel":10385,"discussions":10386,"suffixe":10387,"alytique":10388,"Ġbesoins":10389,"Ġcontempor":10390,"Ġstocker":10391,"Ġhistorien":10392,"Ġcopine":10393,"Ġcopain":10394,"Ġopposition":10395,"ĠopposÃ©":10396,"ĠopposÃ©e":10397,"ĠmÃ©thodologie":10398,"Ġ1878":10399,"Ġ1879":10400,"ĠopÃ©rationnel":10401,"ĠÅĴu":10402,"Ġfleuve":10403,"Ġflexion":10404,"ĠPatrimoine":10405,"Ġexclusif":10406,"Ġreconstitu":10407,"ĠexpÃ©riences":10408,"Ġcroyance":10409,"ĠfrÃ©quente":10410,"ESA":10411,"Isis":10412,"haustive":10413,"infos":10414,"Ġflottant":10415,"Ġvector":10416,"Ġvinyles":10417,"ĠdestinÃ©s":10418,"ĠCycles":10419,"ĠÃ©nergie":10420,"ĠÃ©norme":10421,"Ġpotager":10422,"ĠBuster":10423,"Ġdiriger":10424,"Ġfrancais":10425,"Ġfortification":10426,"Ġirakienne":10427,"Ġrencontre":10428,"Ġrencontrent":10429,"Ġphytosan":10430,"Ġoriginaux":10431,"Ġpoly":10432,"ĠsoutÃ¨nement":10433,"ĠLabs":10434,"ĠLaboratoires":10435,"ĠbÃ¢timents":10436,"ĠClassification":10437,"Ġgamme":10438,"Ġplutot":10439,"ĠTuring":10440,"ĠÃ©viter":10441,"ĠrÃ©parti":10442,"ĠrÃ©partit":10443,"ĠprÃ©cÃ©dÃ©":10444,"ĠprÃ©cÃ©dent":10445,"ĠappliquÃ©es":10446,"Ġidentiques":10447,"Ġconsommation":10448,"Ġconsommateurs":10449,"Ġsuivront":10450,"ĠabrÃ©gÃ©e":10451,"ĠproposÃ©es":10452,"ĠphÃ©nomÃ¨nes":10453,"kswag":10454,"Ġmoustiques":10455,"Ġvestiment":10456,"Ġnavire":10457,"Ġnavires":10458,"Ġnavigateur":10459,"ĠLight":10460,"ĠLondon":10461,"ĠCanton":10462,"Ġrisque":10463,"Ġrouler":10464,"ĠplacÃ©":10465,"Ġrepeteur":10466,"Ġreparation":10467,"ĠScience":10468,"ĠBooks":10469,"Ġechecs":10470,"ĠhalogÃ¨nes":10471,"Ġdisparition":10472,"Ã©ranto":10473,"Ġanniversaire":10474,"ĠChÃ¢teaumeillant":10475,"Ġallergies":10476,"Ġreconnaissance":10477,"Ġclairement":10478,"Ġtransformateur":10479,"Ġbizarre":10480,"Ġeffectu":10481,"Ġeffectivement":10482,"ĠÃ©tudiants":10483,"Ġzoologiste":10484,"joueurs":10485,"Ġgriffe":10486,"Ġcitoyen":10487,"Ġsuspend":10488,"Ġfouilles":10489,"ĠClimat":10490,"ĠSpÃ©ci":10491,"ĠdÃ©rivÃ©es":10492,"ĠGÃ©ographie":10493,"ĠVolkswag":10494,"Ġ1843":10495,"1868":10496,"enregistrer":10497,"...).":10498,"importance":10499,"ĠGeorge":10500,"Ġinfluen":10501,"COD":10502,"cussionn":10503,"á¸¥":10504,"á¸«":10505,"ĠnÃ©gatif":10506,"ĠPlanÃ¨te":10507,"ĠTitulature":10508,"Ġouverte":10509,"Ġouverture":10510,"ĠrÃ©sidence":10511,"ĠChristian":10512,"Ġmeurt":10513,"Ġmeurtri":10514,"Ġrespire":10515,"Ġcollaboration":10516,"1876":10517,"Ġtravailler":10518,"ilbertien":10519,"ĠspÃ©cifiquement":10520,"Ġanthropologue":10521,"telligence":10522,"ĠretrouvÃ©":10523,"ĠÃ©trangers":10524,"ĠÃ©trangÃ¨re":10525,"Ã¼r":10526,"Ġitalien":10527,"Ġcloche":10528,"Ġtroff":10529,"ĠPanel":10530,"Ġchamailleries":10531,"ĠBoys":10532,"ĠBoyz":10533,"ĠMelody":10534,"ĠViol":10535,"Ġharmon":10536,"Ġcommandement":10537,"1928":10538,"Ġminoritaire":10539,"ĠdÃ©clinaisons":10540,"Ġassurer":10541,"ĠcoiffÃ©":10542,"Ġcoiffeur":10543,"board":10544,"iformia":10545,"zantin":10546,"ĠdotÃ©":10547,"Ġsoient":10548,"Ġquinze":10549,"ĠLambert":10550,"Ġgenres":10551,"ĠTake":10552,"ĠBonapar":10553,"ĠprocÃ©dÃ©":10554,"ĠFormule":10555,"ocratie":10556,"Ġmarchand":10557,"Ġvertical":10558,"ĠdÃ©couvreur":10559,"Ġfiliale":10560,"Ġfiliales":10561,"Ġpersonnification":10562,"ĠNebetÃ¢h":10563,"Ġlocutions":10564,"ĠXXe":10565,"ĠpossibilitÃ©s":10566,"ĠâĦĵ":10567,"Ġchercheurs":10568,"Ġlaboratoire":10569,"Ġlaboratoires":10570,"ĠtÃ©lÃ©phones":10571,"ĠtÃ©lÃ©phonie":10572,"Ġrattachent":10573,"Ġdisponibles":10574,"Ġcivilisation":10575,"Ġcivilisations":10576,"ĠassimilÃ©":10577,"horreur":10578,"habitation":10579,"Ġlouche":10580,"Ġsingulier":10581,"Ġquotidien":10582,"Ġenceinte":10583,"ĠÃ©clat":10584,"ĠSatamon":10585,"ĠsurnommÃ©":10586,"ĠrÃ©flexion":10587,"Ġprovenant":10588,"ĠFonction":10589,"ĠprÃ©hilbertien":10590,"Ġimmense":10591,"ĠUtilisation":10592,"accompagnement":10593,"Ġsouterraines":10594,"1897":10595,"ĠAugust":10596,"Ã©gyptien":10597,"Ġexemplaire":10598,"ĠÃ©lectroniques":10599,"Ġcirculation":10600,"ĠApollinaire":10601,"Ġshannon":10602,"Ġartisanale":10603,"ĠdÃ©cimale":10604,"ĠGallimard":10605,"ĠrÃ©compensÃ©":10606,"ĠdifficultÃ©":10607,"Ġphytopharmaceutiques":10608,"IREN":10609,"cendance":10610,"Ġlieutenant":10611,"Ġpauvre":10612,"ĠpavÃ©":10613,"Ġtsar":10614,"Ġvacances":10615,"ĠLuxembourg":10616,"ĠCameroun":10617,"Ġguerrier":10618,"ĠPiece":10619,"Ġjuridique":10620,"ĠÃ©quipÃ©":10621,"Ġchapelle":10622,"Ġintroduit":10623,"ĠVictori":10624,"ĠJackson":10625,"Ġhabitu":10626,"Ġhilbertienne":10627,"Ġdiplom":10628,"Ġvictime":10629,"ĠChronologie":10630,"dÃ©couvreur":10631,"ĠadorÃ©e":10632,"ĠdÃ©cisions":10633,"ĠimpÃ©ratrice":10634,"ĠReprÃ©sentation":10635,"Ġcheveux":10636,"Ġaspects":10637,"atherine":10638,"Ġprofondeur":10639,"ĠOrganisme":10640,"ĠcatÃ©gories":10641,"ĠÃ©quivaut":10642,"ĠÃ©tablissements":10643,"ĠÅĮga":10644,"Ġsoutenue":10645,"Ġpoursuivre":10646,"Ġdiversification":10647,"Ġsemblables":10648,"Ġprimordial":10649,"URSS":10650,"hithÃ©Ã¢tre":10651,"Ġoiseaux":10652,"Ġpalette":10653,"ĠcritÃ¨res":10654,"Ġciblees":10655,"Ġachetes":10656,"Ġtorsion":10657,"Ġtatouage":10658,"Ġfiction":10659,"ĠfrontiÃ¨re":10660,"estomac":10661,"ĠPatinage":10662,"ĠTaÃ¯wan":10663,"ĠSituation":10664,"ĠchorÃ©g":10665,"Ġinventeur":10666,"Ġindispens":10667,"ĠJÃ©rusalem":10668,"Ġhardcore":10669,"ĠFahd":10670,"ĠFootball":10671,"ĠFilmographie":10672,"ĠcoccinellidÃ©s":10673,"Ġtrucs":10674,"ĠprÃ©dÃ©cesseur":10675,"Ġsugg":10676,"ĠKamakura":10677,"tskiste":10678,"Ġsympa":10679,"ĠInstitute":10680,"Ã´sis":10681,"Ġconsolide":10682,"ĠconsÃ©quence":10683,"Ã©crivain":10684,"ĠdÃ©coupage":10685,"ĠrÃ©guliÃ¨re":10686,"Ġcellulaire":10687,"Ġmanifest":10688,"ĠXVIIIe":10689,"ollywood":10690,"Ġâī¡":10691,"ĠdÃ©sinence":10692,"ĠAdjarian":10693,"ĠaccompagnÃ©e":10694,"ĠampÃ¨remÃ©trique":10695,"ĠClifford":10696,"Ġconjointement":10697,"ĠmÃ¢chicoulis":10698,"ĠLittÃ©rature":10699,"ĠlÃ©gislatives":10700,"Camptob":10701,"IEEE":10702,"INRIA":10703,"UNESCO":10704,"greniers":10705,"jutsu":10706,"Ġlotus":10707,"Ġpyramides":10708,"Ġcessez":10709,"ĠcratÃ¨re":10710,"Ġsneakers":10711,"ĠaÃ©ronautique":10712,"Ġdeparts":10713,"indÃ©pendance":10714,"Ġmouvements":10715,"Ġmauvais":10716,"orientation":10717,"Ġlambertiste":10718,"Ġtactile":10719,"ĠClocher":10720,"ĠCoccinellidae":10721,"ĠPenny":10722,"ĠTitsingh":10723,"ĠTiyi":10724,"Ġautrichien":10725,"ĠDabkeh":10726,"ĠDeshima":10727,"Ġsimilaires":10728,"ĠBlaise":10729,"Ġevoluent":10730,"ĠMohammed":10731,"ĠMaÃ¢t":10732,"Ġseveres":10733,"Ġinsertion":10734,"Ġinratable":10735,"Ġintellectu":10736,"Ġdiagnostique":10737,"ammifÃ¨res":10738,"ĠForez":10739,"Ġdispositif":10740,"ĠKlincksie":10741,"ĠÃīcriture":10742,"Ġpreferes":10743,"ĠAnoukis":10744,"Ġinterlocu":10745,"ĠIntentions":10746,"Ġreptilarium":10747,"Ġreconditionne":10748,"ennuyer":10749,"Ġencorbellement":10750,"anemark":10751,"Ġsaucerottei":10752,"Ġtrifasci":10753,"ĠAbdallah":10754,"ĠManifold":10755,"ĠConstantinople":10756,"ĠBembidion":10757,"ĠáĬķáĮīáĪ":10758,"Ġvectoriel":10759,"Ġvestimentaire":10760,"ĠVolkswagen":10761,"ĠBonaparte":10762,"ĠVictoria":10763,"Camptobrochis":10764,"ĠKlincksieck":10765,"'t":10766,")).":10767,"/-":10768,"28":10769,"32":10770,"38":10771,"353":10772,"47":10773,"59":10774,"526":10775,"72":10776,"81":10777,"98":10778,"AR":10779,"Ag":10780,"Ap":10781,"Aqu":10782,"ASI":10783,"Amant":10784,"Agri":10785,"Akhenaton":10786,"ATA":10787,"Be":10788,"Blan":10789,"Bretagne":10790,"CL":10791,"CR":10792,"Car":10793,"Cal":10794,"Cat":10795,"Cic":10796,"CÃ´te":10797,"Cyr":10798,"Don":10799,"DRE":10800,"EP":10801,"Er":10802,"Es":10803,"GI":10804,"Gu":10805,"Gar":10806,"He":10807,"Hen":10808,"Haut":10809,"Hathor":10810,"HÃ©tÃ©roptÃ¨res":10811,"Il":10812,"Iw":10813,"Irish":10814,"Jacques":10815,"LT":10816,"La":10817,"Le":10818,"Loire":10819,"Lerma":10820,"MA":10821,"Min":10822,"Marie":10823,"OC":10824,"Os":10825,"PI":10826,"Ph":10827,"POI":10828,"SD":10829,"SE":10830,"SCII":10831,"Script":10832,"TS":10833,"Touch":10834,"UC":10835,"UE":10836,"VallÃ©e":10837,"We":10838,"YT":10839,"YSE":10840,"ZÃ©":10841,"Zeus":10842,"aun":10843,"aas":10844,"aac":10845,"ater":10846,"adi":10847,"ader":10848,"auss":10849,"achi":10850,"awa":10851,"avenir":10852,"bur":10853,"bad":10854,"bÃ©ra":10855,"box":10856,"cou":10857,"conne":10858,"cad":10859,"cane":10860,"cissement":10861,"cross":10862,"cott":10863,"copie":10864,"croix":10865,"dra":10866,"dences":10867,"diss":10868,"dats":10869,"dits":10870,"dÃ¨rent":10871,"ek":10872,"ep":10873,"empire":10874,"fel":10875,"fert":10876,"froi":10877,"fire":10878,"fiel":10879,"factif":10880,"food":10881,"fÉĶ":10882,"gy":10883,"gate":10884,"gaz":10885,"gÃ©m":10886,"gorie":10887,"hal":10888,"ham":10889,"hard":10890,"histor":10891,"hotep":10892,"ive":10893,"iÃ©s":10894,"ider":10895,"ilement":10896,"jen":10897,"jon":10898,"jis":10899,"jor":10900,"kle":10901,"kal":10902,"kins":10903,"kraine":10904,"kulu":10905,"lai":10906,"lum":10907,"lÃ©s":10908,"lations":10909,"lass":10910,"my":10911,"mit":10912,"mas":10913,"mait":10914,"main":10915,"mout":10916,"ming":10917,"mak":10918,"mÃªmes":10919,"mÃ´sis":10920,"nique":10921,"nissant":10922,"oa":10923,"otique":10924,"oka":10925,"oÃ©sie":10926,"oÃ«":10927,"poi":10928,"poul":10929,"pice":10930,"pÃ¨des":10931,"qq":10932,"rar":10933,"rus":10934,"rine":10935,"rast":10936,"rington":10937,"sch":10938,"sans":10939,"sol":10940,"ster":10941,"sine":10942,"stÃ©":10943,"siste":10944,"sauf":10945,"souvent":10946,"tot":10947,"tos":10948,"trois":10949,"uk":10950,"uo":10951,"uÃ©":10952,"ump":10953,"udi":10954,"uff":10955,"uvi":10956,"utique":10957,"uler":10958,"uÃ©tude":10959,"vus":10960,"vil":10961,"vain":10962,"vang":10963,"vong":10964,"vrier":10965,"xis":10966,"xville":10967,"yÃ©":10968,"yrÃ©":10969,"yst":10970,"yenne":10971,"ycle":10972,"zation":10973,"zay":10974,"zerain":10975,"zgin":10976,"·ŀ":10977,"Äį":10978,"ÄĿ":10979,"Åĭ":10980,"Åĳ":10981,"Éª":10982,"Ê¾":10983,"Î±":10984,"Î½":10985,"Ïģ":10986,"×ĳ":10987,"×Ķ":10988,"à§":10989,"å·ŀ":10990,"Ġ#":10991,"Ġ>":10992,"ĠÎ":10993,"Ġot":10994,"Ġuti":10995,"Ġä¸Ģ":10996,"ĠÉĻs":10997,"ĥáĪ":10998,"ķáī":10999,"Ġden":11000,"ĠdÃ»":11001,"Ġdunes":11002,"Ġlis":11003,"Ġlus":11004,"Ġline":11005,"Ġlux":11006,"env":11007,"entin":11008,"ensible":11009,"onais":11010,"onÃ§":11011,"onji":11012,"Ã©en":11013,"Ã©le":11014,"Ã©di":11015,"Ã©der":11016,"Ã©ros":11017,"Ã©rer":11018,"Ã©rÃ©es":11019,"Ã©laboration":11020,"Ã©ochim":11021,"Ġpen":11022,"Ġpin":11023,"ĠpÃ¨":11024,"Ġpure":11025,"ĠpÃ¢":11026,"Ġpare":11027,"Ġpall":11028,"Ġpuri":11029,"Ġpseudonyme":11030,"Ġcra":11031,"Ġcot":11032,"Ġcub":11033,"Ġcouver":11034,"Ġsan":11035,"Ġsti":11036,"Ġsomm":11037,"Ġsatur":11038,"Ġsensi":11039,"ĠsÃ¥":11040,"Ġsphin":11041,"Ġsensible":11042,"ani":11043,"anum":11044,"antique":11045,"annÃ©es":11046,"oui":11047,"oux":11048,"ouz":11049,"ouli":11050,"oumois":11051,"quait":11052,"quad":11053,"quateur":11054,"ref":11055,"rel":11056,"isant":11057,"tee":11058,"tem":11059,"tepet":11060,"Ġaz":11061,"Ġache":11062,"ĠamÃ©":11063,"ĠaÃ©rop":11064,"Ġajus":11065,"Ġafric":11066,"ĠaoÃ»t":11067,"tines":11068,"tiÃ¨me":11069,"tinÃ©es":11070,"ticien":11071,"lections":11072,"ledge":11073,"inÃ©":11074,"iniÃ¨re":11075,"infini":11076,"indre":11077,"inrich":11078,"intelligence":11079,"erra":11080,"erse":11081,"Ġmul":11082,"Ġmons":11083,"Ġmors":11084,"Ġmic":11085,"ĠmÃ¨res":11086,"Ġmoul":11087,"ĠmÃ¥":11088,"ĠmaÃ®tr":11089,"Ġmyri":11090,"ĠmammifÃ¨res":11091,"entaine":11092,"entÃ´t":11093,"etÃ©":11094,"aro":11095,"arin":11096,"ariste":11097,"arous":11098,"arah":11099,"arrondissement":11100,"aracte":11101,"oient":11102,"Ġlever":11103,"oritÃ©":11104,"orien":11105,"orail":11106,"orhod":11107,"omon":11108,"omat":11109,"omologiste":11110,"omtous":11111,"omachi":11112,"Ġtent":11113,"Ġtur":11114,"Ġtau":11115,"ĠtÃ´t":11116,"urable":11117,"Ġfas":11118,"Ġfal":11119,"Ġfant":11120,"Ġflor":11121,"ĠfÃªtes":11122,"itz":11123,"itis":11124,"itra":11125,"itale":11126,"itanie":11127,"ittee":11128,"Ġvou":11129,"Ġvins":11130,"Ġventra":11131,"Ġvoud":11132,"Ġvulg":11133,"ush":11134,"uscule":11135,"Ġuniform":11136,"ource":11137,"ilit":11138,"Ġenvi":11139,"Ġensembles":11140,"Ġdesign":11141,"ĠdestinÃ©es":11142,"Ġnor":11143,"Ġnain":11144,"Ġnig":11145,"Ġnuc":11146,"rable":11147,"ratique":11148,"rakawa":11149,"meyer":11150,"elais":11151,"ĠLu":11152,"ĠLor":11153,"ĠLau":11154,"ĠLac":11155,"ĠLouv":11156,"ĠLÃł":11157,"ĠLud":11158,"ĠLarous":11159,"alan":11160,"alli":11161,"alors":11162,"alth":11163,"Ġben":11164,"Ġbles":11165,"Ġbab":11166,"Ġbir":11167,"Ġbap":11168,"Ġbelles":11169,"Ġbrou":11170,"Ġbateau":11171,"ĠbrÃ©sil":11172,"ĠbÃ©lier":11173,"ieber":11174,"aumes":11175,"auteurs":11176,"augu":11177,"ĠCP":11178,"ĠCr":11179,"ĠCum":11180,"ĠCond":11181,"ĠConne":11182,"ĠCÃ´":11183,"ĠCole":11184,"ĠCote":11185,"ĠCrÃ©s":11186,"ĠCÃ´te":11187,"ĠCatherine":11188,"menty":11189,"Ġ?).":11190,"Ġrur":11191,"ĠrÃª":11192,"Ġrid":11193,"Ġrast":11194,"Ġrural":11195,"ĠAB":11196,"ĠAT":11197,"ĠAra":11198,"ĠAmp":11199,"ĠApe":11200,"ĠAvent":11201,"ĠAbe":11202,"ĠAvis":11203,"ĠAix":11204,"ĠAmÃ©n":11205,"ĠAnec":11206,"ĠAkihabara":11207,"ĠAMP":11208,"ĠASCII":11209,"Ġdue":11210,"Ġduo":11211,"cht":11212,"chu":11213,"lia":11214,"liance":11215,"lign":11216,"liade":11217,"lizz":11218,"sept":11219,"Ã¨ques":11220,"eumann":11221,"mpli":11222,"roc":11223,"rocar":11224,"Ġgre":11225,"Ġgens":11226,"ĠgÃ¨re":11227,"ansle":11228,"Ġplage":11229,"Ġplum":11230,"Ġplastiques":11231,"rik":11232,"rim":11233,"rien":11234,"rimÃ©":11235,"rips":11236,"ridge":11237,"ney":11238,"ĠPJ":11239,"ĠPoi":11240,"ĠPau":11241,"ĠPens":11242,"ĠPsion":11243,"ĠPress":11244,"ĠPalais":11245,"ĠPriv":11246,"ĠPresses":11247,"ĠPouvoir":11248,"ĠPoitou":11249,"ĠPoÃ©sie":11250,"Ġparu":11251,"Ġparlement":11252,"Ġparcs":11253,"Ġparcour":11254,"ĠparlÃ©e":11255,"ĠEm":11256,"ĠEure":11257,"ĠEgyp":11258,"ĠEug":11259,"Ġjet":11260,"resp":11261,"olk":11262,"olit":11263,"olas":11264,"Ġpourraient":11265,"ĠTH":11266,"ĠTJ":11267,"ĠTau":11268,"ĠTri":11269,"ĠTat":11270,"ĠTous":11271,"ĠTim":11272,"ĠTable":11273,"ĠTÃ¡":11274,"ĠTime":11275,"Ġconven":11276,"Ġconvention":11277,"Ġcontenir":11278,"Ġcondam":11279,"atz":11280,"atre":11281,"atri":11282,"attraction":11283,"agon":11284,"agÃ©e":11285,"agir":11286,"agore":11287,"agoniste":11288,"agrand":11289,"Ġaugus":11290,"Ġauparavant":11291,"aign":11292,"Ġestonien":11293,"ĠDL":11294,"ĠDh":11295,"ĠDie":11296,"ĠDieux":11297,"ĠDoun":11298,"ĠDira":11299,"ĠDroit":11300,"ĠDIREN":11301,"ĠDanemark":11302,"ĠÃ©l":11303,"ĠÃ©ph":11304,"ĠÃ©po":11305,"ĠÃ©volution":11306,"ĠÃ©mettre":11307,"ĠÃ©vÃ©nement":11308,"ĠredÃ©":11309,"Ġrelevant":11310,"ĠSÃ©":11311,"ĠSin":11312,"ĠSor":11313,"ĠSeu":11314,"ĠSai":11315,"ĠSot":11316,"ĠSul":11317,"ĠSpar":11318,"ĠSop":11319,"ĠScip":11320,"ĠSid":11321,"ĠSÃ©g":11322,"ĠSyl":11323,"ĠSÃ©p":11324,"ĠSatis":11325,"ĠSorb":11326,"ĠSovi":11327,"ĠSobe":11328,"ĠSmells":11329,"ĠSÃ©nÃ©gal":11330,"deo":11331,"devenu":11332,"Ġ120":11333,"Ġ117":11334,"Ġ112":11335,"Ġchance":11336,"ĠchaÃ®":11337,"Ġchlor":11338,"Ġsire":11339,"Ġsimples":11340,"Ġsimpli":11341,"acer":11342,"acitÃ©s":11343,"active":11344,"actÃ©ries":11345,"acquis":11346,"Ġpoche":11347,"Ġposent":11348,"Ġpoterne":11349,"ĠBM":11350,"ĠBy":11351,"ĠBÃ©":11352,"ĠBron":11353,"ĠBÃ¢":11354,"ĠBlan":11355,"ĠBah":11356,"ĠBall":11357,"ĠBerg":11358,"ĠBros":11359,"ĠBast":11360,"ĠBrad":11361,"ĠBCE":11362,"ĠBulg":11363,"ĠBretagne":11364,"ĠBrÃ©sil":11365,"ĠBrÃ©al":11366,"ĠBlizz":11367,"terrestre":11368,"rÃ©atique":11369,"ĠdÃ©duit":11370,"ĠdÃ©pl":11371,"ĠdÃ©nomin":11372,"Ġempire":11373,"ĠGU":11374,"ĠGX":11375,"ĠGi":11376,"ĠGum":11377,"ĠGrou":11378,"ĠGÃ©nÃ©":11379,"ĠGule":11380,"ĠGusta":11381,"ĠGalerie":11382,"ĠMag":11383,"ĠMain":11384,"ĠMir":11385,"ĠMats":11386,"ĠMong":11387,"ĠMid":11388,"ĠMalais":11389,"ĠMaison":11390,"ĠMÃ©rite":11391,"Ġseize":11392,"rance":11393,"ranch":11394,"range":11395,"Ġdanses":11396,"ĠIV":11397,"ĠIne":11398,"ĠIous":11399,"ĠIdenti":11400,"ĠIII":11401,"ĠIRA":11402,"ĠintÃ©":11403,"Ġinduit":11404,"ĠintÃ©rieur":11405,"Ġinsectes":11406,"ĠingÃ©nieur":11407,"aitÅį":11408,"otÃ©lÃ©":11409,"otto":11410,"otymp":11411,"dile":11412,"endie":11413,"ffer":11414,"ĠVend":11415,"ĠVous":11416,"ĠViv":11417,"ĠVari":11418,"ĠVoix":11419,"ĠVII":11420,"ĠVars":11421,"geh":11422,"geait":11423,"ĠJan":11424,"ĠJay":11425,"ĠJourn":11426,"ĠJerse":11427,"ĠOc":11428,"ĠOp":11429,"ĠOun":11430,"ĠOct":11431,"ĠOuse":11432,"ĠOccident":11433,"tÃ©rix":11434,"Ġhon":11435,"Ġhal":11436,"Ġhim":11437,"ĠhÃ©r":11438,"ĠhÃ¢":11439,"Ġhier":11440,"Ġhourd":11441,"ĠhÃ©tÃ©roptÃ¨res":11442,"Ġquem":11443,"ppopot":11444,"Ġsurve":11445,"Ġsurvenu":11446,"âĢĶ":11447,"Ġdialog":11448,"chec":11449,"chev":11450,"cheur":11451,"oga":11452,"ogh":11453,"ogle":11454,"ogÃ©e":11455,"ogut":11456,"ogly":11457,"ogÃ©ochim":11458,"ĠNR":11459,"ĠNy":11460,"ĠNor":11461,"ĠNam":11462,"ĠNome":11463,"ĠNorin":11464,"ĠNatum":11465,"ĠNarita":11466,"ĠNelson":11467,"ĠNeumann":11468,"ĠRoi":11469,"ĠRÃ¨":11470,"ĠRic":11471,"ĠRout":11472,"ĠRÃ¢":11473,"ĠRies":11474,"ĠRock":11475,"ĠRSS":11476,"ĠRug":11477,"amu":11478,"amar":11479,"amique":11480,"amÃ©ric":11481,"amÃ©n":11482,"amkulu":11483,"amming":11484,"ulis":11485,"ĠrÃ©di":11486,"ĠrÃ©cip":11487,"ĠrÃ©alitÃ©":11488,"ĠrÃ©vÃ©":11489,"ĠrÃ©alisation":11490,"ĠrÃ©uss":11491,"ĠrÃ©cit":11492,"ĠrÃ©fu":11493,"ĠrÃ©actif":11494,"ĠrÃ©actions":11495,"ĠrÃ©tention":11496,"ĠrÃ©alise":11497,"Ġproclam":11498,"Ġproduis":11499,"Ġviv":11500,"ĠWest":11501,"ĠWil":11502,"ĠWal":11503,"ĠWord":11504,"ĠWak":11505,"ĠWagner":11506,"ĠWamkulu":11507,"Ġ24":11508,"ĠHol":11509,"ĠHons":11510,"ĠHors":11511,"ĠHyp":11512,"ĠHistor":11513,"ĠHann":11514,"ĠHach":11515,"ĠHaye":11516,"ĠHratchia":11517,"abou":11518,"abli":11519,"ĠFF":11520,"ĠFun":11521,"ĠFel":11522,"ĠFal":11523,"ĠFut":11524,"ĠFÃ©li":11525,"ĠForce":11526,"ĠFira":11527,"Ġdiss":11528,"Ġdistri":11529,"Ġdisquette":11530,"ouvÃ©":11531,"Ġ1923":11532,"Ġ1913":11533,"Ġ1915":11534,"Ġ1911":11535,"ĠLemons":11536,"ĠLezgin":11537,"Ġcovi":11538,"ĠcohÃ©r":11539,"Ġcochen":11540,"ĠcodÃ©couvreur":11541,"aged":11542,"atie":11543,"occasion":11544,"ocycle":11545,"teste":11546,"cessible":11547,"Ġsable":11548,"ĠsaÃ¯":11549,"phique":11550,"philes":11551,"phones":11552,"phonie":11553,"phica":11554,"Ġtube":11555,"Ġtutor":11556,"Ã©ritÃ©":11557,"Ã©rieurs":11558,"viennent":11559,"Ġcompli":11560,"ĠcompÃ©tition":11561,"orta":11562,"ortent":11563,"osa":11564,"osh":11565,"osco":11566,"ĠTutelle":11567,"umique":11568,"umba":11569,"nÃ©s":11570,"icago":11571,"outh":11572,"ĠmonÃ©taire":11573,"Ġmongol":11574,"Ġmonorail":11575,"nien":11576,"niÃ¨res":11577,"stab":11578,"structure":11579,"Ġceinture":11580,"istÃ¨re":11581,"ness":11582,"Ġtrentaine":11583,"Ġmoine":11584,"Ġmodu":11585,"Ġmolet":11586,"Ġmoindre":11587,"ĠIllus":11588,"irt":11589,"irits":11590,"Ġ2022":11591,"lisÃ©e":11592,"Ġsondes":11593,"Ġsonores":11594,"ivitÃ©":11595,"iges":11596,"igan":11597,"iger":11598,"ignes":11599,"igion":11600,"ight":11601,"Ġanti":11602,"Ġange":11603,"Ġanneau":11604,"Ġprises":11605,"Ã§ons":11606,"uton":11607,"utane":11608,"ondation":11609,"Ġexcell":11610,"ĠextÃ©rieures":11611,"Ġexhaustive":11612,"ĠLaos":11613,"ĠChe":11614,"ĠChou":11615,"ĠChev":11616,"ĠChiy":11617,"ĠChicago":11618,"ĠAlph":11619,"ĠAlbert":11620,"ĠarmÃ©e":11621,"Ġartiste":11622,"ĠprÃ©fe":11623,"ĠprÃ©pond":11624,"ĠprÃ©pare":11625,"ĠprÃ©cur":11626,"ĠprÃ©venir":11627,"ĠprÃ©vue":11628,"Ġcarib":11629,"ĠcarrÃ©s":11630,"ĠcarrÃ©e":11631,"ĠcartÃ©si":11632,"uity":11633,"ctural":11634,"mia":11635,"mies":11636,"mitique":11637,"ĠavancÃ©":11638,"Ãªque":11639,"Ãªche":11640,"ĠEnviron":11641,"Ġconcours":11642,"Ġconcurrent":11643,"Ġsupr":11644,"Ġsujets":11645,"Ġsuzerain":11646,"Ġrace":11647,"Ġracine":11648,"ancement":11649,"breu":11650,"ĠĠĠĠĠĠ":11651,"Ġappelle":11652,"Ġappareil":11653,"ĠapportÃ©es":11654,"ĠKai":11655,"ĠKale":11656,"ĠKap":11657,"ĠKhe":11658,"ĠKÃ´":11659,"ĠKare":11660,"ĠKlit":11661,"ĠKick":11662,"ĠKatz":11663,"Ġfranch":11664,"oya":11665,"oye":11666,"oyer":11667,"institu":11668,"tint":11669,"tinger":11670,"Ã©riel":11671,"ĠÃītienne":11672,"ĠÃīcri":11673,"ĠÃīvolution":11674,"ĠÃīlÃ©phantine":11675,"ĠFranz":11676,"entreprise":11677,"entreprises":11678,"Ġimage":11679,"Ġimmob":11680,"Ġ...":11681,"ĠÃ©th":11682,"opak":11683,"opÃ©ra":11684,"opsine":11685,"entitÃ©s":11686,"entifique":11687,"Ġquelcon":11688,"ĠÃ©gales":11689,"1950":11690,"1958":11691,"1922":11692,"1914":11693,"fÃ©rant":11694,"ĠUch":11695,"ĠalÃ©":11696,"Ġalpha":11697,"Ġalphabet":11698,"ĠalliÃ©s":11699,"onnement":11700,"ĠforcÃ©":11701,"ĠArent":11702,"ĠArth":11703,"ĠArticle":11704,"Ġcourbes":11705,"Ġcourtines":11706,"ayer":11707,"ayoshi":11708,"Ġsophis":11709,"ĠsacrÃ©s":11710,"Ġpartielle":11711,"Ġpartitif":11712,"Ġacte":11713,"Ġacteurs":11714,"Ġaccess":11715,"Ġactives":11716,"Ġaccessi":11717,"âĶĢâĶĲ":11718,"Ġauxiliaire":11719,"ibet":11720,"Ġ36":11721,"Ġ37":11722,"Ġ325":11723,"odge":11724,"ubli":11725,"ubliques":11726,"ronome":11727,"ronomie":11728,"ĠAnti":11729,"ĠAncien":11730,"ĠAnarch":11731,"ĠitinÃ©":11732,"tements":11733,"Ġinterfaces":11734,"ĠgÃ©min":11735,"ĠgÃ©rer":11736,"Ġperp":11737,"Ġperse":11738,"Ġpercussionn":11739,"Ġsoustra":11740,"Ġcercle":11741,"onnÃ©e":11742,"onning":11743,"obtention":11744,"obutane":11745,"Ġdirectif":11746,"hemati":11747,"hetepet":11748,"ĠInc":11749,"ĠInf":11750,"ĠInvent":11751,"ĠIngÃ©nieur":11752,"Ġmarques":11753,"Ã¢me":11754,"ĠDistin":11755,"Ġescla":11756,"Ġterror":11757,"Ġterrains":11758,"Ġserve":11759,"Ġseraient":11760,"iffrement":11761,"vants":11762,"Ġutilisaient":11763,"trale":11764,"traire":11765,"ĠPark":11766,"ĠParts":11767,"ĠParlement":11768,"ĠParry":11769,"ĠParva":11770,"ĠcollÃ¨":11771,"Ġcolline":11772,"ĠcollÃ¨ge":11773,"llement":11774,"ructures":11775,"Ġbouillon":11776,"accou":11777,"accent":11778,"âĶĢâĶĢâĶĢâĶ¬":11779,"mber":11780,"Ġrepris":11781,"Ġreprises":11782,"Ġreposent":11783,"Ġreprise":11784,"Ġconsole":11785,"azo":11786,"azon":11787,"aziz":11788,"hÃ©gÃ©m":11789,"isembla":11790,"raphies":11791,"Ġ1825":11792,"Ġoraculaire":11793,"ticulture":11794,"mÃ©tique":11795,"mÃ©dia":11796,"Ġsecteurs":11797,"Ġsecours":11798,"Ġsuivre":11799,"ombe":11800,"Ġprincesse":11801,"try":11802,"ake":11803,"akh":11804,"ĠgÃ©nÃ©tique":11805,"ĠgÃ©nÃ©riques":11806,"oncent":11807,"Ġnormand":11808,"alisÃ©es":11809,"Ġadminist":11810,"aeffer":11811,"Ġtitul":11812,"ahn":11813,"nison":11814,"Ġverte":11815,"ills":11816,"Ġamen":11817,"Ġamis":11818,"Ġrecueil":11819,"version":11820,"Ġcorrup":11821,"Ġcorrecte":11822,"ĠexposÃ©e":11823,"Ã©rale":11824,"allÃ¨le":11825,"Ã©clai":11826,"Ġmilit":11827,"ouverte":11828,"ongÃ©e":11829,"Ġcontinent":11830,"Ġregrou":11831,"Ġchaos":11832,"ĠgÃ©nÃ©rales":11833,"ĠgÃ©nÃ©raux":11834,"ĠgÃ©nÃ©rateur":11835,"icial":11836,"buts":11837,"ĠDeb":11838,"ĠDemi":11839,"ĠdÃ©coule":11840,"ÃīlÃ©phantine":11841,"Ãīducation":11842,"Ġavantage":11843,"Ġatout":11844,"Ġattra":11845,"Ġatomes":11846,"Ġabri":11847,"Ġablatif":11848,"Ġabaques":11849,"ĠAmÃ©riques":11850,"Ġtransactions":11851,"ficateur":11852,"ĠmusÃ©es":11853,"Ġmusicien":11854,"Ġmusiciens":11855,"Ġversant":11856,"ido":11857,"Ġimplique":11858,"Ġimplant":11859,"isseur":11860,"isseurs":11861,"Ġtourisme":11862,"1894":11863,"lication":11864,"Ã©tale":11865,"Ã©tranger":11866,"ĠQe":11867,"ĠcrÃ©Ã©s":11868,"ĠcrÃ©neaux":11869,"ĠmaÃ§onner":11870,"anisation":11871,"anismes":11872,"Ġcapable":11873,"lementation":11874,"ĠAutre":11875,"ĠAuparavant":11876,"aÃ¯a":11877,"ennie":11878,"ennitÃ©":11879,"ĠMez":11880,"ĠMedi":11881,"ĠMedal":11882,"ĠĠĠĠĠĠĠĠĠĠĠĠĠĠĠĠĠĠĠĠĠĠĠ":11883,"Ġ69":11884,"ĠcalquÃ©e":11885,"Ġcalculer":11886,"esseurs":11887,"aissances":11888,"Ġconstructeurs":11889,"2019":11890,"ministre":11891,"ered":11892,"entration":11893,"Ã©gorie":11894,"ĠassurÃ©":11895,"Ġasservi":11896,"Ġvision":11897,"Ġarriver":11898,"ĠarrivÃ©":11899,"ĠarrivÃ©e":11900,"Ġprime":11901,"existe":11902,"exception":11903,"exclam":11904,"Ġgazelle":11905,"Ġaccol":11906,"Ġaccueilli":11907,"fice":11908,"Ġencour":11909,"ĠUnitÃ©s":11910,"Ġmesurable":11911,"assif":11912,"matiques":11913,"Ġfichi":11914,"ĠnotÃ©":11915,"ĠnotÃ©e":11916,"Ġnotations":11917,"Ġnotori":11918,"assin":11919,"assÃ©s":11920,"Ġsignes":11921,"Ġ1974":11922,"keley":11923,"Ã©nie":11924,"Ã©nouf":11925,"ĠsuccÃ©":11926,"Ġsuccesseur":11927,"ĠsuccÃ¨de":11928,"avie":11929,"avÃ¨nement":11930,"Ġfonds":11931,"Ġgarnison":11932,"Ġproduites":11933,"Ġ400":11934,"ĠdÃ©finissant":11935,"Ġblanchi":11936,"ĠdiffÃ©rente":11937,"Ġportables":11938,"iness":11939,"classe":11940,"Ġbiais":11941,"ĠbiosphÃ¨re":11942,"ĠbientÃ´t":11943,"ĠbiogÃ©ochim":11944,"ĠAha":11945,"ĠAhmed":11946,"riguez":11947,"Ġpolice":11948,"Ġpolitic":11949,"ĠNehe":11950,"ythm":11951,"ĠconnaÃ®tre":11952,"Ġconnaissances":11953,"ophe":11954,"ophis":11955,"tisÃ©":11956,"tionnaires":11957,"ĠjouÃ©":11958,"Ġjouent":11959,"Ġjouant":11960,"ĠappelÃ©es":11961,"Ġappellation":11962,"Ġpatronyme":11963,"Ġpataph":11964,"Ġrenou":11965,"Ġrenfer":11966,"Ġrenfor":11967,"Ġ1984":11968,"Ġsociales":11969,"Ġsocialistes":11970,"lÃ¨ne":11971,"Ġmanqu":11972,"Ġmanoir":11973,"Ġalimentation":11974,"Ġvieille":11975,"ĠnÃ©anmoins":11976,"Ġsignale":11977,"Ġsignature":11978,"ĠMarie":11979,"ĠMarche":11980,"amphithÃ©Ã¢tre":11981,"apprentissage":11982,"Ġliqui":11983,"Ġresta":11984,"udo":11985,"ĠYu":11986,"ĠYas":11987,"ĠYang":11988,"ĠYÃ©m":11989,"ĠYaga":11990,"Ġdurable":11991,"ĠCarriÃ¨re":11992,"ĠCarniv":11993,"Ġcharte":11994,"Ġcharges":11995,"Ġprotecteur":11996,"Ġcommencement":11997,"Ġapparu":11998,"Ġapparus":11999,"Ġapparten":12000,"ĠreprÃ©sentation":12001,"ĠreprÃ©sentÃ©s":12002,"ĠreprÃ©sentÃ©es":12003,"ĠreprÃ©sentants":12004,"Ġpouvaient":12005,"Ġ1963":12006,"Ġ1964":12007,"Ġ1968":12008,"170":12009,"kaou":12010,"Ġmerc":12011,"agna":12012,"agnol":12013,"khbet":12014,"ĠÃ©lector":12015,"Ġ1794":12016,"Ġrefer":12017,"CIPM":12018,"Inde":12019,"Incarnation":12020,"Ġlocaux":12021,"Ġlocatif":12022,"Ġlocalisation":12023,"ĠProche":12024,"âĶĢâĶĢâĶĢâĶĢâĶĢâĶĢâĶĢâĶĢâĶĢâĶĢ":12025,"expÃ©ri":12026,"exposition":12027,"ĠÃ©cole":12028,"ĠÃ©cologique":12029,"Ġtotale":12030,"Ġtotalement":12031,"ĠfÃ©l":12032,"ĠfÃ©vrier":12033,"Unix":12034,"guÃ©es":12035,"tata":12036,"ĠdÃ©veloppent":12037,"Ange":12038,"Ġlogarith":12039,"Ġouverts":12040,"versation":12041,"Ġcroco":12042,"ĠthÃ©ories":12043,"alier":12044,"rosage":12045,"Ġsignific":12046,"Ġsignifications":12047,"haric":12048,"ĠlignÃ©es":12049,"Ġinstr":12050,"Ġwak":12051,"Ġwho":12052,"Ġwanted":12053,"Ġfausse":12054,"Ġbulg":12055,"ĠrÃ©gional":12056,"hirakawa":12057,"Ã©lÃ©ments":12058,"Ġvoyait":12059,"Ġvoyages":12060,"Ġrelativement":12061,"ĠrÃ©pu":12062,"ĠrÃ©ponse":12063,"ĠrÃ©publiques":12064,"Ġcollec":12065,"Ã³bal":12066,"Ġroyales":12067,"Ġefforts":12068,"Ġincont":12069,"Ġincomp":12070,"Ġincendie":12071,"Åįs":12072,"Ã©mat":12073,"Ã©mÃ¨re":12074,"Ġsyndic":12075,"ĠsynthÃ¨se":12076,"Ġsuivants":12077,"2005":12078,"2006":12079,"Ġoctet":12080,"Ġoctro":12081,"Ġnaturelles":12082,"ĠShow":12083,"ĠShogun":12084,"Ġsemence":12085,"Ġrappel":12086,"Ġrapproche":12087,"Ġparticule":12088,"Ġparticuliers":12089,"ĠXML":12090,"Ġcrue":12091,"archip":12092,"ilization":12093,"Ġsalons":12094,"Ġtribu":12095,"Ġchatte":12096,"ĠvidÃ©os":12097,"ĠprÃ©cisÃ©ment":12098,"Ã®tre":12099,"Ġisom":12100,"Ġisra":12101,"ĠMiG":12102,"Ġphysiques":12103,"Ġcircule":12104,"ĠmalÃ©":12105,"ĠConfÃ©rence":12106,"ĠConvention":12107,"Ġ1952":12108,"Ġsupervise":12109,"Ġ75":12110,"Ġampli":12111,"Ġaffec":12112,"Ġmaintient":12113,"Ġmaintenir":12114,"Ġveuve":12115,"Ġindig":12116,"Ġindices":12117,"Ġindiquer":12118,"Ġdialect":12119,"ĠconstituÃ©e":12120,"plÃ©e":12121,"Ġ%,":12122,"Ġsoroban":12123,"ĠStar":12124,"ĠStyle":12125,"Ġchimie":12126,"Ġoptiques":12127,"Ġsymbolique":12128,"interpr":12129,"intermÃ©di":12130,"Ġfacto":12131,"Ġfacilement":12132,"Ġhumaines":12133,"Ġgouvernementale":12134,"avien":12135,"avier":12136,"aviation":12137,"Ġmention":12138,"Ġvariation":12139,"ĠdÃ©fensif":12140,"ĠdÃ©fensi":12141,"ĠdÃ©fendre":12142,"Ġinscriptions":12143,"ĠAndj":12144,"indique":12145,"Ġvolumique":12146,"Ġconflit":12147,"ĠDivert":12148,"ĠsiÃ¨gent":12149,"Ġprobable":12150,"ĠprobabilitÃ©":12151,"Ġ1941":12152,"Ġ1949":12153,"160":12154,"laug":12155,"espÃ¨ces":12156,"Ġmissions":12157,"ĠComment":12158,"Ġ166":12159,"Ġposit":12160,"ĠIsraÃ«l":12161,"ĠIsaac":12162,"Ġtexture":12163,"Ġtextile":12164,"affichage":12165,"impact":12166,"ĠlÃ©gaux":12167,"ĠlÃ©gendaire":12168,"Ġmolaires":12169,"elonitis":12170,"ĠAbou":12171,"ĠAbdel":12172,"ĠAbydos":12173,"ĠPhyl":12174,"ĠPhysi":12175,"ĠdÃ©suÃ©tude":12176,"Ġannuel":12177,"ĠannulÃ©":12178,"Ġimportantes":12179,"Art":12180,"ArmÃ©e":12181,"Architecture":12182,"ArmÃ©nie":12183,"Ġcandi":12184,"Ġthrips":12185,"Ġbourses":12186,"Ġboursier":12187,"direction":12188,"ĠprÃ©sentÃ©":12189,"Ġmaje":12190,"Ġconstruis":12191,"Ġassociations":12192,"Ġfonctionnant":12193,"Ġfonctionnaires":12194,"Ġportefeu":12195,"ceptre":12196,"ĠSaou":12197,"Ġchacal":12198,"Ġpostposition":12199,"ĠecclÃ©":12200,"ĠfaÃ§ons":12201,"ĠantÃ©rieur":12202,"ĠantÃ©rieure":12203,"Ġurbains":12204,"ĠDÃ©veloppe":12205,"ĠDÃ©buts":12206,"Ġposses":12207,"Ġpossession":12208,"Ġphotograph":12209,"Ġphotographie":12210,"ĠorganisÃ©":12211,"Ġorganisme":12212,"Ġorganisation":12213,"ĠdÃ©signant":12214,"ĠdÃ©signation":12215,"oliques":12216,"Ġlimite":12217,"ĠlimitÃ©e":12218,"Ġportugais":12219,"ĠpÃ©riodes":12220,"Ġcontraction":12221,"Ġautrefois":12222,"Ġchercher":12223,"Ġcherchent":12224,"ĠHeinrich":12225,"ĠHars":12226,"Ġsuppose":12227,"Ġsuppression":12228,"Åĵuf":12229,"ĠdÃ©veloppeurs":12230,"ĠremplacÃ©e":12231,"ĠremplacÃ©es":12232,"pring":12233,"Ġgloire":12234,"Ġglobal":12235,"ĠDesert":12236,"ĠdÃ©placement":12237,"Ġ1931":12238,"Ġ1933":12239,"Ġ1938":12240,"ĠÃ©lection":12241,"1985":12242,"Ġclip":12243,"Ġclimat":12244,"ĠConsumer":12245,"ĠBio":12246,"ĠMax":12247,"cker":12248,"ĠpubliÃ©e":12249,"Ġcycl":12250,"install":12251,"installe":12252,"Ġmultijoueurs":12253,"ĠmultimÃ©dia":12254,"ĠPerses":12255,"ĠOrchest":12256,"Ġsubdi":12257,"ĠlibertÃ©":12258,"GPM":12259,"Ã¡l":12260,"áĪµ":12261,"ĠtÃ©lÃ©charge":12262,"ĠvoÃ»":12263,"Ġinvest":12264,"Ġstatues":12265,"ĠstabilitÃ©":12266,"ĠOuas":12267,"Ġbougie":12268,"prÃ©tation":12269,"Ã©lectron":12270,"Ã©lectrom":12271,"intestin":12272,"ĠMontre":12273,"ĠMontpel":12274,"ĠImen":12275,"Ġvictor":12276,"ynamique":12277,"Ġbeaujolais":12278,"ĠSecret":12279,"ĠKarl":12280,"ĠmÃ©dias":12281,"ĠmÃ©diatis":12282,"ĠabrÃ©viatifs":12283,"ĠsolutÃ©":12284,"ĠPersonnage":12285,"ĠPersonnages":12286,"ÉĻz":12287,"Ġvenu":12288,"Ġbattu":12289,"ĠCommerce":12290,"ĠreÃ§oivent":12291,"ĠdÃ©cidÃ¨rent":12292,"Ġpromu":12293,"Ġpromesse":12294,"ĠprÃ©fet":12295,"ĠprÃ©fig":12296,"Ġpharaons":12297,"Ġcommercial":12298,"ĠJohnny":12299,"Ġtopiques":12300,"ĠfrÃ©quent":12301,"Ġ1901":12302,"Ġ1902":12303,"Ġ1909":12304,"1972":12305,"1974":12306,"1975":12307,"ĠexprimÃ©":12308,"ĠlibÃ©ralisme":12309,"Ġphilosophes":12310,"Ġphilosophique":12311,"502":12312,"Ġsortis":12313,"ĠfenÃªtre":12314,"ĠPerry":12315,"Ġinitialement":12316,"ĠÃ©glise":12317,"DATA":12318,"litt":12319,"oignant":12320,"Ġquantit":12321,"ĠquantitÃ©s":12322,"ĠCOM":12323,"ĠCertain":12324,"ĠFerdinand":12325,"1901":12326,"1907":12327,"Ġtraditions":12328,"ĠAnthrop":12329,"Ġ1882":12330,"Ġ1887":12331,"Ġ1891":12332,"Ġ1897":12333,"Ġ1898":12334,"Ġjoueurs":12335,"Ġconstruits":12336,"Chelonitis":12337,"edet":12338,"milla":12339,"Ġ91":12340,"Ġeut":12341,"ĠentitÃ©":12342,"Ġremont":12343,"Ġemploie":12344,"ĠMÃ©tier":12345,"ĠMÃ©dinet":12346,"ĠMusique":12347,"ĠHistoriquement":12348,"1965":12349,"1966":12350,"Ġagriculteurs":12351,"ĠEspace":12352,"ĠEsprits":12353,"achel":12354,"achat":12355,"Ġcataracte":12356,"Ġcatcheur":12357,"Ġauront":12358,"Ġauraient":12359,"Ġruines":12360,"Ġtempor":12361,"Ġprovin":12362,"igny":12363,"Ġarchitecture":12364,"1930":12365,"ĠconservÃ©":12366,"Ġmusicales":12367,"ĠfixÃ©":12368,"ĠfixÃ©es":12369,"ĠboÃ®":12370,"ĠEdward":12371,"ĠÃ©quations":12372,"ĠSup":12373,"Ġchoisie":12374,"Ġchoisissent":12375,"ĠBurmeister":12376,"Ġcampagnes":12377,"ĠintÃ©grÃ©s":12378,"1941":12379,"1948":12380,"Ġallait":12381,"Ġactuelle":12382,"ĠInternational":12383,"Ordre":12384,"currence":12385,"Ġirlandaise":12386,"Ġfourni":12387,"Ġfournissant":12388,"Ġenvah":12389,"ragon":12390,"ĠeuropÃ©ennes":12391,"Ġvivants":12392,"Ġmodifie":12393,"Ġmodifications":12394,"Ġ1835":12395,"ĠÃ©crits":12396,"ĠÃ©critures":12397,"ĠemployÃ©e":12398,"hoz":12399,"Ġvaste":12400,"Ġuniversitaire":12401,"ĠLiber":12402,"Ġbloc":12403,"Ġblue":12404,"Ġbyz":12405,"Ġbyzantin":12406,"ĠDocteur":12407,"Ġremplacement":12408,"ĠremplaÃ§ant":12409,"ĠSerge":12410,"ĠServi":12411,"ĠSerket":12412,"ĠSociety":12413,"ĠMoz":12414,"ĠValorise":12415,"ĠmÃ©tab":12416,"Ġadopte":12417,"ĠadoptÃ©e":12418,"positeurs":12419,"ĠautorisÃ©s":12420,"ĠpropriÃ©taire":12421,"ĠpropriÃ©taires":12422,"ĠMarcus":12423,"Ġprofessionnelles":12424,"izashi":12425,"Ã¶r":12426,"oureuse":12427,"Ġvocale":12428,"ĠCourant":12429,"ĠCourse":12430,"ĠCourami":12431,"ĠExpo":12432,"ĠExpression":12433,"terminaux":12434,"ĠGarage":12435,"ĠGaronne":12436,"ĠMinistÃ¨re":12437,"Ġseigneurs":12438,"ĠRomvong":12439,"nierie":12440,"ĠmÃ©thode":12441,"ĠmatÃ©rielle":12442,"ASP":12443,"avantage":12444,"cream":12445,"sÃ©mitique":12446,"ĠÅł":12447,"ĠÐ¯":12448,"ĠÐ½":12449,"Ġdonnera":12450,"Ġcritiques":12451,"Ġambigu":12452,"Ġmassique":12453,"Ġvendus":12454,"ĠPatrick":12455,"Ġaucune":12456,"ĠDouble":12457,"Ġ149":12458,"ĠBataille":12459,"ĠEntreprises":12460,"Ġreproduit":12461,"Ġreconstr":12462,"Ġmessages":12463,"ĠfrÃ©quences":12464,"IsÃ¨re":12465,"logramme":12466,"influence":12467,"Ġveille":12468,"ĠconÃ§us":12469,"ĠconÃ§ue":12470,"ĠSalmane":12471,"ĠBusiness":12472,"Ġfrancophone":12473,"ĠÃ©tranger":12474,"Ġsolides":12475,"Ġirakien":12476,"Ġconsacre":12477,"ĠconsacrÃ©e":12478,"Ġorganique":12479,"Ġorganiques":12480,"ĠrencontrÃ©es":12481,"europÃ©ens":12482,"ĠphytogÃ©nÃ©":12483,"Ġoriginal":12484,"Ġoriginale":12485,"ADN":12486,"bye":12487,"odiversitÃ©":12488,"saphes":12489,"Ġdonnant":12490,"Ġpolarisation":12491,"Ġpolonais":12492,"ĠvÃ©ritÃ©":12493,"ĠLabel":12494,"ĠbÃ¢timent":12495,"Ġcontribuant":12496,"Ġcontributions":12497,"ĠÃ©ditÃ©":12498,"ĠÃ©vite":12499,"ĠÃ©videmment":12500,"ĠrevÃª":12501,"ĠchrÃ©tien":12502,"ĠBerkeley":12503,"ĠMalgrÃ©":12504,"ĠJosephson":12505,"ĠOrigines":12506,"ĠrÃ©paration":12507,"ĠappliquÃ©e":12508,"ĠappliquÃ©s":12509,"autoroute":12510,"autorisation":12511,"Ġphotosyn":12512,"yonidae":12513,"anciennes":12514,"incertitude":12515,"Ġplacent":12516,"ĠPetit":12517,"ĠMatÃ©riel":12518,"ĠRojo":12519,"ĠrÃ©duite":12520,"ĠrÃ©daction":12521,"Ġdisparaissent":12522,"Ġcoordonner":12523,"ĠmÃ©canismes":12524,"Ġ1781":12525,"ĠÃ©tudier":12526,"ĠisolÃ©e":12527,"ĠpoussÃ©e":12528,"ĠampÃ¨remÃ¨tre":12529,"Ġpromotionnel":12530,"Ġtraditionnels":12531,"Ġtraditionnellement":12532,"ĠAstarte":12533,"Ġseptempunctata":12534,"ĠalgÃ©brique":12535,"compositeurs":12536,"tani":12537,"Ġlionne":12538,"Ã©chal":12539,"Ġvalide":12540,"ĠErnst":12541,"ĠTVH":12542,"ĠDomaine":12543,"ĠDomini":12544,"ĠDelphes":12545,"ĠÃ©vÃªque":12546,"ĠSpirits":12547,"ĠdÃ©truire":12548,"ĠdÃ©tail":12549,"ĠdÃ©tachÃ©es":12550,"ĠGÃ©ologie":12551,"Ġindustriel":12552,"Ġindustriels":12553,"othÃ¨se":12554,"ĠrÃ©serves":12555,"Ġoxyd":12556,"ĠprÃ©cise":12557,"Ġquelquefois":12558,"ĠkilomÃ¨tre":12559,"Ġkilogramme":12560,"Ġ1845":12561,"ĠimpÃ©riale":12562,"1848":12563,"1866":12564,"Ġcalligrammes":12565,"Ġcellule":12566,"Ġjugement":12567,"ĠcontrÃ´lÃ©e":12568,"ĠpÃ©trolier":12569,"Ġdisposent":12570,"Ġdisposant":12571,"ject":12572,"laration":12573,"Ġdynam":12574,"ĠAmedeo":12575,"ĠPCUS":12576,"ĠPlanck":12577,"ĠTaxon":12578,"ĠTito":12579,"ĠStudio":12580,"ĠSabre":12581,"ĠSabar":12582,"ĠRouge":12583,"ĠWeber":12584,"ĠForces":12585,"ĠFortification":12586,"Ġ1929":12587,"symboles":12588,"Ġanthropomor":12589,"Ġretrouvent":12590,"jusqu":12591,"prote":12592,"ulien":12593,"ysique":12594,"ÃŃa":12595,"Ġ})":12596,"Ġitalienne":12597,"ĠdensitomÃ¨tres":12598,"Ġpanier":12599,"Ġengend":12600,"ĠAttribut":12601,"ĠPalm":12602,"ĠÃ©voluÃ©e":12603,"ĠSimon":12604,"ĠSimone":12605,"Ġpositionnelle":12606,"ĠMacler":12607,"ĠMauritanie":12608,"ĠViÃªt":12609,"ĠrÃ©gna":12610,"ĠcompatibilitÃ©":12611,"Ġexistence":12612,"Ġextradition":12613,"ĠcarÃ©liens":12614,"Ġradios":12615,"ĠminoritÃ©":12616,"Ġ1805":12617,"ĠclassÃ©s":12618,"ĠattestÃ©e":12619,"Ġabsolu":12620,"appartiennent":12621,"Ġindividus":12622,"Ġmagasin":12623,"ĠpÃ©ruvi":12624,"ĠpÃ©rennitÃ©":12625,"Ġfoyers":12626,"Ġennemis":12627,"ĠLimoges":12628,"Ġberfroi":12629,"ĠApplications":12630,"rogation":12631,"Ġconvert":12632,"attaque":12633,"ĠÃ©voque":12634,"ĠSmash":12635,"ĠSmith":12636,"ĠSavoie":12637,"ĠBorlaug":12638,"ĠGrDF":12639,"ĠGods":12640,"ĠRadio":12641,"ĠRoland":12642,"ĠWhite":12643,"ĠcoÃ»ts":12644,"occupation":12645,"ĠÃ©tendu":12646,"ĠÃ©tendues":12647,"ĠAngoulÃªme":12648,"ĠinterprÃ©tÃ©":12649,"ĠmarchÃ©s":12650,"Ġ1868":12651,"ĠsecrÃ©tariat":12652,"ĠattribuÃ©":12653,"Ġpersonnifie":12654,"Ġsportif":12655,"Ġsportive":12656,"ĠColombie":12657,"ĠNebethetepet":12658,"ĠÃ©lectrotechnique":12659,"Ġlocuteurs":12660,"ĠXXIe":12661,"ĠpossibilitÃ©":12662,"ĠPhilÃ¦":12663,"ultanÃ©ment":12664,"ĠclientÃ¨le":12665,"ĠrattachÃ©e":12666,"Ġdisponible":12667,"Ġmasculins":12668,"ĠÃ©thiopiennes":12669,"Beaufort":12670,"Beaujolais":12671,"gentin":12672,"molaire":12673,"Ġsatisfait":12674,"Ġmortel":12675,"omotive":12676,"Ġquitter":12677,"Ġquotidienne":12678,"Ġenceintes":12679,"Ġenglob":12680,"Ġenglobe":12681,"ĠCoptos":12682,"ĠPlongÃ©e":12683,"ĠSigle":12684,"Ġchronologie":12685,"Ġchronologique":12686,"ĠdÃ©montre":12687,"ĠMakino":12688,"ĠhypothÃ©":12689,"ĠNorman":12690,"ĠNormand":12691,"ĠReligion":12692,"Ġprovenance":12693,"ĠWeise":12694,"ĠWeinberg":12695,"ĠFonctions":12696,"ights":12697,"ĠprÃ©parÃ©e":12698,"ĠalphabÃ©tique":12699,"Ġalphabets":12700,"tended":12701,"Ã©gyptologue":12702,"Ġespagnol":12703,"Ġespagnole":12704,"Ġexemplaires":12705,"Ġalimentaire":12706,"Ġ1779":12707,"ĠfÃ©odale":12708,"Ġconfirme":12709,"ĠpratiquÃ©e":12710,"Ġshannons":12711,"Ġarchitectural":12712,"Ġseigneuriaux":12713,"ĠhiÃ©roglyphes":12714,"ĠfortifiÃ©e":12715,"ĠdifficultÃ©s":12716,"Ġphytopharmaceutique":12717,"blÃ©es":12718,"ĠpesÃ©e":12719,"organismes":12720,"Ġfluoresc":12721,"ĠLyonnais":12722,"ĠCrÃ©ature":12723,"ĠCosta":12724,"ĠCivilization":12725,"Ġgallo":12726,"rimerie":12727,"ĠElectronics":12728,"ĠDenis":12729,"ĠÃ©missions":12730,"Ġremarqu":12731,"ĠBelleville":12732,"rÃ©gation":12733,"ĠGaule":12734,"ĠMesure":12735,"ĠMoscou":12736,"ĠrÃ©unie":12737,"Ġmonarchie":12738,"âĶ´âĶĢâĶĢâĶĢâĶĢâĶĢâĶĢ":12739,"ĠacceptÃ©e":12740,"ĠacadÃ©miques":12741,"Ġspatial":12742,"Ġspatiale":12743,"Ġsuccessives":12744,"Ġpolicier":12745,"ĠpoliciÃ¨re":12746,"ĠfÃ©dÃ©rÃ©s":12747,"Ġsyntaxe":12748,"Ġvolontaire":12749,"Ġsubstance":12750,"Ġsubstances":12751,"ĠKhenty":12752,"ĠaugmentÃ©e":12753,"ĠPrincipes":12754,"ĠPrincipaux":12755,"ĠfunÃ©raire":12756,"ĠfunÃ©raires":12757,"Ġindividuels":12758,"Ġdangereux":12759,"Herrich":12760,"MMYT":12761,"Schaeffer":12762,"bourne":12763,"frÃ¨re":12764,"houhua":12765,"tolÃ©m":12766,"Ġdancehall":12767,"Ġlunaire":12768,"ĠpondÃ©ration":12769,"Ġcatholique":12770,"ĠschÃ©ma":12771,"initiative":12772,"omÃ©trie":12773,"ĠvÃ©nÃ©rÃ©e":12774,"Ġendroit":12775,"ĠenterrÃ©":12776,"ĠLover":12777,"ĠLinguistique":12778,"Ġbrevet":12779,"ĠCuba":12780,"ĠConcentration":12781,"ĠCongo":12782,"ĠPortugais":12783,"ĠPythagore":12784,"Ġparoisse":12785,"ĠEssai":12786,"Ġconnecter":12787,"ĠDodd":12788,"ĠSanta":12789,"ĠSokaris":12790,"ĠSnow":12791,"ĠsimultanÃ©ment":12792,"ĠBilbao":12793,"ĠdÃ©chiffrement":12794,"ĠdÃ©roulant":12795,"ĠMittani":12796,"ĠMilitaire":12797,"ĠItalie":12798,"Ġinnov":12799,"ĠintitulÃ©":12800,"ĠindonÃ©sienne":12801,"ĠVincent":12802,"ĠRodriguez":12803,"ĠrÃ©volutionnaire":12804,"ĠprospÃ¨re":12805,"ĠprÃªtres":12806,"ĠChentayt":12807,"Ġcarnassi":12808,"Ġcardinal":12809,"Ġraisons":12810,"Ġkanjis":12811,"ĠiPad":12812,"Ġmartini":12813,"akhty":12814,"Ġcassette":12815,"Ġcultivar":12816,"Ġgarantit":12817,"Ġproportionnelle":12818,"Ġmanuscrits":12819,"Ġ1761":12820,"ĠThermoprote":12821,"Ġgouverneur":12822,"ĠrÃ©publicaine":12823,"ĠContinuity":12824,"Ġcadmium":12825,"Ġcirconscriptions":12826,"Ġfabrication":12827,"ĠConstantes":12828,"Ġmajoritairement":12829,"ĠthÃ©baine":12830,"instrumental":12831,"Ġresponsable":12832,"Ġvirgule":12833,"convÃ©nients":12834,"ĠHalobacteriales":12835,"Finnois":12836,"Lucas":12837,"OACI":12838,"Official":12839,"categorie":12840,"franÃ§ais":12841,"Ġouraliennes":12842,"Ġottoman":12843,"Ġdestruction":12844,"Ġpilote":12845,"Ġsaints":12846,"Ġsculpture":12847,"ĠtrÃ©sor":12848,"Ġquartz":12849,"assemblage":12850,"Ġbretes":12851,"ĠblindÃ©s":12852,"ĠCodrington":12853,"ĠArabia":12854,"Ã¨gre":12855,"ĠgagnÃ©s":12856,"ĠPHP":12857,"ĠPinni":12858,"ĠPowered":12859,"Ġpartenariat":12860,"ĠparallÃ©logramme":12861,"ĠTaylor":12862,"ĠTools":12863,"ĠDernier":12864,"ĠDamaged":12865,"ĠDigital":12866,"ĠDiffÃ©r":12867,"ĠÃ©quipements":12868,"ĠBeffroi":12869,"ĠdÃ©roule":12870,"ĠMuromachi":12871,"Ġhorizont":12872,"ĠNatation":12873,"ĠHTTP":12874,"ĠHÃ¢pi":12875,"abrÃ©ger":12876,"ĠFontaine":12877,"Ġcofondateur":12878,"ocÃ©an":12879,"Ġcompositeur":12880,"Ġcommissaire":12881,"Ġextensions":12882,"Ġargument":12883,"ĠprÃ©alable":12884,"ĠprÃ©fixe":12885,"ĠprÃ©occupations":12886,"ĠEngineering":12887,"Ġappareils":12888,"ĠKÃ©behs":12889,"ĠKhargeh":12890,"Ġimaginaire":12891,"Ġcommuniquer":12892,"Ġacquiert":12893,"ĠpermÃ©abilitÃ©":12894,"adoption":12895,"Ġcoulomb":12896,"introduction":12897,"allÃ¨lement":12898,"ĠDevÃ¨ze":12899,"ĠAmÃ©rica":12900,"Ġtransversogut":12901,"ĠrÃ©gÃ©nÃ©ration":12902,"exÃ©cution":12903,"ĠbrÃ»l":12904,"Ġmicroscopie":12905,"oxydation":12906,"Ġincorpor":12907,"Ġ\"(\"":12908,"Ġ\")\"":12909,"ĠsalariÃ©s":12910,"Ġchimiotrophes":12911,"ĠscÃ©nario":12912,"ĠmolÃ©cules":12913,"Ġcanadien":12914,"Ġcombinaisons":12915,"Ġelliptiques":12916,"ĠpÃ©riphÃ©riques":12917,"ĠTefnout":12918,"áĪ³áī":12919,"ĠOupouaout":12920,"ĠAutoroute":12921,"ĠUniversity":12922,"Ġembryologiste":12923,"Ġphytosanitaires":12924,"Ġsuspendu":12925,"Ġhabituellement":12926,"ĠchorÃ©graphies":12927,"Ġindispensable":12928,"ĠrÃ©guliÃ¨rement":12929,"Ġmanifestation":12930,"Ġinterlocuteurs":12931,"Ġtrifasciata":12932,"Aquitaine":12933,"Agriculture":12934,"CicÃ©ron":12935,"Garonne":12936,"Hautpoul":12937,"Iwate":12938,"ZÃ©lande":12939,"boxing":12940,"fertoum":12941,"poids":12942,"qqarah":12943,"rarouge":12944,"sterdam":12945,"stÃ©matique":12946,"totalitÃ©":12947,"yrÃ©nÃ©es":12948,"×ĳ×":12949,"å·ŀè¯Ŀ":12950,"ĠpÃ¨ler":12951,"Ġpallens":12952,"Ġpurification":12953,"ĠsensibilitÃ©":12954,"Ġsphinx":12955,"ĠamÃ©li":12956,"ĠaÃ©roports":12957,"ĠajustÃ©":12958,"infinitif":12959,"ĠmÃ¥ne":12960,"orhodopsine":12961,"Ġturc":12962,"Ġventralis":12963,"ĠnuclÃ©":12964,"ĠLudw":12965,"ĠLarousse":12966,"ĠConnectique":12967,"ĠCoteaux":12968,"ĠCrÃ©sus":12969,"ĠrÃªve":12970,"Ġriddim":12971,"Ġrastas":12972,"ĠAmpÃ¨re":12973,"ĠAmÃ©nophis":12974,"ĠAMPL":12975,"Ġplumes":12976,"ĠPensÃ©es":12977,"ĠEugÃ¨ne":12978,"ĠDirac":12979,"ĠÃ©phÃ©mÃ¨re":12980,"ĠÃ©poques":12981,"ĠSparkle":12982,"ĠScipion":12983,"ĠSÃ©ga":12984,"ĠSorbonne":12985,"ĠSobek":12986,"acquisition":12987,"ĠBronxville":12988,"ĠGÃ©nÃ©alogie":12989,"ĠMongolie":12990,"ĠIousaas":12991,"ĠintÃ©ress":12992,"otympanique":12993,"ĠVariantes":12994,"ĠJersey":12995,"ĠOctavien":12996,"ĠOuseret":12997,"Ġhierogly":12998,"ppopotame":12999,"ĠRico":13000,"ĠRoutledge":13001,"ĠRiesz":13002,"ĠRugby":13003,"amÃ©ricaine":13004,"ĠrÃ©ussit":13005,"ĠHonshÅ«":13006,"ĠHistory":13007,"ĠHannah":13008,"ĠHachette":13009,"ĠFiraxis":13010,"Ġdistrict":13011,"ĠLezginka":13012,"Ġcovid":13013,"Ġcochenilles":13014,"ĠsaÃ¯te":13015,"Ġtutoriel":13016,"ĠIllustrations":13017,"ĠChiyoda":13018,"ĠprÃ©parer":13019,"ĠprÃ©curseur":13020,"ĠsuprÃªme":13021,"ĠKarelian":13022,"ĠKlitzing":13023,"institut":13024,"ĠÃīcrivain":13025,"opÃ©rateur":13026,"Ġquelconque":13027,"ĠforcÃ©ment":13028,"ĠArthur":13029,"Ġaccessibles":13030,"ĠInventaire":13031,"Ġterrorisme":13032,"ĠcollÃ¨gue":13033,"hÃ©gÃ©monie":13034,"Ġcorruption":13035,"exclamation":13036,"Ġfichiers":13037,"Ġliquides":13038,"ĠYÃ©men":13039,"Ġlogarithme":13040,"Ġcrocodile":13041,"archipel":13042,"intermÃ©diaire":13043,"ĠAbdelaziz":13044,"ĠecclÃ©si":13045,"ĠDÃ©veloppement":13046,"ĠOrchestra":13047,"ĠMontpellier":13048,"ĠphytogÃ©nÃ©tiques":13049,"ĠWeinberger":13050,"ĠKÃ©behsÃ©nouf":13051,"Ġtransversoguttata":13052,"Ġhieroglyphica":13053,"\".":13054,"\").":13055,"\"}\"":13056,"')":13057,"'-":13058,"').":13059,"))":13060,");":13061,")âĢ¦":13062,"+)":13063,"++":13064,"-,":13065,"24":13066,"323":13067,"394":13068,"43":13069,"44":13070,"4000":13071,"410":13072,"431":13073,"498":13074,"52":13075,"510":13076,"82":13077,"85":13078,"88":13079,"89":13080,"826":13081,"90":13082,"97":13083,">\"}\"":13084,"AB":13085,"AE":13086,"AT":13087,"AV":13088,"AX":13089,"Ak":13090,"Ay":13091,"Aun":13092,"Ame":13093,"Aut":13094,"Ass":13095,"Amer":13096,"Aval":13097,"Aker":13098,"AES":13099,"AmÃ©n":13100,"Ahm":13101,"Asir":13102,"BE":13103,"Bal":13104,"Bonn":13105,"Bef":13106,"CC":13107,"CD":13108,"Con":13109,"Col":13110,"Cont":13111,"Cla":13112,"CCI":13113,"CSI":13114,"Clau":13115,"CES":13116,"CSP":13117,"Cook":13118,"Califor":13119,"CGPM":13120,"DD":13121,"DK":13122,"DS":13123,"Des":13124,"Dou":13125,"Dar":13126,"Dire":13127,"Danse":13128,"Dordogne":13129,"Dyer":13130,"Doron":13131,"EA":13132,"ED":13133,"EX":13134,"Ed":13135,"Empl":13136,"Electron":13137,"Fi":13138,"Fer":13139,"Far":13140,"FUL":13141,"FallÃ©":13142,"GM":13143,"Ger":13144,"Geb":13145,"Homme":13146,"HÃ©ra":13147,"Histoire":13148,"Hagar":13149,"Hamming":13150,"IR":13151,"Ir":13152,"Iv":13153,"Iliade":13154,"Jer":13155,"Jam":13156,"Julien":13157,"Kh":13158,"Knig":13159,"Kaou":13160,"LA":13161,"Ly":13162,"LAC":13163,"MÃ©":13164,"Mer":13165,"Mont":13166,"Mich":13167,"MÃ©d":13168,"NA":13169,"NU":13170,"NX":13171,"Ne":13172,"Ny":13173,"Nap":13174,"NPS":13175,"OJ":13176,"Oh":13177,"Ode":13178,"OcÃ©":13179,"Oxford":13180,"PT":13181,"PV":13182,"Pr":13183,"Par":13184,"Pelle":13185,"Pall":13186,"PDA":13187,"Plex":13188,"PomÃ©":13189,"Puton":13190,"RC":13191,"RT":13192,"Rht":13193,"Reuter":13194,"Rouge":13195,"SM":13196,"Sa":13197,"Ser":13198,"Sab":13199,"Say":13200,"Sud":13201,"Sok":13202,"SÃ©v":13203,"Smells":13204,"SQL":13205,"Squad":13206,"TT":13207,"Tan":13208,"Tur":13209,"Tour":13210,"Tro":13211,"Thom":13212,"Tef":13213,"TIS":13214,"UW":13215,"Uz":13216,"Uss":13217,"Utilis":13218,"UNIX":13219,"Val":13220,"WK":13221,"Weil":13222,"Washington":13223,"XO":13224,"aw":13225,"aqu":13226,"ael":13227,"aments":13228,"aÃ©ro":13229,"bn":13230,"br":13231,"ban":13232,"bus":13233,"bra":13234,"bau":13235,"bli":13236,"bro":13237,"bait":13238,"bale":13239,"bonne":13240,"bote":13241,"bass":13242,"btis":13243,"bÃ¤":13244,"balle":13245,"base":13246,"beaux":13247,"bastis":13248,"bold":13249,"baÃ¯d":13250,"cel":13251,"cat":13252,"cation":13253,"coc":13254,"ctre":13255,"cum":13256,"cÃ©s":13257,"clo":13258,"cÃ¨res":13259,"catif":13260,"cographie":13261,"comp":13262,"coun":13263,"ctivitÃ©":13264,"cosse":13265,"cÃŃa":13266,"cCook":13267,"det":13268,"dine":13269,"dage":13270,"dder":13271,"dins":13272,"dad":13273,"dob":13274,"dotes":13275,"dures":13276,"dare":13277,"dler":13278,"dateur":13279,"duite":13280,"djou":13281,"durÃ©e":13282,"drome":13283,"eo":13284,"ement":13285,"ead":13286,"fon":13287,"fais":13288,"frou":13289,"fare":13290,"fane":13291,"fox":13292,"fils":13293,"foot":13294,"fana":13295,"fly":13296,"famille":13297,"gh":13298,"gor":13299,"gale":13300,"gend":13301,"gens":13302,"gir":13303,"gard":13304,"god":13305,"gations":13306,"gaÃ¯":13307,"groupe":13308,"glu":13309,"gÃ©rie":13310,"ggae":13311,"graphie":13312,"garita":13313,"gdoade":13314,"glementation":13315,"hy":13316,"hin":13317,"hro":13318,"hans":13319,"hat":13320,"hÃ¨re":13321,"hay":13322,"hyp":13323,"hite":13324,"hension":13325,"hmer":13326,"hren":13327,"hume":13328,"hini":13329,"hommage":13330,"hilo":13331,"hythm":13332,"ius":13333,"iche":13334,"iÃ©e":13335,"idÃ©":13336,"iales":13337,"itif":13338,"iode":13339,"ichi":13340,"iki":13341,"iidae":13342,"imos":13343,"jer":13344,"jeu":13345,"jmen":13346,"kin":13347,"kai":13348,"kine":13349,"kous":13350,"kir":13351,"kub":13352,"kke":13353,"kok":13354,"kva":13355,"kaga":13356,"kheb":13357,"kkun":13358,"kido":13359,"lag":13360,"lage":13361,"lvi":13362,"los":13363,"last":13364,"lara":13365,"lamb":13366,"mun":13367,"mour":13368,"mine":13369,"mot":13370,"mitÃ©s":13371,"myth":13372,"mense":13373,"mart":13374,"march":13375,"multi":13376,"maison":13377,"mach":13378,"mical":13379,"nd":13380,"np":13381,"nan":13382,"nac":13383,"nge":13384,"niste":13385,"nord":13386,"ning":13387,"naine":13388,"naines":13389,"nkh":13390,"nastique":13391,"nologue":13392,"nÃ¶":13393,"nÃ¡l":13394,"oint":13395,"ovo":13396,"ova":13397,"ojn":13398,"opard":13399,"py":13400,"pan":13401,"pre":13402,"pas":13403,"pres":13404,"pot":13405,"pos":13406,"prop":13407,"pris":13408,"pateurs":13409,"pital":13410,"pensi":13411,"qa":13412,"rs":13413,"rlig":13414,"romp":13415,"rasse":13416,"rÃ¨ne":13417,"rÃ¨te":13418,"rina":13419,"rouvÃ©":13420,"sw":13421,"spe":13422,"sore":13423,"sud":13424,"ska":13425,"stern":13426,"selon":13427,"tn":13428,"tus":13429,"tois":13430,"tats":13431,"tendant":13432,"tante":13433,"tographie":13434,"tateur":13435,"tologiste":13436,"tÃ¶":13437,"tarc":13438,"tario":13439,"taneb":13440,"uon":13441,"uch":13442,"uter":13443,"uche":13444,"uitÃ©":13445,"uette":13446,"uenne":13447,"udes":13448,"uettes":13449,"vit":13450,"vol":13451,"vine":13452,"vois":13453,"vure":13454,"vance":13455,"vince":13456,"vod":13457,"vrit":13458,"vaille":13459,"vÃ¨rent":13460,"vÃ¡":13461,"vÃ¨ge":13462,"vallÃ©e":13463,"vroptÃ¨res":13464,"wy":13465,"wasa":13466,"xt":13467,"xin":13468,"ye":13469,"yu":13470,"yas":13471,"yotes":13472,"yclus":13473,"yama":13474,"ylÃ¨ne":13475,"za":13476,"zo":13477,"zen":13478,"zoi":13479,"zig":13480,"zÃ©g":13481,"zier":13482,"zuel":13483,"zango":13484,"zhouhua":13485,"¡n":13486,"¥áĪ³áī":13487,"§a":13488,"«l":13489,"±Ð¸":13490,"²Ðµ":13491,"´Î":13492,"´Ð¾Ð":13493,"·Ð°":13494,"¸¥":13495,"¸Ð":13496,"¼Ī":13497,"½®":13498,"¾u":13499,"¿Ï":13500,"Â°":13501,"Â·":13502,"Ã±":13503,"ÃĬ":13504,"Ã¾u":13505,"Äī":13506,"Äĵ":13507,"Å¾":13508,"Ê¿":13509,"Ëģ":13510,"Ì¯":13511,"Îµ":13512,"Î¸":13513,"Î¿Ï":13514,"Ðº":13515,"Ð¿":13516,"Ñı":13517,"Õ¡":13518,"ÖĢ":13519,"×ª":13520,"à¯":13521,"âĦ":13522,"âĭ":13523,"ãĢ":13524,"æ½®":13525,"éĽ":13526,"Ġit":13527,"Ġol":13528,"Ġog":13529,"Ġion":13530,"Ġub":13531,"Ġerg":13532,"Ġentra":13533,"ĠÉĻ":13534,"Ġä¸":13535,"Ġero":13536,"Ġà®":13537,"ĠÑĢ":13538,"ĠÏģ":13539,"Ġ×Ķ":13540,"Īre":13541,"Įáī":13542,"İáī":13543,"Ĳáĭ":13544,"ķĳ":13545,"ĺáĪ":13546,"ĻáĬ":13547,"Ļ×ª":13548,"esar":13549,"estion":13550,"ester":13551,"Ġdra":13552,"Ġdie":13553,"Ġdose":13554,"Ġdjou":13555,"ĠdÃ¤n":13556,"ĠlÃ©":13557,"Ġlues":13558,"Ġliens":13559,"Ġlanc":13560,"enou":13561,"ention":13562,"enos":13563,"entique":13564,"enaires":13565,"enland":13566,"enÃªtre":13567,"enidae":13568,"onas":13569,"onel":13570,"onale":13571,"onge":13572,"onod":13573,"onologie":13574,"Ã©it":13575,"Ã©ter":13576,"Ã©ens":13577,"Ã©os":13578,"Ã©dÃ©":13579,"Ã©enne":13580,"Ã©min":13581,"Ã©quent":13582,"Ã©mission":13583,"Ã©lar":13584,"Ã©mettre":13585,"Ã©loc":13586,"Ã©cipiendaire":13587,"Ã©chec":13588,"Ã©nierie":13589,"Ġpp":13590,"Ġpis":13591,"Ġpans":13592,"Ġpend":13593,"Ġpati":13594,"Ġpaire":13595,"Ġpic":13596,"Ġpair":13597,"Ġpah":13598,"Ġpaille":13599,"Ġpense":13600,"Ġpiles":13601,"ĠpÃ´le":13602,"Ġpagin":13603,"Ġpaci":13604,"ĠptolÃ©m":13605,"Ġcau":13606,"Ġcens":13607,"Ġcage":13608,"ĠclÃ©":13609,"ĠcitÃ©s":13610,"Ġcyl":13611,"Ġcuite":13612,"Ġcouvre":13613,"Ġcrain":13614,"ĠcensÃ©":13615,"Ġcroix":13616,"Ġsun":13617,"Ġsit":13618,"Ġsam":13619,"Ġshe":13620,"Ġscri":13621,"Ġski":13622,"Ġsistre":13623,"Ġsaison":13624,"ĠsÉĻ":13625,"Ġsarc":13626,"Ġsceptre":13627,"Ġsmart":13628,"any":13629,"anne":13630,"anat":13631,"anter":13632,"anche":13633,"anote":13634,"anarch":13635,"ania":13636,"anniques":13637,"anfare":13638,"ouen":13639,"outes":13640,"oupe":13641,"outre":13642,"ouni":13643,"oucher":13644,"ouze":13645,"outit":13646,"ouket":13647,"ouya":13648,"qua":13649,"quil":13650,"quage":13651,"quoy":13652,"quins":13653,"quÃ©ri":13654,"quences":13655,"quenn":13656,"reg":13657,"rei":13658,"retÃ©":13659,"ream":13660,"rection":13661,"ish":13662,"istÃ©":13663,"isÃ©e":13664,"isques":13665,"ision":13666,"islam":13667,"istÃ©ri":13668,"ismatique":13669,"ted":13670,"tef":13671,"tech":13672,"teenth":13673,"Ġale":13674,"Ġample":13675,"Ġajour":13676,"Ġampl":13677,"Ġaient":13678,"Ġarab":13679,"Ġaustra":13680,"Ġdette":13681,"times":13682,"timis":13683,"tivision":13684,"leb":13685,"leure":13686,"lements":13687,"leik":13688,"ink":13689,"inal":13690,"inde":13691,"intÃ©":13692,"inique":13693,"incip":13694,"inae":13695,"inages":13696,"inner":13697,"intÃ©g":13698,"incit":13699,"inopolis":13700,"inconvÃ©ni":13701,"inondation":13702,"eral":13703,"erge":13704,"erens":13705,"eries":13706,"Ġmm":13707,"Ġment":13708,"Ġmour":13709,"Ġmac":13710,"Ġmine":13711,"Ġmers":13712,"Ġmir":13713,"Ġmaires":13714,"Ġmori":13715,"Ġmys":13716,"ĠmÃ¨tre":13717,"Ġmutu":13718,"Ġmuon":13719,"enty":13720,"entri":13721,"entley":13722,"unis":13723,"unte":13724,"unet":13725,"unst":13726,"unesse":13727,"unberg":13728,"ett":13729,"etage":13730,"etaton":13731,"arh":13732,"arn":13733,"aru":13734,"arist":13735,"artier":13736,"armer":13737,"arriv":13738,"arriÃ¨re":13739,"arrÃª":13740,"artille":13741,"arrosage":13742,"Ġlexic":13743,"Ġleader":13744,"orp":13745,"orim":13746,"orph":13747,"ornes":13748,"orig":13749,"ornis":13750,"orgÃ©":13751,"ornien":13752,"Ġlame":13753,"Ġlames":13754,"Ġlaps":13755,"Ġlatrines":13756,"omiste":13757,"omique":13758,"ompe":13759,"ompeur":13760,"omho":13761,"omitant":13762,"omphe":13763,"Ġtran":13764,"Ġtam":13765,"Ġtang":13766,"Ġtiss":13767,"Ġtoit":13768,"Ġtah":13769,"ĠtÃ©n":13770,"Ġtenter":13771,"ĠthÃ©mati":13772,"Ġtennis":13773,"Ġtome":13774,"Ġtsu":13775,"ĠtÃªtes":13776,"Ġquelle":13777,"Ġquali":13778,"ĠquÃ©b":13779,"Ġquantique":13780,"urf":13781,"urn":13782,"uro":13783,"urai":13784,"uries":13785,"urgie":13786,"urasi":13787,"uroda":13788,"urling":13789,"urism":13790,"uriges":13791,"Ġfau":13792,"Ġfins":13793,"Ġfard":13794,"Ġflan":13795,"Ġfall":13796,"ĠfÃ©c":13797,"Ġfenn":13798,"Ġfav":13799,"ĠflÃ¨":13800,"Ġfric":13801,"Ġfasse":13802,"Ġfox":13803,"Ġfoss":13804,"Ġfatal":13805,"Ġfossi":13806,"Ġfirent":13807,"Ġfanfare":13808,"ito":13809,"itt":13810,"itations":13811,"itken":13812,"Ġvog":13813,"Ġvap":13814,"ĠvÃª":13815,"Ġvotes":13816,"Ġvues":13817,"Ġventes":13818,"user":13819,"usations":13820,"usone":13821,"uscules":13822,"ouris":13823,"estÃ©":13824,"estonien":13825,"ases":13826,"ason":13827,"assemble":13828,"asion":13829,"aston":13830,"asions":13831,"aspect":13832,"astÃ©roÃ¯de":13833,"astrich":13834,"ilh":13835,"ilien":13836,"illa":13837,"illo":13838,"Ġenvis":13839,"ĠennÃ©ade":13840,"Ġdesert":13841,"Ġnu":13842,"Ġnait":13843,"Ġnine":13844,"Ġnoc":13845,"Ġnut":13846,"ĠnÃ©s":13847,"Ġnoire":13848,"Ġnette":13849,"Ġnub":13850,"Ġnaines":13851,"ĠnÃ©c":13852,"Ġnappe":13853,"rac":13854,"rav":13855,"rament":13856,"raction":13857,"rations":13858,"melle":13859,"metiÃ¨re":13860,"elÃ©":13861,"else":13862,"eland":13863,"elang":13864,"elÃ©s":13865,"elins":13866,"eling":13867,"elani":13868,"ĠLis":13869,"ĠLer":13870,"ĠLie":13871,"ĠLeu":13872,"ĠLoc":13873,"ĠLÃ©g":13874,"ĠLane":13875,"ĠLyd":13876,"ĠLyn":13877,"ĠLulu":13878,"ĠLerma":13879,"ĠLÃ¤n":13880,"ĠLCR":13881,"ĠLED":13882,"alk":13883,"alo":13884,"alit":13885,"alot":13886,"alib":13887,"alonn":13888,"allier":13889,"allemand":13890,"alphab":13891,"altitude":13892,"alpha":13893,"alcool":13894,"ĠÃ¤":13895,"ĠÃ§a":13896,"Ġbant":13897,"Ġbro":13898,"Ġbol":13899,"Ġbelle":13900,"Ġbig":13901,"Ġbaz":13902,"Ġbint":13903,"Ġbak":13904,"Ġbris":13905,"Ġbeur":13906,"Ġbibli":13907,"ĠbÃªte":13908,"Ġboli":13909,"Ġbillet":13910,"ĠbÃ«":13911,"Ġbagar":13912,"ĠbÉĻz":13913,"Ġbachel":13914,"Ġbornes":13915,"ieuses":13916,"auti":13917,"aule":13918,"autions":13919,"aujourd":13920,"ĠCE":13921,"ĠCau":13922,"ĠCuis":13923,"ĠCord":13924,"ĠCir":13925,"ĠCib":13926,"ĠComb":13927,"ĠCare":13928,"ĠClu":13929,"ĠCCI":13930,"ĠCult":13931,"ĠCours":13932,"ĠCliÃ©":13933,"ĠCurrent":13934,"ĠCovi":13935,"ĠCAC":13936,"ĠCook":13937,"ĠClare":13938,"ĠCGI":13939,"ĠcomÃ©":13940,"ĠcomitÃ©":13941,"Ġcommo":13942,"Ġcommodore":13943,"mentaire":13944,"mentaires":13945,"Ġruis":13946,"Ġrub":13947,"Ġrues":13948,"Ġrhum":13949,"Ġrume":13950,"Ġrassemble":13951,"ĠAD":13952,"ĠAL":13953,"ĠAk":13954,"ĠAw":13955,"ĠAin":13956,"ĠAar":13957,"ĠAch":13958,"ĠAran":13959,"ĠAim":13960,"ĠAph":13961,"ĠAmb":13962,"ĠAyant":13963,"ĠAÃ©ro":13964,"ĠActrice":13965,"ĠAlex":13966,"ĠAires":13967,"ĠAzer":13968,"ĠAUC":13969,"ĠAFUL":13970,"ĠAWK":13971,"ĠAitken":13972,"antation":13973,"antÃ´me":13974,"anthro":13975,"Ġ('":13976,"Ġ(,":13977,"Ġ(...)":13978,"cevoir":13979,"cha":13980,"chot":13981,"chni":13982,"chig":13983,"chard":13984,"change":13985,"lien":13986,"lire":13987,"liage":13988,"lict":13989,
[...]
